const unsigned char model_data[] = {

  0x1c, 0x00, 0x00, 0x00, 0x54, 0x46, 0x4c, 0x33, 0x14, 0x00, 0x20, 0x00, 
  0x1c, 0x00, 0x18, 0x00, 0x14, 0x00, 0x10, 0x00, 0x0c, 0x00, 0x00, 0x00, 
  0x08, 0x00, 0x04, 0x00, 0x14, 0x00, 0x00, 0x00, 0x1c, 0x00, 0x00, 0x00, 
  0x98, 0x00, 0x00, 0x00, 0x18, 0x01, 0x00, 0x00, 0xb0, 0x23, 0x00, 0x00, 
  0xc0, 0x23, 0x00, 0x00, 0x80, 0x43, 0x00, 0x00, 0x03, 0x00, 0x00, 0x00, 
  0x01, 0x00, 0x00, 0x00, 0x10, 0x00, 0x00, 0x00, 0x00, 0x00, 0x0a, 0x00, 
  0x10, 0x00, 0x0c, 0x00, 0x08, 0x00, 0x04, 0x00, 0x0a, 0x00, 0x00, 0x00, 
  0x0c, 0x00, 0x00, 0x00, 0x1c, 0x00, 0x00, 0x00, 0x3c, 0x00, 0x00, 0x00, 
  0x0f, 0x00, 0x00, 0x00, 0x73, 0x65, 0x72, 0x76, 0x69, 0x6e, 0x67, 0x5f, 
  0x64, 0x65, 0x66, 0x61, 0x75, 0x6c, 0x74, 0x00, 0x01, 0x00, 0x00, 0x00, 
  0x04, 0x00, 0x00, 0x00, 0x68, 0xff, 0xff, 0xff, 0x0f, 0x00, 0x00, 0x00, 
  0x04, 0x00, 0x00, 0x00, 0x08, 0x00, 0x00, 0x00, 0x6f, 0x75, 0x74, 0x70, 
  0x75, 0x74, 0x5f, 0x30, 0x00, 0x00, 0x00, 0x00, 0x01, 0x00, 0x00, 0x00, 
  0x04, 0x00, 0x00, 0x00, 0x3e, 0xdc, 0xff, 0xff, 0x04, 0x00, 0x00, 0x00, 
  0x0c, 0x00, 0x00, 0x00, 0x6b, 0x65, 0x72, 0x61, 0x73, 0x5f, 0x74, 0x65, 
  0x6e, 0x73, 0x6f, 0x72, 0x00, 0x00, 0x00, 0x00, 0x03, 0x00, 0x00, 0x00, 
  0x5c, 0x00, 0x00, 0x00, 0x2c, 0x00, 0x00, 0x00, 0x04, 0x00, 0x00, 0x00, 
  0xb8, 0xff, 0xff, 0xff, 0x13, 0x00, 0x00, 0x00, 0x04, 0x00, 0x00, 0x00, 
  0x13, 0x00, 0x00, 0x00, 0x43, 0x4f, 0x4e, 0x56, 0x45, 0x52, 0x53, 0x49, 
  0x4f, 0x4e, 0x5f, 0x4d, 0x45, 0x54, 0x41, 0x44, 0x41, 0x54, 0x41, 0x00, 
  0xdc, 0xff, 0xff, 0xff, 0x12, 0x00, 0x00, 0x00, 0x04, 0x00, 0x00, 0x00, 
  0x13, 0x00, 0x00, 0x00, 0x6d, 0x69, 0x6e, 0x5f, 0x72, 0x75, 0x6e, 0x74, 
  0x69, 0x6d, 0x65, 0x5f, 0x76, 0x65, 0x72, 0x73, 0x69, 0x6f, 0x6e, 0x00, 
  0x08, 0x00, 0x0c, 0x00, 0x08, 0x00, 0x04, 0x00, 0x08, 0x00, 0x00, 0x00, 
  0x11, 0x00, 0x00, 0x00, 0x04, 0x00, 0x00, 0x00, 0x13, 0x00, 0x00, 0x00, 
  0x6d, 0x69, 0x6e, 0x5f, 0x72, 0x75, 0x6e, 0x74, 0x69, 0x6d, 0x65, 0x5f, 
  0x76, 0x65, 0x72, 0x73, 0x69, 0x6f, 0x6e, 0x00, 0x14, 0x00, 0x00, 0x00, 
  0x94, 0x22, 0x00, 0x00, 0x8c, 0x22, 0x00, 0x00, 0x74, 0x22, 0x00, 0x00, 
  0xd4, 0x21, 0x00, 0x00, 0xc4, 0x18, 0x00, 0x00, 0xb4, 0x17, 0x00, 0x00, 
  0xa4, 0x07, 0x00, 0x00, 0x94, 0x06, 0x00, 0x00, 0x44, 0x04, 0x00, 0x00, 
  0x34, 0x03, 0x00, 0x00, 0xe4, 0x00, 0x00, 0x00, 0xdc, 0x00, 0x00, 0x00, 
  0xd4, 0x00, 0x00, 0x00, 0xcc, 0x00, 0x00, 0x00, 0xc4, 0x00, 0x00, 0x00, 
  0xbc, 0x00, 0x00, 0x00, 0xb4, 0x00, 0x00, 0x00, 0x94, 0x00, 0x00, 0x00, 
  0x74, 0x00, 0x00, 0x00, 0x04, 0x00, 0x00, 0x00, 0x32, 0xdd, 0xff, 0xff, 
  0x04, 0x00, 0x00, 0x00, 0x60, 0x00, 0x00, 0x00, 0x0c, 0x00, 0x00, 0x00, 
  0x08, 0x00, 0x0e, 0x00, 0x08, 0x00, 0x04, 0x00, 0x08, 0x00, 0x00, 0x00, 
  0x10, 0x00, 0x00, 0x00, 0x28, 0x00, 0x00, 0x00, 0x00, 0x00, 0x06, 0x00, 
  0x08, 0x00, 0x04, 0x00, 0x06, 0x00, 0x00, 0x00, 0x04, 0x00, 0x00, 0x00, 
  0x01, 0x00, 0x00, 0x00, 0xeb, 0x03, 0x00, 0x00, 0x0c, 0x00, 0x18, 0x00, 
  0x14, 0x00, 0x10, 0x00, 0x0c, 0x00, 0x04, 0x00, 0x0c, 0x00, 0x00, 0x00, 
  0x07, 0xaf, 0x67, 0xdf, 0xd5, 0x4c, 0x70, 0xf9, 0x02, 0x00, 0x00, 0x00, 
  0x02, 0x00, 0x00, 0x00, 0x04, 0x00, 0x00, 0x00, 0x06, 0x00, 0x00, 0x00, 
  0x32, 0x2e, 0x31, 0x38, 0x2e, 0x30, 0x00, 0x00, 0x9e, 0xdd, 0xff, 0xff, 
  0x04, 0x00, 0x00, 0x00, 0x10, 0x00, 0x00, 0x00, 0x00, 0x00, 0x00, 0x00, 
  0x00, 0x00, 0x00, 0x00, 0x00, 0x00, 0x00, 0x00, 0x00, 0x00, 0x00, 0x00, 
  0xba, 0xdd, 0xff, 0xff, 0x04, 0x00, 0x00, 0x00, 0x10, 0x00, 0x00, 0x00, 
  0x31, 0x2e, 0x31, 0x34, 0x2e, 0x30, 0x00, 0x00, 0x00, 0x00, 0x00, 0x00, 
  0x00, 0x00, 0x00, 0x00, 0x5c, 0xbf, 0xff, 0xff, 0x60, 0xbf, 0xff, 0xff, 
  0x64, 0xbf, 0xff, 0xff, 0x68, 0xbf, 0xff, 0xff, 0x6c, 0xbf, 0xff, 0xff, 
  0x70, 0xbf, 0xff, 0xff, 0xee, 0xdd, 0xff, 0xff, 0x04, 0x00, 0x00, 0x00, 
  0x40, 0x02, 0x00, 0x00, 0x2c, 0x64, 0xa4, 0x12, 0x5b, 0x9d, 0x0f, 0x53, 
  0x81, 0xa1, 0x7f, 0x22, 0xa1, 0x6d, 0x23, 0x9e, 0x67, 0x33, 0x54, 0xbf, 
  0x29, 0x71, 0xc9, 0x19, 0x7f, 0xb5, 0xf0, 0xba, 0xae, 0x11, 0x93, 0xa7, 
  0x1b, 0x81, 0xc4, 0x62, 0x23, 0xdf, 0x66, 0x34, 0xe6, 0x7f, 0x38, 0xfd, 
  0x6e, 0xe2, 0x93, 0x55, 0xf1, 0x81, 0x47, 0x08, 0x9f, 0x2a, 0x25, 0x7f, 
  0x54, 0x2f, 0x63, 0x53, 0x53, 0x74, 0x3d, 0x13, 0x9f, 0x0b, 0x45, 0x93, 
  0x0b, 0x50, 0x81, 0xe0, 0x3d, 0x58, 0xc7, 0x3a, 0x20, 0xb2, 0x35, 0xec, 
  0x81, 0xf4, 0x5d, 0x7f, 0xd3, 0x73, 0x67, 0xd9, 0x59, 0x5d, 0xee, 0x7f, 
  0x58, 0xf2, 0x71, 0x5d, 0xee, 0x7b, 0x48, 0xd4, 0x90, 0x81, 0xec, 0xa0, 
  0x88, 0xdb, 0xae, 0xb2, 0xee, 0x81, 0x95, 0xd9, 0xb7, 0x85, 0x08, 0xca, 
  0x8a, 0xea, 0x0b, 0x2e, 0xe4, 0x1a, 0x4e, 0xe9, 0x46, 0x7f, 0x38, 0x70, 
  0x64, 0x0f, 0x20, 0x59, 0xdc, 0x31, 0x7f, 0x4a, 0x7f, 0x40, 0x6e, 0x5f, 
  0x09, 0x3d, 0x4e, 0xfa, 0x1a, 0x75, 0x57, 0x43, 0x56, 0x5f, 0x3a, 0x7f, 
  0x22, 0xa9, 0x20, 0x81, 0x9c, 0x2b, 0x8f, 0x9e, 0x31, 0x93, 0xd3, 0x07, 
  0x78, 0xff, 0x27, 0x77, 0xed, 0x35, 0x7f, 0x7f, 0xba, 0x61, 0x7b, 0xb0, 
  0x3f, 0x72, 0xff, 0xe7, 0xcb, 0xf0, 0x81, 0xd5, 0x20, 0x98, 0x21, 0xf3, 
  0xcd, 0x97, 0x7f, 0x30, 0x90, 0x7b, 0x1a, 0xa6, 0x74, 0x26, 0xb2, 0x7f, 
  0xd6, 0xaf, 0x74, 0xf3, 0xac, 0x7d, 0xf0, 0xba, 0xdb, 0x86, 0xd3, 0xdb, 
  0x81, 0xc1, 0xd6, 0x83, 0xc5, 0x2e, 0x81, 0x96, 0x25, 0xc0, 0x89, 0xf2, 
  0xae, 0x57, 0x82, 0x92, 0xfd, 0x81, 0x99, 0x0e, 0xab, 0xbf, 0x75, 0xf9, 
  0xb9, 0x7f, 0xeb, 0xb6, 0x7f, 0xf2, 0xb8, 0xe7, 0x54, 0x6f, 0xc9, 0x33, 
  0x6f, 0xb5, 0x3a, 0x7f, 0x2c, 0x39, 0x3f, 0xc5, 0x81, 0x8a, 0x17, 0x4e, 
  0x3e, 0xdb, 0x2b, 0xb6, 0x72, 0xfb, 0xa4, 0x7f, 0xf5, 0x99, 0x91, 0xde, 
  0xbf, 0x81, 0x23, 0xe9, 0xe6, 0x2a, 0xd1, 0x25, 0x7f, 0x26, 0xd2, 0x6f, 
  0x48, 0xc0, 0x2f, 0x7a, 0x25, 0x98, 0xce, 0xe3, 0x6e, 0x81, 0xb9, 0x41, 
  0x16, 0x1e, 0x81, 0xb3, 0x19, 0x82, 0xae, 0xfe, 0x9c, 0xc0, 0xe9, 0x81, 
  0x37, 0xed, 0x8c, 0x1d, 0x1d, 0x86, 0xd0, 0x53, 0xce, 0x81, 0xf5, 0xaa, 
  0xb7, 0xe2, 0x96, 0x1b, 0xbf, 0x1b, 0xf7, 0xcb, 0xb0, 0xa0, 0xdc, 0xb2, 
  0x81, 0x43, 0xf0, 0x52, 0xf6, 0xdd, 0x6e, 0xe0, 0x07, 0x7f, 0xf3, 0xd4, 
  0x81, 0x07, 0xc7, 0x9e, 0xf5, 0xa9, 0xa5, 0x08, 0xe6, 0x81, 0xec, 0xe5, 
  0x82, 0xc8, 0xd0, 0x85, 0xe6, 0x71, 0xad, 0xe5, 0x7f, 0x90, 0x11, 0x6e, 
  0x84, 0xdc, 0x85, 0xed, 0x1b, 0x91, 0xd8, 0x22, 0x81, 0xd3, 0xd3, 0x7f, 
  0xb4, 0xe3, 0x34, 0xb6, 0xf2, 0x5c, 0xea, 0xdf, 0x90, 0x87, 0xdc, 0x94, 
  0x8e, 0xe6, 0xa9, 0x81, 0xec, 0xb4, 0x7f, 0xf0, 0xae, 0x5c, 0x02, 0x9b, 
  0x64, 0xb4, 0x10, 0x6c, 0xaf, 0x1c, 0x70, 0xbb, 0x2b, 0x7f, 0x17, 0x4c, 
  0x81, 0xe4, 0x6f, 0x9a, 0xe2, 0x5c, 0x90, 0xcc, 0x92, 0xa4, 0xc0, 0xad, 
  0x8b, 0xfa, 0x92, 0x81, 0x45, 0x84, 0x67, 0x49, 0xa7, 0x67, 0x53, 0x81, 
  0x6d, 0x04, 0x6e, 0xa6, 0xf8, 0x70, 0x9f, 0xef, 0x7f, 0x9d, 0x7f, 0xac, 
  0x35, 0x4e, 0xc3, 0x53, 0x73, 0xc0, 0x71, 0x45, 0xcc, 0x4e, 0x50, 0x9f, 
  0x33, 0x6f, 0x81, 0x09, 0xf0, 0xfa, 0x9c, 0xe7, 0xff, 0x81, 0xcd, 0xf4, 
  0xa2, 0xdb, 0xdf, 0x81, 0xcf, 0x11, 0x8c, 0xfa, 0x1f, 0x9a, 0xde, 0xda, 
  0x7a, 0xcf, 0x07, 0x66, 0xdd, 0x0f, 0x7f, 0x3d, 0x6b, 0x93, 0x36, 0x47, 
  0x81, 0x48, 0x2d, 0x88, 0x01, 0xba, 0x78, 0x12, 0xd3, 0x7f, 0x04, 0xb5, 
  0x7a, 0x3c, 0xcb, 0x7f, 0x5b, 0xcf, 0x62, 0x50, 0xca, 0x72, 0xe4, 0x70, 
  0x2f, 0x12, 0x7c, 0x2e, 0xf8, 0x7f, 0x1d, 0x62, 0xf9, 0x42, 0x7f, 0x32, 
  0x2a, 0x67, 0xec, 0xbd, 0xa3, 0x1b, 0xe3, 0x9d, 0x0d, 0x81, 0xde, 0xaf, 
  0xd8, 0x19, 0x7e, 0x5c, 0x20, 0x60, 0x4a, 0x20, 0x7f, 0x77, 0x04, 0xe9, 
  0x81, 0xee, 0xf1, 0x95, 0xe6, 0xf2, 0xa6, 0x71, 0xf1, 0x23, 0x7f, 0xbb, 
  0x08, 0x7e, 0xaf, 0x02, 0x3a, 0xe0, 0xff, 0xff, 0x04, 0x00, 0x00, 0x00, 
  0x00, 0x01, 0x00, 0x00, 0x4b, 0x96, 0xff, 0xff, 0x24, 0xb5, 0xff, 0xff, 
  0x95, 0xad, 0xff, 0xff, 0x39, 0xfd, 0xff, 0xff, 0x69, 0xd1, 0xff, 0xff, 
  0x50, 0xd3, 0xff, 0xff, 0xdf, 0xff, 0xff, 0xff, 0x78, 0x0e, 0x00, 0x00, 
  0xb2, 0x74, 0xfd, 0xff, 0x71, 0x01, 0x00, 0x00, 0xb1, 0xca, 0xff, 0xff, 
  0x30, 0xce, 0xff, 0xff, 0xe1, 0xb0, 0xff, 0xff, 0xee, 0x3f, 0x00, 0x00, 
  0xdf, 0x6e, 0x00, 0x00, 0x89, 0xe9, 0xff, 0xff, 0xa6, 0xd7, 0xff, 0xff, 
  0x2c, 0x03, 0x00, 0x00, 0x22, 0x5c, 0xff, 0xff, 0xab, 0x16, 0x00, 0x00, 
  0x67, 0x0e, 0x00, 0x00, 0x2c, 0xca, 0xff, 0xff, 0x8d, 0xc6, 0xff, 0xff, 
  0x61, 0x2e, 0x00, 0x00, 0x7e, 0xf1, 0xff, 0xff, 0x3e, 0x4f, 0xff, 0xff, 
  0x8f, 0xb0, 0xff, 0xff, 0x3a, 0x3b, 0x00, 0x00, 0x17, 0x22, 0x00, 0x00, 
  0x03, 0x65, 0xfe, 0xff, 0xa5, 0xa1, 0xff, 0xff, 0x5e, 0xe1, 0xfe, 0xff, 
  0xb5, 0x0e, 0x00, 0x00, 0x7d, 0xbc, 0xff, 0xff, 0x31, 0x00, 0x00, 0x00, 
  0x4a, 0xb4, 0xff, 0xff, 0x35, 0x12, 0x00, 0x00, 0xfa, 0xc8, 0xff, 0xff, 
  0xf4, 0x06, 0x00, 0x00, 0xb2, 0x05, 0x00, 0x00, 0xa0, 0xc3, 0xff, 0xff, 
  0x7b, 0x99, 0xff, 0xff, 0x24, 0xd6, 0xff, 0xff, 0x35, 0x12, 0x00, 0x00, 
  0x5d, 0xe7, 0xff, 0xff, 0x4b, 0xf6, 0xff, 0xff, 0xda, 0x38, 0x00, 0x00, 
  0x38, 0x00, 0x00, 0x00, 0xab, 0xed, 0xff, 0xff, 0x03, 0x16, 0x00, 0x00, 
  0x93, 0xf9, 0xff, 0xff, 0xf7, 0xd9, 0xff, 0xff, 0x6e, 0x2f, 0x00, 0x00, 
  0xfe, 0xf8, 0xff, 0xff, 0xeb, 0x01, 0x00, 0x00, 0xa6, 0x78, 0xff, 0xff, 
  0x06, 0x1b, 0x00, 0x00, 0x5c, 0xf9, 0xff, 0xff, 0x93, 0x4e, 0xff, 0xff, 
  0x1d, 0xc6, 0xff, 0xff, 0x44, 0x24, 0x00, 0x00, 0x97, 0xae, 0xff, 0xff, 
  0x82, 0x00, 0x00, 0x00, 0xff, 0xda, 0xff, 0xff, 0x46, 0xe1, 0xff, 0xff, 
  0x04, 0x00, 0x00, 0x00, 0x40, 0x02, 0x00, 0x00, 0x6c, 0xfd, 0x0f, 0x0d, 
  0x50, 0x7f, 0x31, 0xa8, 0xd8, 0x19, 0x09, 0x03, 0x16, 0xff, 0x0d, 0x71, 
  0x7f, 0xdc, 0x17, 0x7f, 0xf6, 0xfd, 0x0d, 0xd7, 0x01, 0x7f, 0x62, 0xe3, 
  0x57, 0x30, 0x65, 0x0e, 0x81, 0x70, 0x25, 0x55, 0x14, 0x52, 0x42, 0x94, 
  0xb6, 0x48, 0x0b, 0x91, 0x62, 0xb9, 0x2e, 0xe4, 0x7e, 0x4f, 0x77, 0xed, 
  0x16, 0xf6, 0xf5, 0x1e, 0x81, 0x4b, 0x4c, 0x74, 0x5c, 0x30, 0x7f, 0x6e, 
  0x1e, 0x7b, 0x66, 0xed, 0x1a, 0xbe, 0x6d, 0x7f, 0xb4, 0xd9, 0xc2, 0x3c, 
  0x7f, 0xe8, 0x3d, 0x6c, 0x46, 0x57, 0x73, 0x04, 0x3f, 0x54, 0x7f, 0x25, 
  0x68, 0x4b, 0x4b, 0x24, 0x74, 0x1f, 0xf9, 0x5d, 0xa9, 0x31, 0xcc, 0x70, 
  0x4c, 0x74, 0x62, 0xf9, 0x56, 0x15, 0x81, 0x0a, 0xe2, 0x27, 0x3e, 0x4d, 
  0x60, 0xb3, 0x22, 0x6c, 0xc8, 0x0d, 0x5b, 0x44, 0x4e, 0x53, 0x6f, 0x27, 
  0x64, 0x40, 0x07, 0x4b, 0x08, 0x26, 0x29, 0xf8, 0xa4, 0xdf, 0x09, 0xf3, 
  0x9f, 0x8c, 0x7a, 0x7f, 0x4b, 0x9d, 0x68, 0xfd, 0x25, 0xb4, 0x31, 0x08, 
  0x77, 0x0c, 0x09, 0x77, 0xea, 0x2c, 0xf1, 0x7f, 0x7f, 0x01, 0x97, 0x25, 
  0x02, 0x1a, 0x32, 0xfe, 0x12, 0x1c, 0xcf, 0x6e, 0x7f, 0x4e, 0xe6, 0x61, 
  0xaf, 0x73, 0xaf, 0x7f, 0xc4, 0x8b, 0x49, 0xcf, 0x60, 0x75, 0x71, 0x5c, 
  0xfa, 0x4f, 0x37, 0x15, 0x0e, 0x3c, 0x1c, 0x0b, 0x78, 0xfc, 0x45, 0xbf, 
  0x57, 0x44, 0x43, 0xaa, 0xb7, 0x1d, 0x02, 0xf5, 0x1d, 0x13, 0x14, 0x7f, 
  0x70, 0xd2, 0xf9, 0x6c, 0xe8, 0xfa, 0xf6, 0xdc, 0x03, 0x7d, 0x76, 0xd5, 
  0x2a, 0xaa, 0x76, 0x08, 0xfa, 0x7f, 0x15, 0x7f, 0x39, 0x5c, 0x4c, 0xb1, 
  0xb4, 0x7f, 0x48, 0x8e, 0x7f, 0xd3, 0xe2, 0x19, 0x6c, 0x5f, 0x5e, 0xb0, 
  0x3e, 0x14, 0xf0, 0x35, 0x85, 0x4d, 0x36, 0x62, 0x62, 0x43, 0x55, 0x7c, 
  0x29, 0x7f, 0x7f, 0xe9, 0x0f, 0xa7, 0x7c, 0x7c, 0x9d, 0xf1, 0xc2, 0x47, 
  0x73, 0xd9, 0x54, 0x6f, 0x2a, 0x7f, 0x7e, 0xf8, 0x3c, 0x77, 0x67, 0x24, 
  0x74, 0x63, 0x42, 0x1e, 0x13, 0xaf, 0x95, 0x7f, 0x13, 0x15, 0xfe, 0x3a, 
  0x1b, 0x75, 0x19, 0x0c, 0x53, 0x22, 0xb2, 0x04, 0xd1, 0x14, 0x7f, 0x75, 
  0x5b, 0xe2, 0x2e, 0x7f, 0x4a, 0x4a, 0x57, 0x47, 0x66, 0x25, 0x6f, 0x40, 
  0x7f, 0x57, 0x22, 0x4e, 0x07, 0x30, 0x38, 0x2e, 0x8b, 0xba, 0x1e, 0xfd, 
  0xbd, 0x81, 0x7f, 0x7f, 0x39, 0xa0, 0x70, 0x03, 0x36, 0xa9, 0x33, 0x05, 
  0x7f, 0x1f, 0x2f, 0x6d, 0xc2, 0x2f, 0x10, 0x61, 0x24, 0xdb, 0xbd, 0x1a, 
  0xf6, 0xfc, 0x06, 0x16, 0xf5, 0x3f, 0x91, 0x7f, 0x5e, 0x30, 0xf9, 0x62, 
  0xae, 0x77, 0xae, 0x7d, 0x9a, 0x81, 0x33, 0xb4, 0x79, 0x7f, 0x7a, 0x71, 
  0x05, 0x7f, 0xe3, 0x03, 0xef, 0x4b, 0x19, 0xfc, 0x7f, 0xed, 0x34, 0x81, 
  0x5e, 0x74, 0x3c, 0xa2, 0x8f, 0x22, 0x24, 0x02, 0xb9, 0x0f, 0x06, 0x71, 
  0x6d, 0xd3, 0x15, 0x5b, 0x1f, 0xf4, 0xe5, 0xee, 0x04, 0x7a, 0x7f, 0xca, 
  0x4b, 0x97, 0x7f, 0xf3, 0xa5, 0x5e, 0x7f, 0x37, 0x4a, 0x7f, 0x62, 0xb2, 
  0xe8, 0x54, 0x73, 0x81, 0x79, 0xc4, 0xda, 0x30, 0x7f, 0x40, 0x7f, 0xf9, 
  0x24, 0xf3, 0xfe, 0x2b, 0x94, 0x57, 0x32, 0x7f, 0x6c, 0x2d, 0x57, 0x7f, 
  0x0e, 0x7c, 0x71, 0x0d, 0x10, 0xc7, 0x7f, 0x2e, 0xf4, 0xe0, 0xdc, 0x5b, 
  0x52, 0xd1, 0x32, 0x6a, 0x6e, 0x79, 0x7f, 0xfe, 0x31, 0x7f, 0x69, 0x19, 
  0x7f, 0x4b, 0x61, 0x41, 0x56, 0xd1, 0xcd, 0x70, 0xd4, 0x36, 0xc8, 0x3b, 
  0x7f, 0x7e, 0x07, 0x2e, 0x4f, 0x29, 0xd2, 0x00, 0x11, 0x2d, 0x67, 0x6d, 
  0x43, 0xe8, 0x3a, 0x64, 0x1d, 0x0e, 0x57, 0x4a, 0x56, 0x46, 0x7f, 0x50, 
  0x2b, 0x7f, 0x29, 0x63, 0x19, 0x36, 0x2a, 0x7d, 0x81, 0xa7, 0xfe, 0xce, 
  0x81, 0xa9, 0x7d, 0x69, 0x6d, 0x81, 0x7f, 0x08, 0xf2, 0xbf, 0x3e, 0x06, 
  0x7f, 0x10, 0x2d, 0x7f, 0xd0, 0x42, 0xf9, 0x70, 0x50, 0x81, 0xdf, 0x01, 
  0xee, 0xf6, 0x1f, 0xfd, 0xed, 0x4e, 0x81, 0x5e, 0x56, 0x28, 0x42, 0x4a, 
  0x91, 0x7f, 0x08, 0x72, 0x9b, 0x9b, 0x2c, 0xe6, 0x7f, 0x5d, 0x7f, 0x7f, 
  0xfc, 0x7e, 0x16, 0x30, 0xf3, 0x5d, 0x12, 0xf8, 0x92, 0xe3, 0xff, 0xff, 
  0x04, 0x00, 0x00, 0x00, 0x00, 0x01, 0x00, 0x00, 0xf9, 0xed, 0xff, 0xff, 
  0xc3, 0xec, 0xff, 0xff, 0x8e, 0xec, 0xff, 0xff, 0x7a, 0xfa, 0xff, 0xff, 
  0xfb, 0xec, 0xff, 0xff, 0x13, 0xf3, 0xff, 0xff, 0x4a, 0xfa, 0xff, 0xff, 
  0x2b, 0x11, 0x00, 0x00, 0x9f, 0x4b, 0x00, 0x00, 0x72, 0xfa, 0xff, 0xff, 
  0x32, 0xeb, 0xff, 0xff, 0x6b, 0xf1, 0xff, 0xff, 0xc4, 0xf8, 0xff, 0xff, 
  0x4e, 0xfe, 0xff, 0xff, 0x2e, 0x23, 0x00, 0x00, 0x2c, 0xf5, 0xff, 0xff, 
  0x7a, 0xf2, 0xff, 0xff, 0xdf, 0x28, 0x00, 0x00, 0xb7, 0xde, 0xff, 0xff, 
  0xf1, 0x03, 0x00, 0x00, 0x58, 0x0f, 0x00, 0x00, 0x4d, 0xf4, 0xff, 0xff, 
  0xa2, 0xef, 0xff, 0xff, 0x04, 0x0d, 0x00, 0x00, 0x34, 0xfc, 0xff, 0xff, 
  0xfd, 0xd9, 0xff, 0xff, 0x9a, 0xe8, 0xff, 0xff, 0x09, 0x0a, 0x00, 0x00, 
  0x26, 0x06, 0x00, 0x00, 0x75, 0x4d, 0x00, 0x00, 0xcc, 0xf9, 0xff, 0xff, 
  0x3a, 0xde, 0xff, 0xff, 0xbb, 0xfb, 0xff, 0xff, 0x43, 0xef, 0xff, 0xff, 
  0xa4, 0x18, 0x00, 0x00, 0xee, 0xf6, 0xff, 0xff, 0x9c, 0x03, 0x00, 0x00, 
  0x92, 0xf6, 0xff, 0xff, 0xdd, 0xfd, 0xff, 0xff, 0xce, 0xfb, 0xff, 0xff, 
  0x2b, 0xf0, 0xff, 0xff, 0x09, 0xf2, 0xff, 0xff, 0xff, 0xf6, 0xff, 0xff, 
  0xf7, 0xf3, 0xff, 0xff, 0xca, 0xee, 0xff, 0xff, 0x4b, 0xfd, 0xff, 0xff, 
  0x05, 0x07, 0x00, 0x00, 0x5c, 0x08, 0x00, 0x00, 0xc7, 0xfb, 0xff, 0xff, 
  0xe4, 0xf9, 0xff, 0xff, 0x33, 0x00, 0x00, 0x00, 0x4e, 0xe9, 0xff, 0xff, 
  0xc6, 0x1d, 0x00, 0x00, 0xcc, 0xff, 0xff, 0xff, 0x6c, 0xfb, 0xff, 0xff, 
  0xec, 0xe4, 0xff, 0xff, 0x41, 0xf9, 0xff, 0xff, 0xe7, 0xff, 0xff, 0xff, 
  0xb6, 0xcf, 0xff, 0xff, 0xb7, 0xf2, 0xff, 0xff, 0x5c, 0x17, 0x00, 0x00, 
  0x11, 0xf1, 0xff, 0xff, 0x9f, 0x02, 0x00, 0x00, 0xf3, 0xf6, 0xff, 0xff, 
  0x9e, 0xe4, 0xff, 0xff, 0x04, 0x00, 0x00, 0x00, 0x00, 0x10, 0x00, 0x00, 
  0xe7, 0x8d, 0xd8, 0xf4, 0xfd, 0x26, 0xc3, 0x1f, 0x23, 0xee, 0xd1, 0xf7, 
  0x1c, 0x01, 0x34, 0xe7, 0x12, 0x18, 0x1d, 0xed, 0x59, 0x1f, 0xaa, 0x38, 
  0x50, 0xe0, 0xad, 0xe4, 0x7f, 0x51, 0xe4, 0xfd, 0xf3, 0xbb, 0x4c, 0xdd, 
  0x1b, 0xf5, 0x0c, 0x6a, 0xe5, 0xfb, 0xf2, 0x32, 0x24, 0xda, 0xf6, 0x24, 
  0x2c, 0xfb, 0xe9, 0x51, 0x22, 0xfe, 0xff, 0xa3, 0x27, 0x1c, 0xe9, 0xe9, 
  0x38, 0xd9, 0xd2, 0x21, 0xac, 0x1a, 0x32, 0x00, 0xff, 0xdc, 0xe7, 0x0c, 
  0x04, 0x7f, 0x0d, 0x16, 0x22, 0xce, 0xcd, 0xdd, 0xd1, 0x11, 0xb5, 0x20, 
  0xf0, 0x0c, 0xed, 0xb7, 0xe8, 0x1d, 0x4e, 0xfc, 0xc0, 0xc0, 0xd7, 0xe9, 
  0xe8, 0x37, 0x05, 0x2c, 0xea, 0xc0, 0xfe, 0xb5, 0xfd, 0x06, 0x03, 0xda, 
  0xc1, 0x07, 0xe6, 0x16, 0x12, 0x67, 0x42, 0x28, 0x01, 0xe9, 0xfc, 0xed, 
  0x27, 0xfe, 0x2f, 0x04, 0xdb, 0xa0, 0xf5, 0x49, 0xc0, 0xe9, 0x15, 0xbb, 
  0x34, 0x12, 0x40, 0x5f, 0x27, 0xf0, 0xaa, 0x38, 0xe0, 0xd4, 0x11, 0x18, 
  0x48, 0x07, 0xa7, 0x67, 0x10, 0x06, 0xf8, 0x0c, 0xf8, 0xf2, 0xb6, 0x81, 
  0xf0, 0x21, 0xda, 0xfd, 0xfb, 0x49, 0x37, 0x0e, 0x19, 0x00, 0xee, 0xeb, 
  0x0b, 0x1b, 0xee, 0xc8, 0xc7, 0xe8, 0xd1, 0x53, 0x76, 0x45, 0x42, 0x1f, 
  0x35, 0x4e, 0xe6, 0xbd, 0x09, 0x29, 0x30, 0x1f, 0xde, 0x2a, 0x3a, 0x1b, 
  0x0b, 0x41, 0x5c, 0xd7, 0x66, 0x3a, 0x81, 0x25, 0xe1, 0xc8, 0x0f, 0x8e, 
  0x00, 0xc4, 0xac, 0x96, 0xad, 0xe8, 0xe3, 0x12, 0xc6, 0x40, 0x6f, 0xbf, 
  0x66, 0xdf, 0xfd, 0x90, 0xe8, 0x17, 0x35, 0x27, 0xfb, 0x94, 0x22, 0xf3, 
  0xff, 0xfb, 0x23, 0xe1, 0x73, 0xed, 0x0e, 0x98, 0x3d, 0xde, 0x4b, 0xef, 
  0x15, 0x54, 0x37, 0x4f, 0xd7, 0xcd, 0xcd, 0xcc, 0x57, 0x53, 0x1a, 0xf9, 
  0x16, 0x84, 0x12, 0x21, 0xcf, 0x10, 0xce, 0xf4, 0x34, 0xf4, 0x00, 0xfd, 
  0xf2, 0x97, 0x6b, 0x18, 0xfe, 0xf8, 0x1d, 0xf2, 0x0b, 0xd9, 0x63, 0xe9, 
  0xfc, 0x11, 0xf2, 0x4f, 0xb2, 0xea, 0x81, 0xa1, 0xeb, 0xd2, 0xfa, 0x21, 
  0xf2, 0xfd, 0xdb, 0x1f, 0x06, 0x3f, 0x19, 0x47, 0x2f, 0xe4, 0x25, 0xf3, 
  0xf6, 0xb4, 0xfd, 0xfe, 0x32, 0x26, 0xf5, 0x0c, 0x26, 0xec, 0x2b, 0x26, 
  0x56, 0xf0, 0x34, 0xd3, 0xfa, 0x27, 0x4e, 0xac, 0x07, 0x1c, 0xd3, 0x03, 
  0xf4, 0xea, 0xe9, 0xed, 0xd4, 0x20, 0x0c, 0x1a, 0x2b, 0xde, 0xc6, 0x0c, 
  0xf0, 0x81, 0x1c, 0xa6, 0x1f, 0x39, 0x45, 0x19, 0xcd, 0xde, 0x51, 0xd8, 
  0xaf, 0xd8, 0x28, 0x0f, 0xd7, 0x29, 0x13, 0x06, 0xb5, 0x22, 0x11, 0x1e, 
  0x10, 0xcc, 0xca, 0xdc, 0x0e, 0xf8, 0xa7, 0xea, 0xef, 0x55, 0xf1, 0xd1, 
  0xf6, 0x0c, 0x3a, 0x1d, 0xba, 0xc1, 0x4a, 0xd6, 0xb9, 0x2c, 0x15, 0x22, 
  0xf0, 0xe4, 0x10, 0xcc, 0x7d, 0x3c, 0x0d, 0x2f, 0xdf, 0xd3, 0xee, 0xd1, 
  0x2e, 0xa3, 0xbe, 0xe5, 0x3c, 0xb1, 0xe7, 0x39, 0xc8, 0x1a, 0xd8, 0xe5, 
  0xff, 0x08, 0xf4, 0x81, 0x05, 0x11, 0x25, 0x27, 0x0f, 0x3d, 0xd1, 0xcb, 
  0x1f, 0xc3, 0xd7, 0xe3, 0xd5, 0x0d, 0xcb, 0xde, 0x22, 0xd1, 0xcf, 0xc2, 
  0x6c, 0xff, 0x13, 0x18, 0x0f, 0xd5, 0xbc, 0xf1, 0xd2, 0x5f, 0x3f, 0x2c, 
  0x2e, 0x28, 0xf5, 0x43, 0x2c, 0xda, 0x10, 0xca, 0x4b, 0xe2, 0x0b, 0xfa, 
  0x1b, 0x18, 0x37, 0xce, 0xf5, 0xc4, 0xde, 0x41, 0x34, 0xc9, 0x1a, 0x21, 
  0x0f, 0x09, 0x0a, 0xfa, 0xf1, 0x9e, 0x23, 0xc7, 0xd6, 0xc1, 0xee, 0xba, 
  0x01, 0x81, 0x18, 0xa8, 0x8f, 0xd6, 0xc1, 0xdb, 0x3c, 0x02, 0xfe, 0xc7, 
  0xce, 0x18, 0x0a, 0xb5, 0x27, 0x01, 0x21, 0x13, 0xd1, 0xfb, 0xd5, 0xfb, 
  0x4f, 0xf5, 0x08, 0x50, 0xac, 0xd8, 0x92, 0x41, 0x0e, 0xd6, 0xef, 0x43, 
  0x01, 0xeb, 0x81, 0x23, 0x1a, 0xc8, 0x53, 0xeb, 0xe9, 0xe8, 0x12, 0xaa, 
  0xea, 0x0d, 0x33, 0x02, 0x09, 0x16, 0xc9, 0xda, 0xed, 0xdd, 0xd9, 0x04, 
  0xf7, 0xe3, 0xf6, 0x33, 0x08, 0xf1, 0x0a, 0xdd, 0x1a, 0x24, 0x02, 0x1d, 
  0x19, 0xff, 0x00, 0x01, 0xf9, 0xf1, 0xfd, 0x1e, 0xda, 0x02, 0x0e, 0x1b, 
  0x18, 0xe0, 0x33, 0xb8, 0x2c, 0x25, 0xcc, 0xc3, 0x33, 0x05, 0x2d, 0x02, 
  0x21, 0x27, 0x71, 0x09, 0xc3, 0x9d, 0xe5, 0x21, 0x93, 0x43, 0x09, 0x4c, 
  0x42, 0x3c, 0xef, 0x17, 0xe7, 0x21, 0xde, 0x21, 0x11, 0x16, 0x01, 0x81, 
  0xb7, 0x66, 0x57, 0x17, 0x97, 0xed, 0x0f, 0x30, 0xfe, 0x27, 0xba, 0x55, 
  0xbe, 0xc1, 0xd4, 0x96, 0xd1, 0x66, 0x20, 0xf3, 0xb6, 0x65, 0xe6, 0xdd, 
  0xf9, 0x39, 0x40, 0xf8, 0xf5, 0x48, 0x15, 0x1d, 0xb8, 0xe9, 0x02, 0xdb, 
  0x09, 0xd8, 0x1a, 0x4f, 0x4b, 0xaf, 0x1d, 0x1f, 0x17, 0xfa, 0x1b, 0xe4, 
  0xb0, 0x13, 0xd1, 0x00, 0x0c, 0xd3, 0xe4, 0x78, 0x4d, 0xec, 0xf9, 0x43, 
  0xf9, 0x88, 0xa6, 0xfa, 0xf1, 0x35, 0x06, 0xd1, 0x8a, 0xdd, 0x15, 0x0c, 
  0xdd, 0xed, 0xd3, 0x21, 0xd7, 0xed, 0xa4, 0x30, 0x07, 0xfe, 0x2c, 0x4d, 
  0xf4, 0xa6, 0xbb, 0x0d, 0xed, 0xba, 0xd9, 0x11, 0x38, 0xdd, 0x8a, 0x7f, 
  0xfa, 0xc8, 0x37, 0x4a, 0x3c, 0x03, 0xdf, 0x53, 0xf7, 0xf3, 0x0f, 0x3a, 
  0xd0, 0x3b, 0x10, 0x14, 0x3b, 0xb6, 0x0a, 0xf6, 0xf0, 0xc8, 0x0d, 0x32, 
  0x38, 0x6d, 0x01, 0xc1, 0x05, 0x52, 0xe6, 0x9e, 0x57, 0x32, 0xf9, 0x77, 
  0x15, 0x46, 0x86, 0xca, 0xd3, 0x4d, 0x3f, 0xeb, 0x11, 0x43, 0x29, 0xe0, 
  0x01, 0xfd, 0xf7, 0xe9, 0xf2, 0x7f, 0x0e, 0xe9, 0xa5, 0xd0, 0xcf, 0xd9, 
  0xd1, 0xda, 0x5c, 0xa9, 0xdd, 0x2b, 0xee, 0xdf, 0xed, 0x40, 0xea, 0xc1, 
  0x2f, 0x37, 0x25, 0x32, 0x09, 0x0c, 0xee, 0xe7, 0x81, 0x39, 0x05, 0x17, 
  0xdd, 0xe9, 0xae, 0x13, 0x20, 0xc4, 0xcc, 0xeb, 0xe0, 0x30, 0x06, 0x13, 
  0xb1, 0x04, 0x17, 0xe9, 0x9e, 0x84, 0x95, 0x2a, 0x16, 0xee, 0xca, 0xe4, 
  0xba, 0xf1, 0x0b, 0x06, 0x08, 0xf8, 0xee, 0xf9, 0x1b, 0xf0, 0x05, 0xe8, 
  0xe3, 0x2e, 0xed, 0x4f, 0xdd, 0x08, 0xdb, 0x1a, 0xed, 0xc7, 0x19, 0x25, 
  0xa6, 0x1a, 0xf2, 0x0b, 0x8b, 0x41, 0x59, 0x10, 0x81, 0xe8, 0x0b, 0xd8, 
  0xd2, 0xe2, 0xa0, 0x1f, 0xb7, 0xdc, 0xa9, 0xfc, 0xff, 0xdf, 0x3e, 0xb8, 
  0x3f, 0xda, 0xfb, 0x8a, 0x15, 0x08, 0x05, 0xd4, 0x4f, 0xd1, 0x6d, 0x0f, 
  0xea, 0xa5, 0xd4, 0xcf, 0x00, 0xe9, 0xc4, 0xbd, 0xc9, 0x58, 0xff, 0xf4, 
  0xdd, 0xd0, 0xfd, 0x21, 0xf9, 0x4e, 0x00, 0x51, 0xf4, 0x60, 0xfc, 0x04, 
  0xb1, 0x6c, 0x37, 0xf5, 0x61, 0x9b, 0xe2, 0xde, 0x07, 0xa6, 0x14, 0xec, 
  0xfc, 0x13, 0x89, 0x27, 0x22, 0x14, 0xff, 0x21, 0x28, 0xdd, 0xb6, 0xc8, 
  0xac, 0xe7, 0x2e, 0xdf, 0x2d, 0xb8, 0x81, 0xeb, 0xf1, 0x14, 0x0d, 0x31, 
  0x47, 0xf7, 0x23, 0xf9, 0x23, 0x1b, 0x07, 0x03, 0x24, 0xf0, 0x34, 0x2d, 
  0xb9, 0xcc, 0x33, 0xf0, 0xef, 0x60, 0xae, 0x2f, 0xd7, 0xe6, 0xd8, 0xe6, 
  0x31, 0xfb, 0x12, 0x0a, 0xe9, 0x13, 0xe0, 0xfc, 0x34, 0x9d, 0xfa, 0xea, 
  0xa1, 0xe3, 0x19, 0xea, 0x4f, 0xc9, 0xda, 0x13, 0x96, 0x1d, 0xfb, 0x3b, 
  0x3e, 0x2a, 0x12, 0xf0, 0xe1, 0x31, 0x8c, 0x2c, 0x0c, 0x18, 0x15, 0x91, 
  0x01, 0x1e, 0x43, 0x50, 0x81, 0xf1, 0xbc, 0xfc, 0x27, 0x70, 0xcd, 0x4d, 
  0x18, 0x0c, 0x47, 0xae, 0xe1, 0x11, 0x0b, 0xa4, 0xbc, 0x75, 0x0a, 0xfb, 
  0x62, 0x53, 0x35, 0x2c, 0xca, 0x09, 0xd8, 0x35, 0x0c, 0xe2, 0x1c, 0x06, 
  0xf3, 0x1c, 0x20, 0x59, 0x07, 0x43, 0x37, 0xde, 0x4b, 0x3a, 0xd5, 0xd6, 
  0xfe, 0xf5, 0x12, 0xe1, 0x02, 0x0e, 0xed, 0x96, 0xfb, 0xc6, 0xea, 0x04, 
  0x2c, 0x4e, 0xfe, 0xcf, 0x4f, 0xb0, 0xca, 0x0d, 0x27, 0x0b, 0xff, 0xf2, 
  0x09, 0x81, 0x1d, 0x01, 0xee, 0xef, 0x33, 0x05, 0xed, 0x00, 0xf7, 0xce, 
  0x1c, 0x16, 0x41, 0xe7, 0x16, 0x26, 0xd8, 0x10, 0xde, 0x14, 0x1b, 0xc3, 
  0x20, 0xf9, 0xcd, 0xfe, 0x25, 0xfc, 0xf3, 0x20, 0xe2, 0x4f, 0x26, 0x05, 
  0xf8, 0x0e, 0x09, 0xb2, 0x81, 0xb1, 0x78, 0xd7, 0xfa, 0xe0, 0xe6, 0xeb, 
  0x0a, 0x8f, 0x74, 0xf1, 0xbf, 0x47, 0x58, 0x0c, 0xd1, 0x07, 0x1c, 0x8d, 
  0xb6, 0x93, 0xda, 0x2c, 0x1e, 0xc0, 0x0b, 0xc5, 0xe4, 0x0a, 0xe2, 0x20, 
  0x39, 0x00, 0xfd, 0xfd, 0x38, 0xb5, 0x20, 0xda, 0xd5, 0x34, 0xde, 0x0c, 
  0xe3, 0xed, 0x10, 0x2c, 0x1b, 0x11, 0x2f, 0x04, 0xe2, 0x03, 0x12, 0xcd, 
  0x22, 0x01, 0xf5, 0x0f, 0xe5, 0xfb, 0xf2, 0x08, 0xac, 0xca, 0x03, 0xf7, 
  0x0c, 0xef, 0xf4, 0x07, 0x24, 0xee, 0xe7, 0xeb, 0xed, 0xfb, 0x09, 0x3c, 
  0xf5, 0x2d, 0x2f, 0x04, 0x81, 0x9f, 0xbf, 0xdf, 0xe9, 0x21, 0xe1, 0xe3, 
  0xea, 0xf5, 0x10, 0x2d, 0x04, 0x21, 0xec, 0x53, 0x01, 0xfc, 0xe0, 0x14, 
  0xd0, 0xe2, 0xc7, 0xed, 0xbd, 0x12, 0x08, 0x1e, 0xea, 0xb1, 0x19, 0x03, 
  0xd3, 0xf7, 0xd4, 0x0b, 0xea, 0x17, 0x27, 0x02, 0x02, 0xd3, 0x26, 0x0e, 
  0xba, 0x0c, 0x42, 0xeb, 0x0b, 0xee, 0xfa, 0x2f, 0x25, 0xe7, 0x08, 0xe1, 
  0xf1, 0xee, 0x09, 0x2f, 0xd9, 0x0a, 0x09, 0xdd, 0x81, 0xaf, 0x0f, 0x18, 
  0x03, 0x08, 0xe8, 0xee, 0x00, 0x0f, 0x1b, 0x29, 0x17, 0x08, 0xed, 0x06, 
  0xea, 0xe8, 0xea, 0x0a, 0x2b, 0x1b, 0xf0, 0x20, 0x15, 0xda, 0x0d, 0x33, 
  0xfc, 0xde, 0x17, 0x15, 0xfb, 0x1b, 0x24, 0x23, 0x3e, 0xc8, 0x9f, 0x2c, 
  0xf6, 0x2b, 0xb9, 0x00, 0xe8, 0x0e, 0xfd, 0x06, 0x35, 0x28, 0xf9, 0x89, 
  0xa9, 0xdb, 0x1b, 0xff, 0xf6, 0xd2, 0xda, 0xde, 0xd7, 0x1c, 0xd5, 0xe8, 
  0x05, 0xff, 0x20, 0x20, 0xd5, 0x15, 0x0d, 0xe2, 0x12, 0xf6, 0xf0, 0xf2, 
  0xfb, 0xf3, 0x1b, 0xe0, 0xf0, 0x3a, 0x91, 0xfa, 0xd7, 0xd6, 0xa2, 0xd9, 
  0x1d, 0x13, 0x2e, 0x16, 0xff, 0xba, 0xed, 0x81, 0x25, 0xaf, 0x2c, 0xa0, 
  0x50, 0x56, 0x58, 0x49, 0x35, 0x50, 0x24, 0xde, 0x97, 0x29, 0x1a, 0xc2, 
  0xa0, 0xfb, 0xfb, 0x3e, 0x02, 0xa6, 0xe7, 0x11, 0xd5, 0x38, 0x0e, 0xcb, 
  0x52, 0xb7, 0xfc, 0x84, 0xd3, 0xe9, 0xdb, 0x2b, 0x2c, 0x81, 0x3b, 0xf6, 
  0xf0, 0xef, 0xaf, 0xd9, 0x20, 0xc6, 0xe5, 0xe0, 0xea, 0x04, 0x2c, 0xd4, 
  0x23, 0x34, 0x18, 0x19, 0xcd, 0x01, 0xfa, 0x44, 0x10, 0x12, 0x03, 0x68, 
  0x29, 0xaa, 0xb2, 0x59, 0x32, 0x29, 0xec, 0x10, 0xad, 0x2e, 0xf6, 0xca, 
  0xad, 0x0b, 0xc1, 0x10, 0x01, 0x36, 0xc3, 0x33, 0x11, 0x9a, 0x1b, 0xcd, 
  0x0d, 0x25, 0x43, 0x1c, 0x1c, 0xf2, 0xf5, 0xd6, 0xd7, 0xc0, 0x16, 0x01, 
  0xe9, 0x27, 0xf3, 0x1e, 0x1c, 0xc4, 0x2e, 0x18, 0xf2, 0x26, 0xf3, 0x3b, 
  0x2f, 0xf8, 0x1a, 0xf5, 0x81, 0x0b, 0xda, 0xea, 0xfb, 0xff, 0x0f, 0x37, 
  0xc6, 0xac, 0x19, 0x22, 0x0d, 0xe7, 0x17, 0xe5, 0x81, 0x95, 0xf1, 0x35, 
  0x3c, 0x9f, 0x39, 0x22, 0x08, 0xeb, 0xc3, 0x12, 0x17, 0x49, 0xf5, 0xe0, 
  0xec, 0xa7, 0xc7, 0xc2, 0x10, 0x9f, 0xeb, 0xea, 0xcf, 0x1e, 0xc3, 0x18, 
  0xfe, 0x12, 0x22, 0x2c, 0xdc, 0xed, 0x97, 0x4f, 0x4a, 0xf9, 0x35, 0xe7, 
  0x0b, 0x30, 0xca, 0x06, 0xf3, 0x04, 0x92, 0x51, 0x29, 0x54, 0x38, 0x60, 
  0xd6, 0x4c, 0xc3, 0xf7, 0x44, 0x47, 0xbb, 0x16, 0xb6, 0x06, 0x39, 0xd7, 
  0x26, 0x7f, 0x40, 0x15, 0x28, 0x15, 0xdd, 0x15, 0xd7, 0xcb, 0x0c, 0xac, 
  0xcb, 0xf4, 0xe7, 0xea, 0xca, 0xbb, 0x1e, 0x12, 0xdb, 0x52, 0x6b, 0xc2, 
  0x30, 0xf6, 0x2f, 0xcd, 0xe2, 0xc7, 0xfe, 0x28, 0xf9, 0xb0, 0xf5, 0xd4, 
  0x0a, 0x0e, 0xf3, 0xdc, 0x06, 0xfa, 0xf2, 0xcb, 0x3d, 0xc7, 0x27, 0xdd, 
  0xd8, 0x2d, 0xea, 0x45, 0xf4, 0xcf, 0xee, 0xed, 0x15, 0x0c, 0x11, 0x0b, 
  0xe6, 0x03, 0xdb, 0x22, 0x11, 0xdd, 0x05, 0xe1, 0x4c, 0x16, 0x1c, 0xbf, 
  0xaf, 0x1a, 0xc0, 0xf0, 0xce, 0xec, 0xe9, 0x61, 0x49, 0x9d, 0xf8, 0xf3, 
  0xc1, 0xf4, 0x28, 0x37, 0xef, 0xe2, 0xd6, 0x81, 0xd9, 0x96, 0x20, 0x2c, 
  0x01, 0xe0, 0x17, 0xc8, 0xe4, 0xc6, 0x03, 0x42, 0x43, 0xd2, 0xfb, 0x3e, 
  0xf1, 0xdb, 0xcb, 0xd4, 0x19, 0xc1, 0x09, 0xef, 0xdd, 0xc0, 0xb6, 0x55, 
  0x0a, 0xd0, 0x1d, 0x0b, 0x0d, 0x16, 0xe3, 0xda, 0xe5, 0x9a, 0x01, 0x9b, 
  0x51, 0xf2, 0xfd, 0x10, 0x46, 0xce, 0x81, 0xfc, 0x2c, 0xdc, 0xf8, 0xee, 
  0x1f, 0x04, 0x03, 0x0c, 0x28, 0xea, 0xd5, 0x36, 0x2b, 0xce, 0xe2, 0xe9, 
  0x34, 0x2e, 0x1a, 0x42, 0x28, 0xa4, 0x3f, 0xe6, 0x37, 0x1f, 0x38, 0x37, 
  0xcb, 0xc7, 0x05, 0x10, 0x48, 0x3e, 0xf4, 0xe3, 0x46, 0xf8, 0x35, 0xf8, 
  0xd9, 0x23, 0xdd, 0xe9, 0xc3, 0xfa, 0xf5, 0xfe, 0x2b, 0x42, 0xed, 0xdd, 
  0xfb, 0x81, 0x1e, 0x3a, 0x32, 0x0b, 0x38, 0x04, 0x0a, 0x2c, 0xc3, 0x16, 
  0xfc, 0xd9, 0x2b, 0x28, 0x0f, 0x3a, 0xf8, 0x12, 0x40, 0xdb, 0xc7, 0xc7, 
  0xcf, 0xdb, 0x03, 0xfb, 0x03, 0x37, 0x34, 0x0c, 0xfa, 0xc7, 0xfb, 0xf5, 
  0xe7, 0x0d, 0xd7, 0x0b, 0xdb, 0x0b, 0xed, 0xf5, 0x1e, 0x2f, 0xe9, 0x2e, 
  0xf5, 0xb9, 0x21, 0x1c, 0x06, 0x28, 0xd5, 0xf3, 0x09, 0xe7, 0x27, 0xfa, 
  0x22, 0x2c, 0x25, 0x20, 0xf9, 0x2a, 0x72, 0xdc, 0xf5, 0x06, 0x09, 0x06, 
  0xed, 0x33, 0xf3, 0x1c, 0x36, 0xd9, 0xba, 0x33, 0xdf, 0xb7, 0xee, 0x10, 
  0x3b, 0x47, 0xc6, 0x28, 0xe4, 0x1c, 0x48, 0xfc, 0xe1, 0xb7, 0x1e, 0xed, 
  0x16, 0x53, 0x28, 0xf4, 0x0d, 0xb9, 0x9a, 0xb6, 0x98, 0x55, 0xdf, 0xf4, 
  0xb5, 0xfa, 0x0c, 0xe5, 0xd0, 0x7f, 0xd7, 0x29, 0x2a, 0x40, 0xe6, 0xc9, 
  0xa0, 0x00, 0x34, 0x60, 0xeb, 0xf0, 0x01, 0x4e, 0xf1, 0xf4, 0xf5, 0x04, 
  0xad, 0xc5, 0xe4, 0xb4, 0xd6, 0xc8, 0x53, 0xac, 0xab, 0x38, 0xa1, 0x9c, 
  0xe8, 0xd3, 0xb7, 0xb0, 0x28, 0x24, 0xf1, 0xf2, 0xbe, 0x60, 0x1b, 0x14, 
  0x07, 0xd9, 0xcd, 0xca, 0x5a, 0xb7, 0x0d, 0x08, 0x07, 0xbe, 0x0e, 0xb8, 
  0xd9, 0xa1, 0x1c, 0x05, 0xdc, 0xb9, 0xc0, 0x2d, 0x04, 0x25, 0x81, 0xc5, 
  0x2d, 0x3a, 0x24, 0xcf, 0x0e, 0xdd, 0xad, 0x02, 0x0c, 0xb9, 0xa9, 0x9d, 
  0x00, 0xe4, 0x1a, 0x0e, 0x00, 0xd0, 0x06, 0xf8, 0xbc, 0x4d, 0xdf, 0x3c, 
  0x3e, 0x56, 0xec, 0x07, 0x2b, 0x01, 0xdf, 0x16, 0x00, 0xf5, 0xdc, 0xca, 
  0xe7, 0x51, 0x73, 0x02, 0x81, 0xd5, 0x20, 0xde, 0x14, 0x5f, 0xd4, 0x1f, 
  0xf8, 0xe5, 0xf9, 0xd9, 0xb0, 0x28, 0x19, 0x0d, 0xbf, 0x38, 0xbf, 0x34, 
  0xd2, 0x04, 0xed, 0xf8, 0xdc, 0x30, 0xf6, 0x2b, 0xe8, 0xf5, 0x0e, 0xf6, 
  0xfc, 0xf0, 0xdc, 0x2f, 0x09, 0x3c, 0xce, 0xf7, 0xc4, 0xe3, 0xcf, 0xef, 
  0xfa, 0xc2, 0x1d, 0xf5, 0x21, 0xfd, 0x12, 0x15, 0xf0, 0x25, 0x10, 0xc6, 
  0x05, 0x19, 0x2a, 0x81, 0x04, 0x66, 0x25, 0x43, 0xbb, 0xf5, 0x87, 0xc7, 
  0x0d, 0x41, 0xf8, 0x4c, 0x03, 0x23, 0x55, 0xd9, 0x1f, 0x45, 0xb6, 0x1b, 
  0xe6, 0x6f, 0x08, 0xe2, 0xcf, 0x11, 0xdd, 0xe9, 0x94, 0xee, 0x4e, 0xf0, 
  0x31, 0x22, 0x00, 0xbc, 0xc4, 0x30, 0x05, 0xb4, 0x2a, 0x09, 0x0c, 0x08, 
  0xc2, 0xce, 0xee, 0xe0, 0x81, 0x4d, 0x12, 0x26, 0x01, 0x23, 0xbf, 0x34, 
  0xfc, 0xfc, 0x2c, 0xe1, 0xed, 0x18, 0xce, 0xde, 0x0c, 0x16, 0x38, 0x38, 
  0x9d, 0xd0, 0xee, 0xef, 0x27, 0x3e, 0xc3, 0x14, 0xf3, 0xdf, 0xf0, 0xff, 
  0xdb, 0x27, 0x27, 0x20, 0xd9, 0x46, 0xc6, 0x09, 0xa8, 0xdc, 0xff, 0xef, 
  0x08, 0x02, 0x27, 0x48, 0x14, 0xd3, 0x3a, 0x2c, 0x0d, 0xd7, 0xff, 0x0e, 
  0xdd, 0x1d, 0x25, 0xa7, 0x3f, 0xdd, 0x9a, 0xe8, 0xa9, 0x17, 0x5b, 0xa6, 
  0x01, 0xdf, 0x15, 0xfb, 0x0b, 0xa8, 0x59, 0xd9, 0x8e, 0x60, 0x3e, 0xa8, 
  0xf2, 0xea, 0x2d, 0xa6, 0x81, 0xa2, 0x06, 0xe0, 0xc5, 0xa3, 0xc8, 0xc7, 
  0xc9, 0xca, 0x15, 0xae, 0xf3, 0xe8, 0x39, 0xc3, 0x0d, 0xa6, 0x39, 0xdc, 
  0x3b, 0x64, 0x26, 0x01, 0x26, 0xf9, 0x4c, 0xda, 0xef, 0x3f, 0x43, 0x2c, 
  0xf2, 0xbf, 0x10, 0x3e, 0x10, 0x02, 0x2a, 0xdc, 0x2e, 0xf8, 0xfe, 0xf4, 
  0xd5, 0xec, 0x1c, 0x26, 0x0a, 0x30, 0x10, 0xfb, 0xfd, 0x08, 0xe0, 0xed, 
  0x31, 0xd7, 0x35, 0x5b, 0xd1, 0xd4, 0xec, 0xfa, 0x16, 0xed, 0x81, 0x08, 
  0x2d, 0x28, 0x0b, 0xe3, 0xed, 0xec, 0xab, 0xf7, 0x1b, 0x15, 0xfe, 0x50, 
  0xf3, 0xef, 0x1a, 0xfd, 0x37, 0xd6, 0x14, 0x2c, 0x16, 0x16, 0xbd, 0x15, 
  0x2f, 0xe0, 0xfc, 0xf8, 0xd0, 0x04, 0xec, 0x16, 0xdb, 0x36, 0xdd, 0xec, 
  0x37, 0x0e, 0x12, 0xf1, 0xd4, 0xc0, 0x74, 0xef, 0x0a, 0xea, 0x1d, 0xd5, 
  0xe7, 0x02, 0x62, 0xed, 0x18, 0x0c, 0xff, 0x35, 0xba, 0xfe, 0x81, 0xb8, 
  0xf5, 0xd7, 0x15, 0xe0, 0x1d, 0xe3, 0x08, 0x09, 0xd7, 0x14, 0x1e, 0x35, 
  0x3e, 0xd5, 0xef, 0x39, 0xfa, 0xbc, 0xf8, 0xf9, 0x1b, 0xc4, 0xf5, 0xd3, 
  0x22, 0x2a, 0x04, 0x56, 0x63, 0x05, 0x0e, 0xc6, 0xf4, 0x26, 0x15, 0xa6, 
  0x0a, 0x81, 0xf2, 0x3a, 0x1d, 0x25, 0x16, 0x47, 0x07, 0x08, 0xd4, 0x06, 
  0x12, 0xc6, 0x26, 0x17, 0x24, 0x2c, 0x1a, 0xee, 0xfb, 0xdf, 0x92, 0xe9, 
  0x0f, 0xd3, 0xd9, 0x0d, 0x02, 0x20, 0x27, 0xf7, 0x00, 0xdb, 0x07, 0x0b, 
  0xfd, 0x3c, 0x0d, 0x0b, 0x09, 0xc9, 0x3d, 0x05, 0xf1, 0x2a, 0xa2, 0x39, 
  0x42, 0xeb, 0x02, 0x1b, 0x12, 0x0c, 0xf0, 0xf8, 0x34, 0xe3, 0x29, 0x24, 
  0x29, 0x23, 0x3c, 0x16, 0xad, 0xca, 0xbd, 0x13, 0x0a, 0x2b, 0x49, 0x13, 
  0x62, 0xbd, 0xdf, 0xeb, 0x31, 0x88, 0xef, 0x0d, 0x16, 0x14, 0x3f, 0x0c, 
  0x1f, 0xd5, 0xf1, 0x3b, 0xfa, 0xce, 0xda, 0x53, 0xfd, 0x5f, 0xff, 0xe9, 
  0xec, 0xdb, 0xe7, 0x1b, 0x4f, 0x31, 0xfd, 0x26, 0x02, 0xbd, 0xe7, 0x7f, 
  0xe2, 0x4b, 0x2d, 0x1c, 0x61, 0xf3, 0x38, 0xd9, 0x08, 0x18, 0x0f, 0x35, 
  0x1d, 0xe4, 0xd0, 0x2a, 0x16, 0x37, 0x22, 0x35, 0xcf, 0xff, 0xb5, 0x18, 
  0xb7, 0x26, 0x81, 0xd2, 0xf6, 0xdc, 0x0f, 0x02, 0x0e, 0xe5, 0xd8, 0xb7, 
  0xd0, 0xe8, 0x16, 0x02, 0x0d, 0xf7, 0xfd, 0x06, 0x23, 0x0c, 0xeb, 0xeb, 
  0x2d, 0x19, 0x06, 0xf3, 0xe7, 0xfa, 0x1c, 0x08, 0x1d, 0x0a, 0x13, 0xf6, 
  0x0f, 0x2c, 0x1f, 0xe6, 0x00, 0x07, 0xe5, 0x23, 0xdc, 0xf2, 0xcc, 0x97, 
  0xf9, 0x07, 0x0d, 0xe3, 0x12, 0xb8, 0xe5, 0xb9, 0x22, 0xc6, 0x19, 0xd1, 
  0x30, 0xcd, 0x2e, 0xea, 0xea, 0x2c, 0xc1, 0x3b, 0x0a, 0xe2, 0xf2, 0x02, 
  0x34, 0xf4, 0x28, 0x81, 0xc8, 0x20, 0xde, 0xf8, 0x1c, 0x32, 0x0a, 0xfc, 
  0x27, 0xd3, 0xdb, 0x0b, 0x42, 0x16, 0x08, 0xd3, 0xfc, 0xc4, 0x36, 0x26, 
  0x3f, 0x49, 0x1e, 0xe0, 0x14, 0xcc, 0x1a, 0xdf, 0xd9, 0x23, 0x3e, 0x2a, 
  0x2e, 0xf2, 0xed, 0x06, 0xe1, 0xdb, 0x38, 0xc5, 0x0e, 0x04, 0xc1, 0xdc, 
  0xed, 0x1b, 0x08, 0xcd, 0xe3, 0x29, 0xef, 0xc8, 0xe1, 0x12, 0x81, 0xaa, 
  0xeb, 0xfa, 0x42, 0x21, 0xf9, 0x2d, 0xbe, 0xca, 0xb9, 0x06, 0x15, 0xd3, 
  0xf2, 0xf2, 0xbf, 0xbc, 0xd7, 0x09, 0xe8, 0x0f, 0x03, 0x13, 0xf8, 0xf2, 
  0x01, 0xe8, 0x36, 0x38, 0xfc, 0x1d, 0x02, 0xe1, 0x20, 0x30, 0x32, 0xe8, 
  0x11, 0x3b, 0xee, 0xe0, 0xff, 0x98, 0xbe, 0xb6, 0x31, 0x34, 0x3a, 0xf9, 
  0xf1, 0xb8, 0xca, 0x89, 0x2e, 0xc0, 0x27, 0xb2, 0x19, 0x35, 0x20, 0x16, 
  0x27, 0x04, 0x16, 0x05, 0xb2, 0x0e, 0xb2, 0xfb, 0xf2, 0x01, 0xcc, 0x10, 
  0x07, 0xc2, 0x3a, 0xb9, 0xef, 0x0e, 0x2a, 0x0d, 0xd1, 0x25, 0xfa, 0xb8, 
  0xa6, 0xa7, 0xb3, 0x28, 0xf9, 0xf7, 0xdd, 0xfa, 0x81, 0x0c, 0xfa, 0xec, 
  0x28, 0xe0, 0xd1, 0x0e, 0x32, 0xd6, 0xe0, 0xfa, 0x1a, 0x34, 0xfb, 0x28, 
  0xa3, 0xcd, 0xeb, 0x4b, 0xf1, 0xe7, 0x32, 0x0a, 0x91, 0x2c, 0xd4, 0xe3, 
  0x3e, 0x2f, 0x0d, 0x27, 0xe3, 0xf6, 0x24, 0xf6, 0xac, 0x1e, 0xcc, 0x07, 
  0xed, 0x14, 0xcb, 0x03, 0x0d, 0xac, 0xfe, 0xe9, 0xff, 0x25, 0x17, 0xf6, 
  0xe1, 0x29, 0x10, 0xde, 0xc4, 0x81, 0xc6, 0x09, 0x11, 0x09, 0xcd, 0xfd, 
  0xe1, 0xe9, 0xdf, 0x14, 0x34, 0x05, 0xd9, 0xea, 0x06, 0x22, 0xed, 0xe6, 
  0x09, 0x33, 0xe6, 0x18, 0xd3, 0x0a, 0xe7, 0x46, 0xd9, 0xc3, 0x0b, 0xf4, 
  0xa4, 0x19, 0xda, 0x00, 0x45, 0xdf, 0xeb, 0x1a, 0x26, 0xf3, 0x0f, 0x15, 
  0xa8, 0x35, 0xce, 0x13, 0xfb, 0x14, 0xc4, 0x2d, 0x0a, 0x2e, 0xdd, 0xf1, 
  0xfe, 0xc5, 0x08, 0xef, 0x0e, 0x34, 0x11, 0xea, 0x81, 0xb6, 0x1a, 0x0c, 
  0x08, 0x1c, 0xfd, 0x19, 0x17, 0x0a, 0xd8, 0x1b, 0x1a, 0xfc, 0xfe, 0x31, 
  0x18, 0x43, 0xf7, 0xf6, 0xd7, 0xf8, 0xde, 0x2d, 0xda, 0xd9, 0x0c, 0x45, 
  0x42, 0xe8, 0x00, 0x26, 0xe0, 0x00, 0xd7, 0x2e, 0x0c, 0xf0, 0xe4, 0x07, 
  0x35, 0x1e, 0xab, 0xc8, 0x19, 0xfb, 0x4b, 0x0d, 0xfe, 0x1d, 0x0b, 0x81, 
  0xe8, 0xc9, 0x0c, 0x08, 0xf6, 0xe8, 0xf3, 0xdf, 0x22, 0x04, 0xe2, 0xdd, 
  0xf9, 0x06, 0xf5, 0x1b, 0xeb, 0xb7, 0x25, 0x01, 0x1b, 0x17, 0xfb, 0xf1, 
  0xf1, 0xe0, 0x05, 0xfc, 0x00, 0xc4, 0x24, 0x1f, 0xf6, 0xd2, 0xf6, 0xf2, 
  0x23, 0x11, 0x27, 0xd3, 0x32, 0xf2, 0xdb, 0x8c, 0x26, 0xea, 0x13, 0xbc, 
  0x4e, 0x1e, 0x10, 0xdf, 0x42, 0x31, 0x2b, 0x3a, 0xa8, 0xf5, 0x84, 0x3d, 
  0xff, 0x04, 0xe8, 0x13, 0xfd, 0xed, 0x1c, 0xb7, 0xeb, 0xf2, 0x3c, 0x4d, 
  0xd4, 0x1e, 0x1e, 0xf0, 0xe8, 0x94, 0xcb, 0x2e, 0xf4, 0xc4, 0xc7, 0xf4, 
  0x99, 0xd8, 0xb1, 0x71, 0x48, 0x11, 0xdb, 0x7f, 0x0c, 0x25, 0x3d, 0xe3, 
  0xf2, 0x2b, 0xe2, 0x37, 0xae, 0xe3, 0xb6, 0x5d, 0xe4, 0xe5, 0x1c, 0xe3, 
  0xdf, 0x29, 0xdd, 0xdb, 0xf1, 0x49, 0xfe, 0xe5, 0xb5, 0xfc, 0xf1, 0xf4, 
  0xe7, 0x20, 0x03, 0xfb, 0x45, 0x17, 0xe2, 0xe6, 0x02, 0x31, 0x21, 0xea, 
  0xe9, 0x46, 0x35, 0x81, 0x3b, 0xbb, 0xcc, 0x18, 0xe3, 0xdf, 0x2f, 0x04, 
  0x0f, 0x06, 0x08, 0x02, 0x38, 0x21, 0x2e, 0xf2, 0x0d, 0xfa, 0xbd, 0xed, 
  0xf2, 0x1f, 0x22, 0x27, 0x81, 0xd6, 0x00, 0x92, 0x1c, 0x17, 0x47, 0xd3, 
  0xc5, 0x21, 0x1a, 0xef, 0xd6, 0xe4, 0xe0, 0x1f, 0xc8, 0xfa, 0x4f, 0xf0, 
  0x01, 0xbc, 0x86, 0x69, 0x2f, 0x2d, 0xb9, 0xfb, 0x36, 0xf4, 0x02, 0x9c, 
  0xa3, 0x44, 0xa7, 0x40, 0x53, 0xe8, 0x51, 0xd4, 0x18, 0xdc, 0xbf, 0x14, 
  0xc8, 0xdf, 0xff, 0x20, 0xcc, 0x1c, 0xea, 0xf9, 0x09, 0x13, 0xdc, 0xcd, 
  0x2e, 0x00, 0x3a, 0x2f, 0xfd, 0x68, 0x19, 0x11, 0x21, 0x16, 0x51, 0x25, 
  0x2d, 0x3e, 0x40, 0xf0, 0x5a, 0x7f, 0xd9, 0x96, 0xb8, 0xbf, 0x17, 0x23, 
  0xea, 0x0e, 0xf4, 0xee, 0x5b, 0xe8, 0x2f, 0xf5, 0x9b, 0xed, 0x7f, 0xc5, 
  0x23, 0xaa, 0x11, 0x29, 0x2e, 0xd2, 0x16, 0xe4, 0x19, 0xbb, 0x17, 0x30, 
  0xbb, 0xcc, 0xf2, 0x9b, 0x8d, 0xe9, 0x4b, 0x36, 0xef, 0x22, 0x0b, 0xd6, 
  0x1b, 0x0c, 0xd8, 0x47, 0x03, 0xf5, 0x2e, 0x3b, 0xed, 0xa4, 0x95, 0xff, 
  0x4d, 0x35, 0xed, 0xfb, 0xf7, 0x09, 0xfc, 0x20, 0x06, 0x22, 0x39, 0x10, 
  0xe1, 0xe2, 0x13, 0x24, 0x43, 0x43, 0x4f, 0x23, 0x12, 0x25, 0xf2, 0xec, 
  0xcb, 0xda, 0x3f, 0x94, 0x02, 0xd4, 0xca, 0xd0, 0xc3, 0x82, 0x1f, 0x13, 
  0xcc, 0x2d, 0x64, 0xd0, 0x20, 0xc0, 0x22, 0xdc, 0xa9, 0xe1, 0x1a, 0x11, 
  0x2c, 0xa5, 0x00, 0x89, 0xef, 0x01, 0xd2, 0x81, 0x23, 0xdf, 0xda, 0xe5, 
  0x38, 0xaf, 0x39, 0xce, 0x1a, 0x0e, 0xd6, 0x42, 0xcb, 0x11, 0x32, 0xfa, 
  0x11, 0xf4, 0x1c, 0x00, 0xeb, 0x06, 0xeb, 0x39, 0xff, 0x2b, 0xfc, 0xbe, 
  0xf3, 0x0e, 0xa0, 0x20, 0x01, 0x18, 0x81, 0x1e, 0x23, 0x03, 0xfe, 0xc3, 
  0xef, 0x19, 0x03, 0x1b, 0xf5, 0x1b, 0x08, 0xcd, 0x48, 0xd9, 0xc2, 0xfe, 
  0x0f, 0xfe, 0x02, 0x1f, 0xe5, 0x01, 0x35, 0xe2, 0x04, 0xc2, 0x06, 0xc7, 
  0xfc, 0x1d, 0xf0, 0xf8, 0x3a, 0xd5, 0x47, 0x05, 0xdd, 0xad, 0x15, 0xd1, 
  0xea, 0x21, 0x00, 0x05, 0x9a, 0xf0, 0xfe, 0x0e, 0x27, 0xcf, 0x13, 0xcc, 
  0x0e, 0x32, 0x29, 0x15, 0x2a, 0x0f, 0xf0, 0xf0, 0xa6, 0xf5, 0x4a, 0xd3, 
  0xe8, 0xf4, 0xd9, 0xf0, 0x1f, 0xb3, 0x3a, 0xea, 0xb6, 0xde, 0x2c, 0xe6, 
  0x0f, 0x08, 0x14, 0xb0, 0x81, 0x93, 0xe2, 0x22, 0xfe, 0x11, 0xf0, 0x0d, 
  0x1b, 0x0d, 0xca, 0x0d, 0xe5, 0xe3, 0x11, 0xed, 0xeb, 0xbf, 0xef, 0xf9, 
  0x1f, 0x30, 0xe0, 0x33, 0xe8, 0xcd, 0xf7, 0x15, 0x08, 0x21, 0x0a, 0xf7, 
  0x0b, 0x0b, 0x1c, 0x2b, 0x2c, 0xd2, 0x15, 0x0d, 0x2d, 0xa0, 0x45, 0xc7, 
  0x09, 0x3d, 0x0e, 0xfb, 0x08, 0x2d, 0xd3, 0x50, 0x03, 0xd9, 0xb1, 0x27, 
  0x2d, 0xfd, 0x2e, 0xef, 0x22, 0x52, 0x4c, 0x26, 0xc6, 0x81, 0xc8, 0xbf, 
  0x1b, 0xe8, 0xe4, 0xfe, 0x2c, 0xf9, 0x20, 0xde, 0xdd, 0x52, 0x01, 0xbf, 
  0x88, 0x14, 0x33, 0x55, 0x32, 0x31, 0x0f, 0x17, 0x08, 0xe5, 0xd9, 0x07, 
  0xd1, 0x38, 0x33, 0xf6, 0x01, 0x21, 0x1f, 0xf5, 0xf0, 0xe8, 0x2e, 0xcc, 
  0x1c, 0xfb, 0x00, 0x0c, 0x1e, 0x11, 0xd8, 0x00, 0x0a, 0xf9, 0x03, 0x10, 
  0xfc, 0x1c, 0xc7, 0xeb, 0x32, 0xf9, 0xeb, 0xb0, 0x00, 0x31, 0xe7, 0x2c, 
  0x36, 0xe7, 0xd7, 0x0a, 0xf2, 0x43, 0xff, 0x40, 0xf8, 0x26, 0x2d, 0xe1, 
  0xda, 0x3c, 0x22, 0x81, 0xc7, 0x31, 0x22, 0x15, 0x0c, 0x2d, 0x28, 0x2e, 
  0x17, 0x1c, 0x21, 0xfa, 0xef, 0x3f, 0xf3, 0x00, 0x06, 0xff, 0xed, 0x18, 
  0x2f, 0xc5, 0x1c, 0xee, 0x3c, 0x08, 0x4d, 0xc8, 0x81, 0x18, 0x96, 0x05, 
  0x15, 0x19, 0xcf, 0x32, 0x26, 0xf1, 0x06, 0xc3, 0xcc, 0xf1, 0x17, 0x69, 
  0xfb, 0x15, 0xed, 0xb1, 0xa6, 0xbc, 0x22, 0xe3, 0x00, 0xc5, 0xe8, 0xda, 
  0x03, 0x17, 0x90, 0x7c, 0x50, 0xc0, 0xf6, 0x3e, 0x34, 0xc9, 0x06, 0xdd, 
  0x2b, 0xad, 0xce, 0x3e, 0xdb, 0xfb, 0x8f, 0x4f, 0x4d, 0x05, 0x41, 0x38, 
  0xf4, 0xf1, 0xb0, 0x0b, 0xfc, 0x45, 0x3b, 0xa3, 0x1d, 0xc1, 0xec, 0x15, 
  0xad, 0xef, 0x70, 0x1f, 0xfd, 0x27, 0xc7, 0x1a, 0x04, 0xab, 0x36, 0xd3, 
  0x00, 0x00, 0x1f, 0x5a, 0x37, 0x1d, 0xdc, 0x8a, 0x84, 0xde, 0x00, 0x1c, 
  0x29, 0x03, 0xfd, 0x44, 0x31, 0xe0, 0xe1, 0xcf, 0x1a, 0x04, 0xf1, 0x97, 
  0xf7, 0xa0, 0xe5, 0x20, 0x54, 0x7f, 0x08, 0x32, 0x04, 0xfb, 0xef, 0xee, 
  0x5d, 0xe0, 0x42, 0x17, 0xde, 0xf8, 0xf8, 0xf4, 0xe0, 0x36, 0x71, 0xcb, 
  0x0a, 0x36, 0xaa, 0x1c, 0xfc, 0xba, 0x40, 0xf2, 0x14, 0xaa, 0x06, 0x95, 
  0x98, 0x87, 0xce, 0x11, 0xc0, 0x51, 0x49, 0xb2, 0x28, 0xbe, 0xf8, 0xf7, 
  0xfe, 0xb6, 0xfd, 0xe2, 0xd3, 0xc6, 0x3f, 0xd6, 0xdf, 0xb6, 0x21, 0xeb, 
  0x19, 0x46, 0xda, 0xd3, 0xf3, 0x9c, 0x12, 0x03, 0x10, 0x6e, 0x25, 0x47, 
  0x27, 0xd2, 0xf7, 0xb4, 0x17, 0xf8, 0x0e, 0xf6, 0x35, 0x81, 0xed, 0x46, 
  0xfa, 0x0c, 0xf9, 0xd8, 0x47, 0xc4, 0xd7, 0xd5, 0x99, 0xd7, 0x3f, 0x17, 
  0xce, 0x82, 0x10, 0x11, 0x13, 0x91, 0x62, 0xdf, 0x9f, 0x0e, 0x07, 0xaa, 
  0xe2, 0xff, 0x3f, 0x8d, 0xd2, 0xf9, 0x29, 0x10, 0xe5, 0xd9, 0xc8, 0x09, 
  0x2e, 0x33, 0xf2, 0xa5, 0x2f, 0xb9, 0x3c, 0xd0, 0xc3, 0x94, 0xce, 0xd2, 
  0x4e, 0x7f, 0x15, 0xf6, 0xe7, 0xc1, 0x23, 0xfb, 0x3a, 0x12, 0x06, 0xd3, 
  0xdc, 0x29, 0x47, 0x43, 0x1d, 0xf8, 0xd7, 0xd0, 0x0e, 0x24, 0x14, 0x0b, 
  0x3c, 0x9a, 0x10, 0x14, 0x36, 0xa0, 0x10, 0x53, 0xfb, 0x03, 0xed, 0x1d, 
  0x2e, 0xfc, 0xfd, 0x70, 0x30, 0x38, 0xdb, 0xe3, 0xff, 0x0e, 0x81, 0xd5, 
  0x0d, 0xe6, 0x3c, 0xf0, 0x0f, 0xf0, 0xac, 0x61, 0xd1, 0x20, 0xf0, 0x50, 
  0xd5, 0xec, 0x18, 0x01, 0x33, 0xc2, 0x21, 0x01, 0xe7, 0x2e, 0xb7, 0xd9, 
  0x13, 0xe3, 0xfb, 0xfa, 0x07, 0x20, 0xcc, 0x22, 0x47, 0x6d, 0x68, 0xc4, 
  0xf3, 0x14, 0x9f, 0xfa, 0xd3, 0xdb, 0xd4, 0x9b, 0x29, 0x14, 0xb1, 0xdb, 
  0xc7, 0xf2, 0xed, 0x06, 0xfe, 0x6e, 0x2b, 0xb2, 0x2f, 0x33, 0x46, 0x4b, 
  0xed, 0xaf, 0x1b, 0x4a, 0x2a, 0x0f, 0x44, 0x15, 0x35, 0x2d, 0xec, 0x90, 
  0x0f, 0x26, 0x2d, 0xf6, 0x45, 0x33, 0x1c, 0xcf, 0x0b, 0xe3, 0x38, 0x33, 
  0xdf, 0x15, 0xe2, 0xdb, 0xc3, 0x49, 0x2d, 0x03, 0x28, 0xae, 0xa1, 0x7f, 
  0x0e, 0x7f, 0x78, 0x43, 0x14, 0x32, 0xc5, 0x34, 0xec, 0xcc, 0xfb, 0x83, 
  0xf5, 0xa6, 0xe8, 0x2b, 0xd3, 0xd2, 0xe8, 0x2e, 0xbb, 0x06, 0x2a, 0xae, 
  0x44, 0x00, 0x04, 0xab, 0xbc, 0xdb, 0x10, 0xea, 0xfc, 0xe9, 0xd0, 0xce, 
  0x32, 0x1c, 0xb1, 0xbf, 0x30, 0x27, 0x09, 0x86, 0x0f, 0xda, 0xef, 0xdc, 
  0x14, 0x28, 0x4f, 0x68, 0xc8, 0xf3, 0xae, 0xb5, 0x35, 0x55, 0x0c, 0x11, 
  0x02, 0x21, 0xec, 0x57, 0x37, 0x5f, 0x26, 0xda, 0xfb, 0x58, 0xc4, 0xe8, 
  0xc1, 0x97, 0x35, 0x83, 0xc8, 0x26, 0x09, 0xc7, 0x10, 0xf8, 0x4a, 0x04, 
  0xf9, 0x5d, 0x43, 0x81, 0x10, 0x96, 0x25, 0xe6, 0xf4, 0xf6, 0xe5, 0x01, 
  0xec, 0x99, 0xf1, 0x98, 0x0f, 0x26, 0xeb, 0x84, 0x4e, 0x0b, 0xd1, 0xb6, 
  0x2a, 0xda, 0x50, 0xbc, 0x0f, 0x3f, 0x25, 0x1f, 0xdb, 0xc4, 0x03, 0x24, 
  0x0a, 0x1a, 0x2d, 0x1b, 0xee, 0x11, 0xe1, 0x17, 0x31, 0x30, 0xfa, 0x17, 
  0x20, 0xfe, 0xb9, 0x1f, 0xd4, 0x16, 0xc7, 0x28, 0x32, 0x26, 0xeb, 0xaf, 
  0x94, 0xef, 0x23, 0x05, 0x1f, 0xea, 0x09, 0x8a, 0x21, 0xcd, 0x81, 0x18, 
  0x19, 0x0e, 0x0e, 0x0a, 0x13, 0x2d, 0x47, 0xf5, 0x16, 0x36, 0x26, 0xb3, 
  0x27, 0x0c, 0xde, 0xf3, 0x39, 0x0c, 0x66, 0x2c, 0xca, 0xab, 0xf7, 0xf6, 
  0x2f, 0x1e, 0x2c, 0xc3, 0x40, 0xd6, 0xc9, 0xda, 0x18, 0xa1, 0x01, 0xb3, 
  0x1d, 0x0c, 0xd2, 0x0a, 0xe0, 0x1f, 0xc6, 0xfa, 0xfd, 0xde, 0x81, 0x15, 
  0x22, 0xed, 0xd1, 0xd4, 0xf8, 0xe5, 0x01, 0xf6, 0x19, 0x36, 0x15, 0x1d, 
  0x0e, 0xe7, 0xf3, 0xec, 0xc9, 0xe9, 0x14, 0x25, 0xe9, 0xf1, 0x30, 0x0d, 
  0x09, 0x99, 0x0c, 0xca, 0xe8, 0x0c, 0x0d, 0xe0, 0x37, 0xfa, 0x3b, 0x01, 
  0xb8, 0xc3, 0xce, 0x11, 0x0d, 0x1a, 0xd5, 0xc9, 0xa9, 0xcb, 0xfb, 0x22, 
  0x07, 0xe1, 0x17, 0xf2, 0xaa, 0xf4, 0xff, 0xff, 0x04, 0x00, 0x00, 0x00, 
  0x00, 0x01, 0x00, 0x00, 0x08, 0x04, 0x00, 0x00, 0x1b, 0xfe, 0xff, 0xff, 
  0x2c, 0x02, 0x00, 0x00, 0x19, 0xfe, 0xff, 0xff, 0x93, 0xfe, 0xff, 0xff, 
  0xd1, 0xfb, 0xff, 0xff, 0x30, 0xfe, 0xff, 0xff, 0x28, 0x00, 0x00, 0x00, 
  0xcd, 0xff, 0xff, 0xff, 0xd4, 0xfc, 0xff, 0xff, 0x84, 0xfd, 0xff, 0xff, 
  0xcf, 0x00, 0x00, 0x00, 0xfc, 0xf8, 0xff, 0xff, 0xf1, 0xfa, 0xff, 0xff, 
  0x94, 0xfd, 0xff, 0xff, 0x60, 0xfc, 0xff, 0xff, 0x63, 0xfd, 0xff, 0xff, 
  0x5d, 0xfa, 0xff, 0xff, 0xd5, 0xfb, 0xff, 0xff, 0xdf, 0xfb, 0xff, 0xff, 
  0xc7, 0xfd, 0xff, 0xff, 0x70, 0xfd, 0xff, 0xff, 0xff, 0xfb, 0xff, 0xff, 
  0x4e, 0xfc, 0xff, 0xff, 0xb5, 0xfc, 0xff, 0xff, 0x6d, 0xfb, 0xff, 0xff, 
  0x31, 0x03, 0x00, 0x00, 0xa0, 0x02, 0x00, 0x00, 0x47, 0x00, 0x00, 0x00, 
  0x21, 0xfd, 0xff, 0xff, 0x3e, 0xfb, 0xff, 0xff, 0x3c, 0xff, 0xff, 0xff, 
  0x75, 0xf8, 0xff, 0xff, 0x60, 0xfb, 0xff, 0xff, 0xb8, 0xff, 0xff, 0xff, 
  0xe4, 0xff, 0xff, 0xff, 0x86, 0x03, 0x00, 0x00, 0x8f, 0x01, 0x00, 0x00, 
  0x4c, 0xff, 0xff, 0xff, 0xa7, 0x01, 0x00, 0x00, 0x8f, 0xfc, 0xff, 0xff, 
  0xcc, 0xfa, 0xff, 0xff, 0x56, 0xfa, 0xff, 0xff, 0xc5, 0xfa, 0xff, 0xff, 
  0xfa, 0xfd, 0xff, 0xff, 0xc4, 0xfb, 0xff, 0xff, 0x40, 0xfe, 0xff, 0xff, 
  0x43, 0x01, 0x00, 0x00, 0xd5, 0xfd, 0xff, 0xff, 0x82, 0xfa, 0xff, 0xff, 
  0x0b, 0x01, 0x00, 0x00, 0x84, 0xf9, 0xff, 0xff, 0x87, 0xfb, 0xff, 0xff, 
  0xd5, 0xff, 0xff, 0xff, 0xe3, 0xf9, 0xff, 0xff, 0x9b, 0xfb, 0xff, 0xff, 
  0x89, 0xfe, 0xff, 0xff, 0xac, 0xfa, 0xff, 0xff, 0x1e, 0x03, 0x00, 0x00, 
  0xbb, 0xfd, 0xff, 0xff, 0x4b, 0xfb, 0xff, 0xff, 0x4d, 0xfd, 0xff, 0xff, 
  0xd4, 0xfe, 0xff, 0xff, 0x68, 0xff, 0xff, 0xff, 0xb6, 0xf5, 0xff, 0xff, 
  0x04, 0x00, 0x00, 0x00, 0x00, 0x09, 0x00, 0x00, 0xb7, 0xf7, 0xe4, 0xbc, 
  0xe4, 0x0c, 0x9c, 0xcd, 0x09, 0xfe, 0xd0, 0xce, 0x00, 0x2f, 0xd1, 0x10, 
  0xf8, 0x98, 0x06, 0x0c, 0x15, 0x8a, 0xf1, 0xc5, 0xb9, 0xd6, 0xa5, 0xae, 
  0x16, 0x1c, 0xad, 0xa0, 0xdf, 0xa5, 0xde, 0x81, 0xea, 0xf4, 0xec, 0xf2, 
  0xb3, 0xa4, 0x28, 0x11, 0x41, 0xd3, 0xe2, 0xc0, 0xe1, 0x93, 0x9c, 0x38, 
  0xeb, 0xa3, 0xea, 0xf7, 0xe7, 0x19, 0xed, 0xb8, 0xc4, 0x8c, 0xb3, 0x9f, 
  0xfa, 0xfa, 0xe0, 0xe4, 0x12, 0x0c, 0x03, 0xff, 0x00, 0x15, 0x39, 0x5f, 
  0xe1, 0xfc, 0x5f, 0x2f, 0xeb, 0x81, 0xe6, 0xe4, 0xb9, 0xf8, 0xb2, 0x13, 
  0xb2, 0x1d, 0xe1, 0xcd, 0x72, 0xf2, 0x3d, 0xcb, 0xed, 0xd5, 0xe4, 0xa7, 
  0x29, 0x18, 0x07, 0xf6, 0xd4, 0xa4, 0xb9, 0xcb, 0xfb, 0x2f, 0x0f, 0xd9, 
  0xac, 0xe3, 0xb4, 0xf4, 0x12, 0x35, 0x40, 0x1f, 0xd9, 0xd6, 0x0f, 0xee, 
  0xfe, 0xd0, 0xd2, 0xba, 0x4c, 0xa5, 0xf7, 0x0a, 0x27, 0xcf, 0x07, 0xcc, 
  0x0f, 0x92, 0xdf, 0x16, 0xbe, 0xd5, 0x52, 0xd1, 0x23, 0xd3, 0x3b, 0xd3, 
  0x2e, 0xa1, 0xee, 0x63, 0x07, 0xae, 0x20, 0xd4, 0xcb, 0x48, 0xd7, 0x42, 
  0x96, 0xff, 0x0c, 0x02, 0x19, 0x29, 0xdc, 0xde, 0x09, 0x1b, 0x21, 0x81, 
  0x4c, 0x37, 0xe0, 0xd5, 0x22, 0x27, 0xb2, 0xd8, 0xaf, 0x4d, 0xa3, 0x18, 
  0x1e, 0x38, 0x22, 0xb1, 0x36, 0x0b, 0x21, 0x00, 0xeb, 0x60, 0x96, 0xb4, 
  0x25, 0x58, 0xe3, 0x9d, 0xc0, 0x4a, 0x06, 0x2b, 0xa1, 0x1b, 0x34, 0x39, 
  0xb0, 0x11, 0x3f, 0xf0, 0xdb, 0x90, 0xf0, 0xb3, 0xec, 0x00, 0x2b, 0xf8, 
  0xd6, 0x24, 0x2a, 0x4f, 0x61, 0x1f, 0xac, 0x40, 0x08, 0x31, 0xe3, 0xa5, 
  0x03, 0xc1, 0x33, 0x2d, 0x30, 0xe0, 0xf8, 0xde, 0xeb, 0x81, 0xc8, 0xa9, 
  0xd5, 0xd7, 0x20, 0x9a, 0x09, 0xfe, 0xfc, 0x25, 0xc2, 0x9e, 0xa9, 0xa9, 
  0xec, 0x3c, 0xdc, 0x13, 0x0d, 0x15, 0xf9, 0xa8, 0x3e, 0x22, 0x81, 0x2b, 
  0x97, 0x16, 0x00, 0x05, 0x32, 0x00, 0x8e, 0xa3, 0xe9, 0xd5, 0xe8, 0xe2, 
  0xfc, 0xf0, 0x06, 0xdb, 0xd5, 0xd9, 0xf1, 0x24, 0xb4, 0xff, 0xba, 0x3f, 
  0x0b, 0x11, 0x3d, 0x21, 0x3a, 0x04, 0xc5, 0x83, 0x10, 0x9d, 0x31, 0x2c, 
  0xae, 0xdb, 0xec, 0xbf, 0xda, 0x3d, 0xc4, 0xf3, 0xf1, 0x2e, 0x9e, 0x1a, 
  0x20, 0x01, 0x0a, 0x01, 0xda, 0x12, 0x32, 0xee, 0x81, 0x13, 0xb9, 0xc2, 
  0x13, 0x4a, 0x2f, 0x64, 0xc2, 0xe5, 0x1b, 0xe6, 0xdd, 0xf3, 0x2e, 0xba, 
  0xf3, 0xe1, 0xca, 0x17, 0xf8, 0xad, 0x10, 0x46, 0xe7, 0x2e, 0x21, 0x1f, 
  0x54, 0xa9, 0x46, 0xee, 0x0a, 0x16, 0x08, 0xe9, 0xd9, 0xbe, 0xdb, 0xe5, 
  0x09, 0x20, 0x34, 0x03, 0xfb, 0x99, 0xe0, 0xf0, 0x0e, 0x19, 0xb8, 0x05, 
  0xd9, 0xb3, 0xf4, 0xdc, 0xda, 0x02, 0xe4, 0xca, 0x30, 0x4c, 0x72, 0xec, 
  0xe9, 0xd1, 0x4b, 0x0f, 0x2c, 0x60, 0x55, 0x41, 0xf0, 0xd4, 0x18, 0x32, 
  0xe3, 0x81, 0xbf, 0xd9, 0xe6, 0xf3, 0x85, 0x5a, 0xb3, 0xb2, 0xf7, 0xe4, 
  0xe9, 0xf9, 0x4b, 0xe5, 0xcf, 0x20, 0xd6, 0xab, 0x2a, 0xcd, 0x96, 0x00, 
  0xe5, 0xc8, 0xe6, 0x35, 0xf8, 0xf1, 0xe2, 0x0a, 0x29, 0xf1, 0xf1, 0xdf, 
  0xec, 0x4d, 0xc3, 0x22, 0x3c, 0x00, 0x1d, 0x0c, 0x26, 0xeb, 0x22, 0xac, 
  0x2f, 0xdd, 0xef, 0x35, 0x7f, 0x08, 0xfd, 0xca, 0x2f, 0xb5, 0xd3, 0xd6, 
  0x43, 0xbf, 0xd7, 0xc8, 0x25, 0x14, 0xe8, 0xe1, 0x40, 0x01, 0xef, 0xca, 
  0xfe, 0xf9, 0x09, 0xcb, 0xb6, 0xdb, 0xf5, 0xb0, 0xb3, 0x07, 0x0f, 0x65, 
  0xeb, 0x07, 0x35, 0x12, 0x0e, 0x7c, 0x43, 0xf8, 0x1f, 0x46, 0xfd, 0xec, 
  0x07, 0x0b, 0x00, 0x0d, 0xc9, 0xce, 0xf4, 0x00, 0xbe, 0x28, 0xdd, 0xe8, 
  0xf3, 0x09, 0x14, 0x27, 0xfa, 0x38, 0x47, 0xe8, 0x17, 0x95, 0x14, 0x93, 
  0x23, 0x17, 0xb9, 0x22, 0xf7, 0x12, 0xc2, 0x57, 0x3e, 0xcf, 0xc9, 0xe8, 
  0x02, 0xe7, 0x86, 0xd1, 0xc8, 0xaf, 0xfa, 0xb2, 0x57, 0xfc, 0x68, 0x04, 
  0x56, 0x38, 0x97, 0x0a, 0xc6, 0x04, 0x63, 0x66, 0x32, 0x06, 0xdb, 0x0b, 
  0xf8, 0xd7, 0x3d, 0x5f, 0xc9, 0x9b, 0x1a, 0xdb, 0x3a, 0xfc, 0x90, 0xcd, 
  0x3a, 0x42, 0x81, 0x06, 0xf2, 0xa4, 0x33, 0x41, 0x21, 0xfe, 0xcd, 0x07, 
  0x81, 0xcd, 0xd8, 0xf0, 0xa0, 0xf0, 0xf3, 0x3f, 0xfd, 0x0e, 0xc7, 0xb2, 
  0xe7, 0xa4, 0x23, 0x25, 0xde, 0xbf, 0x0b, 0xcc, 0x18, 0x48, 0xc8, 0xcf, 
  0x2e, 0x24, 0x3e, 0xf5, 0x4f, 0xa2, 0x1c, 0xc5, 0xf6, 0x03, 0xdf, 0xda, 
  0xc5, 0xf6, 0x27, 0x53, 0xc6, 0x6f, 0xf7, 0x10, 0x39, 0xe5, 0x3c, 0xf8, 
  0x0d, 0x07, 0x56, 0xd6, 0xe5, 0x96, 0xcf, 0x1e, 0xb6, 0xb0, 0x0e, 0x14, 
  0xc9, 0xcf, 0xfc, 0xe2, 0xa1, 0xf7, 0x15, 0xcb, 0x99, 0xbf, 0x33, 0x49, 
  0x7f, 0xae, 0xac, 0xd6, 0x14, 0xf0, 0x3f, 0xf2, 0xdc, 0x34, 0x0d, 0x0d, 
  0x8b, 0x55, 0x2f, 0xbf, 0x40, 0x25, 0x53, 0xbc, 0x50, 0xbb, 0x4a, 0xe9, 
  0xd4, 0x51, 0xf3, 0x2f, 0x2c, 0x0b, 0x62, 0x5f, 0xdd, 0xf9, 0x29, 0x15, 
  0x00, 0xb8, 0xc8, 0xd4, 0x0c, 0xd3, 0x42, 0xe1, 0xf6, 0xbd, 0x28, 0xbd, 
  0xac, 0x8e, 0xfe, 0xda, 0xb7, 0xbb, 0xb7, 0xe1, 0x82, 0xbe, 0xb8, 0xe3, 
  0x04, 0xd6, 0x53, 0x29, 0x75, 0xfa, 0xff, 0x01, 0xf8, 0xa0, 0x3d, 0x20, 
  0xfb, 0x36, 0x45, 0x0d, 0x8e, 0x4b, 0xe4, 0xe3, 0xe4, 0xcf, 0x35, 0x02, 
  0x3e, 0xd0, 0xfd, 0xe6, 0xdb, 0xfc, 0x15, 0x0f, 0xe2, 0xd9, 0x22, 0x32, 
  0xd1, 0x3a, 0x2d, 0x1f, 0x24, 0xfe, 0x34, 0xd7, 0xec, 0x01, 0x23, 0xba, 
  0x34, 0x81, 0xc9, 0xcc, 0xc4, 0xca, 0x38, 0x31, 0xfc, 0x1c, 0x2c, 0xdb, 
  0xac, 0xbd, 0xf3, 0xf7, 0xf0, 0xf9, 0xe9, 0x33, 0x1b, 0xe7, 0x2a, 0xe0, 
  0xde, 0xa7, 0xf1, 0xdc, 0xe1, 0x20, 0x04, 0x0a, 0xe3, 0x39, 0x32, 0x3c, 
  0x1e, 0xe5, 0xec, 0xa9, 0xd9, 0xad, 0x05, 0xf9, 0x2e, 0x32, 0xdc, 0x1f, 
  0xc9, 0xa6, 0xf8, 0x2b, 0xfb, 0x3e, 0x03, 0x09, 0xdb, 0x81, 0x1e, 0xc3, 
  0x13, 0xf4, 0x22, 0x0e, 0x04, 0xdb, 0x43, 0x0f, 0xc6, 0xcd, 0xeb, 0xfd, 
  0xd4, 0x18, 0x2c, 0xe4, 0x7f, 0x0f, 0xd0, 0xe8, 0x33, 0xe4, 0xa6, 0x0c, 
  0x1a, 0x1f, 0x37, 0xf9, 0xe6, 0x2c, 0xdb, 0x0e, 0x34, 0x0c, 0xb1, 0x27, 
  0x07, 0x11, 0x23, 0xf6, 0x07, 0x1a, 0xe2, 0x0a, 0xbf, 0xea, 0xcf, 0x36, 
  0x0b, 0xd8, 0x2c, 0xed, 0x29, 0x51, 0x48, 0xbc, 0x2f, 0x16, 0xc9, 0xe6, 
  0xd6, 0xf7, 0xc8, 0xe2, 0x1b, 0x1e, 0xd9, 0x34, 0xb8, 0x14, 0x9e, 0xe6, 
  0xbc, 0xf4, 0x24, 0xd4, 0xca, 0x10, 0xd4, 0x42, 0x8a, 0xdb, 0xf0, 0x09, 
  0xe8, 0x39, 0xb5, 0x21, 0xaf, 0xe9, 0xca, 0xf0, 0x3a, 0x0b, 0xa9, 0xe7, 
  0xef, 0x2d, 0x16, 0xe1, 0x2e, 0xbe, 0xe9, 0xec, 0x39, 0xe0, 0x39, 0x12, 
  0x0d, 0x07, 0xf8, 0xeb, 0x97, 0xb1, 0xda, 0xca, 0x15, 0x8c, 0xc1, 0xb9, 
  0xa2, 0xa3, 0x2d, 0x4a, 0xd6, 0x18, 0x13, 0xe2, 0x32, 0x59, 0x95, 0xfb, 
  0x03, 0x12, 0x81, 0x4c, 0x00, 0x42, 0x29, 0x05, 0xe5, 0x14, 0xbd, 0xa9, 
  0xf4, 0x1e, 0x37, 0x22, 0x01, 0x26, 0xbe, 0xe8, 0xa3, 0xff, 0x3e, 0x7d, 
  0x14, 0x24, 0xd7, 0x48, 0x92, 0x38, 0xa1, 0x29, 0x89, 0xda, 0x14, 0x1e, 
  0x00, 0xae, 0x38, 0xc7, 0xd6, 0x1e, 0x6b, 0x81, 0xf5, 0xf7, 0xf4, 0xaf, 
  0xf5, 0x30, 0xea, 0xd4, 0xcf, 0x64, 0xd9, 0xc3, 0x54, 0x9c, 0x8b, 0x79, 
  0x73, 0xfc, 0x4b, 0xdb, 0x33, 0xe4, 0xf5, 0x19, 0xe1, 0x8d, 0xca, 0x1f, 
  0x34, 0xce, 0x57, 0xda, 0xf6, 0xb0, 0x08, 0xf2, 0xd6, 0xc0, 0x81, 0xcf, 
  0xce, 0xfa, 0xf8, 0x06, 0x34, 0xaa, 0x87, 0xab, 0xf6, 0x1f, 0xd1, 0x0c, 
  0x59, 0x25, 0x2b, 0x27, 0xca, 0xd7, 0xd3, 0xee, 0x10, 0xe7, 0xf1, 0xe3, 
  0x2a, 0x3f, 0x40, 0x5d, 0x26, 0x85, 0xd3, 0xa7, 0x32, 0xcd, 0x14, 0x54, 
  0xb3, 0x03, 0xf5, 0xc6, 0xf8, 0x2d, 0x3e, 0xd4, 0x1a, 0x05, 0xe6, 0x3f, 
  0x26, 0xdf, 0x55, 0x32, 0xc3, 0x54, 0x08, 0xbf, 0xf6, 0x29, 0xe6, 0xd1, 
  0xd0, 0x03, 0xde, 0xf2, 0xbc, 0x3c, 0x12, 0x36, 0xa1, 0xa1, 0x3a, 0x59, 
  0xe1, 0x16, 0xcf, 0xbd, 0x8f, 0xba, 0xb9, 0x3a, 0x0a, 0xea, 0x49, 0x18, 
  0xe5, 0xf7, 0x16, 0xdb, 0xdf, 0x1e, 0xae, 0xb7, 0x1a, 0x15, 0xa7, 0x30, 
  0x8c, 0x3b, 0xd8, 0x00, 0x53, 0x81, 0x8e, 0x2b, 0x35, 0x4b, 0xd7, 0xdc, 
  0xb1, 0x4d, 0xde, 0x0d, 0xd8, 0xf7, 0x15, 0xaa, 0x26, 0x50, 0x4a, 0xf7, 
  0x3a, 0x29, 0x12, 0x34, 0x10, 0x45, 0xf5, 0xb3, 0x8a, 0xea, 0x0d, 0x28, 
  0xcc, 0xfa, 0xd1, 0x02, 0xe2, 0xf2, 0x81, 0xff, 0xba, 0x0b, 0x2a, 0xe2, 
  0xf4, 0xf9, 0xe9, 0xd4, 0xfe, 0xd7, 0x0e, 0x23, 0x58, 0x25, 0xb8, 0x05, 
  0xe2, 0x4f, 0x34, 0xf4, 0xab, 0xc4, 0xb0, 0x47, 0x29, 0xda, 0x04, 0x4e, 
  0x1a, 0x2e, 0xea, 0x0a, 0xe1, 0x49, 0xd1, 0x35, 0xed, 0xc9, 0xc3, 0xb4, 
  0x3f, 0x13, 0x00, 0xba, 0x81, 0x9e, 0x0f, 0xe1, 0x28, 0xfb, 0x30, 0x34, 
  0xf0, 0xe4, 0xc4, 0x3e, 0x17, 0xa3, 0xd8, 0x6a, 0xd8, 0x3f, 0xe4, 0xfe, 
  0xd5, 0x3d, 0x42, 0x53, 0xc9, 0x39, 0x3e, 0xb8, 0xab, 0xd9, 0x18, 0xa4, 
  0x76, 0xfa, 0xb6, 0xde, 0xf4, 0xbd, 0xd0, 0xc2, 0x90, 0x05, 0xf0, 0x54, 
  0x00, 0xa0, 0x9e, 0x50, 0x4e, 0xda, 0x57, 0x74, 0xfd, 0xf2, 0x30, 0xd8, 
  0x1b, 0x94, 0x01, 0x3c, 0xea, 0xb9, 0xc0, 0xe0, 0xa4, 0xfb, 0xf2, 0x12, 
  0x03, 0x13, 0xf0, 0x35, 0xef, 0x11, 0x20, 0xfe, 0x0b, 0xf3, 0x0d, 0xe2, 
  0xf2, 0xf9, 0x1e, 0xcd, 0x20, 0xd5, 0x19, 0x00, 0xc4, 0xf7, 0x1d, 0x47, 
  0x0e, 0xc3, 0xce, 0xdc, 0xed, 0x01, 0x0f, 0x01, 0x51, 0xd7, 0xfd, 0x2b, 
  0x1c, 0xe4, 0x5d, 0xef, 0xed, 0xf3, 0xf9, 0x81, 0x08, 0xf4, 0x2a, 0xd1, 
  0xf3, 0xde, 0xcb, 0x0c, 0xe2, 0x11, 0x22, 0x1f, 0xe8, 0x07, 0x09, 0xb6, 
  0x8a, 0xf1, 0xd1, 0x23, 0xf6, 0x48, 0x40, 0x13, 0xc0, 0x16, 0xff, 0x3e, 
  0xe3, 0x14, 0xeb, 0x01, 0x30, 0xee, 0xd3, 0x15, 0xdf, 0x08, 0xff, 0x45, 
  0xc2, 0xcf, 0x04, 0x4d, 0xf8, 0xe2, 0xfc, 0xd9, 0x2e, 0xfe, 0xc3, 0x1c, 
  0xf0, 0x27, 0xd0, 0xf6, 0x0f, 0x3c, 0x19, 0x02, 0xda, 0xc5, 0xdb, 0xad, 
  0x0a, 0x02, 0x48, 0xd4, 0x81, 0xf7, 0x00, 0x14, 0xdd, 0xe2, 0x09, 0xbd, 
  0x1b, 0xff, 0x51, 0x20, 0xb0, 0xd2, 0x2e, 0x41, 0xa7, 0xc0, 0x50, 0xef, 
  0xfa, 0xfb, 0xf4, 0xd2, 0xa6, 0x01, 0x86, 0x63, 0x0e, 0x06, 0xf6, 0xdb, 
  0xc6, 0x4d, 0x1a, 0x72, 0xc6, 0x05, 0x37, 0x36, 0x0f, 0x18, 0x96, 0x07, 
  0x26, 0x0a, 0x11, 0xd1, 0x37, 0xec, 0x22, 0x34, 0xe2, 0xe2, 0xb7, 0x6b, 
  0x10, 0x91, 0xfb, 0xf2, 0x06, 0x0c, 0x67, 0xba, 0x83, 0xa7, 0x01, 0xef, 
  0x81, 0xc4, 0xa1, 0x03, 0x2d, 0x2b, 0xc2, 0x3d, 0x48, 0x24, 0xbd, 0xc2, 
  0x25, 0x46, 0x05, 0xef, 0x19, 0x21, 0x1b, 0x11, 0x0f, 0xb1, 0xfd, 0x27, 
  0xbb, 0x1c, 0xfa, 0xda, 0x20, 0x81, 0xe5, 0x12, 0x2d, 0x19, 0x40, 0xb4, 
  0xc2, 0xd2, 0xe6, 0xcd, 0xd9, 0x14, 0x2f, 0x40, 0x2b, 0x16, 0x5c, 0xe9, 
  0xe5, 0xb1, 0x1b, 0xb4, 0xe6, 0xc9, 0x11, 0xc5, 0xbd, 0xfb, 0xad, 0xe0, 
  0x38, 0x47, 0xe3, 0x21, 0x32, 0xc8, 0xc3, 0x1f, 0x07, 0x1e, 0x1e, 0x3d, 
  0xc2, 0xfc, 0x40, 0x29, 0xf2, 0xef, 0xcc, 0x0f, 0x81, 0x2a, 0xeb, 0xfd, 
  0xfc, 0xdc, 0xfd, 0xd8, 0xc0, 0x58, 0x2f, 0x16, 0x26, 0x17, 0xee, 0xfe, 
  0x26, 0xed, 0xbc, 0xc4, 0xaf, 0x0c, 0x4c, 0xd1, 0xd6, 0x04, 0xf8, 0x07, 
  0xdb, 0x9c, 0x99, 0xae, 0xab, 0xbf, 0x1e, 0x22, 0x3c, 0x01, 0xe8, 0xf6, 
  0x23, 0x05, 0xf3, 0x13, 0x52, 0x3b, 0x46, 0x19, 0x4c, 0x00, 0xd1, 0x46, 
  0xe8, 0x02, 0xd0, 0xdb, 0x2b, 0x02, 0xd5, 0xdb, 0xf1, 0xf4, 0xf9, 0x06, 
  0x2c, 0x9d, 0x06, 0xbe, 0xc8, 0x42, 0xb2, 0x0a, 0xb7, 0x2c, 0x29, 0x12, 
  0x65, 0xf0, 0x81, 0xd1, 0x00, 0xdc, 0x25, 0xe7, 0x2c, 0x3c, 0xff, 0x40, 
  0xcb, 0xc4, 0x01, 0xc2, 0x32, 0x21, 0x59, 0xca, 0x0c, 0x1e, 0x12, 0xf2, 
  0xf0, 0x54, 0xdf, 0x0a, 0x09, 0xc6, 0x04, 0x50, 0xdd, 0xf0, 0x1c, 0x12, 
  0x33, 0x35, 0xd0, 0xb2, 0x0f, 0xd1, 0xd7, 0x45, 0xb6, 0xcf, 0xf3, 0x11, 
  0x17, 0xfc, 0x93, 0xb6, 0x28, 0x1c, 0xc0, 0xbd, 0x2c, 0x35, 0xd5, 0xfa, 
  0xc9, 0x54, 0x73, 0xf4, 0x65, 0xef, 0xf8, 0xc0, 0xdf, 0xdd, 0x81, 0xe6, 
  0x98, 0x59, 0x32, 0x03, 0x8b, 0xdd, 0xda, 0xf7, 0x15, 0xaa, 0xe2, 0xdf, 
  0x3e, 0x33, 0x38, 0xd6, 0xda, 0x71, 0x25, 0xe7, 0xab, 0xf8, 0xeb, 0xfb, 
  0x47, 0xd9, 0xf1, 0x24, 0x0a, 0x57, 0x27, 0x13, 0x11, 0x0c, 0xed, 0x15, 
  0x81, 0xee, 0xdb, 0x1b, 0x11, 0x1f, 0xe7, 0x23, 0xd3, 0x1a, 0x23, 0xe8, 
  0x07, 0xf1, 0xc7, 0xd5, 0x26, 0x12, 0x22, 0xe0, 0x41, 0xdb, 0xe0, 0xf0, 
  0x0b, 0x04, 0x10, 0xe2, 0x23, 0xfa, 0xe2, 0xe2, 0xc0, 0xdc, 0x35, 0xdc, 
  0x1d, 0x9f, 0xcd, 0xdc, 0xf1, 0xbd, 0x08, 0xec, 0xcd, 0x3b, 0x34, 0x03, 
  0xfd, 0x29, 0xd5, 0xee, 0xf2, 0xe8, 0xe4, 0x26, 0x24, 0x2f, 0xfb, 0x1d, 
  0x3c, 0xd6, 0x12, 0xd3, 0x7b, 0x57, 0xd1, 0x10, 0x19, 0xe9, 0xea, 0xa2, 
  0x37, 0xbf, 0x21, 0xcf, 0xf4, 0x22, 0x0c, 0x1d, 0xe2, 0x1a, 0xfb, 0xe2, 
  0x11, 0x41, 0xd6, 0xe7, 0xea, 0xf7, 0xe5, 0x81, 0x29, 0x10, 0xd3, 0x3a, 
  0xf0, 0xda, 0xde, 0x01, 0x15, 0x5a, 0x7b, 0x0a, 0x68, 0x1f, 0xeb, 0x9d, 
  0x3d, 0x12, 0xcf, 0x18, 0xf4, 0xfb, 0xd1, 0x37, 0xa5, 0x59, 0xcb, 0xdb, 
  0xa4, 0x19, 0xd4, 0x0c, 0xc1, 0xe8, 0xb4, 0xf0, 0x7f, 0x36, 0xee, 0xe8, 
  0x2b, 0xe7, 0xf2, 0xc5, 0x19, 0xbf, 0xf0, 0xc2, 0x0f, 0x1a, 0xda, 0x10, 
  0x2d, 0xe0, 0xf2, 0xf1, 0xe9, 0x06, 0xce, 0xc0, 0xe5, 0xeb, 0xce, 0x33, 
  0x27, 0x13, 0x21, 0x05, 0x11, 0xcf, 0xe2, 0xd3, 0xfd, 0x1a, 0x45, 0xe8, 
  0x2d, 0x44, 0xeb, 0xd9, 0x14, 0x26, 0xeb, 0x30, 0x21, 0xd2, 0x23, 0x32, 
  0xc8, 0xf2, 0xe1, 0xf7, 0xfd, 0x34, 0xfd, 0xca, 0x10, 0x81, 0x03, 0x09, 
  0x0e, 0x22, 0xd5, 0x47, 0xf4, 0xaa, 0x0d, 0xf4, 0x01, 0x10, 0xf3, 0xa6, 
  0x28, 0x01, 0x12, 0x20, 0x1d, 0xff, 0x13, 0xec, 0xe5, 0x3c, 0x3c, 0x03, 
  0xbd, 0xd6, 0xab, 0x89, 0xa0, 0x03, 0x2a, 0x0b, 0x08, 0x10, 0x26, 0xde, 
  0xe3, 0x0a, 0x22, 0xdf, 0xf2, 0x48, 0x25, 0xed, 0xfd, 0xe2, 0x33, 0xf2, 
  0xe2, 0xcc, 0x26, 0xea, 0x37, 0x2a, 0x36, 0x1b, 0x09, 0x3a, 0x39, 0xec, 
  0x37, 0xc3, 0xcf, 0xd2, 0x95, 0x89, 0x08, 0xe4, 0x40, 0x13, 0xa8, 0x48, 
  0xee, 0x07, 0x6d, 0xe7, 0x14, 0x91, 0xcf, 0x8a, 0x28, 0xaa, 0xd7, 0x1e, 
  0x9a, 0x81, 0x4d, 0x2f, 0xdf, 0xed, 0x0a, 0x3b, 0x3b, 0xd8, 0xda, 0xc5, 
  0x3e, 0x01, 0x10, 0x38, 0x61, 0x99, 0xe2, 0x1a, 0x1d, 0xcb, 0xfa, 0x37, 
  0x8f, 0xb2, 0x58, 0x8a, 0xc0, 0x15, 0x9f, 0x8f, 0x81, 0xa8, 0xb2, 0x1e, 
  0xb4, 0x0f, 0x4e, 0xf0, 0xca, 0xa1, 0xd6, 0xb8, 0x47, 0x23, 0x1e, 0x1d, 
  0xc0, 0x83, 0x37, 0xc5, 0x40, 0xa1, 0xba, 0xbc, 0xd7, 0x0b, 0x01, 0x57, 
  0x16, 0x32, 0xf9, 0xe2, 0x2a, 0x56, 0xc6, 0x07, 0xf8, 0x26, 0x17, 0xd1, 
  0x08, 0x1a, 0x1a, 0x16, 0xd2, 0xc0, 0x0e, 0x42, 0xc9, 0x75, 0x7a, 0x23, 
  0x03, 0x30, 0x31, 0xcf, 0x03, 0x4c, 0xf5, 0x49, 0xd3, 0x81, 0x67, 0xff, 
  0xe8, 0x29, 0x3f, 0xd9, 0x9c, 0x4c, 0x23, 0xd0, 0xa6, 0x26, 0x5b, 0xae, 
  0xa5, 0xdb, 0xe3, 0x43, 0xc2, 0x37, 0x3b, 0x29, 0x37, 0x3d, 0xcc, 0x41, 
  0xb4, 0xaa, 0xfc, 0x13, 0xcd, 0xf6, 0xfe, 0x3e, 0xa9, 0xda, 0xa0, 0x4a, 
  0x34, 0xd4, 0x4c, 0x34, 0x2f, 0xa3, 0xbd, 0x8c, 0x0e, 0xe9, 0x15, 0xfb, 
  0x35, 0x01, 0xdc, 0x2e, 0x81, 0xa3, 0x15, 0x5c, 0xe4, 0xea, 0xca, 0x9f, 
  0x10, 0x48, 0xb8, 0xcb, 0xe8, 0xa9, 0x1a, 0xce, 0xd2, 0xec, 0x0b, 0xef, 
  0xea, 0xd3, 0x25, 0x4e, 0xd6, 0xc3, 0x42, 0x10, 0xfe, 0xca, 0xd2, 0xc4, 
  0x00, 0xd8, 0xdb, 0xe8, 0x5d, 0x3a, 0xfa, 0x09, 0xc6, 0x14, 0x00, 0xeb, 
  0x5f, 0xf6, 0xfc, 0xed, 0x2d, 0xda, 0xad, 0xab, 0xe0, 0x1d, 0xf0, 0x3a, 
  0x81, 0xcb, 0xd9, 0x43, 0xe1, 0xde, 0xff, 0xdb, 0xcf, 0xc1, 0xd4, 0x10, 
  0x27, 0x61, 0x52, 0x5b, 0xc0, 0x25, 0xef, 0x52, 0x53, 0x0a, 0x0a, 0xf3, 
  0x04, 0x50, 0x3d, 0x18, 0x08, 0xfd, 0x33, 0xc1, 0xf0, 0x2f, 0xfa, 0x5f, 
  0x92, 0x26, 0xce, 0xb6, 0x0e, 0xd5, 0xdd, 0xe1, 0xf3, 0x2e, 0x45, 0x27, 
  0xfd, 0x31, 0x19, 0x08, 0x3b, 0x0d, 0x02, 0xcf, 0x61, 0xe7, 0x47, 0x81, 
  0x28, 0x31, 0x13, 0x9d, 0xb8, 0xe9, 0xce, 0x9c, 0xc2, 0x2f, 0x19, 0x06, 
  0xac, 0xe0, 0xcf, 0xc4, 0x21, 0x60, 0x1e, 0x4e, 0x29, 0xe3, 0xf2, 0x41, 
  0xf3, 0x30, 0xf2, 0x03, 0x03, 0x46, 0xae, 0x25, 0xc2, 0xfe, 0xff, 0xff, 
  0x04, 0x00, 0x00, 0x00, 0x90, 0x00, 0x00, 0x00, 0x70, 0xf9, 0xff, 0xff, 
  0xbe, 0xfe, 0xff, 0xff, 0x7c, 0x00, 0x00, 0x00, 0x4d, 0x00, 0x00, 0x00, 
  0x05, 0x01, 0x00, 0x00, 0x69, 0x01, 0x00, 0x00, 0xe8, 0x03, 0x00, 0x00, 
  0xc3, 0xff, 0xff, 0xff, 0xb7, 0x01, 0x00, 0x00, 0xe7, 0xfe, 0xff, 0xff, 
  0x12, 0xfe, 0xff, 0xff, 0xb4, 0xff, 0xff, 0xff, 0xb9, 0x03, 0x00, 0x00, 
  0xf3, 0xfe, 0xff, 0xff, 0x27, 0xfe, 0xff, 0xff, 0x2c, 0xfc, 0xff, 0xff, 
  0x3c, 0x02, 0x00, 0x00, 0xf8, 0x00, 0x00, 0x00, 0xd4, 0x01, 0x00, 0x00, 
  0xdb, 0x02, 0x00, 0x00, 0xb0, 0xfb, 0xff, 0xff, 0xd7, 0xff, 0xff, 0xff, 
  0xc2, 0x04, 0x00, 0x00, 0xac, 0x01, 0x00, 0x00, 0x4c, 0x03, 0x00, 0x00, 
  0xc9, 0xf9, 0xff, 0xff, 0x9e, 0x00, 0x00, 0x00, 0x9e, 0x00, 0x00, 0x00, 
  0x72, 0xff, 0xff, 0xff, 0x9f, 0xfa, 0xff, 0xff, 0x1f, 0x03, 0x00, 0x00, 
  0xe7, 0x04, 0x00, 0x00, 0xf5, 0xfc, 0xff, 0xff, 0xaa, 0xfe, 0xff, 0xff, 
  0x22, 0xfd, 0xff, 0xff, 0xb3, 0xfc, 0xff, 0xff, 0x5e, 0xff, 0xff, 0xff, 
  0x04, 0x00, 0x00, 0x00, 0x08, 0x00, 0x00, 0x00, 0x01, 0x00, 0x00, 0x00, 
  0x02, 0x00, 0x00, 0x00, 0xf8, 0xe0, 0xff, 0xff, 0xfc, 0xe0, 0xff, 0xff, 
  0x0f, 0x00, 0x00, 0x00, 0x4d, 0x4c, 0x49, 0x52, 0x20, 0x43, 0x6f, 0x6e, 
  0x76, 0x65, 0x72, 0x74, 0x65, 0x64, 0x2e, 0x00, 0x01, 0x00, 0x00, 0x00, 
  0x14, 0x00, 0x00, 0x00, 0x00, 0x00, 0x0e, 0x00, 0x18, 0x00, 0x14, 0x00, 
  0x10, 0x00, 0x0c, 0x00, 0x08, 0x00, 0x04, 0x00, 0x0e, 0x00, 0x00, 0x00, 
  0x14, 0x00, 0x00, 0x00, 0x1c, 0x00, 0x00, 0x00, 0xd4, 0x01, 0x00, 0x00, 
  0xd8, 0x01, 0x00, 0x00, 0xdc, 0x01, 0x00, 0x00, 0x04, 0x00, 0x00, 0x00, 
  0x6d, 0x61, 0x69, 0x6e, 0x00, 0x00, 0x00, 0x00, 0x06, 0x00, 0x00, 0x00, 
  0x6c, 0x01, 0x00, 0x00, 0x00, 0x01, 0x00, 0x00, 0xac, 0x00, 0x00, 0x00, 
  0x78, 0x00, 0x00, 0x00, 0x40, 0x00, 0x00, 0x00, 0x04, 0x00, 0x00, 0x00, 
  0x22, 0xff, 0xff, 0xff, 0x1c, 0x00, 0x00, 0x00, 0x00, 0x00, 0x00, 0x09, 
  0x1c, 0x00, 0x00, 0x00, 0x20, 0x00, 0x00, 0x00, 0x04, 0x00, 0x00, 0x00, 
  0x00, 0x00, 0x06, 0x00, 0x08, 0x00, 0x04, 0x00, 0x06, 0x00, 0x00, 0x00, 
  0x00, 0x00, 0x80, 0x3f, 0x01, 0x00, 0x00, 0x00, 0x0f, 0x00, 0x00, 0x00, 
  0x01, 0x00, 0x00, 0x00, 0x0e, 0x00, 0x00, 0x00, 0x5a, 0xff, 0xff, 0xff, 
  0x14, 0x00, 0x00, 0x00, 0x00, 0x00, 0x00, 0x08, 0x10, 0x00, 0x00, 0x00, 
  0x14, 0x00, 0x00, 0x00, 0x03, 0x00, 0x00, 0x00, 0xbc, 0xe1, 0xff, 0xff, 
  0x01, 0x00, 0x00, 0x00, 0x0e, 0x00, 0x00, 0x00, 0x03, 0x00, 0x00, 0x00, 
  0x0d, 0x00, 0x00, 0x00, 0x03, 0x00, 0x00, 0x00, 0x02, 0x00, 0x00, 0x00, 
  0x8e, 0xff, 0xff, 0xff, 0x14, 0x00, 0x00, 0x00, 0x00, 0x00, 0x00, 0x1b, 
  0x10, 0x00, 0x00, 0x00, 0x14, 0x00, 0x00, 0x00, 0x02, 0x00, 0x00, 0x00, 
  0xf0, 0xe1, 0xff, 0xff, 0x01, 0x00, 0x00, 0x00, 0x0d, 0x00, 0x00, 0x00, 
  0x02, 0x00, 0x00, 0x00, 0x0c, 0x00, 0x00, 0x00, 0x01, 0x00, 0x00, 0x00, 
  0x56, 0xff, 0xff, 0xff, 0x10, 0x00, 0x00, 0x00, 0x00, 0x00, 0x00, 0x01, 
  0x1c, 0x00, 0x00, 0x00, 0x20, 0x00, 0x00, 0x00, 0x48, 0xff, 0xff, 0xff, 
  0x00, 0x00, 0x00, 0x01, 0x01, 0x00, 0x00, 0x00, 0x01, 0x00, 0x00, 0x00, 
  0x00, 0x00, 0x00, 0x01, 0x01, 0x00, 0x00, 0x00, 0x0c, 0x00, 0x00, 0x00, 
  0x03, 0x00, 0x00, 0x00, 0x0b, 0x00, 0x00, 0x00, 0x05, 0x00, 0x00, 0x00, 
  0x04, 0x00, 0x00, 0x00, 0x00, 0x00, 0x0e, 0x00, 0x1a, 0x00, 0x14, 0x00, 
  0x10, 0x00, 0x0c, 0x00, 0x0b, 0x00, 0x04, 0x00, 0x0e, 0x00, 0x00, 0x00, 
  0x24, 0x00, 0x00, 0x00, 0x00, 0x00, 0x00, 0x02, 0x34, 0x00, 0x00, 0x00, 
  0x38, 0x00, 0x00, 0x00, 0x01, 0x00, 0x00, 0x00, 0x00, 0x00, 0x0e, 0x00, 
  0x18, 0x00, 0x17, 0x00, 0x10, 0x00, 0x0c, 0x00, 0x08, 0x00, 0x07, 0x00, 
  0x0e, 0x00, 0x00, 0x00, 0x00, 0x00, 0x00, 0x01, 0x01, 0x00, 0x00, 0x00, 
  0x01, 0x00, 0x00, 0x00, 0x01, 0x00, 0x00, 0x00, 0x00, 0x00, 0x00, 0x01, 
  0x01, 0x00, 0x00, 0x00, 0x0b, 0x00, 0x00, 0x00, 0x03, 0x00, 0x00, 0x00, 
  0x0a, 0x00, 0x00, 0x00, 0x07, 0x00, 0x00, 0x00, 0x06, 0x00, 0x00, 0x00, 
  0x00, 0x00, 0x0e, 0x00, 0x14, 0x00, 0x00, 0x00, 0x10, 0x00, 0x0c, 0x00, 
  0x0b, 0x00, 0x04, 0x00, 0x0e, 0x00, 0x00, 0x00, 0x1c, 0x00, 0x00, 0x00, 
  0x00, 0x00, 0x00, 0x01, 0x28, 0x00, 0x00, 0x00, 0x2c, 0x00, 0x00, 0x00, 
  0x0c, 0x00, 0x14, 0x00, 0x13, 0x00, 0x0c, 0x00, 0x08, 0x00, 0x07, 0x00, 
  0x0c, 0x00, 0x00, 0x00, 0x00, 0x00, 0x00, 0x01, 0x01, 0x00, 0x00, 0x00, 
  0x01, 0x00, 0x00, 0x00, 0x00, 0x00, 0x00, 0x01, 0x01, 0x00, 0x00, 0x00, 
  0x0a, 0x00, 0x00, 0x00, 0x03, 0x00, 0x00, 0x00, 0x00, 0x00, 0x00, 0x00, 
  0x09, 0x00, 0x00, 0x00, 0x08, 0x00, 0x00, 0x00, 0x01, 0x00, 0x00, 0x00, 
  0x0f, 0x00, 0x00, 0x00, 0x01, 0x00, 0x00, 0x00, 0x00, 0x00, 0x00, 0x00, 
  0x10, 0x00, 0x00, 0x00, 0x1c, 0x1d, 0x00, 0x00, 0xc0, 0x1c, 0x00, 0x00, 
  0xa0, 0x1a, 0x00, 0x00, 0x94, 0x18, 0x00, 0x00, 0x40, 0x15, 0x00, 0x00, 
  0xdc, 0x11, 0x00, 0x00, 0x88, 0x0e, 0x00, 0x00, 0x0c, 0x0b, 0x00, 0x00, 
  0xb8, 0x07, 0x00, 0x00, 0x54, 0x04, 0x00, 0x00, 0x88, 0x03, 0x00, 0x00, 
  0xa4, 0x02, 0x00, 0x00, 0xb0, 0x01, 0x00, 0x00, 0x1c, 0x01, 0x00, 0x00, 
  0x80, 0x00, 0x00, 0x00, 0x04, 0x00, 0x00, 0x00, 0x3a, 0xe3, 0xff, 0xff, 
  0x00, 0x00, 0x00, 0x01, 0x18, 0x00, 0x00, 0x00, 0x20, 0x00, 0x00, 0x00, 
  0x3c, 0x00, 0x00, 0x00, 0x10, 0x00, 0x00, 0x00, 0x00, 0x00, 0x00, 0x09, 
  0x50, 0x00, 0x00, 0x00, 0x02, 0x00, 0x00, 0x00, 0xff, 0xff, 0xff, 0xff, 
  0x24, 0x00, 0x00, 0x00, 0x1c, 0xe3, 0xff, 0xff, 0x08, 0x00, 0x00, 0x00, 
  0x10, 0x00, 0x00, 0x00, 0x01, 0x00, 0x00, 0x00, 0x80, 0xff, 0xff, 0xff, 
  0xff, 0xff, 0xff, 0xff, 0x01, 0x00, 0x00, 0x00, 0x00, 0x00, 0x80, 0x3b, 
  0x1b, 0x00, 0x00, 0x00, 0x53, 0x74, 0x61, 0x74, 0x65, 0x66, 0x75, 0x6c, 
  0x50, 0x61, 0x72, 0x74, 0x69, 0x74, 0x69, 0x6f, 0x6e, 0x65, 0x64, 0x43, 
  0x61, 0x6c, 0x6c, 0x5f, 0x31, 0x3a, 0x30, 0x00, 0x02, 0x00, 0x00, 0x00, 
  0x01, 0x00, 0x00, 0x00, 0x24, 0x00, 0x00, 0x00, 0xb2, 0xe3, 0xff, 0xff, 
  0x00, 0x00, 0x00, 0x01, 0x18, 0x00, 0x00, 0x00, 0x20, 0x00, 0x00, 0x00, 
  0x40, 0x00, 0x00, 0x00, 0x0f, 0x00, 0x00, 0x00, 0x00, 0x00, 0x00, 0x09, 
  0x70, 0x00, 0x00, 0x00, 0x02, 0x00, 0x00, 0x00, 0xff, 0xff, 0xff, 0xff, 
  0x24, 0x00, 0x00, 0x00, 0x94, 0xe3, 0xff, 0xff, 0x08, 0x00, 0x00, 0x00, 
  0x14, 0x00, 0x00, 0x00, 0x01, 0x00, 0x00, 0x00, 0x16, 0x00, 0x00, 0x00, 
  0x00, 0x00, 0x00, 0x00, 0x00, 0x00, 0x00, 0x00, 0x01, 0x00, 0x00, 0x00, 
  0x1a, 0x1a, 0xb6, 0x3c, 0x34, 0x00, 0x00, 0x00, 0x73, 0x65, 0x71, 0x75, 
  0x65, 0x6e, 0x74, 0x69, 0x61, 0x6c, 0x5f, 0x31, 0x2f, 0x64, 0x65, 0x6e, 
  0x73, 0x65, 0x5f, 0x31, 0x2f, 0x4d, 0x61, 0x74, 0x4d, 0x75, 0x6c, 0x3b, 
  0x73, 0x65, 0x71, 0x75, 0x65, 0x6e, 0x74, 0x69, 0x61, 0x6c, 0x5f, 0x31, 
  0x2f, 0x64, 0x65, 0x6e, 0x73, 0x65, 0x5f, 0x31, 0x2f, 0x41, 0x64, 0x64, 
  0x00, 0x00, 0x00, 0x00, 0x02, 0x00, 0x00, 0x00, 0x01, 0x00, 0x00, 0x00, 
  0x24, 0x00, 0x00, 0x00, 0x4a, 0xe4, 0xff, 0xff, 0x00, 0x00, 0x00, 0x01, 
  0x18, 0x00, 0x00, 0x00, 0x20, 0x00, 0x00, 0x00, 0x40, 0x00, 0x00, 0x00, 
  0x0e, 0x00, 0x00, 0x00, 0x00, 0x00, 0x00, 0x09, 0x68, 0x00, 0x00, 0x00, 
  0x02, 0x00, 0x00, 0x00, 0xff, 0xff, 0xff, 0xff, 0x40, 0x00, 0x00, 0x00, 
  0x2c, 0xe4, 0xff, 0xff, 0x08, 0x00, 0x00, 0x00, 0x14, 0x00, 0x00, 0x00, 
  0x01, 0x00, 0x00, 0x00, 0x80, 0xff, 0xff, 0xff, 0xff, 0xff, 0xff, 0xff, 
  0x00, 0x00, 0x00, 0x00, 0x01, 0x00, 0x00, 0x00, 0x29, 0xe0, 0x59, 0x3c, 
  0x2c, 0x00, 0x00, 0x00, 0x73, 0x65, 0x71, 0x75, 0x65, 0x6e, 0x74, 0x69, 
  0x61, 0x6c, 0x5f, 0x31, 0x2f, 0x67, 0x6c, 0x6f, 0x62, 0x61, 0x6c, 0x5f, 
  0x61, 0x76, 0x65, 0x72, 0x61, 0x67, 0x65, 0x5f, 0x70, 0x6f, 0x6f, 0x6c, 
  0x69, 0x6e, 0x67, 0x32, 0x64, 0x5f, 0x31, 0x2f, 0x4d, 0x65, 0x61, 0x6e, 
  0x00, 0x00, 0x00, 0x00, 0x02, 0x00, 0x00, 0x00, 0x01, 0x00, 0x00, 0x00, 
  0x40, 0x00, 0x00, 0x00, 0xda, 0xe4, 0xff, 0xff, 0x00, 0x00, 0x00, 0x01, 
  0x18, 0x00, 0x00, 0x00, 0x28, 0x00, 0x00, 0x00, 0x48, 0x00, 0x00, 0x00, 
  0x0d, 0x00, 0x00, 0x00, 0x00, 0x00, 0x00, 0x09, 0xc0, 0x00, 0x00, 0x00, 
  0x04, 0x00, 0x00, 0x00, 0xff, 0xff, 0xff, 0xff, 0x5f, 0x00, 0x00, 0x00, 
  0x08, 0x00, 0x00, 0x00, 0x40, 0x00, 0x00, 0x00, 0xc4, 0xe4, 0xff, 0xff, 
  0x08, 0x00, 0x00, 0x00, 0x14, 0x00, 0x00, 0x00, 0x01, 0x00, 0x00, 0x00, 
  0x80, 0xff, 0xff, 0xff, 0xff, 0xff, 0xff, 0xff, 0x00, 0x00, 0x00, 0x00, 
  0x01, 0x00, 0x00, 0x00, 0x36, 0xf0, 0xc0, 0x3c, 0x7c, 0x00, 0x00, 0x00, 
  0x73, 0x65, 0x71, 0x75, 0x65, 0x6e, 0x74, 0x69, 0x61, 0x6c, 0x5f, 0x31, 
  0x2f, 0x63, 0x6f, 0x6e, 0x76, 0x32, 0x64, 0x5f, 0x31, 0x5f, 0x32, 0x2f, 
  0x52, 0x65, 0x6c, 0x75, 0x3b, 0x73, 0x65, 0x71, 0x75, 0x65, 0x6e, 0x74, 
  0x69, 0x61, 0x6c, 0x5f, 0x31, 0x2f, 0x63, 0x6f, 0x6e, 0x76, 0x32, 0x64, 
  0x5f, 0x31, 0x5f, 0x32, 0x2f, 0x61, 0x64, 0x64, 0x3b, 0x73, 0x65, 0x71, 
  0x75, 0x65, 0x6e, 0x74, 0x69, 0x61, 0x6c, 0x5f, 0x31, 0x2f, 0x63, 0x6f, 
  0x6e, 0x76, 0x32, 0x64, 0x5f, 0x31, 0x5f, 0x32, 0x2f, 0x63, 0x6f, 0x6e, 
  0x76, 0x6f, 0x6c, 0x75, 0x74, 0x69, 0x6f, 0x6e, 0x3b, 0x73, 0x65, 0x71, 
  0x75, 0x65, 0x6e, 0x74, 0x69, 0x61, 0x6c, 0x5f, 0x31, 0x2f, 0x63, 0x6f, 
  0x6e, 0x76, 0x32, 0x64, 0x5f, 0x31, 0x5f, 0x32, 0x2f, 0x52, 0x65, 0x73, 
  0x68, 0x61, 0x70, 0x65, 0x00, 0x00, 0x00, 0x00, 0x04, 0x00, 0x00, 0x00, 
  0x01, 0x00, 0x00, 0x00, 0x5f, 0x00, 0x00, 0x00, 0x08, 0x00, 0x00, 0x00, 
  0x40, 0x00, 0x00, 0x00, 0xca, 0xe5, 0xff, 0xff, 0x00, 0x00, 0x00, 0x01, 
  0x18, 0x00, 0x00, 0x00, 0x28, 0x00, 0x00, 0x00, 0x44, 0x00, 0x00, 0x00, 
  0x0c, 0x00, 0x00, 0x00, 0x00, 0x00, 0x00, 0x09, 0xb0, 0x00, 0x00, 0x00, 
  0x04, 0x00, 0x00, 0x00, 0xff, 0xff, 0xff, 0xff, 0x5f, 0x00, 0x00, 0x00, 
  0x08, 0x00, 0x00, 0x00, 0x40, 0x00, 0x00, 0x00, 0xb4, 0xe5, 0xff, 0xff, 
  0x08, 0x00, 0x00, 0x00, 0x10, 0x00, 0x00, 0x00, 0x01, 0x00, 0x00, 0x00, 
  0x80, 0xff, 0xff, 0xff, 0xff, 0xff, 0xff, 0xff, 0x01, 0x00, 0x00, 0x00, 
  0xc0, 0x34, 0xb3, 0x3c, 0x73, 0x00, 0x00, 0x00, 0x73, 0x65, 0x71, 0x75, 
  0x65, 0x6e, 0x74, 0x69, 0x61, 0x6c, 0x5f, 0x31, 0x2f, 0x64, 0x65, 0x70, 
  0x74, 0x68, 0x77, 0x69, 0x73, 0x65, 0x5f, 0x63, 0x6f, 0x6e, 0x76, 0x32, 
  0x64, 0x5f, 0x31, 0x2f, 0x52, 0x65, 0x6c, 0x75, 0x3b, 0x73, 0x65, 0x71, 
  0x75, 0x65, 0x6e, 0x74, 0x69, 0x61, 0x6c, 0x5f, 0x31, 0x2f, 0x64, 0x65, 
  0x70, 0x74, 0x68, 0x77, 0x69, 0x73, 0x65, 0x5f, 0x63, 0x6f, 0x6e, 0x76, 
  0x32, 0x64, 0x5f, 0x31, 0x2f, 0x61, 0x64, 0x64, 0x3b, 0x73, 0x65, 0x71, 
  0x75, 0x65, 0x6e, 0x74, 0x69, 0x61, 0x6c, 0x5f, 0x31, 0x2f, 0x64, 0x65, 
  0x70, 0x74, 0x68, 0x77, 0x69, 0x73, 0x65, 0x5f, 0x63, 0x6f, 0x6e, 0x76, 
  0x32, 0x64, 0x5f, 0x31, 0x2f, 0x64, 0x65, 0x70, 0x74, 0x68, 0x77, 0x69, 
  0x73, 0x65, 0x3b, 0x00, 0x04, 0x00, 0x00, 0x00, 0x01, 0x00, 0x00, 0x00, 
  0x5f, 0x00, 0x00, 0x00, 0x08, 0x00, 0x00, 0x00, 0x40, 0x00, 0x00, 0x00, 
  0xaa, 0xe6, 0xff, 0xff, 0x00, 0x00, 0x00, 0x01, 0x18, 0x00, 0x00, 0x00, 
  0x28, 0x00, 0x00, 0x00, 0x44, 0x00, 0x00, 0x00, 0x0b, 0x00, 0x00, 0x00, 
  0x00, 0x00, 0x00, 0x09, 0x98, 0x00, 0x00, 0x00, 0x04, 0x00, 0x00, 0x00, 
  0xff, 0xff, 0xff, 0xff, 0x61, 0x00, 0x00, 0x00, 0x0a, 0x00, 0x00, 0x00, 
  0x40, 0x00, 0x00, 0x00, 0x94, 0xe6, 0xff, 0xff, 0x08, 0x00, 0x00, 0x00, 
  0x10, 0x00, 0x00, 0x00, 0x01, 0x00, 0x00, 0x00, 0x80, 0xff, 0xff, 0xff, 
  0xff, 0xff, 0xff, 0xff, 0x01, 0x00, 0x00, 0x00, 0x6d, 0x63, 0x3f, 0x3c, 
  0x58, 0x00, 0x00, 0x00, 0x73, 0x65, 0x71, 0x75, 0x65, 0x6e, 0x74, 0x69, 
  0x61, 0x6c, 0x5f, 0x31, 0x2f, 0x63, 0x6f, 0x6e, 0x76, 0x32, 0x64, 0x5f, 
  0x31, 0x2f, 0x52, 0x65, 0x6c, 0x75, 0x3b, 0x73, 0x65, 0x71, 0x75, 0x65, 
  0x6e, 0x74, 0x69, 0x61, 0x6c, 0x5f, 0x31, 0x2f, 0x63, 0x6f, 0x6e, 0x76, 
  0x32, 0x64, 0x5f, 0x31, 0x2f, 0x61, 0x64, 0x64, 0x3b, 0x73, 0x65, 0x71, 
  0x75, 0x65, 0x6e, 0x74, 0x69, 0x61, 0x6c, 0x5f, 0x31, 0x2f, 0x63, 0x6f, 
  0x6e, 0x76, 0x32, 0x64, 0x5f, 0x31, 0x2f, 0x63, 0x6f, 0x6e, 0x76, 0x6f, 
  0x6c, 0x75, 0x74, 0x69, 0x6f, 0x6e, 0x3b, 0x31, 0x00, 0x00, 0x00, 0x00, 
  0x04, 0x00, 0x00, 0x00, 0x01, 0x00, 0x00, 0x00, 0x61, 0x00, 0x00, 0x00, 
  0x0a, 0x00, 0x00, 0x00, 0x40, 0x00, 0x00, 0x00, 0xca, 0xe7, 0xff, 0xff, 
  0x00, 0x00, 0x00, 0x01, 0x14, 0x00, 0x00, 0x00, 0x28, 0x03, 0x00, 0x00, 
  0x0a, 0x00, 0x00, 0x00, 0x00, 0x00, 0x00, 0x09, 0x34, 0x03, 0x00, 0x00, 
  0x44, 0xe7, 0xff, 0xff, 0x08, 0x00, 0x00, 0x00, 0x0c, 0x02, 0x00, 0x00, 
  0x40, 0x00, 0x00, 0x00, 0x00, 0x00, 0x00, 0x00, 0x00, 0x00, 0x00, 0x00, 
  0x00, 0x00, 0x00, 0x00, 0x00, 0x00, 0x00, 0x00, 0x00, 0x00, 0x00, 0x00, 
  0x00, 0x00, 0x00, 0x00, 0x00, 0x00, 0x00, 0x00, 0x00, 0x00, 0x00, 0x00, 
  0x00, 0x00, 0x00, 0x00, 0x00, 0x00, 0x00, 0x00, 0x00, 0x00, 0x00, 0x00, 
  0x00, 0x00, 0x00, 0x00, 0x00, 0x00, 0x00, 0x00, 0x00, 0x00, 0x00, 0x00, 
  0x00, 0x00, 0x00, 0x00, 0x00, 0x00, 0x00, 0x00, 0x00, 0x00, 0x00, 0x00, 
  0x00, 0x00, 0x00, 0x00, 0x00, 0x00, 0x00, 0x00, 0x00, 0x00, 0x00, 0x00, 
  0x00, 0x00, 0x00, 0x00, 0x00, 0x00, 0x00, 0x00, 0x00, 0x00, 0x00, 0x00, 
  0x00, 0x00, 0x00, 0x00, 0x00, 0x00, 0x00, 0x00, 0x00, 0x00, 0x00, 0x00, 
  0x00, 0x00, 0x00, 0x00, 0x00, 0x00, 0x00, 0x00, 0x00, 0x00, 0x00, 0x00, 
  0x00, 0x00, 0x00, 0x00, 0x00, 0x00, 0x00, 0x00, 0x00, 0x00, 0x00, 0x00, 
  0x00, 0x00, 0x00, 0x00, 0x00, 0x00, 0x00, 0x00, 0x00, 0x00, 0x00, 0x00, 
  0x00, 0x00, 0x00, 0x00, 0x00, 0x00, 0x00, 0x00, 0x00, 0x00, 0x00, 0x00, 
  0x00, 0x00, 0x00, 0x00, 0x00, 0x00, 0x00, 0x00, 0x00, 0x00, 0x00, 0x00, 
  0x00, 0x00, 0x00, 0x00, 0x00, 0x00, 0x00, 0x00, 0x00, 0x00, 0x00, 0x00, 
  0x00, 0x00, 0x00, 0x00, 0x00, 0x00, 0x00, 0x00, 0x00, 0x00, 0x00, 0x00, 
  0x00, 0x00, 0x00, 0x00, 0x00, 0x00, 0x00, 0x00, 0x00, 0x00, 0x00, 0x00, 
  0x00, 0x00, 0x00, 0x00, 0x00, 0x00, 0x00, 0x00, 0x00, 0x00, 0x00, 0x00, 
  0x00, 0x00, 0x00, 0x00, 0x00, 0x00, 0x00, 0x00, 0x00, 0x00, 0x00, 0x00, 
  0x00, 0x00, 0x00, 0x00, 0x00, 0x00, 0x00, 0x00, 0x00, 0x00, 0x00, 0x00, 
  0x00, 0x00, 0x00, 0x00, 0x00, 0x00, 0x00, 0x00, 0x00, 0x00, 0x00, 0x00, 
  0x00, 0x00, 0x00, 0x00, 0x00, 0x00, 0x00, 0x00, 0x00, 0x00, 0x00, 0x00, 
  0x00, 0x00, 0x00, 0x00, 0x00, 0x00, 0x00, 0x00, 0x00, 0x00, 0x00, 0x00, 
  0x00, 0x00, 0x00, 0x00, 0x00, 0x00, 0x00, 0x00, 0x00, 0x00, 0x00, 0x00, 
  0x00, 0x00, 0x00, 0x00, 0x00, 0x00, 0x00, 0x00, 0x00, 0x00, 0x00, 0x00, 
  0x00, 0x00, 0x00, 0x00, 0x00, 0x00, 0x00, 0x00, 0x00, 0x00, 0x00, 0x00, 
  0x00, 0x00, 0x00, 0x00, 0x00, 0x00, 0x00, 0x00, 0x00, 0x00, 0x00, 0x00, 
  0x00, 0x00, 0x00, 0x00, 0x00, 0x00, 0x00, 0x00, 0x00, 0x00, 0x00, 0x00, 
  0x00, 0x00, 0x00, 0x00, 0x00, 0x00, 0x00, 0x00, 0x00, 0x00, 0x00, 0x00, 
  0x00, 0x00, 0x00, 0x00, 0x00, 0x00, 0x00, 0x00, 0x00, 0x00, 0x00, 0x00, 
  0x00, 0x00, 0x00, 0x00, 0x00, 0x00, 0x00, 0x00, 0x00, 0x00, 0x00, 0x00, 
  0x00, 0x00, 0x00, 0x00, 0x00, 0x00, 0x00, 0x00, 0x00, 0x00, 0x00, 0x00, 
  0x00, 0x00, 0x00, 0x00, 0x00, 0x00, 0x00, 0x00, 0x00, 0x00, 0x00, 0x00, 
  0x00, 0x00, 0x00, 0x00, 0x00, 0x00, 0x00, 0x00, 0x00, 0x00, 0x00, 0x00, 
  0x00, 0x00, 0x00, 0x00, 0x00, 0x00, 0x00, 0x00, 0x00, 0x00, 0x00, 0x00, 
  0x00, 0x00, 0x00, 0x00, 0x00, 0x00, 0x00, 0x00, 0x00, 0x00, 0x00, 0x00, 
  0x00, 0x00, 0x00, 0x00, 0x00, 0x00, 0x00, 0x00, 0x00, 0x00, 0x00, 0x00, 
  0x00, 0x00, 0x00, 0x00, 0x00, 0x00, 0x00, 0x00, 0x00, 0x00, 0x00, 0x00, 
  0x00, 0x00, 0x00, 0x00, 0x00, 0x00, 0x00, 0x00, 0x00, 0x00, 0x00, 0x00, 
  0x00, 0x00, 0x00, 0x00, 0x00, 0x00, 0x00, 0x00, 0x00, 0x00, 0x00, 0x00, 
  0x00, 0x00, 0x00, 0x00, 0x00, 0x00, 0x00, 0x00, 0x00, 0x00, 0x00, 0x00, 
  0x00, 0x00, 0x00, 0x00, 0x00, 0x00, 0x00, 0x00, 0x00, 0x00, 0x00, 0x00, 
  0x00, 0x00, 0x00, 0x00, 0x00, 0x00, 0x00, 0x00, 0x00, 0x00, 0x00, 0x00, 
  0x00, 0x00, 0x00, 0x00, 0x40, 0x00, 0x00, 0x00, 0x89, 0x2e, 0x3a, 0x3b, 
  0x22, 0x17, 0x8c, 0x3b, 0x1e, 0xb1, 0x70, 0x3b, 0x89, 0xa0, 0x1a, 0x3b, 
  0x1c, 0xd9, 0x8d, 0x3b, 0xae, 0x69, 0x6b, 0x3b, 0x49, 0x03, 0x4d, 0x3b, 
  0x06, 0x64, 0x37, 0x3b, 0x22, 0x95, 0x2d, 0x3a, 0x92, 0x9b, 0x9f, 0x3b, 
  0x89, 0xb1, 0xb1, 0x3b, 0xb4, 0x06, 0x69, 0x3b, 0xc8, 0x4a, 0x8a, 0x3a, 
  0x17, 0xd7, 0xb8, 0x3b, 0xe3, 0xe2, 0x2c, 0x3b, 0x24, 0x95, 0x43, 0x3b, 
  0x60, 0xa0, 0x29, 0x3b, 0xea, 0xb6, 0x81, 0x3b, 0x2d, 0x13, 0x63, 0x3b, 
  0x5c, 0xd9, 0x29, 0x3b, 0x78, 0x84, 0x40, 0x3b, 0xc1, 0x0c, 0x72, 0x3b, 
  0xa5, 0x4f, 0x74, 0x3b, 0x88, 0xdf, 0xd3, 0x3b, 0xb1, 0xc7, 0x4e, 0x3b, 
  0xe3, 0x0d, 0x0f, 0x3b, 0x9f, 0xf0, 0x8c, 0x3b, 0x56, 0x1d, 0xc0, 0x3b, 
  0x96, 0xfe, 0x9b, 0x3b, 0x6e, 0x8d, 0x68, 0x3a, 0xf4, 0x7d, 0xc1, 0x3a, 
  0x4d, 0x0f, 0xb1, 0x3a, 0x63, 0x89, 0x2e, 0x3a, 0xf8, 0x25, 0x75, 0x3b, 
  0xe4, 0xa8, 0x44, 0x3b, 0xa2, 0x6c, 0x10, 0x3b, 0x4d, 0x45, 0x0c, 0x3b, 
  0x8d, 0x04, 0x3e, 0x3b, 0x03, 0x5e, 0xac, 0x3b, 0x70, 0x24, 0x9e, 0x3b, 
  0x0b, 0x18, 0x59, 0x3b, 0xdd, 0xe0, 0x16, 0x3b, 0x13, 0x9d, 0x16, 0x3b, 
  0x55, 0xb0, 0x99, 0x3b, 0xee, 0x9a, 0xcd, 0x3b, 0x9e, 0x25, 0xb3, 0x3b, 
  0x1f, 0x6e, 0x53, 0x3b, 0x15, 0x40, 0xfb, 0x3a, 0x12, 0x2f, 0x60, 0x3b, 
  0x29, 0x22, 0xcc, 0x3b, 0xd4, 0xea, 0x22, 0x3b, 0x25, 0x6a, 0x51, 0x3b, 
  0x73, 0xb6, 0x32, 0x3b, 0x4a, 0x6c, 0x27, 0x3b, 0xdd, 0x0f, 0x8c, 0x3b, 
  0xab, 0xdb, 0x66, 0x3b, 0x55, 0x18, 0xb5, 0x3b, 0x34, 0x6c, 0x6d, 0x3b, 
  0xfe, 0xba, 0x1b, 0x3b, 0x1d, 0xba, 0x1c, 0x3b, 0xd2, 0xcf, 0xfa, 0x3a, 
  0x5a, 0x16, 0x3a, 0x3b, 0x2a, 0x1c, 0xc9, 0x3b, 0x2e, 0x47, 0x84, 0x3b, 
  0x12, 0x00, 0x00, 0x00, 0x74, 0x66, 0x6c, 0x2e, 0x70, 0x73, 0x65, 0x75, 
  0x64, 0x6f, 0x5f, 0x71, 0x63, 0x6f, 0x6e, 0x73, 0x74, 0x37, 0x00, 0x00, 
  0x04, 0x00, 0x00, 0x00, 0x40, 0x00, 0x00, 0x00, 0x03, 0x00, 0x00, 0x00, 
  0x03, 0x00, 0x00, 0x00, 0x01, 0x00, 0x00, 0x00, 0x2a, 0xeb, 0xff, 0xff, 
  0x00, 0x00, 0x00, 0x01, 0x14, 0x00, 0x00, 0x00, 0x24, 0x03, 0x00, 0x00, 
  0x09, 0x00, 0x00, 0x00, 0x00, 0x00, 0x00, 0x02, 0x30, 0x03, 0x00, 0x00, 
  0xa4, 0xea, 0xff, 0xff, 0x08, 0x00, 0x00, 0x00, 0x08, 0x02, 0x00, 0x00, 
  0x40, 0x00, 0x00, 0x00, 0x00, 0x00, 0x00, 0x00, 0x00, 0x00, 0x00, 0x00, 
  0x00, 0x00, 0x00, 0x00, 0x00, 0x00, 0x00, 0x00, 0x00, 0x00, 0x00, 0x00, 
  0x00, 0x00, 0x00, 0x00, 0x00, 0x00, 0x00, 0x00, 0x00, 0x00, 0x00, 0x00, 
  0x00, 0x00, 0x00, 0x00, 0x00, 0x00, 0x00, 0x00, 0x00, 0x00, 0x00, 0x00, 
  0x00, 0x00, 0x00, 0x00, 0x00, 0x00, 0x00, 0x00, 0x00, 0x00, 0x00, 0x00, 
  0x00, 0x00, 0x00, 0x00, 0x00, 0x00, 0x00, 0x00, 0x00, 0x00, 0x00, 0x00, 
  0x00, 0x00, 0x00, 0x00, 0x00, 0x00, 0x00, 0x00, 0x00, 0x00, 0x00, 0x00, 
  0x00, 0x00, 0x00, 0x00, 0x00, 0x00, 0x00, 0x00, 0x00, 0x00, 0x00, 0x00, 
  0x00, 0x00, 0x00, 0x00, 0x00, 0x00, 0x00, 0x00, 0x00, 0x00, 0x00, 0x00, 
  0x00, 0x00, 0x00, 0x00, 0x00, 0x00, 0x00, 0x00, 0x00, 0x00, 0x00, 0x00, 
  0x00, 0x00, 0x00, 0x00, 0x00, 0x00, 0x00, 0x00, 0x00, 0x00, 0x00, 0x00, 
  0x00, 0x00, 0x00, 0x00, 0x00, 0x00, 0x00, 0x00, 0x00, 0x00, 0x00, 0x00, 
  0x00, 0x00, 0x00, 0x00, 0x00, 0x00, 0x00, 0x00, 0x00, 0x00, 0x00, 0x00, 
  0x00, 0x00, 0x00, 0x00, 0x00, 0x00, 0x00, 0x00, 0x00, 0x00, 0x00, 0x00, 
  0x00, 0x00, 0x00, 0x00, 0x00, 0x00, 0x00, 0x00, 0x00, 0x00, 0x00, 0x00, 
  0x00, 0x00, 0x00, 0x00, 0x00, 0x00, 0x00, 0x00, 0x00, 0x00, 0x00, 0x00, 
  0x00, 0x00, 0x00, 0x00, 0x00, 0x00, 0x00, 0x00, 0x00, 0x00, 0x00, 0x00, 
  0x00, 0x00, 0x00, 0x00, 0x00, 0x00, 0x00, 0x00, 0x00, 0x00, 0x00, 0x00, 
  0x00, 0x00, 0x00, 0x00, 0x00, 0x00, 0x00, 0x00, 0x00, 0x00, 0x00, 0x00, 
  0x00, 0x00, 0x00, 0x00, 0x00, 0x00, 0x00, 0x00, 0x00, 0x00, 0x00, 0x00, 
  0x00, 0x00, 0x00, 0x00, 0x00, 0x00, 0x00, 0x00, 0x00, 0x00, 0x00, 0x00, 
  0x00, 0x00, 0x00, 0x00, 0x00, 0x00, 0x00, 0x00, 0x00, 0x00, 0x00, 0x00, 
  0x00, 0x00, 0x00, 0x00, 0x00, 0x00, 0x00, 0x00, 0x00, 0x00, 0x00, 0x00, 
  0x00, 0x00, 0x00, 0x00, 0x00, 0x00, 0x00, 0x00, 0x00, 0x00, 0x00, 0x00, 
  0x00, 0x00, 0x00, 0x00, 0x00, 0x00, 0x00, 0x00, 0x00, 0x00, 0x00, 0x00, 
  0x00, 0x00, 0x00, 0x00, 0x00, 0x00, 0x00, 0x00, 0x00, 0x00, 0x00, 0x00, 
  0x00, 0x00, 0x00, 0x00, 0x00, 0x00, 0x00, 0x00, 0x00, 0x00, 0x00, 0x00, 
  0x00, 0x00, 0x00, 0x00, 0x00, 0x00, 0x00, 0x00, 0x00, 0x00, 0x00, 0x00, 
  0x00, 0x00, 0x00, 0x00, 0x00, 0x00, 0x00, 0x00, 0x00, 0x00, 0x00, 0x00, 
  0x00, 0x00, 0x00, 0x00, 0x00, 0x00, 0x00, 0x00, 0x00, 0x00, 0x00, 0x00, 
  0x00, 0x00, 0x00, 0x00, 0x00, 0x00, 0x00, 0x00, 0x00, 0x00, 0x00, 0x00, 
  0x00, 0x00, 0x00, 0x00, 0x00, 0x00, 0x00, 0x00, 0x00, 0x00, 0x00, 0x00, 
  0x00, 0x00, 0x00, 0x00, 0x00, 0x00, 0x00, 0x00, 0x00, 0x00, 0x00, 0x00, 
  0x00, 0x00, 0x00, 0x00, 0x00, 0x00, 0x00, 0x00, 0x00, 0x00, 0x00, 0x00, 
  0x00, 0x00, 0x00, 0x00, 0x00, 0x00, 0x00, 0x00, 0x00, 0x00, 0x00, 0x00, 
  0x00, 0x00, 0x00, 0x00, 0x00, 0x00, 0x00, 0x00, 0x00, 0x00, 0x00, 0x00, 
  0x00, 0x00, 0x00, 0x00, 0x00, 0x00, 0x00, 0x00, 0x00, 0x00, 0x00, 0x00, 
  0x00, 0x00, 0x00, 0x00, 0x00, 0x00, 0x00, 0x00, 0x00, 0x00, 0x00, 0x00, 
  0x00, 0x00, 0x00, 0x00, 0x00, 0x00, 0x00, 0x00, 0x00, 0x00, 0x00, 0x00, 
  0x00, 0x00, 0x00, 0x00, 0x00, 0x00, 0x00, 0x00, 0x00, 0x00, 0x00, 0x00, 
  0x00, 0x00, 0x00, 0x00, 0x00, 0x00, 0x00, 0x00, 0x00, 0x00, 0x00, 0x00, 
  0x00, 0x00, 0x00, 0x00, 0x00, 0x00, 0x00, 0x00, 0x00, 0x00, 0x00, 0x00, 
  0x00, 0x00, 0x00, 0x00, 0x00, 0x00, 0x00, 0x00, 0x00, 0x00, 0x00, 0x00, 
  0x40, 0x00, 0x00, 0x00, 0x46, 0xe9, 0x3a, 0x37, 0xa4, 0xa3, 0x8c, 0x37, 
  0x87, 0xa2, 0x71, 0x37, 0xa0, 0x3b, 0x1b, 0x37, 0x62, 0x67, 0x8e, 0x37, 
  0xcc, 0x55, 0x6c, 0x37, 0xe9, 0xd0, 0x4d, 0x37, 0xf6, 0x1b, 0x38, 0x37, 
  0x3c, 0x43, 0x2e, 0x36, 0xa8, 0x3b, 0xa0, 0x37, 0xc3, 0x63, 0xb2, 0x37, 
  0x6d, 0xf0, 0x69, 0x37, 0x7d, 0xd5, 0x8a, 0x36, 0x7c, 0x90, 0xb9, 0x37, 
  0x4a, 0x90, 0x2d, 0x37, 0x4f, 0x59, 0x44, 0x37, 0x82, 0x4a, 0x2a, 0x37, 
  0x04, 0x39, 0x82, 0x37, 0xee, 0xf6, 0x63, 0x37, 0xb7, 0x83, 0x2a, 0x37, 
  0x90, 0x45, 0x41, 0x37, 0x87, 0xff, 0x72, 0x37, 0xb0, 0x44, 0x75, 0x37, 
  0x0a, 0xb4, 0xd4, 0x37, 0x17, 0x97, 0x4f, 0x37, 0x5e, 0x9d, 0x0f, 0x37, 
  0xfc, 0x7d, 0x8d, 0x37, 0x06, 0xde, 0xc0, 0x37, 0x0c, 0x9b, 0x9c, 0x37, 
  0xad, 0x76, 0x69, 0x36, 0x06, 0x40, 0xc2, 0x36, 0xe4, 0xc0, 0xb1, 0x36, 
  0x72, 0x38, 0x2f, 0x36, 0xda, 0x1b, 0x76, 0x37, 0x23, 0x6e, 0x45, 0x37, 
  0x7d, 0xfd, 0x10, 0x37, 0xfe, 0xd1, 0x0c, 0x37, 0x23, 0xc3, 0x3e, 0x37, 
  0xe5, 0x0a, 0xad, 0x37, 0x0e, 0xc3, 0x9e, 0x37, 0xc9, 0xf1, 0x59, 0x37, 
  0x31, 0x78, 0x17, 0x37, 0x23, 0x34, 0x17, 0x37, 0x7b, 0x4a, 0x9a, 0x37, 
  0x26, 0x69, 0xce, 0x37, 0x4d, 0xd9, 0xb3, 0x37, 0x2f, 0x42, 0x54, 0x37, 
  0x15, 0x3c, 0xfc, 0x36, 0xed, 0x0f, 0x61, 0x37, 0xe7, 0xee, 0xcc, 0x37, 
  0x3c, 0x8e, 0x23, 0x37, 0x2f, 0x3c, 0x52, 0x37, 0xb2, 0x69, 0x33, 0x37, 
  0x36, 0x14, 0x28, 0x37, 0x58, 0x9c, 0x8c, 0x37, 0x37, 0xc3, 0x67, 0x37, 
  0xf8, 0xcd, 0xb5, 0x37, 0x56, 0x5a, 0x6e, 0x37, 0x30, 0x57, 0x1c, 0x37, 
  0x4f, 0x57, 0x1d, 0x37, 0x62, 0xcb, 0xfb, 0x36, 0xff, 0xd0, 0x3a, 0x37, 
  0xe0, 0xe5, 0xc9, 0x37, 0xda, 0xcb, 0x84, 0x37, 0x12, 0x00, 0x00, 0x00, 
  0x74, 0x66, 0x6c, 0x2e, 0x70, 0x73, 0x65, 0x75, 0x64, 0x6f, 0x5f, 0x71, 
  0x63, 0x6f, 0x6e, 0x73, 0x74, 0x36, 0x00, 0x00, 0x01, 0x00, 0x00, 0x00, 
  0x40, 0x00, 0x00, 0x00, 0x7a, 0xee, 0xff, 0xff, 0x00, 0x00, 0x00, 0x01, 
  0x28, 0x00, 0x00, 0x00, 0x40, 0x03, 0x00, 0x00, 0x08, 0x00, 0x00, 0x00, 
  0x00, 0x00, 0x00, 0x09, 0x4c, 0x03, 0x00, 0x00, 0x00, 0x00, 0x12, 0x00, 
  0x10, 0x00, 0x00, 0x00, 0x00, 0x00, 0x0c, 0x00, 0x08, 0x00, 0x00, 0x00, 
  0x00, 0x00, 0x04, 0x00, 0x12, 0x00, 0x00, 0x00, 0x03, 0x00, 0x00, 0x00, 
  0x08, 0x00, 0x00, 0x00, 0x0c, 0x02, 0x00, 0x00, 0x40, 0x00, 0x00, 0x00, 
  0x00, 0x00, 0x00, 0x00, 0x00, 0x00, 0x00, 0x00, 0x00, 0x00, 0x00, 0x00, 
  0x00, 0x00, 0x00, 0x00, 0x00, 0x00, 0x00, 0x00, 0x00, 0x00, 0x00, 0x00, 
  0x00, 0x00, 0x00, 0x00, 0x00, 0x00, 0x00, 0x00, 0x00, 0x00, 0x00, 0x00, 
  0x00, 0x00, 0x00, 0x00, 0x00, 0x00, 0x00, 0x00, 0x00, 0x00, 0x00, 0x00, 
  0x00, 0x00, 0x00, 0x00, 0x00, 0x00, 0x00, 0x00, 0x00, 0x00, 0x00, 0x00, 
  0x00, 0x00, 0x00, 0x00, 0x00, 0x00, 0x00, 0x00, 0x00, 0x00, 0x00, 0x00, 
  0x00, 0x00, 0x00, 0x00, 0x00, 0x00, 0x00, 0x00, 0x00, 0x00, 0x00, 0x00, 
  0x00, 0x00, 0x00, 0x00, 0x00, 0x00, 0x00, 0x00, 0x00, 0x00, 0x00, 0x00, 
  0x00, 0x00, 0x00, 0x00, 0x00, 0x00, 0x00, 0x00, 0x00, 0x00, 0x00, 0x00, 
  0x00, 0x00, 0x00, 0x00, 0x00, 0x00, 0x00, 0x00, 0x00, 0x00, 0x00, 0x00, 
  0x00, 0x00, 0x00, 0x00, 0x00, 0x00, 0x00, 0x00, 0x00, 0x00, 0x00, 0x00, 
  0x00, 0x00, 0x00, 0x00, 0x00, 0x00, 0x00, 0x00, 0x00, 0x00, 0x00, 0x00, 
  0x00, 0x00, 0x00, 0x00, 0x00, 0x00, 0x00, 0x00, 0x00, 0x00, 0x00, 0x00, 
  0x00, 0x00, 0x00, 0x00, 0x00, 0x00, 0x00, 0x00, 0x00, 0x00, 0x00, 0x00, 
  0x00, 0x00, 0x00, 0x00, 0x00, 0x00, 0x00, 0x00, 0x00, 0x00, 0x00, 0x00, 
  0x00, 0x00, 0x00, 0x00, 0x00, 0x00, 0x00, 0x00, 0x00, 0x00, 0x00, 0x00, 
  0x00, 0x00, 0x00, 0x00, 0x00, 0x00, 0x00, 0x00, 0x00, 0x00, 0x00, 0x00, 
  0x00, 0x00, 0x00, 0x00, 0x00, 0x00, 0x00, 0x00, 0x00, 0x00, 0x00, 0x00, 
  0x00, 0x00, 0x00, 0x00, 0x00, 0x00, 0x00, 0x00, 0x00, 0x00, 0x00, 0x00, 
  0x00, 0x00, 0x00, 0x00, 0x00, 0x00, 0x00, 0x00, 0x00, 0x00, 0x00, 0x00, 
  0x00, 0x00, 0x00, 0x00, 0x00, 0x00, 0x00, 0x00, 0x00, 0x00, 0x00, 0x00, 
  0x00, 0x00, 0x00, 0x00, 0x00, 0x00, 0x00, 0x00, 0x00, 0x00, 0x00, 0x00, 
  0x00, 0x00, 0x00, 0x00, 0x00, 0x00, 0x00, 0x00, 0x00, 0x00, 0x00, 0x00, 
  0x00, 0x00, 0x00, 0x00, 0x00, 0x00, 0x00, 0x00, 0x00, 0x00, 0x00, 0x00, 
  0x00, 0x00, 0x00, 0x00, 0x00, 0x00, 0x00, 0x00, 0x00, 0x00, 0x00, 0x00, 
  0x00, 0x00, 0x00, 0x00, 0x00, 0x00, 0x00, 0x00, 0x00, 0x00, 0x00, 0x00, 
  0x00, 0x00, 0x00, 0x00, 0x00, 0x00, 0x00, 0x00, 0x00, 0x00, 0x00, 0x00, 
  0x00, 0x00, 0x00, 0x00, 0x00, 0x00, 0x00, 0x00, 0x00, 0x00, 0x00, 0x00, 
  0x00, 0x00, 0x00, 0x00, 0x00, 0x00, 0x00, 0x00, 0x00, 0x00, 0x00, 0x00, 
  0x00, 0x00, 0x00, 0x00, 0x00, 0x00, 0x00, 0x00, 0x00, 0x00, 0x00, 0x00, 
  0x00, 0x00, 0x00, 0x00, 0x00, 0x00, 0x00, 0x00, 0x00, 0x00, 0x00, 0x00, 
  0x00, 0x00, 0x00, 0x00, 0x00, 0x00, 0x00, 0x00, 0x00, 0x00, 0x00, 0x00, 
  0x00, 0x00, 0x00, 0x00, 0x00, 0x00, 0x00, 0x00, 0x00, 0x00, 0x00, 0x00, 
  0x00, 0x00, 0x00, 0x00, 0x00, 0x00, 0x00, 0x00, 0x00, 0x00, 0x00, 0x00, 
  0x00, 0x00, 0x00, 0x00, 0x00, 0x00, 0x00, 0x00, 0x00, 0x00, 0x00, 0x00, 
  0x00, 0x00, 0x00, 0x00, 0x00, 0x00, 0x00, 0x00, 0x00, 0x00, 0x00, 0x00, 
  0x00, 0x00, 0x00, 0x00, 0x00, 0x00, 0x00, 0x00, 0x00, 0x00, 0x00, 0x00, 
  0x00, 0x00, 0x00, 0x00, 0x00, 0x00, 0x00, 0x00, 0x00, 0x00, 0x00, 0x00, 
  0x00, 0x00, 0x00, 0x00, 0x00, 0x00, 0x00, 0x00, 0x00, 0x00, 0x00, 0x00, 
  0x00, 0x00, 0x00, 0x00, 0x00, 0x00, 0x00, 0x00, 0x00, 0x00, 0x00, 0x00, 
  0x00, 0x00, 0x00, 0x00, 0x00, 0x00, 0x00, 0x00, 0x00, 0x00, 0x00, 0x00, 
  0x00, 0x00, 0x00, 0x00, 0x00, 0x00, 0x00, 0x00, 0x00, 0x00, 0x00, 0x00, 
  0x00, 0x00, 0x00, 0x00, 0x00, 0x00, 0x00, 0x00, 0x00, 0x00, 0x00, 0x00, 
  0x40, 0x00, 0x00, 0x00, 0xda, 0x02, 0x5b, 0x3b, 0x5c, 0x4a, 0x9a, 0x3b, 
  0x52, 0x28, 0x7a, 0x3b, 0x23, 0x89, 0x06, 0x3b, 0x52, 0x82, 0x87, 0x3b, 
  0xee, 0x3e, 0xfc, 0x3a, 0xf2, 0x25, 0x3b, 0x3b, 0xff, 0x21, 0x03, 0x3b, 
  0x26, 0xe9, 0x03, 0x3b, 0x68, 0x1a, 0xb8, 0x3b, 0xee, 0x48, 0x93, 0x3b, 
  0x58, 0xaa, 0x41, 0x3b, 0xd8, 0xad, 0xc6, 0x3a, 0x1f, 0xbd, 0xe3, 0x3b, 
  0xab, 0xe1, 0x1a, 0x3b, 0xaa, 0x11, 0x43, 0x3b, 0x51, 0x7f, 0x21, 0x3b, 
  0xb2, 0xc7, 0x24, 0x3b, 0xc4, 0x03, 0x8a, 0x3b, 0xe4, 0x46, 0x45, 0x3b, 
  0xa4, 0x6b, 0x40, 0x3b, 0x4d, 0xb2, 0x8d, 0x3b, 0xc2, 0x60, 0x7f, 0x3b, 
  0x15, 0xdc, 0x85, 0x3b, 0x73, 0x12, 0x8e, 0x3b, 0x78, 0x44, 0x3b, 0x3b, 
  0x7c, 0xf7, 0x7c, 0x3b, 0x1a, 0x98, 0xa3, 0x3b, 0x94, 0xd3, 0xb7, 0x3b, 
  0x02, 0x72, 0xce, 0x3a, 0xe5, 0xa0, 0xa5, 0x3a, 0x1e, 0xf2, 0x23, 0x3b, 
  0x90, 0x79, 0x43, 0x3a, 0x0a, 0x3c, 0x83, 0x3b, 0xf6, 0xa7, 0xe2, 0x3a, 
  0x73, 0xcd, 0x1b, 0x3b, 0x8b, 0xea, 0x09, 0x3b, 0x42, 0xb5, 0x3f, 0x3b, 
  0x4d, 0xf7, 0x17, 0x3b, 0x41, 0xe8, 0x53, 0x3b, 0x18, 0x00, 0x76, 0x3b, 
  0xd4, 0xc5, 0x4d, 0x3b, 0x8f, 0xa4, 0xaa, 0x3a, 0xda, 0x20, 0x4a, 0x3b, 
  0x35, 0xed, 0x14, 0x3b, 0x31, 0xbc, 0x9a, 0x3b, 0xe9, 0xa6, 0x19, 0x3b, 
  0x60, 0x4e, 0x04, 0x3b, 0x97, 0x47, 0x6d, 0x3b, 0x0f, 0xce, 0x85, 0x3b, 
  0x87, 0xc6, 0x43, 0x3b, 0xab, 0xad, 0x21, 0x3b, 0x97, 0x8d, 0xe3, 0x3a, 
  0x22, 0xa2, 0x2c, 0x3b, 0xe3, 0x6f, 0x6f, 0x3b, 0xd6, 0x00, 0x9b, 0x3b, 
  0x2c, 0xc6, 0x85, 0x3b, 0x70, 0x8e, 0x75, 0x3b, 0x25, 0x44, 0x0c, 0x3b, 
  0x53, 0x61, 0x38, 0x3b, 0x86, 0xd4, 0xe4, 0x3a, 0xa3, 0xa2, 0x4f, 0x3b, 
  0x2a, 0x38, 0x0d, 0x3b, 0x1e, 0x47, 0xab, 0x3b, 0x12, 0x00, 0x00, 0x00, 
  0x74, 0x66, 0x6c, 0x2e, 0x70, 0x73, 0x65, 0x75, 0x64, 0x6f, 0x5f, 0x71, 
  0x63, 0x6f, 0x6e, 0x73, 0x74, 0x35, 0x00, 0x00, 0x04, 0x00, 0x00, 0x00, 
  0x01, 0x00, 0x00, 0x00, 0x03, 0x00, 0x00, 0x00, 0x03, 0x00, 0x00, 0x00, 
  0x40, 0x00, 0x00, 0x00, 0xf2, 0xf1, 0xff, 0xff, 0x00, 0x00, 0x00, 0x01, 
  0x14, 0x00, 0x00, 0x00, 0x24, 0x03, 0x00, 0x00, 0x07, 0x00, 0x00, 0x00, 
  0x00, 0x00, 0x00, 0x02, 0x30, 0x03, 0x00, 0x00, 0x6c, 0xf1, 0xff, 0xff, 
  0x08, 0x00, 0x00, 0x00, 0x08, 0x02, 0x00, 0x00, 0x40, 0x00, 0x00, 0x00, 
  0x00, 0x00, 0x00, 0x00, 0x00, 0x00, 0x00, 0x00, 0x00, 0x00, 0x00, 0x00, 
  0x00, 0x00, 0x00, 0x00, 0x00, 0x00, 0x00, 0x00, 0x00, 0x00, 0x00, 0x00, 
  0x00, 0x00, 0x00, 0x00, 0x00, 0x00, 0x00, 0x00, 0x00, 0x00, 0x00, 0x00, 
  0x00, 0x00, 0x00, 0x00, 0x00, 0x00, 0x00, 0x00, 0x00, 0x00, 0x00, 0x00, 
  0x00, 0x00, 0x00, 0x00, 0x00, 0x00, 0x00, 0x00, 0x00, 0x00, 0x00, 0x00, 
  0x00, 0x00, 0x00, 0x00, 0x00, 0x00, 0x00, 0x00, 0x00, 0x00, 0x00, 0x00, 
  0x00, 0x00, 0x00, 0x00, 0x00, 0x00, 0x00, 0x00, 0x00, 0x00, 0x00, 0x00, 
  0x00, 0x00, 0x00, 0x00, 0x00, 0x00, 0x00, 0x00, 0x00, 0x00, 0x00, 0x00, 
  0x00, 0x00, 0x00, 0x00, 0x00, 0x00, 0x00, 0x00, 0x00, 0x00, 0x00, 0x00, 
  0x00, 0x00, 0x00, 0x00, 0x00, 0x00, 0x00, 0x00, 0x00, 0x00, 0x00, 0x00, 
  0x00, 0x00, 0x00, 0x00, 0x00, 0x00, 0x00, 0x00, 0x00, 0x00, 0x00, 0x00, 
  0x00, 0x00, 0x00, 0x00, 0x00, 0x00, 0x00, 0x00, 0x00, 0x00, 0x00, 0x00, 
  0x00, 0x00, 0x00, 0x00, 0x00, 0x00, 0x00, 0x00, 0x00, 0x00, 0x00, 0x00, 
  0x00, 0x00, 0x00, 0x00, 0x00, 0x00, 0x00, 0x00, 0x00, 0x00, 0x00, 0x00, 
  0x00, 0x00, 0x00, 0x00, 0x00, 0x00, 0x00, 0x00, 0x00, 0x00, 0x00, 0x00, 
  0x00, 0x00, 0x00, 0x00, 0x00, 0x00, 0x00, 0x00, 0x00, 0x00, 0x00, 0x00, 
  0x00, 0x00, 0x00, 0x00, 0x00, 0x00, 0x00, 0x00, 0x00, 0x00, 0x00, 0x00, 
  0x00, 0x00, 0x00, 0x00, 0x00, 0x00, 0x00, 0x00, 0x00, 0x00, 0x00, 0x00, 
  0x00, 0x00, 0x00, 0x00, 0x00, 0x00, 0x00, 0x00, 0x00, 0x00, 0x00, 0x00, 
  0x00, 0x00, 0x00, 0x00, 0x00, 0x00, 0x00, 0x00, 0x00, 0x00, 0x00, 0x00, 
  0x00, 0x00, 0x00, 0x00, 0x00, 0x00, 0x00, 0x00, 0x00, 0x00, 0x00, 0x00, 
  0x00, 0x00, 0x00, 0x00, 0x00, 0x00, 0x00, 0x00, 0x00, 0x00, 0x00, 0x00, 
  0x00, 0x00, 0x00, 0x00, 0x00, 0x00, 0x00, 0x00, 0x00, 0x00, 0x00, 0x00, 
  0x00, 0x00, 0x00, 0x00, 0x00, 0x00, 0x00, 0x00, 0x00, 0x00, 0x00, 0x00, 
  0x00, 0x00, 0x00, 0x00, 0x00, 0x00, 0x00, 0x00, 0x00, 0x00, 0x00, 0x00, 
  0x00, 0x00, 0x00, 0x00, 0x00, 0x00, 0x00, 0x00, 0x00, 0x00, 0x00, 0x00, 
  0x00, 0x00, 0x00, 0x00, 0x00, 0x00, 0x00, 0x00, 0x00, 0x00, 0x00, 0x00, 
  0x00, 0x00, 0x00, 0x00, 0x00, 0x00, 0x00, 0x00, 0x00, 0x00, 0x00, 0x00, 
  0x00, 0x00, 0x00, 0x00, 0x00, 0x00, 0x00, 0x00, 0x00, 0x00, 0x00, 0x00, 
  0x00, 0x00, 0x00, 0x00, 0x00, 0x00, 0x00, 0x00, 0x00, 0x00, 0x00, 0x00, 
  0x00, 0x00, 0x00, 0x00, 0x00, 0x00, 0x00, 0x00, 0x00, 0x00, 0x00, 0x00, 
  0x00, 0x00, 0x00, 0x00, 0x00, 0x00, 0x00, 0x00, 0x00, 0x00, 0x00, 0x00, 
  0x00, 0x00, 0x00, 0x00, 0x00, 0x00, 0x00, 0x00, 0x00, 0x00, 0x00, 0x00, 
  0x00, 0x00, 0x00, 0x00, 0x00, 0x00, 0x00, 0x00, 0x00, 0x00, 0x00, 0x00, 
  0x00, 0x00, 0x00, 0x00, 0x00, 0x00, 0x00, 0x00, 0x00, 0x00, 0x00, 0x00, 
  0x00, 0x00, 0x00, 0x00, 0x00, 0x00, 0x00, 0x00, 0x00, 0x00, 0x00, 0x00, 
  0x00, 0x00, 0x00, 0x00, 0x00, 0x00, 0x00, 0x00, 0x00, 0x00, 0x00, 0x00, 
  0x00, 0x00, 0x00, 0x00, 0x00, 0x00, 0x00, 0x00, 0x00, 0x00, 0x00, 0x00, 
  0x00, 0x00, 0x00, 0x00, 0x00, 0x00, 0x00, 0x00, 0x00, 0x00, 0x00, 0x00, 
  0x00, 0x00, 0x00, 0x00, 0x00, 0x00, 0x00, 0x00, 0x00, 0x00, 0x00, 0x00, 
  0x00, 0x00, 0x00, 0x00, 0x00, 0x00, 0x00, 0x00, 0x00, 0x00, 0x00, 0x00, 
  0x00, 0x00, 0x00, 0x00, 0x00, 0x00, 0x00, 0x00, 0x00, 0x00, 0x00, 0x00, 
  0x00, 0x00, 0x00, 0x00, 0x00, 0x00, 0x00, 0x00, 0x40, 0x00, 0x00, 0x00, 
  0x30, 0xbc, 0x23, 0x38, 0xce, 0xb2, 0x66, 0x38, 0x3d, 0x05, 0x3b, 0x38, 
  0x23, 0x29, 0xc9, 0x37, 0xb9, 0x9d, 0x4a, 0x38, 0xeb, 0x94, 0xbc, 0x37, 
  0xff, 0xe9, 0x0b, 0x38, 0x96, 0x12, 0xc4, 0x37, 0x5d, 0x3c, 0xc5, 0x37, 
  0x34, 0xa3, 0x89, 0x38, 0x3b, 0x39, 0x5c, 0x38, 0x4f, 0xc9, 0x10, 0x38, 
  0xde, 0x88, 0x94, 0x37, 0x8d, 0x42, 0xaa, 0x38, 0x0c, 0x95, 0xe7, 0x37, 
  0xf1, 0xd5, 0x11, 0x38, 0x6d, 0x79, 0xf1, 0x37, 0xfa, 0x61, 0xf6, 0x37, 
  0xd3, 0x5c, 0x4e, 0x38, 0x83, 0x7c, 0x13, 0x38, 0x0b, 0xdb, 0x0f, 0x38, 
  0x1f, 0xde, 0x53, 0x38, 0x60, 0xec, 0x3e, 0x38, 0x62, 0x26, 0x48, 0x38, 
  0xe3, 0x6d, 0x54, 0x38, 0xd1, 0x00, 0x0c, 0x38, 0xe5, 0x1e, 0x3d, 0x38, 
  0x0a, 0x9c, 0x74, 0x38, 0x41, 0x6e, 0x89, 0x38, 0x3d, 0x57, 0x9a, 0x37, 
  0xbd, 0xa6, 0x77, 0x37, 0xa2, 0x22, 0xf5, 0x37, 0x9e, 0x23, 0x12, 0x37, 
  0x87, 0x39, 0x44, 0x38, 0x58, 0x73, 0xa9, 0x37, 0x97, 0xf5, 0xe8, 0x37, 
  0x1c, 0x37, 0xce, 0x37, 0xb1, 0x52, 0x0f, 0x38, 0x10, 0x39, 0xe3, 0x37, 
  0x96, 0x6c, 0x1e, 0x38, 0x9d, 0xe9, 0x37, 0x38, 0x84, 0xd6, 0x19, 0x38, 
  0x1a, 0x26, 0x7f, 0x37, 0x03, 0x1d, 0x17, 0x38, 0xa3, 0xad, 0xde, 0x37, 
  0x02, 0x5d, 0x67, 0x38, 0x6a, 0xbe, 0xe5, 0x37, 0xb9, 0xd3, 0xc5, 0x37, 
  0x91, 0x64, 0x31, 0x38, 0x6a, 0x11, 0x48, 0x38, 0x28, 0x5d, 0x12, 0x38, 
  0xbb, 0xbe, 0xf1, 0x37, 0x04, 0x1f, 0xaa, 0x37, 0x04, 0x10, 0x01, 0x38, 
  0x79, 0x01, 0x33, 0x38, 0xa6, 0xc3, 0x67, 0x38, 0x9f, 0x05, 0x48, 0x38, 
  0xa4, 0x94, 0x37, 0x38, 0xa3, 0xba, 0xd1, 0x37, 0x39, 0xd8, 0x09, 0x38, 
  0x70, 0x13, 0xab, 0x37, 0xfc, 0x3a, 0x1b, 0x38, 0x80, 0x27, 0xd3, 0x37, 
  0x95, 0x0c, 0x80, 0x38, 0x12, 0x00, 0x00, 0x00, 0x74, 0x66, 0x6c, 0x2e, 
  0x70, 0x73, 0x65, 0x75, 0x64, 0x6f, 0x5f, 0x71, 0x63, 0x6f, 0x6e, 0x73, 
  0x74, 0x34, 0x00, 0x00, 0x01, 0x00, 0x00, 0x00, 0x40, 0x00, 0x00, 0x00, 
  0x42, 0xf5, 0xff, 0xff, 0x00, 0x00, 0x00, 0x01, 0x14, 0x00, 0x00, 0x00, 
  0x28, 0x03, 0x00, 0x00, 0x06, 0x00, 0x00, 0x00, 0x00, 0x00, 0x00, 0x09, 
  0x34, 0x03, 0x00, 0x00, 0xbc, 0xf4, 0xff, 0xff, 0x08, 0x00, 0x00, 0x00, 
  0x0c, 0x02, 0x00, 0x00, 0x40, 0x00, 0x00, 0x00, 0x00, 0x00, 0x00, 0x00, 
  0x00, 0x00, 0x00, 0x00, 0x00, 0x00, 0x00, 0x00, 0x00, 0x00, 0x00, 0x00, 
  0x00, 0x00, 0x00, 0x00, 0x00, 0x00, 0x00, 0x00, 0x00, 0x00, 0x00, 0x00, 
  0x00, 0x00, 0x00, 0x00, 0x00, 0x00, 0x00, 0x00, 0x00, 0x00, 0x00, 0x00, 
  0x00, 0x00, 0x00, 0x00, 0x00, 0x00, 0x00, 0x00, 0x00, 0x00, 0x00, 0x00, 
  0x00, 0x00, 0x00, 0x00, 0x00, 0x00, 0x00, 0x00, 0x00, 0x00, 0x00, 0x00, 
  0x00, 0x00, 0x00, 0x00, 0x00, 0x00, 0x00, 0x00, 0x00, 0x00, 0x00, 0x00, 
  0x00, 0x00, 0x00, 0x00, 0x00, 0x00, 0x00, 0x00, 0x00, 0x00, 0x00, 0x00, 
  0x00, 0x00, 0x00, 0x00, 0x00, 0x00, 0x00, 0x00, 0x00, 0x00, 0x00, 0x00, 
  0x00, 0x00, 0x00, 0x00, 0x00, 0x00, 0x00, 0x00, 0x00, 0x00, 0x00, 0x00, 
  0x00, 0x00, 0x00, 0x00, 0x00, 0x00, 0x00, 0x00, 0x00, 0x00, 0x00, 0x00, 
  0x00, 0x00, 0x00, 0x00, 0x00, 0x00, 0x00, 0x00, 0x00, 0x00, 0x00, 0x00, 
  0x00, 0x00, 0x00, 0x00, 0x00, 0x00, 0x00, 0x00, 0x00, 0x00, 0x00, 0x00, 
  0x00, 0x00, 0x00, 0x00, 0x00, 0x00, 0x00, 0x00, 0x00, 0x00, 0x00, 0x00, 
  0x00, 0x00, 0x00, 0x00, 0x00, 0x00, 0x00, 0x00, 0x00, 0x00, 0x00, 0x00, 
  0x00, 0x00, 0x00, 0x00, 0x00, 0x00, 0x00, 0x00, 0x00, 0x00, 0x00, 0x00, 
  0x00, 0x00, 0x00, 0x00, 0x00, 0x00, 0x00, 0x00, 0x00, 0x00, 0x00, 0x00, 
  0x00, 0x00, 0x00, 0x00, 0x00, 0x00, 0x00, 0x00, 0x00, 0x00, 0x00, 0x00, 
  0x00, 0x00, 0x00, 0x00, 0x00, 0x00, 0x00, 0x00, 0x00, 0x00, 0x00, 0x00, 
  0x00, 0x00, 0x00, 0x00, 0x00, 0x00, 0x00, 0x00, 0x00, 0x00, 0x00, 0x00, 
  0x00, 0x00, 0x00, 0x00, 0x00, 0x00, 0x00, 0x00, 0x00, 0x00, 0x00, 0x00, 
  0x00, 0x00, 0x00, 0x00, 0x00, 0x00, 0x00, 0x00, 0x00, 0x00, 0x00, 0x00, 
  0x00, 0x00, 0x00, 0x00, 0x00, 0x00, 0x00, 0x00, 0x00, 0x00, 0x00, 0x00, 
  0x00, 0x00, 0x00, 0x00, 0x00, 0x00, 0x00, 0x00, 0x00, 0x00, 0x00, 0x00, 
  0x00, 0x00, 0x00, 0x00, 0x00, 0x00, 0x00, 0x00, 0x00, 0x00, 0x00, 0x00, 
  0x00, 0x00, 0x00, 0x00, 0x00, 0x00, 0x00, 0x00, 0x00, 0x00, 0x00, 0x00, 
  0x00, 0x00, 0x00, 0x00, 0x00, 0x00, 0x00, 0x00, 0x00, 0x00, 0x00, 0x00, 
  0x00, 0x00, 0x00, 0x00, 0x00, 0x00, 0x00, 0x00, 0x00, 0x00, 0x00, 0x00, 
  0x00, 0x00, 0x00, 0x00, 0x00, 0x00, 0x00, 0x00, 0x00, 0x00, 0x00, 0x00, 
  0x00, 0x00, 0x00, 0x00, 0x00, 0x00, 0x00, 0x00, 0x00, 0x00, 0x00, 0x00, 
  0x00, 0x00, 0x00, 0x00, 0x00, 0x00, 0x00, 0x00, 0x00, 0x00, 0x00, 0x00, 
  0x00, 0x00, 0x00, 0x00, 0x00, 0x00, 0x00, 0x00, 0x00, 0x00, 0x00, 0x00, 
  0x00, 0x00, 0x00, 0x00, 0x00, 0x00, 0x00, 0x00, 0x00, 0x00, 0x00, 0x00, 
  0x00, 0x00, 0x00, 0x00, 0x00, 0x00, 0x00, 0x00, 0x00, 0x00, 0x00, 0x00, 
  0x00, 0x00, 0x00, 0x00, 0x00, 0x00, 0x00, 0x00, 0x00, 0x00, 0x00, 0x00, 
  0x00, 0x00, 0x00, 0x00, 0x00, 0x00, 0x00, 0x00, 0x00, 0x00, 0x00, 0x00, 
  0x00, 0x00, 0x00, 0x00, 0x00, 0x00, 0x00, 0x00, 0x00, 0x00, 0x00, 0x00, 
  0x00, 0x00, 0x00, 0x00, 0x00, 0x00, 0x00, 0x00, 0x00, 0x00, 0x00, 0x00, 
  0x00, 0x00, 0x00, 0x00, 0x00, 0x00, 0x00, 0x00, 0x00, 0x00, 0x00, 0x00, 
  0x00, 0x00, 0x00, 0x00, 0x00, 0x00, 0x00, 0x00, 0x00, 0x00, 0x00, 0x00, 
  0x00, 0x00, 0x00, 0x00, 0x00, 0x00, 0x00, 0x00, 0x00, 0x00, 0x00, 0x00, 
  0x00, 0x00, 0x00, 0x00, 0x00, 0x00, 0x00, 0x00, 0x00, 0x00, 0x00, 0x00, 
  0x00, 0x00, 0x00, 0x00, 0x00, 0x00, 0x00, 0x00, 0x00, 0x00, 0x00, 0x00, 
  0x00, 0x00, 0x00, 0x00, 0x00, 0x00, 0x00, 0x00, 0x40, 0x00, 0x00, 0x00, 
  0xb7, 0x4a, 0x6c, 0x3b, 0x03, 0xb8, 0xae, 0x3b, 0x84, 0xe6, 0x5f, 0x3b, 
  0x91, 0x8a, 0x84, 0x3b, 0x14, 0xae, 0x04, 0x3c, 0x46, 0x7f, 0x85, 0x3b, 
  0x23, 0xf6, 0x62, 0x3b, 0x9a, 0x80, 0x92, 0x3b, 0x0f, 0x31, 0xa1, 0x3b, 
  0xde, 0x0b, 0x7e, 0x3b, 0x67, 0x18, 0x81, 0x3b, 0xc4, 0x21, 0x7a, 0x3b, 
  0xbf, 0xe4, 0xed, 0x3b, 0xfb, 0xc9, 0x1a, 0x3b, 0xf2, 0x37, 0x93, 0x3b, 
  0xa3, 0xf9, 0x55, 0x3b, 0xc1, 0x7d, 0x8f, 0x3b, 0xb8, 0x52, 0xa4, 0x3b, 
  0x6e, 0x40, 0xd2, 0x3b, 0x85, 0xf2, 0xc5, 0x3b, 0x63, 0xa6, 0x97, 0x3b, 
  0x0f, 0x40, 0x65, 0x3b, 0x99, 0x5e, 0xdc, 0x3b, 0x11, 0x1e, 0x2f, 0x3b, 
  0x39, 0x73, 0xb9, 0x3b, 0x9b, 0xfc, 0xa3, 0x3b, 0x3b, 0x26, 0x82, 0x3b, 
  0xb4, 0x77, 0xa0, 0x3b, 0x85, 0x6f, 0x54, 0x3b, 0x50, 0xae, 0x10, 0x3b, 
  0xce, 0x2f, 0xa3, 0x3b, 0xd1, 0x97, 0xae, 0x3b, 0x0a, 0x47, 0xac, 0x3b, 
  0xfa, 0xf8, 0x68, 0x3b, 0x7a, 0xed, 0x97, 0x3b, 0x4b, 0x32, 0x9e, 0x3b, 
  0x31, 0xad, 0xb2, 0x3b, 0x50, 0xb0, 0x38, 0x3b, 0x01, 0xbd, 0xc9, 0x3b, 
  0xf6, 0xde, 0x82, 0x3b, 0x07, 0x11, 0x96, 0x3b, 0xd9, 0x53, 0xf8, 0x3b, 
  0x66, 0x42, 0xea, 0x3b, 0xa0, 0xff, 0xac, 0x3b, 0xd0, 0x46, 0xf6, 0x3b, 
  0xe9, 0xc5, 0x96, 0x3b, 0xdd, 0xb6, 0x5d, 0x3b, 0x1f, 0xc2, 0x58, 0x3b, 
  0x68, 0xda, 0x80, 0x3b, 0xb4, 0x80, 0x99, 0x3b, 0x5c, 0x49, 0xbb, 0x3b, 
  0x1f, 0x2e, 0xc4, 0x3b, 0xb8, 0xe9, 0x42, 0x3b, 0xb1, 0xf9, 0xb6, 0x3b, 
  0x53, 0xb5, 0x96, 0x3b, 0xa4, 0x9f, 0x7c, 0x3b, 0x9a, 0x5a, 0x72, 0x3b, 
  0x3c, 0x22, 0x8a, 0x3b, 0x44, 0x50, 0x8b, 0x3b, 0x9d, 0x63, 0x45, 0x3b, 
  0xe5, 0x6c, 0x4e, 0x3b, 0x4b, 0xc7, 0xb7, 0x3b, 0x46, 0x41, 0x70, 0x3b, 
  0x2b, 0x64, 0xb3, 0x3b, 0x12, 0x00, 0x00, 0x00, 0x74, 0x66, 0x6c, 0x2e, 
  0x70, 0x73, 0x65, 0x75, 0x64, 0x6f, 0x5f, 0x71, 0x63, 0x6f, 0x6e, 0x73, 
  0x74, 0x33, 0x00, 0x00, 0x04, 0x00, 0x00, 0x00, 0x40, 0x00, 0x00, 0x00, 
  0x01, 0x00, 0x00, 0x00, 0x01, 0x00, 0x00, 0x00, 0x40, 0x00, 0x00, 0x00, 
  0xa2, 0xf8, 0xff, 0xff, 0x00, 0x00, 0x00, 0x01, 0x14, 0x00, 0x00, 0x00, 
  0x24, 0x03, 0x00, 0x00, 0x05, 0x00, 0x00, 0x00, 0x00, 0x00, 0x00, 0x02, 
  0x30, 0x03, 0x00, 0x00, 0x1c, 0xf8, 0xff, 0xff, 0x08, 0x00, 0x00, 0x00, 
  0x08, 0x02, 0x00, 0x00, 0x40, 0x00, 0x00, 0x00, 0x00, 0x00, 0x00, 0x00, 
  0x00, 0x00, 0x00, 0x00, 0x00, 0x00, 0x00, 0x00, 0x00, 0x00, 0x00, 0x00, 
  0x00, 0x00, 0x00, 0x00, 0x00, 0x00, 0x00, 0x00, 0x00, 0x00, 0x00, 0x00, 
  0x00, 0x00, 0x00, 0x00, 0x00, 0x00, 0x00, 0x00, 0x00, 0x00, 0x00, 0x00, 
  0x00, 0x00, 0x00, 0x00, 0x00, 0x00, 0x00, 0x00, 0x00, 0x00, 0x00, 0x00, 
  0x00, 0x00, 0x00, 0x00, 0x00, 0x00, 0x00, 0x00, 0x00, 0x00, 0x00, 0x00, 
  0x00, 0x00, 0x00, 0x00, 0x00, 0x00, 0x00, 0x00, 0x00, 0x00, 0x00, 0x00, 
  0x00, 0x00, 0x00, 0x00, 0x00, 0x00, 0x00, 0x00, 0x00, 0x00, 0x00, 0x00, 
  0x00, 0x00, 0x00, 0x00, 0x00, 0x00, 0x00, 0x00, 0x00, 0x00, 0x00, 0x00, 
  0x00, 0x00, 0x00, 0x00, 0x00, 0x00, 0x00, 0x00, 0x00, 0x00, 0x00, 0x00, 
  0x00, 0x00, 0x00, 0x00, 0x00, 0x00, 0x00, 0x00, 0x00, 0x00, 0x00, 0x00, 
  0x00, 0x00, 0x00, 0x00, 0x00, 0x00, 0x00, 0x00, 0x00, 0x00, 0x00, 0x00, 
  0x00, 0x00, 0x00, 0x00, 0x00, 0x00, 0x00, 0x00, 0x00, 0x00, 0x00, 0x00, 
  0x00, 0x00, 0x00, 0x00, 0x00, 0x00, 0x00, 0x00, 0x00, 0x00, 0x00, 0x00, 
  0x00, 0x00, 0x00, 0x00, 0x00, 0x00, 0x00, 0x00, 0x00, 0x00, 0x00, 0x00, 
  0x00, 0x00, 0x00, 0x00, 0x00, 0x00, 0x00, 0x00, 0x00, 0x00, 0x00, 0x00, 
  0x00, 0x00, 0x00, 0x00, 0x00, 0x00, 0x00, 0x00, 0x00, 0x00, 0x00, 0x00, 
  0x00, 0x00, 0x00, 0x00, 0x00, 0x00, 0x00, 0x00, 0x00, 0x00, 0x00, 0x00, 
  0x00, 0x00, 0x00, 0x00, 0x00, 0x00, 0x00, 0x00, 0x00, 0x00, 0x00, 0x00, 
  0x00, 0x00, 0x00, 0x00, 0x00, 0x00, 0x00, 0x00, 0x00, 0x00, 0x00, 0x00, 
  0x00, 0x00, 0x00, 0x00, 0x00, 0x00, 0x00, 0x00, 0x00, 0x00, 0x00, 0x00, 
  0x00, 0x00, 0x00, 0x00, 0x00, 0x00, 0x00, 0x00, 0x00, 0x00, 0x00, 0x00, 
  0x00, 0x00, 0x00, 0x00, 0x00, 0x00, 0x00, 0x00, 0x00, 0x00, 0x00, 0x00, 
  0x00, 0x00, 0x00, 0x00, 0x00, 0x00, 0x00, 0x00, 0x00, 0x00, 0x00, 0x00, 
  0x00, 0x00, 0x00, 0x00, 0x00, 0x00, 0x00, 0x00, 0x00, 0x00, 0x00, 0x00, 
  0x00, 0x00, 0x00, 0x00, 0x00, 0x00, 0x00, 0x00, 0x00, 0x00, 0x00, 0x00, 
  0x00, 0x00, 0x00, 0x00, 0x00, 0x00, 0x00, 0x00, 0x00, 0x00, 0x00, 0x00, 
  0x00, 0x00, 0x00, 0x00, 0x00, 0x00, 0x00, 0x00, 0x00, 0x00, 0x00, 0x00, 
  0x00, 0x00, 0x00, 0x00, 0x00, 0x00, 0x00, 0x00, 0x00, 0x00, 0x00, 0x00, 
  0x00, 0x00, 0x00, 0x00, 0x00, 0x00, 0x00, 0x00, 0x00, 0x00, 0x00, 0x00, 
  0x00, 0x00, 0x00, 0x00, 0x00, 0x00, 0x00, 0x00, 0x00, 0x00, 0x00, 0x00, 
  0x00, 0x00, 0x00, 0x00, 0x00, 0x00, 0x00, 0x00, 0x00, 0x00, 0x00, 0x00, 
  0x00, 0x00, 0x00, 0x00, 0x00, 0x00, 0x00, 0x00, 0x00, 0x00, 0x00, 0x00, 
  0x00, 0x00, 0x00, 0x00, 0x00, 0x00, 0x00, 0x00, 0x00, 0x00, 0x00, 0x00, 
  0x00, 0x00, 0x00, 0x00, 0x00, 0x00, 0x00, 0x00, 0x00, 0x00, 0x00, 0x00, 
  0x00, 0x00, 0x00, 0x00, 0x00, 0x00, 0x00, 0x00, 0x00, 0x00, 0x00, 0x00, 
  0x00, 0x00, 0x00, 0x00, 0x00, 0x00, 0x00, 0x00, 0x00, 0x00, 0x00, 0x00, 
  0x00, 0x00, 0x00, 0x00, 0x00, 0x00, 0x00, 0x00, 0x00, 0x00, 0x00, 0x00, 
  0x00, 0x00, 0x00, 0x00, 0x00, 0x00, 0x00, 0x00, 0x00, 0x00, 0x00, 0x00, 
  0x00, 0x00, 0x00, 0x00, 0x00, 0x00, 0x00, 0x00, 0x00, 0x00, 0x00, 0x00, 
  0x00, 0x00, 0x00, 0x00, 0x00, 0x00, 0x00, 0x00, 0x00, 0x00, 0x00, 0x00, 
  0x00, 0x00, 0x00, 0x00, 0x00, 0x00, 0x00, 0x00, 0x00, 0x00, 0x00, 0x00, 
  0x00, 0x00, 0x00, 0x00, 0x00, 0x00, 0x00, 0x00, 0x00, 0x00, 0x00, 0x00, 
  0x00, 0x00, 0x00, 0x00, 0x40, 0x00, 0x00, 0x00, 0xee, 0x68, 0xa5, 0x38, 
  0x55, 0x9d, 0xf4, 0x38, 0x51, 0xbc, 0x9c, 0x38, 0x66, 0x90, 0xb9, 0x38, 
  0x1e, 0xc2, 0x39, 0x39, 0x00, 0xe7, 0xba, 0x38, 0xdf, 0xe0, 0x9e, 0x38, 
  0x37, 0x1c, 0xcd, 0x38, 0x09, 0xad, 0xe1, 0x38, 0xa5, 0xd6, 0xb1, 0x38, 
  0x54, 0xbd, 0xb4, 0x38, 0x27, 0x19, 0xaf, 0x38, 0xf6, 0x87, 0x26, 0x39, 
  0x3f, 0xb6, 0x58, 0x38, 0xe8, 0x1c, 0xce, 0x38, 0xa4, 0xc9, 0x95, 0x38, 
  0xfe, 0xe4, 0xc8, 0x38, 0x65, 0x0f, 0xe6, 0x38, 0x60, 0x2e, 0x13, 0x39, 
  0x5d, 0x91, 0x0a, 0x39, 0x2e, 0x51, 0xd4, 0x38, 0x07, 0x7b, 0xa0, 0x38, 
  0x8d, 0x43, 0x1a, 0x39, 0x37, 0x2c, 0x75, 0x38, 0xc7, 0xd1, 0x01, 0x39, 
  0xd5, 0x96, 0xe5, 0x38, 0x19, 0x37, 0xb6, 0x38, 0x87, 0xa9, 0xe0, 0x38, 
  0xc0, 0xb5, 0x94, 0x38, 0x64, 0x8f, 0x4a, 0x38, 0x1a, 0x78, 0xe4, 0x38, 
  0x42, 0x70, 0xf4, 0x38, 0x57, 0x32, 0xf1, 0x38, 0x18, 0x16, 0xa3, 0x38, 
  0xb5, 0xb4, 0xd4, 0x38, 0x87, 0x7b, 0xdd, 0x38, 0xd5, 0x27, 0xfa, 0x38, 
  0x56, 0x49, 0x81, 0x38, 0xb9, 0x38, 0x0d, 0x39, 0xbb, 0x39, 0xb7, 0x38, 
  0xa8, 0x19, 0xd2, 0x38, 0xcc, 0xd5, 0x2d, 0x39, 0xb3, 0xfc, 0x23, 0x39, 
  0xc5, 0x34, 0xf2, 0x38, 0x43, 0x66, 0x2c, 0x39, 0xe6, 0x16, 0xd3, 0x38, 
  0x8c, 0x34, 0x9b, 0x38, 0x66, 0xbc, 0x97, 0x38, 0x87, 0x66, 0xb4, 0x38, 
  0x3e, 0xe9, 0xd6, 0x38, 0xe3, 0x1a, 0x03, 0x39, 0xac, 0x54, 0x09, 0x39, 
  0x95, 0x71, 0x88, 0x38, 0x4b, 0x16, 0x00, 0x39, 0xae, 0xff, 0xd2, 0x38, 
  0xae, 0xd7, 0xb0, 0x38, 0x4a, 0xa7, 0xa9, 0x38, 0xcd, 0x64, 0xc1, 0x38, 
  0xa9, 0x0b, 0xc3, 0x38, 0x53, 0x2d, 0x8a, 0x38, 0xad, 0x80, 0x90, 0x38, 
