#ifndef MODEL_H
#define MODEL_H

const unsigned char model_data[] = {
0x20,0x00,0x00,0x00,0x54,0x46,0x4c,0x33,0x00,0x00,0x00,0x00,0x14,0x00,0x20,0x00,0x1c,0x00,0x18,0x00,0x14,0x00,0x10,0x00,0x0c,0x00,0x00,0x00,0x08,0x00,0x04,0x00,0x14,0x00,0x00,0x00,0x1c,0x00,0x00,0x00,0x98,0x00,0x00,0x00,0x18,0x01,0x00,0x00,0x94,0x1d,0x00,0x00,0xa4,0x1d,0x00,0x00,0x44,0x3b,0x00,0x00,0x03,0x00,0x00,0x00,0x01,0x00,0x00,0x00,0x10,0x00,0x00,0x00,0x00,0x00,0x0a,0x00,0x10,0x00,0x0c,0x00,0x08,0x00,0x04,0x00,0x0a,0x00,0x00,0x00,0x0c,0x00,0x00,0x00,0x1c,0x00,0x00,0x00,0x3c,0x00,0x00,0x00,0x0f,0x00,0x00,0x00,0x73,0x65,0x72,0x76,0x69,0x6e,0x67,0x5f,0x64,0x65,0x66,0x61,0x75,0x6c,0x74,0x00,0x01,0x00,0x00,0x00,0x04,0x00,0x00,0x00,0x68,0xff,0xff,0xff,0x0f,0x00,0x00,0x00,0x04,0x00,0x00,0x00,0x08,0x00,0x00,0x00,0x6f,0x75,0x74,0x70,0x75,0x74,0x5f,0x30,0x00,0x00,0x00,0x00,0x01,0x00,0x00,0x00,0x04,0x00,0x00,0x00,0x5a,0xe2,0xff,0xff,0x04,0x00,0x00,0x00,0x0c,0x00,0x00,0x00,0x6b,0x65,0x72,0x61,0x73,0x5f,0x74,0x65,0x6e,0x73,0x6f,0x72,0x00,0x00,0x00,0x00,0x03,0x00,0x00,0x00,0x5c,0x00,0x00,0x00,0x2c,0x00,0x00,0x00,0x04,0x00,0x00,0x00,0xb8,0xff,0xff,0xff,0x13,0x00,0x00,0x00,0x04,0x00,0x00,0x00,0x13,0x00,0x00,0x00,0x43,0x4f,0x4e,0x56,0x45,0x52,0x53,0x49,0x4f,0x4e,0x5f,0x4d,0x45,0x54,0x41,0x44,0x41,0x54,0x41,0x00,0xdc,0xff,0xff,0xff,0x12,0x00,0x00,0x00,0x04,0x00,0x00,0x00,0x13,0x00,0x00,0x00,0x6d,0x69,0x6e,0x5f,0x72,0x75,0x6e,0x74,0x69,0x6d,0x65,0x5f,0x76,0x65,0x72,0x73,0x69,0x6f,0x6e,0x00,0x08,0x00,0x0c,0x00,0x08,0x00,0x04,0x00,0x08,0x00,0x00,0x00,0x11,0x00,0x00,0x00,0x04,0x00,0x00,0x00,0x13,0x00,0x00,0x00,0x6d,0x69,0x6e,0x5f,0x72,0x75,0x6e,0x74,0x69,0x6d,0x65,0x5f,0x76,0x65,0x72,0x73,0x69,0x6f,0x6e,0x00,0x14,0x00,0x00,0x00,0x78,0x1c,0x00,0x00,0x70,0x1c,0x00,0x00,0x58,0x1c,0x00,0x00,0x14,0x1c,0x00,0x00,0xc4,0x18,0x00,0x00,0xb4,0x17,0x00,0x00,0xa4,0x07,0x00,0x00,0x94,0x06,0x00,0x00,0x44,0x04,0x00,0x00,0x34,0x03,0x00,0x00,0xe4,0x00,0x00,0x00,0xdc,0x00,0x00,0x00,0xd4,0x00,0x00,0x00,0xcc,0x00,0x00,0x00,0xc4,0x00,0x00,0x00,0xbc,0x00,0x00,0x00,0xb4,0x00,0x00,0x00,0x94,0x00,0x00,0x00,0x74,0x00,0x00,0x00,0x04,0x00,0x00,0x00,0x4e,0xe3,0xff,0xff,0x04,0x00,0x00,0x00,0x60,0x00,0x00,0x00,0x0c,0x00,0x00,0x00,0x08,0x00,0x0e,0x00,0x08,0x00,0x04,0x00,0x08,0x00,0x00,0x00,0x10,0x00,0x00,0x00,0x28,0x00,0x00,0x00,0x00,0x00,0x06,0x00,0x08,0x00,0x04,0x00,0x06,0x00,0x00,0x00,0x04,0x00,0x00,0x00,0x01,0x00,0x00,0x00,0xeb,0x03,0x00,0x00,0x0c,0x00,0x18,0x00,0x14,0x00,0x10,0x00,0x0c,0x00,0x04,0x00,0x0c,0x00,0x00,0x00,0x6f,0xd2,0x54,0x45,0xf3,0x1f,0x68,0x88,0x02,0x00,0x00,0x00,0x02,0x00,0x00,0x00,0x04,0x00,0x00,0x00,0x06,0x00,0x00,0x00,0x32,0x2e,0x31,0x38,0x2e,0x30,0x00,0x00,0xba,0xe3,0xff,0xff,0x04,0x00,0x00,0x00,0x10,0x00,0x00,0x00,0x00,0x00,0x00,0x00,0x00,0x00,0x00,0x00,0x00,0x00,0x00,0x00,0x00,0x00,0x00,0x00,0xd6,0xe3,0xff,0xff,0x04,0x00,0x00,0x00,0x10,0x00,0x00,0x00,0x31,0x2e,0x31,0x34,0x2e,0x30,0x00,0x00,0x00,0x00,0x00,0x00,0x00,0x00,0x00,0x00,0x98,0xc7,0xff,0xff,0x9c,0xc7,0xff,0xff,0xa0,0xc7,0xff,0xff,0xa4,0xc7,0xff,0xff,0xa8,0xc7,0xff,0xff,0xac,0xc7,0xff,0xff,0x0a,0xe4,0xff,0xff,0x04,0x00,0x00,0x00,0x40,0x02,0x00,0x00,0x81,0x78,0xbd,0xe1,0x5c,0xbb,0x27,0x0f,0xd2,0x01,0x65,0xbc,0xdb,0x7f,0xe5,0xc7,0x7a,0x0f,0x0a,0x24,0xe5,0x13,0xf1,0x19,0x31,0x81,0x55,0x17,0xa2,0x81,0x05,0xd6,0xd2,0xeb,0xf4,0x0a,0xe3,0x81,0xc5,0xf4,0xc2,0xe7,0x48,0xd4,0xfb,0x23,0x67,0xe2,0x47,0x3f,0x8c,0x32,0xdc,0x81,0xb7,0xbc,0xfe,0x9f,0x13,0xdc,0x81,0x36,0x97,0x81,0xea,0xc5,0x24,0x15,0x0f,0x62,0x1c,0x2f,0xe0,0x32,0x25,0x20,0x2c,0x1c,0x7f,0x22,0x2c,0x0d,0x95,0x81,0xfe,0x9e,0x99,0xf2,0xa2,0xb4,0x25,0x36,0xc6,0x09,0x5d,0x28,0xe3,0x7f,0x70,0x54,0x7f,0x52,0x41,0x4c,0x28,0x05,0x0a,0xf3,0x1f,0x26,0x25,0x28,0x0e,0x47,0x43,0xe4,0x7f,0xef,0x19,0x81,0xde,0xf9,0x9a,0xe3,0xf5,0xb8,0xdb,0x3c,0x7c,0xea,0xf2,0x23,0x08,0x81,0x9f,0x5e,0x96,0xf9,0x5d,0x81,0x13,0x6b,0x91,0x11,0xdc,0xa8,0x42,0xce,0xd3,0x6f,0xcc,0xf5,0x7f,0xdc,0x74,0x76,0xe9,0x00,0x6d,0xd6,0x81,0x75,0xe0,0x5c,0x33,0xf8,0x61,0x1e,0xe1,0x7f,0xfa,0xd9,0x3c,0x59,0xe3,0x35,0x7f,0xea,0xfb,0x64,0x25,0x5b,0x36,0x03,0x1a,0x53,0x28,0xf7,0x7f,0xd5,0x65,0x0a,0xd8,0x5b,0x00,0xdf,0x7f,0x01,0xff,0xf0,0x81,0xf8,0xe0,0xab,0xfb,0xd8,0xe4,0x40,0x38,0x9e,0x00,0x4b,0xab,0xd0,0x7f,0x9b,0xc4,0x41,0x73,0xf0,0x46,0x74,0x2d,0x4d,0x7f,0x7f,0x41,0xfd,0x05,0x03,0xf5,0x87,0xc1,0xec,0xe7,0x1b,0x77,0xd7,0xb9,0xef,0xcb,0x81,0xad,0x19,0xd1,0xad,0x1d,0x5f,0x7f,0xc4,0x96,0xca,0x6f,0x42,0x1a,0xf5,0x1b,0x16,0x81,0xc7,0x0c,0xa1,0xa3,0x23,0xed,0xf9,0x1e,0x53,0x7f,0x09,0x0e,0x47,0x04,0xec,0x6d,0x48,0x37,0x73,0x7f,0xfc,0x38,0x25,0xd6,0x39,0x13,0x81,0x3a,0x0d,0xf6,0x13,0x04,0x2b,0x08,0x4d,0x7f,0xb1,0x78,0xdc,0x90,0xfc,0xe4,0xfe,0x12,0x12,0x7f,0x30,0xfd,0x49,0xc6,0x04,0x6c,0xfd,0xe2,0x7f,0x1b,0xe1,0x08,0x6c,0xf5,0xc8,0x5a,0x15,0xd6,0x7f,0xf6,0x74,0x61,0x2c,0x7d,0x75,0x7f,0x4d,0x20,0xdf,0x0e,0x65,0x25,0x4a,0x58,0x7f,0x5c,0x05,0xa9,0xa2,0xd6,0xda,0xc1,0xae,0x08,0xcc,0x81,0xcf,0x18,0x7f,0xd4,0x07,0x3d,0xea,0xe1,0xee,0x81,0x49,0xf7,0xcd,0x48,0xe5,0x24,0x1b,0xe9,0x11,0x25,0x81,0xfb,0x18,0xa4,0xef,0xe0,0xae,0x35,0x1c,0x72,0x33,0x53,0x7f,0x1e,0x33,0x7d,0x3f,0x20,0xe2,0x6b,0xdb,0xe8,0x62,0x81,0xeb,0x84,0x07,0x20,0xd0,0x4f,0x30,0x41,0x7f,0x4b,0xbd,0xd6,0x81,0xab,0xa7,0xb8,0xc5,0xb7,0x03,0xf4,0x81,0xeb,0xf1,0xad,0xf3,0x08,0xcb,0x01,0x81,0xdd,0xb7,0xa3,0xf1,0x9f,0xbd,0xf2,0x8b,0x7f,0xd5,0x17,0xf6,0xfb,0x0f,0x83,0x36,0xfb,0x7f,0x14,0xf9,0x48,0xc2,0xdd,0x08,0x90,0xe7,0xe8,0x60,0x43,0x09,0xf7,0x07,0x02,0x81,0xc9,0x8f,0xcb,0x12,0xe9,0x12,0x26,0x7f,0x79,0x29,0x7f,0x39,0xe9,0x08,0xd7,0xcc,0x99,0x99,0xc6,0xd9,0xc0,0x7f,0xf2,0xe1,0x36,0x08,0xfa,0xde,0xd7,0x69,0x7f,0xd7,0x04,0x78,0xc4,0xac,0x5b,0x7f,0xf8,0x32,0x57,0xda,0x42,0x2f,0xb3,0x5d,0x17,0x40,0x0c,0x0e,0x4b,0x4c,0xeb,0x56,0x7f,0x86,0xfc,0x25,0xf0,0x08,0xed,0x7f,0xdb,0xc1,0x26,0xe8,0x72,0x23,0xe1,0x7f,0xfc,0xf0,0x7f,0x77,0x07,0xba,0xf5,0xd2,0xd7,0x81,0xb8,0xfa,0x07,0xdf,0x81,0xe2,0xfd,0xdf,0xcd,0xeb,0xfa,0xe7,0x52,0x3d,0xe1,0x47,0x4c,0xd2,0x4c,0x7f,0xc0,0x0c,0x81,0xc1,0xee,0xbd,0xd0,0xf4,0x15,0x15,0x27,0xbc,0x2e,0x0e,0x93,0x2f,0x11,0x81,0x56,0xe6,0xff,0xff,0x04,0x00,0x00,0x00,0x00,0x01,0x00,0x00,0xc6,0xff,0xff,0xff,0x5c,0xff,0xff,0xff,0x78,0xff,0xff,0xff,0xfd,0xff,0xff,0xff,0x01,0xfe,0xff,0xff,0xb8,0xfe,0xff,0xff,0x8a,0xfe,0xff,0xff,0x63,0x01,0x00,0x00,0xe0,0xff,0xff,0xff,0x26,0x00,0x00,0x00,0xe8,0xff,0xff,0xff,0xfe,0xff,0xff,0xff,0xb0,0x00,0x00,0x00,0x8b,0x00,0x00,0x00,0x0d,0xff,0xff,0xff,0x63,0xfe,0xff,0xff,0x55,0xff,0xff,0xff,0x06,0xff,0xff,0xff,0x6c,0xff,0xff,0xff,0x76,0xff,0xff,0xff,0x9d,0xfe,0xff,0xff,0xd8,0xfd,0xff,0xff,0xd1,0xff,0xff,0xff,0xd4,0xfe,0xff,0xff,0x66,0x00,0x00,0x00,0xa7,0xff,0xff,0xff,0x42,0xff,0xff,0xff,0xee,0x00,0x00,0x00,0x96,0xff,0xff,0xff,0x69,0xff,0xff,0xff,0x9a,0x00,0x00,0x00,0x73,0xfe,0xff,0xff,0x19,0xff,0xff,0xff,0x72,0xff,0xff,0xff,0x6d,0xff,0xff,0xff,0x57,0xfe,0xff,0xff,0xe5,0xff,0xff,0xff,0xf8,0xff,0xff,0xff,0x99,0xff,0xff,0xff,0xe1,0xff,0xff,0xff,0x9e,0xff,0xff,0xff,0x54,0x00,0x00,0x00,0xdb,0xff,0xff,0xff,0x9f,0xff,0xff,0xff,0x33,0x00,0x00,0x00,0x02,0x00,0x00,0x00,0x5e,0xff,0xff,0xff,0x69,0x00,0x00,0x00,0x22,0x00,0x00,0x00,0x97,0xff,0xff,0xff,0x93,0x00,0x00,0x00,0xaa,0xff,0xff,0xff,0x45,0xfe,0xff,0xff,0xf8,0xff,0xff,0xff,0x86,0xff,0xff,0xff,0xe2,0xff,0xff,0xff,0xba,0xff,0xff,0xff,0xdb,0xff,0xff,0xff,0x10,0x00,0x00,0x00,0xfe,0xff,0xff,0xff,0xea,0xfd,0xff,0xff,0x8f,0xff,0xff,0xff,0x97,0x00,0x00,0x00,0x53,0xff,0xff,0xff,0x62,0xe7,0xff,0xff,0x04,0x00,0x00,0x00,0x40,0x02,0x00,0x00,0xcb,0x04,0xf2,0x25,0x7a,0xd8,0x01,0x67,0xb4,0x43,0x0f,0x7f,0x21,0x12,0x32,0xd1,0xd0,0x29,0x04,0x1b,0x03,0x0e,0xf9,0xb3,0xc1,0x0e,0x0c,0xdc,0x0d,0xe5,0x48,0xee,0xe8,0xdd,0xe4,0x4c,0xf2,0x81,0xc9,0xbb,0x81,0x3b,0x81,0x39,0xa3,0x04,0x7f,0x1f,0x6a,0x7c,0x32,0xe6,0x1a,0x7f,0xf3,0x7f,0xa9,0xdf,0xc9,0xed,0xef,0x01,0x81,0x81,0x64,0x1f,0x07,0x7c,0x52,0x7f,0x6f,0x53,0xee,0x7b,0xf7,0x35,0xf6,0xfb,0xf6,0x59,0x15,0x7f,0xab,0xc1,0x71,0xb4,0x00,0x65,0x01,0x57,0x34,0x15,0x48,0x5d,0x06,0x37,0x19,0x47,0x01,0xfb,0x38,0x2d,0x23,0x7f,0x57,0xa7,0x31,0x25,0x45,0x1f,0xbf,0x4f,0x29,0x79,0xee,0x27,0x39,0x94,0x5b,0xea,0x22,0x7f,0xb4,0x14,0x7f,0x26,0x52,0xf6,0x7f,0x81,0xe6,0x7f,0x81,0x36,0xbd,0x10,0x40,0x4a,0xc8,0x0d,0xad,0x85,0x81,0x15,0x45,0x8f,0x38,0x81,0xee,0xdb,0x7f,0x01,0x5e,0x19,0xd0,0x34,0x5c,0x28,0xca,0x1a,0xd8,0x57,0x6b,0x93,0x7f,0x43,0x7f,0xe9,0x3f,0x4f,0x90,0xfc,0x73,0x68,0x0b,0x7f,0xf9,0x0f,0xc2,0x01,0x70,0x12,0x64,0xc3,0x62,0x34,0x68,0x44,0x27,0xb7,0x56,0x25,0xdf,0x01,0x35,0xf5,0x7a,0xdb,0x0d,0x7f,0x1b,0xfb,0x28,0x2c,0x4d,0x0e,0x1f,0x14,0xc5,0xff,0x08,0x11,0xd2,0x04,0xdf,0xb6,0xda,0x12,0xfb,0x06,0xea,0xf4,0x5b,0xf1,0x0b,0xf4,0xbf,0x1d,0x09,0xd7,0xe4,0xde,0xd7,0x45,0xa5,0x5f,0xc8,0xe3,0x4f,0xe6,0x68,0x7f,0x29,0x03,0x16,0x25,0xb2,0x6f,0x9b,0xf3,0xd7,0xf2,0xf6,0xf7,0xb4,0xc2,0x34,0x36,0x2a,0x37,0x41,0x79,0x7f,0x5d,0xeb,0x04,0x01,0xf9,0x06,0xed,0x04,0x5a,0x2d,0x74,0xb0,0xd7,0x70,0x9d,0xf0,0x72,0x06,0x57,0x60,0xaa,0x39,0x59,0x13,0x56,0x48,0x4c,0x0a,0x24,0xf4,0x44,0x0a,0x51,0x3a,0x88,0x58,0xf9,0x5b,0x14,0xc5,0x02,0x2f,0x2b,0x2a,0x5b,0x3f,0xe3,0x29,0xdf,0x16,0x7c,0xbb,0x42,0x72,0x2a,0x2d,0x00,0x2d,0x97,0x02,0x00,0xe0,0x5e,0xa4,0x13,0x1b,0xe9,0x9d,0xdb,0xa3,0x81,0xbe,0x20,0x5b,0xe3,0x4e,0x8b,0x0d,0xdf,0x4b,0x37,0x63,0x1d,0x00,0x81,0x6a,0x0f,0xf1,0x3e,0xc9,0x6b,0x70,0xd4,0x14,0x53,0x57,0xf1,0xe3,0x28,0xa5,0xf9,0x50,0x7f,0x1f,0x75,0x00,0xe5,0xda,0xfb,0x7f,0xf6,0x74,0xbe,0x7b,0x20,0x7a,0x5c,0x11,0xa5,0x24,0x36,0xfd,0xf7,0x7f,0xea,0x3e,0xf9,0xee,0x7f,0xb9,0xcf,0x3e,0xe9,0x72,0x0a,0xe9,0x1b,0xd6,0xca,0x06,0xff,0xca,0x09,0xc6,0x03,0xf6,0x24,0xf6,0x1c,0xad,0x18,0x7f,0xfc,0x22,0x24,0xc2,0x0f,0xeb,0x07,0xa1,0xd6,0xf5,0x2e,0xc1,0x7f,0x31,0xee,0x34,0xa9,0x7f,0x50,0x4c,0x52,0x28,0x08,0x81,0x5b,0x81,0x1f,0xdd,0x0c,0x12,0xf2,0xe2,0xe5,0xfe,0x41,0x4a,0xde,0x31,0x78,0x70,0x62,0x81,0x81,0x08,0xc9,0x02,0xfc,0x5a,0x7f,0x58,0x67,0x81,0x04,0x7f,0x81,0xdf,0x7f,0x1c,0x7f,0x7f,0x36,0x4c,0x7f,0x2f,0x7f,0x7f,0x5d,0x0f,0x7f,0x96,0x5e,0xdb,0x24,0xff,0x81,0x50,0xe0,0x5e,0x1d,0xd6,0xc6,0x2b,0xd3,0x7f,0x7f,0x64,0xeb,0x0e,0xd9,0x15,0x73,0xc4,0x7f,0x4e,0x29,0x34,0x0b,0xe1,0x8e,0xfc,0x96,0x38,0x4f,0xb1,0x21,0xfb,0xda,0x81,0xc7,0x81,0xb8,0xc0,0x1f,0x7f,0xfe,0x49,0x93,0xe1,0xe6,0x07,0x6f,0x7f,0x2c,0x18,0x3c,0x7f,0x29,0x10,0x62,0xa0,0x7f,0x7f,0x3c,0xb1,0x27,0x5e,0xf9,0xa0,0xe5,0xaf,0xf2,0x7f,0x60,0x24,0x3f,0xe6,0xc9,0xdd,0xdf,0x6b,0xe1,0x66,0xca,0x78,0x31,0x7f,0x57,0x15,0x81,0x1e,0x42,0xae,0xe9,0xff,0xff,0x04,0x00,0x00,0x00,0x00,0x01,0x00,0x00,0xf5,0xff,0xff,0xff,0xc1,0xff,0xff,0xff,0xce,0xff,0xff,0xff,0xff,0xff,0xff,0xff,0x34,0xff,0xff,0xff,0x4d,0xff,0xff,0xff,0x7c,0xff,0xff,0xff,0x47,0x00,0x00,0x00,0xe2,0x00,0x00,0x00,0x06,0x00,0x00,0x00,0xc6,0xff,0xff,0xff,0xee,0xff,0xff,0xff,0xff,0xff,0xff,0xff,0x21,0x00,0x00,0x00,0x89,0xff,0xff,0xff,0x72,0xff,0xff,0xff,0xd3,0xff,0xff,0xff,0x99,0xff,0xff,0xff,0xd2,0xff,0xff,0xff,0x0d,0x00,0x00,0x00,0x4b,0xff,0xff,0xff,0x24,0x00,0x00,0x00,0x35,0x00,0x00,0x00,0xa1,0xff,0xff,0xff,0x1e,0x00,0x00,0x00,0xe0,0xff,0xff,0xff,0xb0,0xff,0xff,0xff,0x06,0x00,0x00,0x00,0xd9,0xff,0xff,0xff,0xb7,0xff,0xff,0xff,0x2a,0x00,0x00,0x00,0x76,0xff,0xff,0xff,0xc2,0xff,0xff,0xff,0xb3,0xff,0xff,0xff,0xaa,0xff,0xff,0xff,0xa0,0xfe,0xff,0xff,0xf6,0x00,0x00,0x00,0xf8,0xff,0xff,0xff,0xa6,0xff,0xff,0xff,0x37,0x00,0x00,0x00,0xe2,0xff,0xff,0xff,0x48,0x00,0x00,0x00,0x0e,0x00,0x00,0x00,0xe0,0xff,0xff,0xff,0x1f,0x00,0x00,0x00,0xf1,0xff,0xff,0xff,0x6e,0xff,0xff,0xff,0x58,0x00,0x00,0x00,0xeb,0xff,0xff,0xff,0xbd,0xff,0xff,0xff,0x35,0x00,0x00,0x00,0xcd,0xff,0xff,0xff,0x85,0xff,0xff,0xff,0xff,0xff,0xff,0xff,0x00,0x00,0x00,0x00,0xf0,0xff,0xff,0xff,0x4c,0x00,0x00,0x00,0xd7,0xff,0xff,0xff,0x00,0x00,0x00,0x00,0xf5,0xff,0xff,0xff,0x64,0xff,0xff,0xff,0xc4,0xff,0xff,0xff,0x2e,0x00,0x00,0x00,0xbb,0xff,0xff,0xff,0xba,0xea,0xff,0xff,0x04,0x00,0x00,0x00,0x00,0x10,0x00,0x00,0x16,0xea,0xe8,0xfc,0x08,0xfc,0x04,0xe8,0x03,0x81,0x26,0xf8,0x0d,0x05,0x12,0xeb,0xf7,0x0f,0xeb,0xdc,0x00,0xe1,0x15,0x12,0xc6,0x05,0x04,0xe6,0x39,0xf3,0x0d,0xf6,0x02,0xd8,0xfd,0x03,0x13,0xfd,0xde,0xff,0x09,0x01,0xf8,0x04,0xe5,0x14,0x08,0x13,0x0d,0xe6,0x11,0x03,0xfe,0x08,0xf7,0x01,0xf9,0x27,0xec,0x0d,0x11,0xca,0xe4,0x18,0xf8,0xdf,0x2b,0x11,0xe4,0xfc,0xd9,0xe2,0xf9,0xa1,0x17,0x8d,0x12,0x08,0xfb,0x14,0x13,0xf4,0x17,0x07,0xf4,0x15,0xea,0x0b,0xe5,0x27,0x1d,0x15,0xd2,0x81,0xd3,0x10,0x18,0xb7,0xd3,0xe1,0xfc,0xd6,0xe3,0xe4,0x0d,0x15,0x24,0x35,0xdc,0xcb,0xd0,0x02,0x49,0x15,0x12,0xf4,0x1d,0xd9,0x1e,0xff,0x1b,0x16,0x3d,0xae,0x33,0xe0,0x2d,0xfc,0x0c,0xdb,0x12,0x33,0x01,0x20,0xd3,0x09,0xe6,0x2b,0x1c,0x10,0x0e,0xfd,0xe5,0x10,0x8e,0xf1,0x15,0x14,0x12,0x17,0x31,0x05,0x18,0xa6,0xa0,0xe4,0x95,0x49,0x17,0xce,0x26,0x49,0x25,0x01,0xd2,0xe4,0xef,0xd3,0x0e,0x15,0xfd,0x15,0x00,0xe1,0xb5,0x06,0x40,0x22,0xf2,0x10,0xde,0xc7,0x81,0x06,0x25,0xd0,0xfa,0xa9,0x42,0xf7,0x2e,0x2e,0xf0,0x0a,0x0d,0xbe,0x2d,0x21,0x07,0xf5,0xcf,0x81,0xe3,0x0f,0xf9,0xc7,0x07,0xf5,0x1a,0xe9,0xec,0xee,0x1f,0xd6,0xfc,0xfc,0x03,0x26,0x01,0x10,0x0e,0x15,0xf5,0x32,0x07,0x0a,0xde,0x20,0xcd,0x2b,0x47,0xeb,0xf0,0xb6,0x42,0xf3,0x12,0xf2,0xde,0xd1,0x16,0xdc,0xf3,0x08,0x23,0xff,0x2a,0xe2,0xf4,0x0c,0x3b,0xf0,0xe0,0xe9,0xec,0x11,0xca,0xfa,0x21,0xe7,0xf2,0x39,0xe2,0xa2,0x0e,0x69,0xdf,0x40,0x24,0xf2,0xec,0x10,0xf1,0xf5,0x25,0xd3,0xc8,0xde,0x40,0xe2,0x0e,0x2c,0x20,0xcf,0x05,0xde,0xc9,0x2f,0x01,0x6a,0xcb,0x3f,0xfd,0xde,0x4a,0xf7,0xd2,0x29,0x2f,0x07,0xc9,0x02,0x1f,0xb4,0x7f,0x1e,0x10,0xb8,0xff,0xc0,0xae,0x2e,0xc3,0xc8,0x3d,0xf2,0xf7,0xfe,0xcd,0x1b,0xbf,0x21,0x3a,0xcc,0x1b,0x14,0xca,0xb7,0xca,0xf7,0xf7,0xef,0x01,0xed,0x09,0xfc,0xf9,0xfa,0x0e,0xea,0xf0,0xf4,0xef,0x06,0x15,0x1e,0x2b,0x0f,0x7f,0x3e,0xbe,0xff,0x0b,0x4e,0xd5,0x00,0xba,0xeb,0x14,0xdf,0xc3,0x19,0x1b,0x13,0xf4,0x87,0xe8,0x92,0x57,0x0a,0xfd,0x0b,0xda,0xed,0xc7,0x04,0xe1,0x34,0xed,0xdf,0xe4,0xb1,0xed,0x2a,0xcd,0x0f,0x08,0xef,0x32,0x0c,0xad,0x1d,0xe1,0x46,0x2b,0x2a,0x05,0xa0,0xf9,0x2f,0xde,0xc2,0x12,0x15,0xca,0x1a,0x32,0x12,0xd0,0xa8,0xc3,0x0b,0x81,0xb0,0x21,0x0a,0x1a,0xbe,0xcc,0xf8,0x04,0xd1,0x9a,0xc6,0xe2,0x3d,0x46,0x01,0x9a,0xdd,0x99,0xbc,0x49,0x15,0xf1,0xbf,0xf7,0xf0,0xb3,0xfd,0xdd,0xfb,0x00,0xab,0x2e,0xd4,0xe6,0x4d,0xed,0x1b,0x11,0xf7,0x23,0x0e,0x11,0xde,0x01,0xa5,0xda,0x1b,0x06,0xf6,0x0a,0x0f,0x16,0x28,0x05,0xfa,0x22,0x09,0xd1,0x2a,0xc0,0x28,0x24,0xd2,0x47,0xe7,0xd9,0x1f,0x04,0xf0,0x1b,0x07,0xfb,0x11,0xc1,0x1a,0xf5,0xe3,0x81,0xff,0xe0,0x00,0x0b,0xdf,0xd0,0xf8,0xfc,0x04,0x31,0x0e,0x1c,0x0b,0x18,0xff,0x03,0xf7,0x14,0x1e,0xfd,0x04,0xfb,0x0a,0x26,0x99,0x1d,0x05,0x27,0xcb,0xde,0x81,0x1d,0xdc,0x29,0x01,0x0a,0xe8,0x15,0xf6,0xfe,0x17,0x91,0x0c,0xb2,0xfa,0xf9,0x28,0x1b,0xdb,0x5a,0xd3,0xcf,0x0a,0x05,0xde,0xaa,0x0c,0xe4,0xbd,0x1b,0x28,0xf7,0xf4,0xa5,0x16,0xee,0xdf,0x20,0xd0,0x98,0x00,0x11,0x0c,0x2d,0x1e,0x42,0x01,0xee,0x36,0x1c,0x1b,0xf9,0x0a,0xef,0x01,0x24,0xfa,0x10,0x08,0x24,0x38,0x0a,0xb9,0xe1,0x9a,0x08,0x1c,0x00,0xd5,0xf5,0x30,0x23,0x14,0x0b,0x20,0xc7,0x0e,0xdb,0x12,0x12,0xf3,0x15,0x81,0x09,0xb8,0xd9,0x16,0xf6,0xd3,0x0e,0xdc,0x09,0xe5,0xc1,0x05,0x11,0x27,0xc7,0x0b,0xed,0x0f,0xce,0xf4,0x20,0x1c,0xdc,0xa5,0x14,0xf0,0x22,0x09,0xd9,0xfd,0x21,0x09,0xea,0xf6,0xfd,0xf7,0xec,0x0c,0x14,0xd6,0xf5,0x23,0x0f,0x03,0xc4,0xcf,0x13,0x04,0x03,0xff,0x0d,0x0b,0xaf,0x22,0x04,0x22,0x1c,0x09,0x09,0x1a,0x15,0x06,0xe0,0x02,0xef,0xf7,0xf0,0x15,0x15,0xe6,0x17,0x11,0xd0,0x0d,0xdb,0xec,0xd6,0x06,0x0b,0x06,0xf6,0x19,0x0c,0xe7,0x81,0xf9,0x0b,0x12,0x14,0x13,0xd8,0xef,0x18,0xd7,0xc6,0xf5,0x17,0x1c,0xb7,0x37,0x02,0xf7,0x00,0x17,0x21,0x19,0xeb,0x06,0x1f,0x81,0x25,0xca,0xde,0x26,0x0e,0x1c,0x18,0x31,0x0b,0xe3,0x10,0xfd,0xed,0xff,0xe2,0xc6,0x1f,0xca,0x33,0xea,0x07,0x0f,0x0c,0xe9,0x19,0xfd,0x17,0x04,0x1a,0x14,0x10,0xee,0xd0,0xfd,0xfe,0xf7,0xea,0x0b,0xa8,0x03,0x03,0xfd,0x08,0x04,0x18,0xdc,0x2a,0x04,0x10,0xf2,0x1c,0xfb,0xf2,0x08,0x12,0x23,0x0b,0xaa,0xd8,0x33,0xcd,0xf7,0xad,0x86,0x7f,0xd7,0x18,0x5a,0xe9,0x18,0xaf,0x04,0x13,0xcf,0x01,0xef,0xec,0x1e,0xd6,0x64,0xfd,0xeb,0x4b,0x17,0x0c,0x1b,0x0e,0x27,0x09,0x29,0xcf,0x23,0x41,0xa2,0x12,0x17,0x01,0xd0,0xe2,0xd3,0xf0,0x11,0xab,0xe8,0xf5,0x23,0xec,0xdd,0xbb,0xcf,0x37,0x13,0xd4,0xd7,0xf5,0xe1,0xa7,0x3f,0x10,0xf6,0x29,0xfe,0x25,0x15,0xf3,0xf7,0x90,0xd9,0xfa,0x16,0x35,0x22,0x1d,0x14,0xb8,0x2f,0x2c,0x9e,0x18,0xf4,0xcf,0x38,0xfa,0xee,0x17,0xad,0x3a,0x0d,0x03,0x1b,0x17,0x08,0x1d,0x11,0xab,0x0c,0xec,0xd8,0xee,0xe5,0xb5,0x00,0xe1,0xc2,0x12,0xb2,0x81,0x0c,0x1e,0x1c,0xf8,0x1c,0xca,0x22,0x35,0xbc,0xf2,0x05,0xd4,0x0b,0xbe,0x12,0x07,0xf5,0x25,0x07,0x13,0xf9,0x03,0xbe,0xa3,0x31,0xc4,0x19,0x02,0xfb,0xe8,0x13,0x24,0xee,0x09,0xdb,0xe9,0x10,0xda,0x0b,0x1a,0x1b,0xed,0x81,0xd0,0x2d,0xcf,0x06,0x11,0x3a,0xfe,0xd3,0x91,0x0c,0xdc,0xdf,0xf7,0x10,0xf1,0x08,0x1a,0xf6,0xfc,0xd1,0x28,0x1d,0x03,0xe3,0x2e,0xec,0xeb,0xfc,0xff,0x86,0x1a,0x24,0x24,0xd7,0x0e,0xd8,0xd8,0xf6,0x28,0xca,0x11,0xe8,0x19,0xe0,0x9c,0x96,0x24,0x22,0xbb,0xfe,0x35,0x1c,0x05,0x23,0xe3,0x16,0xb9,0xb1,0xc1,0x21,0x14,0xf0,0x0b,0x81,0x06,0xf6,0xf3,0x24,0xe5,0xf8,0x33,0x27,0xd3,0xbc,0x1a,0xce,0xef,0xd2,0x54,0x29,0xf9,0xed,0x37,0x1c,0x94,0x0f,0x13,0xd9,0xd4,0x24,0x02,0x03,0xf0,0x11,0x0d,0xde,0xfb,0x11,0xfb,0xfc,0xed,0xa7,0x18,0xf2,0xf9,0x05,0x0c,0x0a,0xae,0x04,0x0f,0xf5,0x11,0xcd,0xc3,0xf8,0x23,0x05,0xf0,0x20,0x0c,0x9c,0x05,0x00,0xfc,0xf3,0xff,0x81,0x08,0x21,0x00,0xff,0x05,0x2f,0x0a,0xf6,0xc0,0x00,0x22,0xeb,0xea,0xce,0xf4,0x12,0x0d,0xe3,0xef,0x0b,0x14,0x23,0xc3,0xf5,0xe3,0xeb,0x17,0x09,0x11,0xca,0x04,0xe9,0xf2,0xaa,0x0d,0xb6,0x11,0xe9,0x01,0x15,0x1f,0x0b,0x13,0xd7,0xa1,0x44,0x20,0x0f,0xe6,0xe4,0xc4,0x16,0x18,0xee,0xe6,0xf7,0xf7,0xf1,0xda,0x1a,0x07,0xd2,0xf5,0xcf,0xd9,0x23,0xed,0x16,0xf3,0x23,0x03,0xeb,0xa3,0x01,0x81,0xf2,0x05,0xf0,0xf3,0x09,0x09,0xfd,0x02,0xf9,0x2e,0x02,0xb1,0x12,0x06,0xe6,0x00,0x1e,0xf6,0x26,0x0e,0xc8,0x10,0xeb,0xe0,0xde,0xf8,0x35,0x1c,0x38,0x22,0x00,0x33,0xfd,0xcf,0x46,0xe6,0xc6,0x1c,0xfb,0x21,0x37,0x07,0xe8,0xde,0x0e,0x0b,0xf3,0xf2,0x2a,0x81,0xeb,0xf7,0x2d,0xc6,0x04,0xf1,0x0f,0x1a,0x30,0x18,0x19,0xc4,0x25,0x02,0xf8,0xea,0xd7,0x2e,0xfa,0xcf,0xe1,0x27,0xf1,0x85,0xed,0x15,0x2b,0xf0,0x1e,0xf6,0x12,0xe2,0xf1,0x0c,0xdd,0x01,0x1f,0x03,0x1b,0x0d,0x14,0xea,0x19,0x02,0xfe,0xfe,0xff,0x81,0x32,0xe9,0xff,0xe8,0x06,0x03,0x12,0x03,0x16,0xf3,0xe6,0xba,0xdf,0xdd,0x01,0xfd,0xd3,0xfa,0x9c,0x02,0x2a,0xd2,0x15,0x14,0x19,0xfb,0x15,0x96,0x0a,0xda,0xf1,0xed,0xe2,0xf3,0x0a,0x0a,0xef,0x15,0xfc,0xd2,0xfd,0xe1,0x33,0xe7,0x12,0xff,0xec,0x04,0x41,0xf9,0xed,0xdb,0xff,0xd3,0xfe,0xfe,0xf5,0x06,0xea,0xff,0x12,0x02,0xde,0xe8,0x81,0xf8,0x1a,0xf2,0xd8,0x09,0x09,0xf9,0x05,0x07,0xf8,0x01,0xfd,0x13,0xfa,0x03,0x2a,0xff,0xbb,0xc3,0xc1,0xf1,0x07,0xf4,0xea,0xe9,0x0f,0xed,0xed,0x0a,0x15,0x08,0x11,0x12,0x02,0x00,0x13,0xf5,0x03,0xea,0x16,0x11,0xc8,0x13,0xfe,0xf7,0x15,0x06,0xdb,0xe0,0x11,0xf8,0x20,0x04,0x15,0xf5,0xf1,0x0d,0x81,0xca,0x06,0xea,0x04,0xca,0xe2,0x05,0xf5,0x13,0x09,0x08,0xfa,0x06,0x09,0x08,0x03,0x08,0x09,0xde,0x05,0xec,0xf4,0xe7,0xe9,0x22,0x06,0xfd,0x00,0x0a,0x03,0x04,0x06,0xf5,0x06,0xf3,0xf5,0xef,0xef,0xff,0x03,0xf4,0x03,0xfa,0x01,0xd5,0xf7,0x06,0x0f,0xe4,0x07,0xe8,0x03,0x10,0x01,0x04,0xe8,0xfc,0xf4,0x0b,0x03,0xe6,0x26,0xa5,0x22,0x09,0xfe,0xff,0xe8,0x13,0x3e,0x16,0xf0,0xbd,0xe6,0xf7,0xca,0xf4,0xfa,0xe2,0xfb,0xec,0xeb,0xf8,0x1d,0x0a,0x1c,0x0f,0x15,0xc4,0x27,0x04,0x1f,0x81,0x26,0x16,0xff,0x15,0xef,0xd9,0xdc,0xd8,0xf2,0xf1,0xd3,0x10,0xdf,0xf6,0xe9,0x3f,0xee,0xf9,0xd6,0xfc,0xf4,0xdb,0xdd,0xc8,0x1d,0xbb,0xdc,0x0f,0xec,0x11,0x03,0x15,0xd5,0xec,0xeb,0x13,0x00,0xfd,0x16,0xd0,0xec,0xb6,0x04,0xda,0x09,0x1f,0xf6,0x0c,0x01,0x09,0x81,0xf0,0xf3,0xf5,0xfe,0x1d,0xbd,0xf5,0xbc,0x02,0x19,0xfd,0xe5,0x13,0x0a,0xfd,0x1e,0xde,0x02,0x3b,0xbf,0x1e,0xe8,0x00,0x08,0x05,0x0f,0x22,0x03,0xce,0xe3,0xff,0x07,0xf6,0x1b,0x0f,0xe5,0x20,0x2c,0x22,0xea,0x14,0xef,0xf4,0xa9,0x0b,0xf3,0x03,0x1f,0x0d,0x27,0xe0,0x19,0x2e,0xdd,0x26,0xeb,0x01,0x1a,0x26,0x38,0x07,0x0a,0xf4,0xf0,0x04,0x0d,0xfc,0x0b,0xb8,0xfc,0x06,0xcc,0x43,0x07,0x05,0x1a,0x23,0xeb,0xf7,0x30,0x2e,0x13,0x17,0xf9,0x1d,0x1d,0x81,0xd9,0xce,0x07,0xd2,0x99,0xc3,0x19,0xf3,0xf8,0x1c,0x17,0x29,0xc8,0xed,0x1a,0x2d,0xf2,0x18,0xe3,0xf0,0xff,0x16,0x0f,0x06,0xf2,0x15,0x18,0x09,0x06,0x81,0x0e,0xe5,0x03,0xee,0x0f,0xfa,0x11,0x20,0xfa,0xfc,0x06,0x0f,0xe3,0x01,0x06,0xf7,0x22,0xf2,0xbf,0xbe,0x3b,0xfc,0x10,0x0a,0x31,0xfe,0x1a,0xa0,0x2a,0x0d,0xf4,0x0a,0x08,0x12,0x07,0x08,0x03,0xfe,0xd3,0xb5,0x0b,0xd8,0x1d,0x0d,0x00,0x01,0xff,0xec,0xcc,0x01,0x17,0x19,0xf3,0x08,0x11,0xa8,0x31,0x14,0x07,0x2d,0xb4,0x1b,0xa8,0xe8,0x01,0x05,0x81,0x50,0xf2,0x07,0x0a,0xf7,0xcc,0xf7,0xf0,0xe3,0xfc,0xc8,0xeb,0xbd,0x21,0x21,0x36,0xe4,0xc5,0xa9,0x29,0xcb,0x21,0xe1,0xef,0xef,0xc9,0x2d,0xc2,0xa7,0x04,0xd0,0xf9,0x93,0xe8,0x0d,0x07,0x55,0xf2,0xf3,0xdd,0x1d,0xfc,0x07,0x1f,0xd9,0x34,0x0c,0xf2,0x12,0x16,0xf3,0xe3,0x18,0x00,0x0c,0x4d,0x1a,0xec,0xfb,0xe7,0x89,0xfd,0xf0,0x06,0x3a,0x11,0xf0,0xf9,0x13,0xfb,0x2f,0xdd,0x01,0xfc,0xe8,0x22,0xef,0xb7,0xcd,0xaf,0xc8,0xec,0x07,0x1e,0xd8,0x2a,0x1d,0x22,0xbf,0xf0,0xfe,0xf3,0x14,0x15,0xdf,0x1b,0xf2,0xeb,0xb9,0x19,0x4f,0x2a,0x10,0xf5,0x9e,0xe8,0xcf,0x20,0x2e,0xc5,0xef,0x81,0x57,0x07,0x21,0xee,0xba,0x02,0x13,0x03,0x09,0x08,0x1f,0xe5,0x96,0x0f,0xe1,0x20,0xef,0xf6,0x22,0x20,0x1e,0xd1,0x06,0x29,0xe5,0x30,0x09,0xdb,0xe2,0x3c,0x1b,0x8b,0xaf,0x00,0xda,0x2b,0xf1,0x63,0xc1,0x30,0xad,0x25,0xe9,0x01,0xd2,0x07,0x0a,0x34,0xf8,0xfd,0xbc,0xd6,0x81,0x2f,0x1f,0xa8,0x21,0x04,0xef,0xfb,0xa6,0x87,0xec,0x21,0x1a,0xca,0x37,0x0f,0xb9,0x1c,0x0e,0xe9,0x11,0x1e,0x2a,0xfd,0xce,0x0a,0xd7,0xda,0x0b,0xfa,0x01,0x2e,0xde,0xd1,0xde,0x10,0x0e,0xf7,0xe9,0x10,0x99,0x3d,0x0c,0xda,0xe4,0xfb,0xe1,0x1a,0x24,0x2e,0xcc,0x23,0xe7,0x0a,0xb0,0xeb,0xcf,0x04,0x10,0x2a,0xd7,0x11,0xf6,0xc3,0x81,0x0e,0x08,0x1f,0x3a,0x11,0xca,0x06,0xfb,0xb9,0x24,0x2a,0x03,0x0e,0x0b,0x0c,0xc2,0x0c,0x23,0x10,0xe0,0xf8,0x03,0xed,0xfb,0xec,0x09,0xfb,0xe1,0xd6,0xfa,0xfd,0xd1,0x14,0x02,0x05,0x08,0xe4,0x1c,0x1e,0x1a,0x2d,0xe9,0x06,0x09,0x0c,0x04,0x2e,0xff,0x17,0x13,0x18,0xd8,0xef,0x14,0xb9,0xec,0xe0,0x81,0xdb,0x0a,0xfe,0x07,0x02,0x25,0xdb,0x09,0x11,0x0f,0xfb,0xd3,0xcb,0x01,0xf3,0xd2,0xfe,0x01,0xf5,0xc9,0x1a,0xe7,0x16,0xf9,0xba,0x0e,0xf4,0x12,0xff,0x09,0xbb,0xd6,0x81,0x1d,0xf3,0x1b,0xed,0x06,0x20,0xf2,0x0a,0xe0,0xaf,0xef,0x12,0x12,0xdc,0x1d,0xd1,0x2e,0xfd,0xfb,0x19,0xfe,0xfc,0x19,0x17,0x01,0xea,0xc9,0xf0,0xfc,0xf3,0xfb,0xde,0x06,0xf5,0x28,0xe2,0xa0,0xd4,0x11,0xf0,0xdc,0x0c,0x1b,0xe8,0x0f,0xca,0xf0,0xdd,0x07,0x18,0xff,0xf3,0xcc,0x06,0x25,0x30,0x0d,0x0b,0x2b,0xec,0xbe,0x81,0xe7,0xfe,0x14,0x17,0x19,0x28,0x09,0x11,0xfa,0x08,0x0c,0xf2,0xef,0x40,0xfd,0x15,0x09,0xd1,0x12,0xc5,0xf9,0x14,0x2f,0x09,0x15,0x0b,0x96,0x13,0xd4,0xb9,0xc8,0x04,0x2c,0x25,0xce,0xe3,0x05,0x2b,0xb4,0x15,0x0b,0x16,0x14,0x11,0xc6,0x0d,0x1f,0xb7,0x2e,0xe4,0x55,0x22,0xd7,0x21,0xe0,0xfb,0x10,0xc8,0x0f,0x0f,0x19,0xd0,0xd5,0x81,0x2c,0xba,0xea,0x0c,0xf8,0x07,0x00,0x0c,0xfc,0xe7,0x1c,0xe4,0xfc,0x1b,0x09,0x36,0x0c,0x02,0x15,0x1c,0xec,0x2c,0x18,0x0c,0x02,0x13,0xe0,0x1d,0x0d,0xda,0x0c,0xec,0x1a,0xdc,0xf4,0xf8,0xe6,0x13,0x2d,0xdb,0xed,0x0f,0x00,0xdd,0xf4,0xf9,0x0e,0x1e,0x01,0xef,0xe2,0x18,0xdc,0x15,0xdf,0xeb,0x09,0xaa,0x03,0xec,0xfb,0xb0,0x0a,0xbc,0x3f,0x97,0xc1,0xda,0xf2,0x04,0x13,0x1f,0xf6,0xb3,0xfd,0xff,0x92,0xf7,0xfb,0x3c,0x0b,0x20,0x1f,0x27,0xc7,0x20,0x04,0xfd,0x06,0xe9,0xf5,0xf5,0xf7,0xda,0xf2,0xf1,0xc3,0x0e,0xfc,0xd8,0xec,0xd3,0x7f,0x12,0xf7,0x19,0x1b,0xcf,0xf5,0xb1,0x01,0x22,0xf2,0x10,0xeb,0xf1,0xdf,0xfd,0xf3,0xe3,0x24,0x22,0x14,0x0f,0x07,0xd5,0xdd,0xfc,0xe3,0x10,0x10,0x05,0x00,0xfa,0xec,0xe8,0xec,0xf9,0x12,0x03,0x81,0x0e,0xf2,0x23,0xe9,0xbe,0x07,0x0e,0xef,0x27,0x18,0x23,0xfe,0x0a,0xc1,0x07,0x23,0xd0,0x18,0xee,0xe3,0x11,0xe1,0xd8,0x05,0xdc,0x1f,0x1a,0x0c,0x07,0x16,0x04,0xf0,0x16,0x0d,0xf5,0xeb,0xee,0x36,0x0c,0x14,0x01,0xe9,0xff,0x15,0x13,0x23,0xfc,0x01,0xdb,0xa7,0x15,0xf4,0x02,0x0c,0x12,0xe8,0x06,0xfa,0xf9,0x0d,0xe6,0x0e,0x08,0xe3,0xf1,0x06,0xb5,0xee,0xde,0xed,0x1c,0xef,0x12,0x0f,0x32,0xf2,0xfc,0xa8,0x04,0xe8,0x04,0xf4,0xec,0xf9,0x00,0x0a,0x81,0xdc,0x93,0x4d,0x0e,0xea,0x13,0xe1,0xdc,0xf9,0x18,0x18,0x18,0x0f,0xbc,0x32,0x1e,0xd4,0xfe,0xd7,0x25,0x61,0x1a,0x1e,0x07,0x26,0xf3,0xad,0x39,0x19,0xc6,0x25,0x05,0xf6,0x49,0x16,0xaa,0x05,0xf2,0x26,0x0f,0x8e,0x26,0xd2,0xbd,0xee,0xbc,0xb6,0xda,0xd5,0x2e,0x21,0x38,0xb9,0xe6,0xd5,0x13,0x81,0x19,0xfe,0x06,0x49,0x11,0xf4,0xf7,0x0a,0xdc,0xce,0x05,0xfa,0x0e,0xf2,0x01,0x07,0xf8,0x9b,0xff,0x3a,0xe8,0x08,0x0b,0xff,0xe2,0x12,0xf7,0xe6,0x07,0xeb,0xe0,0x00,0xb5,0xff,0x63,0xfe,0xba,0x29,0xf5,0xd9,0xe8,0x0c,0x04,0x03,0xaa,0xcb,0xc7,0x11,0xd6,0x3d,0xc9,0xd4,0x18,0xd8,0x2e,0xad,0xeb,0xf7,0x1e,0x17,0xdb,0xe0,0xf5,0xce,0x08,0x0b,0x1b,0xd2,0xec,0x17,0x01,0x14,0x24,0x7f,0xe4,0xc9,0xfb,0xb3,0xe4,0x00,0x1c,0x1c,0x35,0x0f,0xc0,0xdf,0xdf,0xfb,0xc9,0x11,0xf0,0xe2,0x81,0x31,0x16,0x1e,0xf6,0xfb,0x98,0x25,0xbf,0x00,0xb8,0xeb,0x13,0xb3,0x12,0xf9,0x00,0x07,0xf7,0x1f,0x1e,0xf4,0x9d,0xee,0xd1,0xbb,0x31,0xf6,0x0b,0x2a,0x1c,0x05,0x25,0xd4,0xe2,0x0e,0x28,0x30,0x12,0x11,0xd9,0xeb,0x18,0x04,0x1e,0x04,0xda,0xa3,0x12,0x1c,0x07,0xe1,0xe9,0xff,0x59,0xb2,0xf5,0xb4,0x13,0xde,0x2d,0x04,0xf2,0x32,0x33,0xf0,0xfa,0x15,0xe1,0xd5,0x17,0x81,0xe3,0x49,0x0b,0xfe,0x08,0xba,0xfa,0xed,0x08,0x03,0xec,0xdb,0x26,0x23,0xc4,0xa1,0x8f,0xa3,0x48,0xd9,0xf2,0x34,0x42,0x2e,0xed,0xa4,0x02,0x2e,0xff,0x07,0xe1,0xe0,0x13,0xe7,0xde,0xfe,0xe4,0x33,0xfd,0xf7,0xf8,0xf8,0xe4,0x90,0x22,0x0c,0xe7,0xc9,0xef,0x12,0xf4,0x0c,0xfa,0x13,0xfd,0xe5,0xc4,0x2f,0x21,0x03,0xed,0x1f,0xbd,0x36,0xd8,0xd9,0xeb,0xe6,0x21,0x81,0xc9,0x03,0x14,0x0c,0x1f,0x26,0x02,0xee,0xd6,0xf2,0xd4,0xd5,0xfa,0xf9,0x05,0xf9,0xf8,0xbe,0x04,0xfd,0xdf,0xf7,0x13,0x0f,0x00,0xfa,0xc7,0xe7,0x16,0x0a,0x22,0xe0,0xd6,0xbe,0xee,0x17,0xfd,0xcd,0x8d,0xdd,0x32,0xbd,0x01,0xca,0xfe,0xdf,0x1e,0x00,0x1b,0x22,0xea,0xb6,0x02,0x00,0xe6,0x8e,0x91,0xf6,0x38,0x3a,0x0d,0x05,0x23,0x04,0x2f,0x2f,0xfe,0x07,0x13,0x81,0x4c,0xac,0x30,0xbf,0x8f,0x58,0xcb,0xe7,0x51,0xff,0xc3,0x23,0x06,0xea,0x0f,0x20,0xf4,0xf0,0x1e,0xa9,0x2a,0xa7,0xe5,0xdb,0x1d,0xfe,0x0a,0xfb,0x0f,0xf0,0xff,0x0c,0x0d,0x26,0xcb,0xfd,0xe3,0x1f,0x3e,0xcf,0xa0,0x33,0x03,0xdb,0xde,0x21,0x0a,0xff,0xe8,0xf4,0x81,0xd4,0xbe,0xd6,0xc1,0xee,0x15,0x13,0xfe,0xfc,0xff,0x11,0x09,0x01,0x18,0xfb,0xae,0x0c,0xa7,0xea,0xe1,0x04,0x02,0xeb,0xe4,0xe7,0xc2,0xfc,0x0f,0xd0,0x16,0x23,0x0b,0x2e,0xf2,0xec,0x24,0xf8,0xfb,0x3f,0xd8,0xfd,0xf2,0xfa,0xe4,0x13,0xac,0x0f,0x61,0x3d,0x0c,0xec,0xf1,0x03,0x1a,0x2a,0x18,0xf0,0xf5,0x3d,0x10,0x3a,0xfc,0xbe,0x0a,0x61,0xec,0x1e,0xe4,0xea,0x16,0xe6,0xf7,0x8b,0xf4,0x05,0xe8,0x02,0x13,0x09,0xf7,0x12,0xed,0x35,0xea,0x2a,0x20,0xbc,0xf3,0x06,0xcd,0xd6,0xea,0x81,0x23,0xff,0xbc,0xe3,0xc6,0x09,0xdb,0x0e,0xa5,0x3b,0x04,0xfb,0xcf,0xef,0xf0,0x06,0x0b,0xee,0x5a,0x27,0xaa,0x11,0xfc,0x0a,0xbe,0xd6,0x1d,0xf0,0x2a,0x00,0x02,0xa4,0xf1,0xc7,0x81,0x05,0x11,0xff,0x29,0x0d,0x19,0xac,0x35,0x37,0x29,0x01,0xf7,0x16,0x2e,0x1e,0x1c,0x18,0x67,0xff,0xe3,0x0d,0x36,0xfe,0x04,0x03,0x31,0x93,0x02,0x6d,0x0b,0xe2,0xf1,0x05,0xef,0x1e,0xf1,0xf7,0xff,0xac,0xcc,0xf6,0xea,0x46,0xe0,0xe8,0xd4,0x1c,0xd8,0x9b,0xe9,0x16,0xce,0xb7,0x18,0xfd,0x0f,0xcf,0x30,0x16,0x08,0xf2,0xc6,0xf0,0x02,0x13,0xd5,0x0f,0xe7,0xf6,0x0b,0x00,0x05,0xf3,0xfb,0xe9,0xef,0xf3,0xfe,0xfe,0x15,0x1d,0xf9,0x81,0xd1,0xe6,0x28,0xd1,0xd4,0xe6,0xf0,0xf9,0xe1,0x19,0x22,0xfb,0x01,0x12,0x3a,0xb3,0xfc,0xfc,0x8c,0x5b,0x1b,0xf9,0xda,0x27,0xd7,0x01,0x00,0xd5,0x14,0xeb,0xc2,0xed,0x01,0xe5,0x12,0x22,0xe1,0x01,0xfb,0x1b,0xbb,0x1d,0xcc,0xe6,0x2b,0x81,0xc8,0x1c,0xfd,0xf2,0xd9,0x18,0xe7,0xdf,0xf5,0xbb,0x03,0x02,0xc6,0x20,0xed,0x0b,0xa4,0xd1,0x1b,0xc4,0x12,0xf1,0x2c,0xf7,0xf7,0xdb,0xdb,0xca,0x0f,0x21,0xf8,0x29,0x0b,0x19,0xd1,0x0f,0x04,0x38,0xfe,0xf6,0xe9,0xd6,0x00,0x20,0xfc,0xfa,0xf0,0x2a,0xc2,0xff,0xf5,0x1b,0xea,0x13,0xfc,0xee,0xc9,0x34,0x19,0xf1,0x0d,0xd5,0x07,0x68,0xde,0xea,0x0d,0xd7,0x04,0xb7,0x39,0x2a,0xb4,0x1c,0xd9,0xe8,0x34,0x07,0xf5,0x0b,0xe5,0x00,0x3d,0x23,0x10,0x02,0x16,0x2c,0x1c,0xd2,0xfa,0xeb,0x18,0x14,0x0f,0x12,0xc0,0x14,0xfc,0x19,0x16,0xd0,0xca,0xe4,0x08,0x0b,0xd0,0xd1,0xd0,0x12,0x3c,0x9d,0xdd,0xca,0x0a,0x81,0x3b,0xf8,0xf0,0x06,0x32,0x09,0x1f,0xff,0x0d,0xe0,0x25,0xff,0xef,0x18,0x81,0xed,0xf5,0xc5,0x26,0x02,0xb4,0xf7,0x9f,0x0a,0x0b,0xf5,0xad,0xdb,0xb8,0xde,0x3a,0x17,0xf9,0x09,0x2e,0x1e,0x19,0xf0,0xfb,0x19,0xeb,0x06,0xf0,0x19,0x02,0x0e,0xe7,0xfe,0x11,0xea,0x0b,0xc2,0x2a,0xff,0xda,0xdb,0x0f,0xe6,0x1b,0xb5,0xd0,0x10,0x1c,0x03,0x17,0xd7,0xe5,0xde,0x30,0x2d,0x15,0xcf,0xf5,0xf0,0xf6,0xeb,0xae,0xd2,0x07,0x16,0xdb,0xda,0x2b,0x06,0x07,0xee,0x03,0xc4,0xfb,0x1e,0x30,0x1b,0x14,0xde,0x14,0xec,0x20,0xfb,0x07,0x1e,0x07,0xb2,0x03,0x4b,0xd6,0xe0,0xfa,0x12,0xdb,0xe9,0xbc,0x0e,0x81,0xdf,0xb3,0x0b,0x16,0x2f,0x10,0xda,0x05,0xff,0x36,0xfc,0xe6,0x01,0xf4,0x22,0x26,0xf6,0x03,0x15,0x13,0x1c,0x34,0xca,0xd2,0xf3,0xc6,0xe2,0xf0,0xe1,0xd3,0xfd,0x30,0xec,0xe1,0xfc,0xfd,0xe1,0x0d,0xf5,0x07,0xa7,0xef,0x1f,0xb8,0x19,0xbe,0xde,0xf6,0xe7,0x9a,0xe2,0x05,0x0c,0xed,0xf0,0x42,0xbe,0x28,0x0f,0x23,0x92,0x24,0x81,0xfb,0x7b,0x26,0x08,0xd5,0x10,0xd7,0xe1,0x20,0xda,0x2e,0x09,0xf9,0x01,0x1d,0xf7,0x3e,0xd8,0x25,0xfa,0xda,0x13,0x07,0x1a,0xb8,0x02,0xd4,0x27,0xc6,0xc4,0xe7,0x0e,0x23,0xd6,0x09,0x81,0x09,0xd7,0xa6,0x05,0x2d,0x07,0x13,0x0f,0xf8,0xfd,0x27,0xe9,0x1e,0xc0,0x06,0x1c,0x10,0xed,0xb5,0x15,0xe9,0xbe,0xf0,0xe9,0x0d,0xdd,0x1b,0x27,0x19,0xed,0x06,0x04,0xf3,0x14,0x01,0x0d,0xf6,0xdb,0xbe,0xfd,0x13,0xf5,0x24,0xec,0x23,0x2a,0xf2,0xe2,0x10,0x18,0x09,0x08,0x07,0xd5,0x3b,0x31,0x17,0xe1,0xe4,0x87,0x17,0x22,0xd9,0xfe,0xde,0xd8,0xe3,0x23,0x19,0xfe,0xf6,0xeb,0x09,0xa2,0x15,0x0c,0xe6,0xee,0x09,0x0a,0x30,0xd3,0xef,0x1e,0xe6,0x19,0x0f,0xf0,0x0a,0xda,0x1b,0xe3,0x0f,0x85,0xfd,0x81,0xd0,0x0b,0x0f,0x05,0xef,0xcd,0xde,0xec,0xfd,0xf5,0xb0,0xdd,0x2a,0x01,0x04,0x12,0xef,0xf0,0x18,0xf6,0xfc,0x08,0xcf,0xbe,0x0e,0xf4,0x13,0x11,0xfe,0xe4,0xdb,0xf2,0x1e,0x13,0x06,0x1e,0x20,0x1e,0x1d,0xec,0x0c,0xd6,0xfc,0xc5,0xf7,0x12,0x05,0xba,0x0f,0x0b,0x38,0x15,0x0f,0xe8,0x04,0x3c,0x07,0x8b,0x05,0xfb,0xe4,0x81,0x00,0x06,0x2e,0x0f,0x0f,0xd5,0x12,0x03,0xc7,0x06,0x21,0x04,0xdb,0x16,0x23,0xba,0xe4,0xf9,0xfe,0x23,0xf7,0x10,0x10,0xfa,0x0f,0xf9,0xd3,0x2d,0x0c,0x17,0x01,0xd5,0x81,0xd5,0x0c,0x06,0x12,0xd1,0xcb,0xd0,0x09,0x18,0xd3,0xcc,0x5a,0x16,0xf9,0xfa,0x4c,0xbf,0x3f,0x06,0x45,0xcf,0xfe,0xe5,0xe7,0xbb,0xf3,0x02,0x14,0xf2,0xf7,0xce,0x02,0x00,0x36,0x19,0xf8,0xb7,0xed,0x06,0xeb,0x07,0x24,0x11,0xa2,0x0f,0xe1,0xeb,0x12,0x02,0xf1,0x1c,0xfa,0x11,0xd4,0xa8,0x81,0x10,0x0f,0x09,0xdf,0x02,0x0e,0xf2,0x22,0xff,0x06,0x1c,0xf0,0x05,0x11,0xa9,0x07,0x00,0xd9,0x38,0xec,0xea,0x2a,0x08,0xe0,0xfa,0x06,0xfd,0x05,0xe9,0x12,0xef,0xe0,0x07,0x12,0xc7,0xf3,0xe2,0xfd,0x26,0x14,0x01,0xea,0x23,0xff,0x13,0x0f,0x01,0x09,0xe8,0xe9,0x1c,0x09,0x00,0x0e,0xe9,0x05,0x0c,0x1c,0xed,0x12,0xdf,0x08,0xd3,0x51,0x2a,0xef,0xeb,0xe4,0xde,0x03,0x03,0x81,0xee,0xf8,0x0d,0x10,0xbd,0xe6,0x00,0xf4,0xaf,0xee,0xf5,0x26,0xfb,0xf4,0x03,0x2f,0xc9,0xd7,0xc7,0x27,0xa6,0xe6,0x00,0xee,0x2c,0xf0,0x02,0xd0,0xf1,0x90,0x28,0xff,0xdf,0x2f,0xcd,0xe4,0x0a,0xc4,0x8c,0x51,0x1b,0xc9,0xfb,0x0c,0xfa,0x22,0x2d,0x99,0xdd,0x08,0xfb,0xef,0x1e,0x05,0x26,0xaa,0x14,0x21,0xe8,0x07,0x31,0xf3,0x10,0x38,0x01,0x06,0xa7,0x17,0xfc,0x00,0xfb,0x01,0x06,0x07,0x43,0xeb,0x09,0xdc,0xb3,0xe4,0x06,0x0e,0x1a,0x81,0x1a,0xcb,0x33,0xf7,0xaa,0x02,0xf0,0xef,0x18,0xc9,0xcc,0x00,0x1e,0xb4,0x16,0x14,0xf4,0x05,0xf2,0x26,0x0d,0xed,0x24,0xaa,0xfa,0xfc,0xe0,0x13,0xdc,0x04,0x02,0xdb,0x1f,0xe2,0x1e,0x20,0x81,0xe1,0x8c,0x07,0xfa,0x06,0x20,0xfc,0xfc,0xf8,0xf5,0xdd,0x9b,0xf1,0x0a,0x01,0x0e,0xe9,0xe3,0x0d,0xe9,0x1e,0xfe,0x2a,0x0c,0xfc,0x06,0x02,0xab,0x03,0xeb,0xf4,0xf7,0xde,0x20,0x00,0xfd,0xda,0x38,0xfa,0xfc,0xef,0xff,0xeb,0x12,0xb1,0xf5,0xd5,0xf1,0x13,0x0a,0x30,0x05,0xfb,0x13,0xed,0x01,0x08,0xee,0x2a,0xe7,0xb8,0x1d,0x07,0x25,0x33,0xf9,0xce,0xf7,0x25,0x1b,0xe1,0xf6,0xe3,0xee,0xf0,0x1d,0xf4,0x15,0x14,0x0f,0x81,0x09,0xc7,0xa8,0xfa,0x00,0xfb,0xf6,0xd0,0x3c,0xe2,0xba,0x18,0xed,0x13,0x10,0xf4,0xff,0xd7,0xd1,0xd5,0x65,0x02,0x12,0xe7,0x0d,0xf7,0x2f,0x00,0xf5,0xeb,0x1f,0x04,0x94,0x05,0x0e,0xf3,0xf4,0xe3,0xfa,0xff,0xdd,0x30,0xf6,0x18,0x81,0x05,0x00,0x24,0xfc,0x16,0x11,0x0f,0x22,0x00,0x0d,0xf3,0xf9,0xe4,0xfd,0x13,0xf3,0x29,0x00,0xc7,0x02,0x23,0x11,0x1c,0x02,0x24,0xd8,0x08,0xac,0x02,0x0a,0xf3,0xf7,0xf3,0x1f,0xfe,0x04,0xfe,0xef,0xe3,0xe6,0x0a,0x01,0x0e,0x25,0x01,0xeb,0x01,0xd1,0xd6,0xfc,0x0f,0x12,0x99,0x0c,0xce,0x1b,0xc7,0xfe,0xe4,0x3e,0x19,0x15,0xd3,0xa9,0x21,0x05,0x10,0xf1,0x1a,0x0a,0x0b,0xad,0xc8,0xeb,0xef,0xf8,0xf8,0x2d,0xff,0x21,0xa9,0x0f,0xc4,0xca,0x19,0xe7,0xcf,0xf9,0x30,0xaa,0x00,0xb3,0xe1,0x10,0xf6,0x1a,0xeb,0x1e,0x08,0xd5,0xf4,0xf6,0xfc,0xf1,0xff,0xbe,0xfc,0x08,0x0c,0xaa,0x15,0x07,0x7f,0x0e,0xcf,0xf8,0x9e,0xd9,0x22,0x06,0xe2,0xe0,0xf6,0x29,0x0c,0xfd,0xc8,0xb2,0xb4,0x0b,0xcb,0x3d,0xfb,0xfc,0xac,0xc5,0x22,0x01,0xff,0x19,0xe3,0xcc,0x09,0x21,0xbe,0xef,0xc3,0xf0,0x25,0xf2,0x15,0x2e,0xf3,0x0b,0xf5,0xc1,0xe4,0x41,0xcc,0x1c,0xe9,0x16,0x98,0x1b,0x02,0x1a,0x16,0x40,0xaa,0xd4,0x0d,0x04,0xe9,0xe4,0x48,0xf0,0x7f,0xb3,0xd5,0x17,0xfc,0xaf,0x30,0xc6,0xfa,0xff,0xff,0x04,0x00,0x00,0x00,0x00,0x01,0x00,0x00,0xfc,0xff,0xff,0xff,0x1f,0x00,0x00,0x00,0x13,0x00,0x00,0x00,0xc5,0xff,0xff,0xff,0xdc,0xff,0xff,0xff,0xa8,0xff,0xff,0xff,0x20,0x00,0x00,0x00,0xd4,0xff,0xff,0xff,0xd6,0xff,0xff,0xff,0xe4,0xff,0xff,0xff,0xf4,0xff,0xff,0xff,0x07,0x00,0x00,0x00,0xcf,0xff,0xff,0xff,0xe0,0xff,0xff,0xff,0xc6,0xff,0xff,0xff,0xea,0xff,0xff,0xff,0xe1,0xff,0xff,0xff,0xc1,0xff,0xff,0xff,0xea,0xff,0xff,0xff,0xcd,0xff,0xff,0xff,0xf5,0xff,0xff,0xff,0xfe,0xff,0xff,0xff,0xeb,0xff,0xff,0xff,0xfa,0xff,0xff,0xff,0xfd,0xff,0xff,0xff,0xcb,0xff,0xff,0xff,0xc6,0xff,0xff,0xff,0xf7,0xff,0xff,0xff,0xcf,0xff,0xff,0xff,0xde,0xff,0xff,0xff,0xc9,0xff,0xff,0xff,0xfa,0xff,0xff,0xff,0xdc,0xff,0xff,0xff,0xc1,0xff,0xff,0xff,0xde,0xff,0xff,0xff,0xbd,0xff,0xff,0xff,0xd5,0xff,0xff,0xff,0xbc,0xff,0xff,0xff,0xe9,0xff,0xff,0xff,0xd4,0xff,0xff,0xff,0xd0,0xff,0xff,0xff,0xd9,0xff,0xff,0xff,0xba,0xff,0xff,0xff,0x10,0x00,0x00,0x00,0xe4,0xff,0xff,0xff,0xc3,0xff,0xff,0xff,0xbf,0xff,0xff,0xff,0xd6,0xff,0xff,0xff,0xf1,0xff,0xff,0xff,0xfd,0xff,0xff,0xff,0xcb,0xff,0xff,0xff,0x04,0x00,0x00,0x00,0xf1,0xff,0xff,0xff,0xdc,0xff,0xff,0xff,0xf2,0xff,0xff,0xff,0xfe,0xff,0xff,0xff,0xbd,0xff,0xff,0xff,0xd9,0xff,0xff,0xff,0x15,0x00,0x00,0x00,0x01,0x00,0x00,0x00,0xdf,0xff,0xff,0xff,0xe5,0xff,0xff,0xff,0xce,0xff,0xff,0xff,0xa6,0xff,0xff,0xff,0xd2,0xfb,0xff,0xff,0x04,0x00,0x00,0x00,0x40,0x03,0x00,0x00,0x05,0x15,0xfd,0xdd,0x12,0x09,0xd5,0xe5,0x03,0x42,0xd1,0xec,0x07,0x81,0x25,0x19,0x2f,0x0d,0xc8,0xb8,0xef,0xeb,0xee,0x10,0x01,0x16,0xef,0xf8,0x2e,0x8b,0xf9,0xdb,0xb1,0x25,0x51,0x08,0x04,0xd8,0xe7,0x44,0xe9,0x4e,0x0a,0xdd,0xda,0x21,0xf0,0x34,0x10,0xf7,0xd9,0x0a,0xfa,0x1d,0xc7,0xf5,0xca,0xde,0xf4,0xfa,0x11,0x08,0xc9,0xf7,0xff,0xe9,0x1b,0x0d,0xe5,0x0b,0xf6,0x0f,0x33,0xe3,0x1d,0x13,0x0c,0xd7,0xea,0xba,0xdf,0xc1,0x2d,0x8c,0x81,0xcf,0xfe,0xe5,0x0f,0xee,0x2c,0x16,0xe3,0x05,0x27,0xf7,0xec,0x2e,0x56,0x0b,0x10,0x1c,0xfb,0x2c,0x1c,0x36,0xd9,0x07,0xe4,0x18,0x07,0xd7,0x1f,0x17,0x15,0xbc,0xfa,0x31,0xc1,0xf4,0x0a,0xbe,0x00,0x13,0xf5,0xf2,0xf8,0x18,0x0a,0x02,0x10,0x2d,0x0c,0x27,0x1c,0x15,0x31,0x16,0xb5,0xfa,0x0c,0xf7,0xd5,0xf2,0x06,0xc2,0xf2,0x12,0x03,0x81,0x0d,0x14,0x1e,0x0f,0xee,0xdd,0xc4,0xe1,0x1e,0xf7,0xc4,0x1c,0xf3,0xfb,0x08,0x1f,0xd1,0xf1,0xe6,0xe3,0xe7,0x08,0xe7,0xed,0xf2,0xfa,0xff,0xff,0x0d,0x15,0xe4,0x17,0xf6,0x03,0x18,0x15,0x20,0xdb,0xfa,0x05,0x0b,0xe8,0xd9,0xdb,0xbc,0xfe,0x0c,0xf3,0xad,0xe8,0xc5,0x06,0x43,0xfc,0xe7,0x2e,0x33,0xcd,0x13,0x02,0x08,0x94,0x08,0x4a,0x16,0x20,0xf5,0xf2,0x18,0xbe,0x08,0x45,0xf5,0xe2,0x73,0xea,0x3c,0x1b,0xd8,0xfd,0x3a,0xf1,0xdf,0xfe,0x56,0xe9,0x0a,0x1b,0x3f,0x34,0xc1,0xc7,0x35,0xf0,0xdb,0xea,0x7f,0x07,0xe7,0x11,0xd7,0x1d,0xfe,0xd2,0xf2,0xf3,0xcc,0xe2,0xf7,0xda,0x1a,0x04,0xea,0x00,0xf1,0x46,0x01,0x98,0xcf,0xaf,0x21,0xa7,0x07,0x2f,0xed,0x10,0xef,0x4e,0xd8,0x06,0x19,0x0f,0x99,0x41,0x7f,0x31,0xfb,0xb4,0xd8,0xbc,0x5c,0xf6,0x1d,0xbc,0x0c,0x13,0xe0,0x49,0x01,0xfa,0x3c,0xc3,0x0e,0x18,0x24,0x18,0xc2,0x05,0x84,0x2e,0xeb,0xfe,0xb3,0xb0,0xd6,0x28,0x12,0x31,0xea,0xd2,0x18,0xe3,0x0f,0xf2,0x06,0x03,0xf8,0x0c,0xf0,0x1a,0xf2,0x09,0xea,0xdc,0x1c,0xdb,0x02,0xf0,0x09,0xc8,0xdf,0x38,0xef,0xed,0x0e,0xf6,0xf1,0x01,0x17,0x15,0xf8,0xc9,0xdd,0xf6,0xea,0x0f,0x00,0x04,0x12,0x28,0x27,0x11,0x1a,0x1f,0x03,0xdd,0x81,0x17,0xfd,0x18,0xf0,0x0f,0xd8,0xd8,0xfe,0x2b,0x13,0xe8,0xfb,0x26,0x12,0x00,0xf7,0x11,0x1b,0xf6,0x10,0x09,0x27,0x1c,0x0e,0x28,0x17,0x18,0xc6,0x41,0xf6,0x1f,0xea,0xe3,0x05,0xc9,0xec,0xd4,0xfa,0x6e,0x37,0x10,0x15,0xe7,0x0b,0xd9,0xc5,0xca,0xed,0x04,0x13,0xe6,0x81,0xf0,0xc9,0xe5,0xdf,0x09,0xfa,0xd9,0x12,0x12,0x02,0xe0,0x29,0x00,0xef,0x08,0xe7,0x25,0xd8,0xfe,0xdc,0x18,0x26,0x05,0xfd,0xf1,0x12,0xfb,0x21,0xe1,0x16,0xe9,0xfa,0xe6,0x11,0xe2,0x1b,0xa3,0x81,0xb9,0x4e,0xc7,0x11,0x8d,0x3c,0xb8,0x22,0x6a,0x2d,0x41,0x3d,0x27,0xbb,0xcd,0x09,0x4a,0x13,0x1e,0x2a,0x13,0xea,0x8d,0xe0,0xb6,0x14,0xe1,0x41,0x27,0x16,0xf0,0x10,0xae,0xd1,0xd4,0x19,0x00,0xe4,0x0f,0x0b,0xf2,0x13,0xd1,0xeb,0xea,0x4b,0xde,0xd5,0x14,0xff,0x42,0xff,0x24,0xcc,0xd1,0xf7,0x36,0x14,0x03,0xe1,0xfa,0x12,0xf6,0x25,0x03,0x04,0xd6,0x92,0xd1,0x0e,0x5a,0x20,0x1a,0x0d,0x49,0xe0,0x81,0xac,0xfe,0xeb,0xe6,0xf4,0x54,0xe1,0x1f,0xcd,0x4d,0x1e,0x11,0x0f,0xfd,0x2f,0xd9,0x0f,0xff,0xf6,0xfb,0xf9,0xf9,0x03,0xe1,0x07,0xfa,0xc7,0x14,0x25,0x0a,0x57,0x14,0xc9,0xce,0xf6,0xfb,0xf8,0xe7,0x08,0xe4,0x20,0xda,0x0c,0x3d,0xf5,0xef,0xc0,0x05,0x24,0xf8,0xee,0x12,0x38,0xdd,0x03,0x5c,0xf2,0x57,0xef,0x0c,0xe6,0x74,0x20,0x81,0x05,0x2c,0xf7,0xdc,0xdd,0xd2,0x0f,0xe9,0x0f,0x20,0x16,0xde,0xdc,0x0e,0x18,0xce,0x06,0x04,0x16,0x0c,0xf0,0x11,0xd9,0xf7,0x0c,0xcc,0x32,0xbd,0x29,0x35,0x19,0xe5,0xe3,0xb5,0xd1,0xd5,0x14,0xec,0xdf,0xe7,0x02,0x08,0x11,0x03,0xff,0x02,0xd6,0x12,0x00,0xf1,0x02,0xd3,0xd2,0xff,0x08,0xe8,0x0b,0x11,0x05,0x21,0xd3,0x09,0xfa,0x81,0x0b,0xf4,0xf3,0x04,0xf8,0x1c,0x49,0xd5,0xfa,0x01,0xf6,0x1e,0xf9,0x16,0x1d,0xfa,0xfc,0x31,0x14,0x3c,0xe9,0xff,0x14,0x07,0xf3,0xe9,0x19,0xee,0x13,0xb1,0xdd,0x18,0xd3,0xf1,0xd9,0x02,0x0d,0xd5,0xd1,0xfe,0x3a,0x2b,0xe7,0xe9,0x13,0x18,0x26,0xf0,0x22,0xdf,0xff,0x12,0x0b,0xfd,0x1a,0xb5,0x2a,0x14,0xf2,0xeb,0xe1,0x02,0x0d,0x18,0x24,0x1b,0x12,0x0d,0xf4,0xc2,0x4c,0x41,0xe7,0x28,0xd5,0xd1,0xbd,0xda,0xdd,0x0b,0xc0,0xc1,0xd3,0x87,0x81,0x16,0x38,0x0f,0x04,0x0c,0x09,0x1c,0xe9,0x23,0xb8,0xe1,0x16,0x10,0xd9,0x34,0x00,0x0b,0xf8,0x36,0x25,0x0a,0xfb,0x24,0xd5,0xf4,0xf0,0xe6,0xc8,0x13,0xd4,0xf6,0x1b,0x32,0x41,0x55,0xbf,0x04,0xc7,0x21,0x12,0xe2,0x41,0x7f,0x1a,0xfd,0x00,0xd7,0x32,0xd3,0xe2,0xf5,0x31,0x3c,0x1f,0x0d,0xcb,0x0c,0xa6,0x39,0xf9,0xb3,0xc7,0xee,0xfe,0xed,0x12,0x2f,0x17,0x23,0x03,0xec,0x07,0x00,0x62,0xde,0xf3,0x08,0x2c,0x29,0xce,0xf8,0xf9,0xcf,0xce,0xf1,0x1e,0xff,0xff,0xff,0x04,0x00,0x00,0x00,0x34,0x00,0x00,0x00,0xd6,0xfd,0xff,0xff,0x95,0x00,0x00,0x00,0x25,0x01,0x00,0x00,0xcb,0xfd,0xff,0xff,0x51,0xfc,0xff,0xff,0xfa,0x00,0x00,0x00,0x5f,0x00,0x00,0x00,0xe8,0xfe,0xff,0xff,0x00,0xff,0xff,0xff,0xc6,0x01,0x00,0x00,0xdb,0xff,0xff,0xff,0x02,0x00,0x00,0x00,0x48,0x00,0x00,0x00,0x5e,0xff,0xff,0xff,0x04,0x00,0x00,0x00,0x08,0x00,0x00,0x00,0x01,0x00,0x00,0x00,0x02,0x00,0x00,0x00,0x18,0xe3,0xff,0xff,0x1c,0xe3,0xff,0xff,0x0f,0x00,0x00,0x00,0x4d,0x4c,0x49,0x52,0x20,0x43,0x6f,0x6e,0x76,0x65,0x72,0x74,0x65,0x64,0x2e,0x00,0x01,0x00,0x00,0x00,0x14,0x00,0x00,0x00,0x00,0x00,0x0e,0x00,0x18,0x00,0x14,0x00,0x10,0x00,0x0c,0x00,0x08,0x00,0x04,0x00,0x0e,0x00,0x00,0x00,0x14,0x00,0x00,0x00,0x1c,0x00,0x00,0x00,0xd4,0x01,0x00,0x00,0xd8,0x01,0x00,0x00,0xdc,0x01,0x00,0x00,0x04,0x00,0x00,0x00,0x6d,0x61,0x69,0x6e,0x00,0x00,0x00,0x00,0x06,0x00,0x00,0x00,0x6c,0x01,0x00,0x00,0x00,0x01,0x00,0x00,0xac,0x00,0x00,0x00,0x78,0x00,0x00,0x00,0x40,0x00,0x00,0x00,0x04,0x00,0x00,0x00,0x22,0xff,0xff,0xff,0x1c,0x00,0x00,0x00,0x00,0x00,0x00,0x09,0x1c,0x00,0x00,0x00,0x20,0x00,0x00,0x00,0x04,0x00,0x00,0x00,0x00,0x00,0x06,0x00,0x08,0x00,0x04,0x00,0x06,0x00,0x00,0x00,0x00,0x00,0x80,0x3f,0x01,0x00,0x00,0x00,0x0f,0x00,0x00,0x00,0x01,0x00,0x00,0x00,0x0e,0x00,0x00,0x00,0x5a,0xff,0xff,0xff,0x14,0x00,0x00,0x00,0x00,0x00,0x00,0x08,0x10,0x00,0x00,0x00,0x14,0x00,0x00,0x00,0x03,0x00,0x00,0x00,0xdc,0xe3,0xff,0xff,0x01,0x00,0x00,0x00,0x0e,0x00,0x00,0x00,0x03,0x00,0x00,0x00,0x0d,0x00,0x00,0x00,0x03,0x00,0x00,0x00,0x02,0x00,0x00,0x00,0x8e,0xff,0xff,0xff,0x14,0x00,0x00,0x00,0x00,0x00,0x00,0x1b,0x10,0x00,0x00,0x00,0x14,0x00,0x00,0x00,0x02,0x00,0x00,0x00,0x10,0xe4,0xff,0xff,0x01,0x00,0x00,0x00,0x0d,0x00,0x00,0x00,0x02,0x00,0x00,0x00,0x0c,0x00,0x00,0x00,0x01,0x00,0x00,0x00,0x56,0xff,0xff,0xff,0x10,0x00,0x00,0x00,0x00,0x00,0x00,0x01,0x1c,0x00,0x00,0x00,0x20,0x00,0x00,0x00,0x48,0xff,0xff,0xff,0x00,0x00,0x00,0x01,0x01,0x00,0x00,0x00,0x01,0x00,0x00,0x00,0x00,0x00,0x00,0x01,0x01,0x00,0x00,0x00,0x0c,0x00,0x00,0x00,0x03,0x00,0x00,0x00,0x0b,0x00,0x00,0x00,0x05,0x00,0x00,0x00,0x04,0x00,0x00,0x00,0x00,0x00,0x0e,0x00,0x1a,0x00,0x14,0x00,0x10,0x00,0x0c,0x00,0x0b,0x00,0x04,0x00,0x0e,0x00,0x00,0x00,0x24,0x00,0x00,0x00,0x00,0x00,0x00,0x02,0x34,0x00,0x00,0x00,0x38,0x00,0x00,0x00,0x01,0x00,0x00,0x00,0x00,0x00,0x0e,0x00,0x18,0x00,0x17,0x00,0x10,0x00,0x0c,0x00,0x08,0x00,0x07,0x00,0x0e,0x00,0x00,0x00,0x00,0x00,0x00,0x01,0x01,0x00,0x00,0x00,0x01,0x00,0x00,0x00,0x01,0x00,0x00,0x00,0x00,0x00,0x00,0x01,0x01,0x00,0x00,0x00,0x0b,0x00,0x00,0x00,0x03,0x00,0x00,0x00,0x0a,0x00,0x00,0x00,0x07,0x00,0x00,0x00,0x06,0x00,0x00,0x00,0x00,0x00,0x0e,0x00,0x14,0x00,0x00,0x00,0x10,0x00,0x0c,0x00,0x0b,0x00,0x04,0x00,0x0e,0x00,0x00,0x00,0x1c,0x00,0x00,0x00,0x00,0x00,0x00,0x01,0x28,0x00,0x00,0x00,0x2c,0x00,0x00,0x00,0x0c,0x00,0x14,0x00,0x13,0x00,0x0c,0x00,0x08,0x00,0x07,0x00,0x0c,0x00,0x00,0x00,0x00,0x00,0x00,0x01,0x01,0x00,0x00,0x00,0x01,0x00,0x00,0x00,0x00,0x00,0x00,0x01,0x01,0x00,0x00,0x00,0x0a,0x00,0x00,0x00,0x03,0x00,0x00,0x00,0x00,0x00,0x00,0x00,0x09,0x00,0x00,0x00,0x08,0x00,0x00,0x00,0x01,0x00,0x00,0x00,0x0f,0x00,0x00,0x00,0x01,0x00,0x00,0x00,0x00,0x00,0x00,0x00,0x10,0x00,0x00,0x00,0xfc,0x1a,0x00,0x00,0xa0,0x1a,0x00,0x00,0x98,0x19,0x00,0x00,0xa4,0x18,0x00,0x00,0x50,0x15,0x00,0x00,0xec,0x11,0x00,0x00,0x98,0x0e,0x00,0x00,0x1c,0x0b,0x00,0x00,0xc8,0x07,0x00,0x00,0x64,0x04,0x00,0x00,0x90,0x03,0x00,0x00,0xa4,0x02,0x00,0x00,0xb0,0x01,0x00,0x00,0x1c,0x01,0x00,0x00,0x80,0x00,0x00,0x00,0x04,0x00,0x00,0x00,0x5a,0xe5,0xff,0xff,0x00,0x00,0x00,0x01,0x18,0x00,0x00,0x00,0x20,0x00,0x00,0x00,0x3c,0x00,0x00,0x00,0x10,0x00,0x00,0x00,0x00,0x00,0x00,0x09,0x50,0x00,0x00,0x00,0x02,0x00,0x00,0x00,0xff,0xff,0xff,0xff,0x0d,0x00,0x00,0x00,0x3c,0xe5,0xff,0xff,0x08,0x00,0x00,0x00,0x10,0x00,0x00,0x00,0x01,0x00,0x00,0x00,0x80,0xff,0xff,0xff,0xff,0xff,0xff,0xff,0x01,0x00,0x00,0x00,0x00,0x00,0x80,0x3b,0x1b,0x00,0x00,0x00,0x53,0x74,0x61,0x74,0x65,0x66,0x75,0x6c,0x50,0x61,0x72,0x74,0x69,0x74,0x69,0x6f,0x6e,0x65,0x64,0x43,0x61,0x6c,0x6c,0x5f,0x31,0x3a,0x30,0x00,0x02,0x00,0x00,0x00,0x01,0x00,0x00,0x00,0x0d,0x00,0x00,0x00,0xd2,0xe5,0xff,0xff,0x00,0x00,0x00,0x01,0x18,0x00,0x00,0x00,0x20,0x00,0x00,0x00,0x3c,0x00,0x00,0x00,0x0f,0x00,0x00,0x00,0x00,0x00,0x00,0x09,0x70,0x00,0x00,0x00,0x02,0x00,0x00,0x00,0xff,0xff,0xff,0xff,0x0d,0x00,0x00,0x00,0xb4,0xe5,0xff,0xff,0x08,0x00,0x00,0x00,0x10,0x00,0x00,0x00,0x01,0x00,0x00,0x00,0x19,0x00,0x00,0x00,0x00,0x00,0x00,0x00,0x01,0x00,0x00,0x00,0x34,0x6e,0x5a,0x3e,0x38,0x00,0x00,0x00,0x73,0x65,0x71,0x75,0x65,0x6e,0x74,0x69,0x61,0x6c,0x5f,0x31,0x2f,0x64,0x65,0x6e,0x73,0x65,0x5f,0x31,0x2f,0x4d,0x61,0x74,0x4d,0x75,0x6c,0x3b,0x73,0x65,0x71,0x75,0x65,0x6e,0x74,0x69,0x61,0x6c,0x5f,0x31,0x2f,0x64,0x65,0x6e,0x73,0x65,0x5f,0x31,0x2f,0x42,0x69,0x61,0x73,0x41,0x64,0x64,0x00,0x00,0x00,0x00,0x02,0x00,0x00,0x00,0x01,0x00,0x00,0x00,0x0d,0x00,0x00,0x00,0x6a,0xe6,0xff,0xff,0x00,0x00,0x00,0x01,0x18,0x00,0x00,0x00,0x20,0x00,0x00,0x00,0x40,0x00,0x00,0x00,0x0e,0x00,0x00,0x00,0x00,0x00,0x00,0x09,0x68,0x00,0x00,0x00,0x02,0x00,0x00,0x00,0xff,0xff,0xff,0xff,0x40,0x00,0x00,0x00,0x4c,0xe6,0xff,0xff,0x08,0x00,0x00,0x00,0x14,0x00,0x00,0x00,0x01,0x00,0x00,0x00,0x80,0xff,0xff,0xff,0xff,0xff,0xff,0xff,0x00,0x00,0x00,0x00,0x01,0x00,0x00,0x00,0xea,0x4d,0x54,0x3d,0x2c,0x00,0x00,0x00,0x73,0x65,0x71,0x75,0x65,0x6e,0x74,0x69,0x61,0x6c,0x5f,0x31,0x2f,0x67,0x6c,0x6f,0x62,0x61,0x6c,0x5f,0x61,0x76,0x65,0x72,0x61,0x67,0x65,0x5f,0x70,0x6f,0x6f,0x6c,0x69,0x6e,0x67,0x32,0x64,0x5f,0x31,0x2f,0x4d,0x65,0x61,0x6e,0x00,0x00,0x00,0x00,0x02,0x00,0x00,0x00,0x01,0x00,0x00,0x00,0x40,0x00,0x00,0x00,0xfa,0xe6,0xff,0xff,0x00,0x00,0x00,0x01,0x18,0x00,0x00,0x00,0x28,0x00,0x00,0x00,0x44,0x00,0x00,0x00,0x0d,0x00,0x00,0x00,0x00,0x00,0x00,0x09,0xc0,0x00,0x00,0x00,0x04,0x00,0x00,0x00,0xff,0xff,0xff,0xff,0x5f,0x00,0x00,0x00,0x08,0x00,0x00,0x00,0x40,0x00,0x00,0x00,0xe4,0xe6,0xff,0xff,0x08,0x00,0x00,0x00,0x10,0x00,0x00,0x00,0x01,0x00,0x00,0x00,0x80,0xff,0xff,0xff,0xff,0xff,0xff,0xff,0x01,0x00,0x00,0x00,0xc4,0x77,0xba,0x3f,0x80,0x00,0x00,0x00,0x73,0x65,0x71,0x75,0x65,0x6e,0x74,0x69,0x61,0x6c,0x5f,0x31,0x2f,0x63,0x6f,0x6e,0x76,0x32,0x64,0x5f,0x31,0x5f,0x32,0x2f,0x52,0x65,0x6c,0x75,0x3b,0x73,0x65,0x71,0x75,0x65,0x6e,0x74,0x69,0x61,0x6c,0x5f,0x31,0x2f,0x63,0x6f,0x6e,0x76,0x32,0x64,0x5f,0x31,0x5f,0x32,0x2f,0x42,0x69,0x61,0x73,0x41,0x64,0x64,0x3b,0x73,0x65,0x71,0x75,0x65,0x6e,0x74,0x69,0x61,0x6c,0x5f,0x31,0x2f,0x63,0x6f,0x6e,0x76,0x32,0x64,0x5f,0x31,0x5f,0x32,0x2f,0x63,0x6f,0x6e,0x76,0x6f,0x6c,0x75,0x74,0x69,0x6f,0x6e,0x3b,0x73,0x65,0x71,0x75,0x65,0x6e,0x74,0x69,0x61,0x6c,0x5f,0x31,0x2f,0x63,0x6f,0x6e,0x76,0x32,0x64,0x5f,0x31,0x5f,0x32,0x2f,0x53,0x71,0x75,0x65,0x65,0x7a,0x65,0x00,0x00,0x00,0x00,0x04,0x00,0x00,0x00,0x01,0x00,0x00,0x00,0x5f,0x00,0x00,0x00,0x08,0x00,0x00,0x00,0x40,0x00,0x00,0x00,0xea,0xe7,0xff,0xff,0x00,0x00,0x00,0x01,0x18,0x00,0x00,0x00,0x28,0x00,0x00,0x00,0x48,0x00,0x00,0x00,0x0c,0x00,0x00,0x00,0x00,0x00,0x00,0x09,0xb8,0x00,0x00,0x00,0x04,0x00,0x00,0x00,0xff,0xff,0xff,0xff,0x5f,0x00,0x00,0x00,0x08,0x00,0x00,0x00,0x40,0x00,0x00,0x00,0xd4,0xe7,0xff,0xff,0x08,0x00,0x00,0x00,0x14,0x00,0x00,0x00,0x01,0x00,0x00,0x00,0x80,0xff,0xff,0xff,0xff,0xff,0xff,0xff,0x00,0x00,0x00,0x00,0x01,0x00,0x00,0x00,0x41,0xc0,0x61,0x3f,0x77,0x00,0x00,0x00,0x73,0x65,0x71,0x75,0x65,0x6e,0x74,0x69,0x61,0x6c,0x5f,0x31,0x2f,0x64,0x65,0x70,0x74,0x68,0x77,0x69,0x73,0x65,0x5f,0x63,0x6f,0x6e,0x76,0x32,0x64,0x5f,0x31,0x2f,0x52,0x65,0x6c,0x75,0x3b,0x73,0x65,0x71,0x75,0x65,0x6e,0x74,0x69,0x61,0x6c,0x5f,0x31,0x2f,0x64,0x65,0x70,0x74,0x68,0x77,0x69,0x73,0x65,0x5f,0x63,0x6f,0x6e,0x76,0x32,0x64,0x5f,0x31,0x2f,0x42,0x69,0x61,0x73,0x41,0x64,0x64,0x3b,0x73,0x65,0x71,0x75,0x65,0x6e,0x74,0x69,0x61,0x6c,0x5f,0x31,0x2f,0x64,0x65,0x70,0x74,0x68,0x77,0x69,0x73,0x65,0x5f,0x63,0x6f,0x6e,0x76,0x32,0x64,0x5f,0x31,0x2f,0x64,0x65,0x70,0x74,0x68,0x77,0x69,0x73,0x65,0x3b,0x00,0x04,0x00,0x00,0x00,0x01,0x00,0x00,0x00,0x5f,0x00,0x00,0x00,0x08,0x00,0x00,0x00,0x40,0x00,0x00,0x00,0xd2,0xe8,0xff,0xff,0x00,0x00,0x00,0x01,0x18,0x00,0x00,0x00,0x28,0x00,0x00,0x00,0x48,0x00,0x00,0x00,0x0b,0x00,0x00,0x00,0x00,0x00,0x00,0x09,0xa0,0x00,0x00,0x00,0x04,0x00,0x00,0x00,0xff,0xff,0xff,0xff,0x61,0x00,0x00,0x00,0x0a,0x00,0x00,0x00,0x40,0x00,0x00,0x00,0xbc,0xe8,0xff,0xff,0x08,0x00,0x00,0x00,0x14,0x00,0x00,0x00,0x01,0x00,0x00,0x00,0x80,0xff,0xff,0xff,0xff,0xff,0xff,0xff,0x00,0x00,0x00,0x00,0x01,0x00,0x00,0x00,0xc3,0x6f,0x8c,0x3f,0x5c,0x00,0x00,0x00,0x73,0x65,0x71,0x75,0x65,0x6e,0x74,0x69,0x61,0x6c,0x5f,0x31,0x2f,0x63,0x6f,0x6e,0x76,0x32,0x64,0x5f,0x31,0x2f,0x52,0x65,0x6c,0x75,0x3b,0x73,0x65,0x71,0x75,0x65,0x6e,0x74,0x69,0x61,0x6c,0x5f,0x31,0x2f,0x63,0x6f,0x6e,0x76,0x32,0x64,0x5f,0x31,0x2f,0x42,0x69,0x61,0x73,0x41,0x64,0x64,0x3b,0x73,0x65,0x71,0x75,0x65,0x6e,0x74,0x69,0x61,0x6c,0x5f,0x31,0x2f,0x63,0x6f,0x6e,0x76,0x32,0x64,0x5f,0x31,0x2f,0x63,0x6f,0x6e,0x76,0x6f,0x6c,0x75,0x74,0x69,0x6f,0x6e,0x3b,0x31,0x00,0x00,0x00,0x00,0x04,0x00,0x00,0x00,0x01,0x00,0x00,0x00,0x61,0x00,0x00,0x00,0x0a,0x00,0x00,0x00,0x40,0x00,0x00,0x00,0xfa,0xe9,0xff,0xff,0x00,0x00,0x00,0x01,0x14,0x00,0x00,0x00,0x28,0x03,0x00,0x00,0x0a,0x00,0x00,0x00,0x00,0x00,0x00,0x09,0x34,0x03,0x00,0x00,0x74,0xe9,0xff,0xff,0x08,0x00,0x00,0x00,0x0c,0x02,0x00,0x00,0x40,0x00,0x00,0x00,0x00,0x00,0x00,0x00,0x00,0x00,0x00,0x00,0x00,0x00,0x00,0x00,0x00,0x00,0x00,0x00,0x00,0x00,0x00,0x00,0x00,0x00,0x00,0x00,0x00,0x00,0x00,0x00,0x00,0x00,0x00,0x00,0x00,0x00,0x00,0x00,0x00,0x00,0x00,0x00,0x00,0x00,0x00,0x00,0x00,0x00,0x00,0x00,0x00,0x00,0x00,0x00,0x00,0x00,0x00,0x00,0x00,0x00,0x00,0x00,0x00,0x00,0x00,0x00,0x00,0x00,0x00,0x00,0x00,0x00,0x00,0x00,0x00,0x00,0x00,0x00,0x00,0x00,0x00,0x00,0x00,0x00,0x00,0x00,0x00,0x00,0x00,0x00,0x00,0x00,0x00,0x00,0x00,0x00,0x00,0x00,0x00,0x00,0x00,0x00,0x00,0x00,0x00,0x00,0x00,0x00,0x00,0x00,0x00,0x00,0x00,0x00,0x00,0x00,0x00,0x00,0x00,0x00,0x00,0x00,0x00,0x00,0x00,0x00,0x00,0x00,0x00,0x00,0x00,0x00,0x00,0x00,0x00,0x00,0x00,0x00,0x00,0x00,0x00,0x00,0x00,0x00,0x00,0x00,0x00,0x00,0x00,0x00,0x00,0x00,0x00,0x00,0x00,0x00,0x00,0x00,0x00,0x00,0x00,0x00,0x00,0x00,0x00,0x00,0x00,0x00,0x00,0x00,0x00,0x00,0x00,0x00,0x00,0x00,0x00,0x00,0x00,0x00,0x00,0x00,0x00,0x00,0x00,0x00,0x00,0x00,0x00,0x00,0x00,0x00,0x00,0x00,0x00,0x00,0x00,0x00,0x00,0x00,0x00,0x00,0x00,0x00,0x00,0x00,0x00,0x00,0x00,0x00,0x00,0x00,0x00,0x00,0x00,0x00,0x00,0x00,0x00,0x00,0x00,0x00,0x00,0x00,0x00,0x00,0x00,0x00,0x00,0x00,0x00,0x00,0x00,0x00,0x00,0x00,0x00,0x00,0x00,0x00,0x00,0x00,0x00,0x00,0x00,0x00,0x00,0x00,0x00,0x00,0x00,0x00,0x00,0x00,0x00,0x00,0x00,0x00,0x00,0x00,0x00,0x00,0x00,0x00,0x00,0x00,0x00,0x00,0x00,0x00,0x00,0x00,0x00,0x00,0x00,0x00,0x00,0x00,0x00,0x00,0x00,0x00,0x00,0x00,0x00,0x00,0x00,0x00,0x00,0x00,0x00,0x00,0x00,0x00,0x00,0x00,0x00,0x00,0x00,0x00,0x00,0x00,0x00,0x00,0x00,0x00,0x00,0x00,0x00,0x00,0x00,0x00,0x00,0x00,0x00,0x00,0x00,0x00,0x00,0x00,0x00,0x00,0x00,0x00,0x00,0x00,0x00,0x00,0x00,0x00,0x00,0x00,0x00,0x00,0x00,0x00,0x00,0x00,0x00,0x00,0x00,0x00,0x00,0x00,0x00,0x00,0x00,0x00,0x00,0x00,0x00,0x00,0x00,0x00,0x00,0x00,0x00,0x00,0x00,0x00,0x00,0x00,0x00,0x00,0x00,0x00,0x00,0x00,0x00,0x00,0x00,0x00,0x00,0x00,0x00,0x00,0x00,0x00,0x00,0x00,0x00,0x00,0x00,0x00,0x00,0x00,0x00,0x00,0x00,0x00,0x00,0x00,0x00,0x00,0x00,0x00,0x00,0x00,0x00,0x00,0x00,0x00,0x00,0x00,0x00,0x00,0x00,0x00,0x00,0x00,0x00,0x00,0x00,0x00,0x00,0x00,0x00,0x00,0x00,0x00,0x00,0x00,0x00,0x00,0x00,0x00,0x00,0x00,0x00,0x00,0x00,0x00,0x00,0x00,0x00,0x00,0x00,0x00,0x00,0x00,0x00,0x00,0x00,0x00,0x00,0x00,0x00,0x00,0x00,0x00,0x00,0x00,0x00,0x00,0x00,0x00,0x00,0x00,0x00,0x00,0x00,0x00,0x00,0x00,0x00,0x00,0x00,0x00,0x00,0x00,0x00,0x00,0x00,0x00,0x00,0x00,0x00,0x00,0x00,0x00,0x00,0x00,0x00,0x00,0x00,0x00,0x00,0x00,0x00,0x00,0x00,0x00,0x00,0x00,0x00,0x00,0x00,0x00,0x00,0x00,0x00,0x00,0x00,0x00,0x00,0x00,0x00,0x00,0x00,0x00,0x00,0x00,0x00,0x00,0x00,0x00,0x00,0x00,0x40,0x00,0x00,0x00,0x42,0x6d,0xf9,0x3b,0x3d,0x4b,0xa9,0x3b,0x9b,0x94,0x0b,0x3c,0x84,0x2d,0x5b,0x3c,0xc2,0x0c,0xb8,0x3b,0x12,0x62,0x91,0x3b,0x8a,0x4e,0x61,0x3b,0x4d,0x7c,0xaf,0x3b,0x90,0x44,0xc6,0x3b,0xcd,0x2c,0xa8,0x3c,0x89,0xfd,0x01,0x3c,0x43,0xac,0x27,0x3c,0x5c,0xe7,0x1b,0x3c,0xfa,0xd4,0x13,0x3c,0x89,0x95,0xa7,0x3b,0xa5,0xc5,0x6f,0x3b,0xf6,0x4d,0x02,0x3c,0x5a,0x10,0xa0,0x3b,0xcb,0x39,0xa1,0x3b,0xb7,0x71,0x15,0x3c,0x69,0x75,0x8f,0x3b,0x84,0x3f,0xae,0x3b,0x4a,0x13,0x5a,0x3c,0xb2,0x21,0x8c,0x3b,0x41,0x19,0xe5,0x3b,0x94,0xbf,0x13,0x3c,0x7e,0x2a,0x9c,0x3b,0xf3,0x9f,0x8a,0x3c,0x5a,0x1d,0x16,0x3c,0x86,0xc1,0xe0,0x3b,0x7b,0x1c,0x8d,0x3b,0x82,0xd0,0x9e,0x3b,0xfa,0xd5,0xb9,0x3b,0xd0,0xb4,0x0d,0x3c,0xbb,0x77,0xb4,0x3b,0x1e,0x08,0x98,0x3b,0xe3,0x8d,0xf9,0x3b,0xf0,0xeb,0xb9,0x3b,0x8d,0x2f,0x14,0x3c,0x4b,0xb5,0x3a,0x3c,0xcb,0xc5,0x15,0x3c,0x24,0x44,0x1b,0x3c,0x16,0x52,0x10,0x3c,0x48,0x5f,0xae,0x3b,0x47,0xd9,0xd3,0x3b,0xd1,0x3a,0xb0,0x3b,0xdc,0xc1,0x10,0x3c,0x8d,0x89,0xfe,0x3b,0xf7,0x8c,0xaa,0x3b,0x37,0xf9,0x9b,0x3b,0x6e,0x9e,0xff,0x3b,0x2f,0xab,0x9b,0x3b,0xfb,0xa7,0x8c,0x3b,0x87,0xdd,0x36,0x3c,0x37,0x86,0xe8,0x3b,0x0a,0x04,0xdb,0x3b,0x53,0x30,0x26,0x3c,0xcf,0xa5,0x2d,0x3c,0x7d,0x38,0x04,0x3c,0xbc,0x61,0x14,0x3c,0x95,0xb2,0x5a,0x3b,0xeb,0x29,0xdb,0x3b,0xf5,0x57,0x06,0x3c,0x25,0xa3,0x0a,0x3c,0x12,0x00,0x00,0x00,0x74,0x66,0x6c,0x2e,0x70,0x73,0x65,0x75,0x64,0x6f,0x5f,0x71,0x63,0x6f,0x6e,0x73,0x74,0x37,0x00,0x00,0x04,0x00,0x00,0x00,0x40,0x00,0x00,0x00,0x03,0x00,0x00,0x00,0x03,0x00,0x00,0x00,0x01,0x00,0x00,0x00,0x5a,0xed,0xff,0xff,0x00,0x00,0x00,0x01,0x14,0x00,0x00,0x00,0x24,0x03,0x00,0x00,0x09,0x00,0x00,0x00,0x00,0x00,0x00,0x02,0x30,0x03,0x00,0x00,0xd4,0xec,0xff,0xff,0x08,0x00,0x00,0x00,0x08,0x02,0x00,0x00,0x40,0x00,0x00,0x00,0x00,0x00,0x00,0x00,0x00,0x00,0x00,0x00,0x00,0x00,0x00,0x00,0x00,0x00,0x00,0x00,0x00,0x00,0x00,0x00,0x00,0x00,0x00,0x00,0x00,0x00,0x00,0x00,0x00,0x00,0x00,0x00,0x00,0x00,0x00,0x00,0x00,0x00,0x00,0x00,0x00,0x00,0x00,0x00,0x00,0x00,0x00,0x00,0x00,0x00,0x00,0x00,0x00,0x00,0x00,0x00,0x00,0x00,0x00,0x00,0x00,0x00,0x00,0x00,0x00,0x00,0x00,0x00,0x00,0x00,0x00,0x00,0x00,0x00,0x00,0x00,0x00,0x00,0x00,0x00,0x00,0x00,0x00,0x00,0x00,0x00,0x00,0x00,0x00,0x00,0x00,0x00,0x00,0x00,0x00,0x00,0x00,0x00,0x00,0x00,0x00,0x00,0x00,0x00,0x00,0x00,0x00,0x00,0x00,0x00,0x00,0x00,0x00,0x00,0x00,0x00,0x00,0x00,0x00,0x00,0x00,0x00,0x00,0x00,0x00,0x00,0x00,0x00,0x00,0x00,0x00,0x00,0x00,0x00,0x00,0x00,0x00,0x00,0x00,0x00,0x00,0x00,0x00,0x00,0x00,0x00,0x00,0x00,0x00,0x00,0x00,0x00,0x00,0x00,0x00,0x00,0x00,0x00,0x00,0x00,0x00,0x00,0x00,0x00,0x00,0x00,0x00,0x00,0x00,0x00,0x00,0x00,0x00,0x00,0x00,0x00,0x00,0x00,0x00,0x00,0x00,0x00,0x00,0x00,0x00,0x00,0x00,0x00,0x00,0x00,0x00,0x00,0x00,0x00,0x00,0x00,0x00,0x00,0x00,0x00,0x00,0x00,0x00,0x00,0x00,0x00,0x00,0x00,0x00,0x00,0x00,0x00,0x00,0x00,0x00,0x00,0x00,0x00,0x00,0x00,0x00,0x00,0x00,0x00,0x00,0x00,0x00,0x00,0x00,0x00,0x00,0x00,0x00,0x00,0x00,0x00,0x00,0x00,0x00,0x00,0x00,0x00,0x00,0x00,0x00,0x00,0x00,0x00,0x00,0x00,0x00,0x00,0x00,0x00,0x00,0x00,0x00,0x00,0x00,0x00,0x00,0x00,0x00,0x00,0x00,0x00,0x00,0x00,0x00,0x00,0x00,0x00,0x00,0x00,0x00,0x00,0x00,0x00,0x00,0x00,0x00,0x00,0x00,0x00,0x00,0x00,0x00,0x00,0x00,0x00,0x00,0x00,0x00,0x00,0x00,0x00,0x00,0x00,0x00,0x00,0x00,0x00,0x00,0x00,0x00,0x00,0x00,0x00,0x00,0x00,0x00,0x00,0x00,0x00,0x00,0x00,0x00,0x00,0x00,0x00,0x00,0x00,0x00,0x00,0x00,0x00,0x00,0x00,0x00,0x00,0x00,0x00,0x00,0x00,0x00,0x00,0x00,0x00,0x00,0x00,0x00,0x00,0x00,0x00,0x00,0x00,0x00,0x00,0x00,0x00,0x00,0x00,0x00,0x00,0x00,0x00,0x00,0x00,0x00,0x00,0x00,0x00,0x00,0x00,0x00,0x00,0x00,0x00,0x00,0x00,0x00,0x00,0x00,0x00,0x00,0x00,0x00,0x00,0x00,0x00,0x00,0x00,0x00,0x00,0x00,0x00,0x00,0x00,0x00,0x00,0x00,0x00,0x00,0x00,0x00,0x00,0x00,0x00,0x00,0x00,0x00,0x00,0x00,0x00,0x00,0x00,0x00,0x00,0x00,0x00,0x00,0x00,0x00,0x00,0x00,0x00,0x00,0x00,0x00,0x00,0x00,0x00,0x00,0x00,0x00,0x00,0x00,0x00,0x00,0x00,0x00,0x00,0x00,0x00,0x00,0x00,0x00,0x00,0x00,0x00,0x00,0x00,0x00,0x00,0x00,0x00,0x00,0x00,0x00,0x00,0x00,0x00,0x00,0x00,0x00,0x00,0x00,0x00,0x00,0x00,0x00,0x00,0x00,0x00,0x00,0x00,0x00,0x00,0x00,0x00,0x00,0x00,0x00,0x00,0x00,0x00,0x00,0x00,0x00,0x00,0x00,0x00,0x00,0x00,0x00,0x00,0x00,0x00,0x00,0x00,0x00,0x00,0x00,0x00,0x00,0x00,0x00,0x00,0x00,0x00,0x00,0x00,0x00,0x00,0x00,0x00,0x00,0x00,0x00,0x00,0x00,0x00,0x40,0x00,0x00,0x00,0xb9,0xd9,0x90,0x3b,0x18,0xa1,0x44,0x3b,0x3e,0x1e,0xa2,0x3b,0x59,0x91,0xfe,0x3b,0x8f,0xc4,0x55,0x3b,0x8f,0xdb,0x28,0x3b,0xdc,0xd7,0x02,0x3b,0x17,0xd2,0x4b,0x3b,0x12,0x48,0x66,0x3b,0x68,0x54,0x43,0x3c,0xc2,0xfa,0x96,0x3b,0x1d,0xbf,0xc2,0x3b,0xba,0x13,0xb5,0x3b,0xb1,0xb3,0xab,0x3b,0xb7,0xa4,0x42,0x3b,0x60,0x3e,0x0b,0x3b,0x2b,0x58,0x97,0x3b,0xae,0xe8,0x39,0x3b,0x26,0x42,0x3b,0x3b,0x12,0x93,0xad,0x3b,0x5a,0x9f,0x26,0x3b,0x28,0x62,0x4a,0x3b,0x8d,0x49,0xfd,0x3b,0x1d,0xc2,0x22,0x3b,0x96,0x0b,0x85,0x3b,0xd6,0x9a,0xab,0x3b,0xb3,0x61,0x35,0x3b,0x15,0x02,0x21,0x3c,0x6c,0x5a,0xae,0x3b,0xf7,0x85,0x82,0x3b,0x64,0xe5,0x23,0x3b,0x31,0x75,0x38,0x3b,0x9a,0xd7,0x57,0x3b,0x52,0x96,0xa4,0x3b,0x76,0x9b,0x51,0x3b,0x6e,0x94,0x30,0x3b,0xac,0xec,0x90,0x3b,0x1c,0xf1,0x57,0x3b,0xe4,0x1c,0xac,0x3b,0xfa,0xda,0xd8,0x3b,0xba,0xf4,0xad,0x3b,0x27,0x56,0xb4,0x3b,0xa8,0x9f,0xa7,0x3b,0x0d,0x87,0x4a,0x3b,0x29,0x0e,0x76,0x3b,0x5e,0xaf,0x4c,0x3b,0x7b,0x21,0xa8,0x3b,0x7e,0xd1,0x93,0x3b,0xc5,0x16,0x46,0x3b,0x77,0x28,0x35,0x3b,0x49,0x72,0x94,0x3b,0xd5,0xcd,0x34,0x3b,0x14,0x5e,0x23,0x3b,0x5d,0x64,0xd4,0x3b,0xde,0x08,0x87,0x3b,0x2d,0x61,0x7e,0x3b,0xd4,0x05,0xc1,0x3b,0xa1,0xaf,0xc9,0x3b,0xe7,0x91,0x99,0x3b,0x2d,0x57,0xac,0x3b,0x91,0x02,0xfe,0x3a,0x2b,0x8d,0x7e,0x3b,0x1f,0x09,0x9c,0x3b,0xcb,0x05,0xa1,0x3b,0x12,0x00,0x00,0x00,0x74,0x66,0x6c,0x2e,0x70,0x73,0x65,0x75,0x64,0x6f,0x5f,0x71,0x63,0x6f,0x6e,0x73,0x74,0x36,0x00,0x00,0x01,0x00,0x00,0x00,0x40,0x00,0x00,0x00,0xaa,0xf0,0xff,0xff,0x00,0x00,0x00,0x01,0x28,0x00,0x00,0x00,0x40,0x03,0x00,0x00,0x08,0x00,0x00,0x00,0x00,0x00,0x00,0x09,0x4c,0x03,0x00,0x00,0x00,0x00,0x12,0x00,0x10,0x00,0x00,0x00,0x00,0x00,0x0c,0x00,0x08,0x00,0x00,0x00,0x00,0x00,0x04,0x00,0x12,0x00,0x00,0x00,0x03,0x00,0x00,0x00,0x08,0x00,0x00,0x00,0x0c,0x02,0x00,0x00,0x40,0x00,0x00,0x00,0x00,0x00,0x00,0x00,0x00,0x00,0x00,0x00,0x00,0x00,0x00,0x00,0x00,0x00,0x00,0x00,0x00,0x00,0x00,0x00,0x00,0x00,0x00,0x00,0x00,0x00,0x00,0x00,0x00,0x00,0x00,0x00,0x00,0x00,0x00,0x00,0x00,0x00,0x00,0x00,0x00,0x00,0x00,0x00,0x00,0x00,0x00,0x00,0x00,0x00,0x00,0x00,0x00,0x00,0x00,0x00,0x00,0x00,0x00,0x00,0x00,0x00,0x00,0x00,0x00,0x00,0x00,0x00,0x00,0x00,0x00,0x00,0x00,0x00,0x00,0x00,0x00,0x00,0x00,0x00,0x00,0x00,0x00,0x00,0x00,0x00,0x00,0x00,0x00,0x00,0x00,0x00,0x00,0x00,0x00,0x00,0x00,0x00,0x00,0x00,0x00,0x00,0x00,0x00,0x00,0x00,0x00,0x00,0x00,0x00,0x00,0x00,0x00,0x00,0x00,0x00,0x00,0x00,0x00,0x00,0x00,0x00,0x00,0x00,0x00,0x00,0x00,0x00,0x00,0x00,0x00,0x00,0x00,0x00,0x00,0x00,0x00,0x00,0x00,0x00,0x00,0x00,0x00,0x00,0x00,0x00,0x00,0x00,0x00,0x00,0x00,0x00,0x00,0x00,0x00,0x00,0x00,0x00,0x00,0x00,0x00,0x00,0x00,0x00,0x00,0x00,0x00,0x00,0x00,0x00,0x00,0x00,0x00,0x00,0x00,0x00,0x00,0x00,0x00,0x00,0x00,0x00,0x00,0x00,0x00,0x00,0x00,0x00,0x00,0x00,0x00,0x00,0x00,0x00,0x00,0x00,0x00,0x00,0x00,0x00,0x00,0x00,0x00,0x00,0x00,0x00,0x00,0x00,0x00,0x00,0x00,0x00,0x00,0x00,0x00,0x00,0x00,0x00,0x00,0x00,0x00,0x00,0x00,0x00,0x00,0x00,0x00,0x00,0x00,0x00,0x00,0x00,0x00,0x00,0x00,0x00,0x00,0x00,0x00,0x00,0x00,0x00,0x00,0x00,0x00,0x00,0x00,0x00,0x00,0x00,0x00,0x00,0x00,0x00,0x00,0x00,0x00,0x00,0x00,0x00,0x00,0x00,0x00,0x00,0x00,0x00,0x00,0x00,0x00,0x00,0x00,0x00,0x00,0x00,0x00,0x00,0x00,0x00,0x00,0x00,0x00,0x00,0x00,0x00,0x00,0x00,0x00,0x00,0x00,0x00,0x00,0x00,0x00,0x00,0x00,0x00,0x00,0x00,0x00,0x00,0x00,0x00,0x00,0x00,0x00,0x00,0x00,0x00,0x00,0x00,0x00,0x00,0x00,0x00,0x00,0x00,0x00,0x00,0x00,0x00,0x00,0x00,0x00,0x00,0x00,0x00,0x00,0x00,0x00,0x00,0x00,0x00,0x00,0x00,0x00,0x00,0x00,0x00,0x00,0x00,0x00,0x00,0x00,0x00,0x00,0x00,0x00,0x00,0x00,0x00,0x00,0x00,0x00,0x00,0x00,0x00,0x00,0x00,0x00,0x00,0x00,0x00,0x00,0x00,0x00,0x00,0x00,0x00,0x00,0x00,0x00,0x00,0x00,0x00,0x00,0x00,0x00,0x00,0x00,0x00,0x00,0x00,0x00,0x00,0x00,0x00,0x00,0x00,0x00,0x00,0x00,0x00,0x00,0x00,0x00,0x00,0x00,0x00,0x00,0x00,0x00,0x00,0x00,0x00,0x00,0x00,0x00,0x00,0x00,0x00,0x00,0x00,0x00,0x00,0x00,0x00,0x00,0x00,0x00,0x00,0x00,0x00,0x00,0x00,0x00,0x00,0x00,0x00,0x00,0x00,0x00,0x00,0x00,0x00,0x00,0x00,0x00,0x00,0x00,0x00,0x00,0x00,0x00,0x00,0x00,0x00,0x00,0x00,0x00,0x00,0x00,0x00,0x00,0x00,0x00,0x00,0x00,0x00,0x00,0x00,0x00,0x00,0x00,0x00,0x00,0x00,0x00,0x00,0x00,0x00,0x00,0x00,0x00,0x00,0x00,0x00,0x00,0x00,0x00,0x00,0x00,0x00,0x00,0x00,0x00,0x00,0x00,0x00,0x00,0x00,0x00,0x00,0x00,0x00,0x00,0x00,0x00,0x00,0x00,0x00,0x00,0x00,0x00,0x00,0x00,0x00,0x00,0x00,0x00,0x00,0x00,0x00,0x00,0x00,0x00,0x00,0x40,0x00,0x00,0x00,0xf9,0xdf,0x0d,0x3c,0x64,0x55,0x20,0x3c,0xf3,0xf8,0x18,0x3c,0x81,0xe5,0xce,0x3b,0xfb,0x5f,0xaf,0x3b,0x5a,0x38,0x8a,0x3b,0x1e,0x23,0xb1,0x3b,0x30,0xa6,0x0c,0x3c,0x64,0x5f,0xd7,0x3b,0x51,0x44,0xdd,0x3b,0xec,0x43,0x49,0x3c,0x38,0x0b,0x04,0x3c,0xf6,0x0d,0xbf,0x3b,0xef,0x61,0x34,0x3c,0x63,0xa4,0xa6,0x3b,0x77,0x37,0xbf,0x3b,0xef,0xed,0xe6,0x3b,0x9d,0x15,0xa8,0x3b,0x38,0xbe,0xdd,0x3b,0x95,0xc7,0x2e,0x3c,0x84,0x72,0x8e,0x3b,0xb1,0xb6,0x57,0x3c,0x0c,0xe4,0x0b,0x3c,0x9a,0x30,0x9c,0x3b,0xe7,0xc8,0xcc,0x3b,0xee,0x6d,0x8a,0x3c,0x4b,0x16,0xf3,0x3b,0x1e,0x0c,0x2d,0x3c,0x1c,0x33,0x45,0x3c,0x77,0x5b,0x0c,0x3c,0x11,0x74,0xbf,0x3b,0xba,0x68,0xcd,0x3b,0x75,0xa2,0xf4,0x3b,0xef,0x7b,0x10,0x3c,0xaa,0x5f,0xac,0x3b,0xd4,0x41,0x30,0x3b,0x63,0x32,0xb6,0x3b,0x56,0xdb,0xbc,0x3b,0x3c,0xa2,0xc2,0x3b,0xb4,0x1c,0xd5,0x3b,0xda,0xd5,0x0d,0x3c,0x31,0x54,0x97,0x3b,0x15,0x0d,0x01,0x3c,0x24,0x5d,0xe9,0x3b,0x81,0xc4,0xae,0x3b,0xec,0xcb,0xc6,0x3b,0xc1,0x3d,0xa1,0x3b,0xd6,0x0f,0xa0,0x3b,0xdb,0xce,0xc2,0x3c,0xeb,0xf3,0x76,0x3b,0xe8,0xe9,0xc9,0x3b,0x69,0x5d,0x08,0x3c,0x18,0x43,0x02,0x3c,0x3a,0x27,0xb5,0x3b,0x82,0x18,0xc4,0x3b,0xdf,0x15,0x9a,0x3b,0x71,0xb1,0xaf,0x3b,0x9f,0x83,0x6d,0x3c,0x6f,0x42,0xba,0x3b,0x01,0xfa,0x1b,0x3c,0x3d,0x57,0xa9,0x3b,0x65,0x02,0x34,0x3c,0x10,0xa0,0xc3,0x3b,0x6c,0x5d,0x5d,0x3c,0x12,0x00,0x00,0x00,0x74,0x66,0x6c,0x2e,0x70,0x73,0x65,0x75,0x64,0x6f,0x5f,0x71,0x63,0x6f,0x6e,0x73,0x74,0x35,0x00,0x00,0x04,0x00,0x00,0x00,0x01,0x00,0x00,0x00,0x03,0x00,0x00,0x00,0x03,0x00,0x00,0x00,0x40,0x00,0x00,0x00,0x22,0xf4,0xff,0xff,0x00,0x00,0x00,0x01,0x14,0x00,0x00,0x00,0x24,0x03,0x00,0x00,0x07,0x00,0x00,0x00,0x00,0x00,0x00,0x02,0x30,0x03,0x00,0x00,0x9c,0xf3,0xff,0xff,0x08,0x00,0x00,0x00,0x08,0x02,0x00,0x00,0x40,0x00,0x00,0x00,0x00,0x00,0x00,0x00,0x00,0x00,0x00,0x00,0x00,0x00,0x00,0x00,0x00,0x00,0x00,0x00,0x00,0x00,0x00,0x00,0x00,0x00,0x00,0x00,0x00,0x00,0x00,0x00,0x00,0x00,0x00,0x00,0x00,0x00,0x00,0x00,0x00,0x00,0x00,0x00,0x00,0x00,0x00,0x00,0x00,0x00,0x00,0x00,0x00,0x00,0x00,0x00,0x00,0x00,0x00,0x00,0x00,0x00,0x00,0x00,0x00,0x00,0x00,0x00,0x00,0x00,0x00,0x00,0x00,0x00,0x00,0x00,0x00,0x00,0x00,0x00,0x00,0x00,0x00,0x00,0x00,0x00,0x00,0x00,0x00,0x00,0x00,0x00,0x00,0x00,0x00,0x00,0x00,0x00,0x00,0x00,0x00,0x00,0x00,0x00,0x00,0x00,0x00,0x00,0x00,0x00,0x00,0x00,0x00,0x00,0x00,0x00,0x00,0x00,0x00,0x00,0x00,0x00,0x00,0x00,0x00,0x00,0x00,0x00,0x00,0x00,0x00,0x00,0x00,0x00,0x00,0x00,0x00,0x00,0x00,0x00,0x00,0x00,0x00,0x00,0x00,0x00,0x00,0x00,0x00,0x00,0x00,0x00,0x00,0x00,0x00,0x00,0x00,0x00,0x00,0x00,0x00,0x00,0x00,0x00,0x00,0x00,0x00,0x00,0x00,0x00,0x00,0x00,0x00,0x00,0x00,0x00,0x00,0x00,0x00,0x00,0x00,0x00,0x00,0x00,0x00,0x00,0x00,0x00,0x00,0x00,0x00,0x00,0x00,0x00,0x00,0x00,0x00,0x00,0x00,0x00,0x00,0x00,0x00,0x00,0x00,0x00,0x00,0x00,0x00,0x00,0x00,0x00,0x00,0x00,0x00,0x00,0x00,0x00,0x00,0x00,0x00,0x00,0x00,0x00,0x00,0x00,0x00,0x00,0x00,0x00,0x00,0x00,0x00,0x00,0x00,0x00,0x00,0x00,0x00,0x00,0x00,0x00,0x00,0x00,0x00,0x00,0x00,0x00,0x00,0x00,0x00,0x00,0x00,0x00,0x00,0x00,0x00,0x00,0x00,0x00,0x00,0x00,0x00,0x00,0x00,0x00,0x00,0x00,0x00,0x00,0x00,0x00,0x00,0x00,0x00,0x00,0x00,0x00,0x00,0x00,0x00,0x00,0x00,0x00,0x00,0x00,0x00,0x00,0x00,0x00,0x00,0x00,0x00,0x00,0x00,0x00,0x00,0x00,0x00,0x00,0x00,0x00,0x00,0x00,0x00,0x00,0x00,0x00,0x00,0x00,0x00,0x00,0x00,0x00,0x00,0x00,0x00,0x00,0x00,0x00,0x00,0x00,0x00,0x00,0x00,0x00,0x00,0x00,0x00,0x00,0x00,0x00,0x00,0x00,0x00,0x00,0x00,0x00,0x00,0x00,0x00,0x00,0x00,0x00,0x00,0x00,0x00,0x00,0x00,0x00,0x00,0x00,0x00,0x00,0x00,0x00,0x00,0x00,0x00,0x00,0x00,0x00,0x00,0x00,0x00,0x00,0x00,0x00,0x00,0x00,0x00,0x00,0x00,0x00,0x00,0x00,0x00,0x00,0x00,0x00,0x00,0x00,0x00,0x00,0x00,0x00,0x00,0x00,0x00,0x00,0x00,0x00,0x00,0x00,0x00,0x00,0x00,0x00,0x00,0x00,0x00,0x00,0x00,0x00,0x00,0x00,0x00,0x00,0x00,0x00,0x00,0x00,0x00,0x00,0x00,0x00,0x00,0x00,0x00,0x00,0x00,0x00,0x00,0x00,0x00,0x00,0x00,0x00,0x00,0x00,0x00,0x00,0x00,0x00,0x00,0x00,0x00,0x00,0x00,0x00,0x00,0x00,0x00,0x00,0x00,0x00,0x00,0x00,0x00,0x00,0x00,0x00,0x00,0x00,0x00,0x00,0x00,0x00,0x00,0x00,0x00,0x00,0x00,0x00,0x00,0x00,0x00,0x00,0x00,0x00,0x00,0x00,0x00,0x00,0x00,0x00,0x00,0x00,0x00,0x00,0x00,0x00,0x00,0x00,0x00,0x00,0x00,0x00,0x00,0x00,0x00,0x00,0x00,0x00,0x00,0x00,0x00,0x00,0x00,0x00,0x00,0x00,0x00,0x00,0x00,0x00,0x00,0x00,0x00,0x00,0x00,0x00,0x00,0x00,0x00,0x00,0x40,0x00,0x00,0x00,0xd9,0xa8,0x1b,0x3c,0x64,0xe9,0x2f,0x3c,0xdb,0xd5,0x27,0x3c,0xab,0xff,0xe2,0x3b,0x1b,0x6a,0xc0,0x3b,0x52,0xa6,0x97,0x3b,0x13,0x59,0xc2,0x3b,0x93,0x50,0x1a,0x3c,0x62,0x4c,0xec,0x3b,0xeb,0xc3,0xf2,0x3b,0x06,0xd2,0x5c,0x3c,0x90,0xdf,0x10,0x3c,0x16,0x9e,0xd1,0x3b,0x9d,0xe8,0x45,0x3c,0x4d,0xd5,0xb6,0x3b,0xa0,0xcb,0xd1,0x3b,0xe0,0x5d,0xfd,0x3b,0x67,0x6a,0xb8,0x3b,0xaa,0x49,0xf3,0x3b,0xe6,0xc2,0x3f,0x3c,0xa1,0x49,0x9c,0x3b,0x2b,0xac,0x6c,0x3c,0x92,0x7b,0x19,0x3c,0x89,0x5d,0xab,0x3b,0x8b,0xae,0xe0,0x3b,0x1b,0xe1,0x97,0x3c,0x51,0x5a,0x05,0x3c,0x59,0xdc,0x3d,0x3c,0x15,0x5c,0x58,0x3c,0x97,0xfe,0x19,0x3c,0x1d,0x0e,0xd2,0x3b,0xe5,0x5d,0xe1,0x3b,0xa5,0x33,0x06,0x3c,0xb5,0x85,0x1e,0x3c,0x23,0x1f,0xbd,0x3b,0xe5,0x61,0x41,0x3b,0x32,0xe6,0xc7,0x3b,0xcc,0x34,0xcf,0x3b,0x63,0x8b,0xd5,0x3b,0x78,0xd1,0xe9,0x3b,0xbe,0x9d,0x1b,0x3c,0x37,0x08,0xa6,0x3b,0xfd,0x96,0x0d,0x3c,0xd1,0x04,0x00,0x3c,0x86,0xbf,0xbf,0x3b,0x9e,0x1c,0xda,0x3b,0x54,0xe8,0xb0,0x3b,0x14,0x9d,0xaf,0x3b,0x58,0xbc,0xd5,0x3c,0x34,0x79,0x87,0x3b,0x22,0x88,0xdd,0x3b,0x3c,0x9d,0x15,0x3c,0x1f,0xeb,0x0e,0x3c,0x13,0xc1,0xc6,0x3b,0x06,0x26,0xd7,0x3b,0x76,0x0e,0xa9,0x3b,0x7b,0xc3,0xc0,0x3b,0xac,0x4b,0x82,0x3c,0x4b,0x5b,0xcc,0x3b,0xa2,0x21,0x2b,0x3c,0x46,0xcb,0xb9,0x3b,0xcb,0x7f,0x45,0x3c,0xe0,0xa1,0xd6,0x3b,0x76,0xdf,0x72,0x3c,0x12,0x00,0x00,0x00,0x74,0x66,0x6c,0x2e,0x70,0x73,0x65,0x75,0x64,0x6f,0x5f,0x71,0x63,0x6f,0x6e,0x73,0x74,0x34,0x00,0x00,0x01,0x00,0x00,0x00,0x40,0x00,0x00,0x00,0x72,0xf7,0xff,0xff,0x00,0x00,0x00,0x01,0x14,0x00,0x00,0x00,0x28,0x03,0x00,0x00,0x06,0x00,0x00,0x00,0x00,0x00,0x00,0x09,0x34,0x03,0x00,0x00,0xec,0xf6,0xff,0xff,0x08,0x00,0x00,0x00,0x0c,0x02,0x00,0x00,0x40,0x00,0x00,0x00,0x00,0x00,0x00,0x00,0x00,0x00,0x00,0x00,0x00,0x00,0x00,0x00,0x00,0x00,0x00,0x00,0x00,0x00,0x00,0x00,0x00,0x00,0x00,0x00,0x00,0x00,0x00,0x00,0x00,0x00,0x00,0x00,0x00,0x00,0x00,0x00,0x00,0x00,0x00,0x00,0x00,0x00,0x00,0x00,0x00,0x00,0x00,0x00,0x00,0x00,0x00,0x00,0x00,0x00,0x00,0x00,0x00,0x00,0x00,0x00,0x00,0x00,0x00,0x00,0x00,0x00,0x00,0x00,0x00,0x00,0x00,0x00,0x00,0x00,0x00,0x00,0x00,0x00,0x00,0x00,0x00,0x00,0x00,0x00,0x00,0x00,0x00,0x00,0x00,0x00,0x00,0x00,0x00,0x00,0x00,0x00,0x00,0x00,0x00,0x00,0x00,0x00,0x00,0x00,0x00,0x00,0x00,0x00,0x00,0x00,0x00,0x00,0x00,0x00,0x00,0x00,0x00,0x00,0x00,0x00,0x00,0x00,0x00,0x00,0x00,0x00,0x00,0x00,0x00,0x00,0x00,0x00,0x00,0x00,0x00,0x00,0x00,0x00,0x00,0x00,0x00,0x00,0x00,0x00,0x00,0x00,0x00,0x00,0x00,0x00,0x00,0x00,0x00,0x00,0x00,0x00,0x00,0x00,0x00,0x00,0x00,0x00,0x00,0x00,0x00,0x00,0x00,0x00,0x00,0x00,0x00,0x00,0x00,0x00,0x00,0x00,0x00,0x00,0x00,0x00,0x00,0x00,0x00,0x00,0x00,0x00,0x00,0x00,0x00,0x00,0x00,0x00,0x00,0x00,0x00,0x00,0x00,0x00,0x00,0x00,0x00,0x00,0x00,0x00,0x00,0x00,0x00,0x00,0x00,0x00,0x00,0x00,0x00,0x00,0x00,0x00,0x00,0x00,0x00,0x00,0x00,0x00,0x00,0x00,0x00,0x00,0x00,0x00,0x00,0x00,0x00,0x00,0x00,0x00,0x00,0x00,0x00,0x00,0x00,0x00,0x00,0x00,0x00,0x00,0x00,0x00,0x00,0x00,0x00,0x00,0x00,0x00,0x00,0x00,0x00,0x00,0x00,0x00,0x00,0x00,0x00,0x00,0x00,0x00,0x00,0x00,0x00,0x00,0x00,0x00,0x00,0x00,0x00,0x00,0x00,0x00,0x00,0x00,0x00,0x00,0x00,0x00,0x00,0x00,0x00,0x00,0x00,0x00,0x00,0x00,0x00,0x00,0x00,0x00,0x00,0x00,0x00,0x00,0x00,0x00,0x00,0x00,0x00,0x00,0x00,0x00,0x00,0x00,0x00,0x00,0x00,0x00,0x00,0x00,0x00,0x00,0x00,0x00,0x00,0x00,0x00,0x00,0x00,0x00,0x00,0x00,0x00,0x00,0x00,0x00,0x00,0x00,0x00,0x00,0x00,0x00,0x00,0x00,0x00,0x00,0x00,0x00,0x00,0x00,0x00,0x00,0x00,0x00,0x00,0x00,0x00,0x00,0x00,0x00,0x00,0x00,0x00,0x00,0x00,0x00,0x00,0x00,0x00,0x00,0x00,0x00,0x00,0x00,0x00,0x00,0x00,0x00,0x00,0x00,0x00,0x00,0x00,0x00,0x00,0x00,0x00,0x00,0x00,0x00,0x00,0x00,0x00,0x00,0x00,0x00,0x00,0x00,0x00,0x00,0x00,0x00,0x00,0x00,0x00,0x00,0x00,0x00,0x00,0x00,0x00,0x00,0x00,0x00,0x00,0x00,0x00,0x00,0x00,0x00,0x00,0x00,0x00,0x00,0x00,0x00,0x00,0x00,0x00,0x00,0x00,0x00,0x00,0x00,0x00,0x00,0x00,0x00,0x00,0x00,0x00,0x00,0x00,0x00,0x00,0x00,0x00,0x00,0x00,0x00,0x00,0x00,0x00,0x00,0x00,0x00,0x00,0x00,0x00,0x00,0x00,0x00,0x00,0x00,0x00,0x00,0x00,0x00,0x00,0x00,0x00,0x00,0x00,0x00,0x00,0x00,0x00,0x00,0x00,0x00,0x00,0x00,0x00,0x00,0x00,0x00,0x00,0x00,0x00,0x00,0x00,0x00,0x00,0x00,0x00,0x00,0x00,0x00,0x00,0x00,0x00,0x00,0x00,0x00,0x00,0x00,0x00,0x00,0x00,0x00,0x00,0x00,0x00,0x00,0x00,0x00,0x00,0x00,0x00,0x00,0x00,0x00,0x40,0x00,0x00,0x00,0x67,0xfd,0x40,0x3c,0xab,0x5e,0x1d,0x3c,0x94,0x84,0x09,0x3c,0xe9,0x1b,0x36,0x3c,0x34,0xb5,0xda,0x3b,0x85,0xef,0x16,0x3c,0x46,0xef,0x0a,0x3c,0xb3,0xea,0x5d,0x3c,0xf7,0xe8,0x1c,0x3c,0xa3,0xb0,0x35,0x3c,0x34,0xd0,0x80,0x3c,0x31,0x0a,0x53,0x3c,0xff,0xba,0x13,0x3c,0x36,0x86,0x6a,0x3c,0x36,0x70,0x47,0x3c,0xd0,0xf6,0x40,0x3c,0x8e,0x92,0x37,0x3c,0x6e,0x58,0x82,0x3c,0x11,0xe5,0x18,0x3c,0x18,0xb4,0x9a,0x3c,0x08,0x84,0xb9,0x3c,0xed,0xb0,0x4d,0x3d,0xda,0x7b,0x79,0x3c,0x1a,0x8f,0x30,0x3c,0x32,0xe9,0xfd,0x3b,0xd0,0x1d,0x78,0x3c,0xdc,0x59,0x42,0x3c,0x23,0xfd,0x31,0x3c,0xbf,0xcf,0x40,0x3c,0xd8,0x86,0x32,0x3c,0x8a,0xe5,0x54,0x3c,0x9a,0xc9,0x8d,0x3c,0x6a,0x33,0x4d,0x3c,0xa5,0x45,0x6e,0x3c,0xbd,0xda,0x54,0x3c,0x17,0x1b,0x41,0x3c,0x0e,0x8f,0x80,0x3c,0x69,0xfe,0x20,0x3c,0x96,0x1f,0x1e,0x3c,0xc8,0xff,0x52,0x3c,0x60,0xb2,0x32,0x3c,0x96,0x47,0x87,0x3c,0xa6,0xaf,0x22,0x3c,0x3f,0x60,0x0f,0x3c,0x87,0x58,0x10,0x3c,0x65,0xe7,0x0c,0x3c,0xaa,0x6c,0x85,0x3c,0xe7,0x19,0x45,0x3c,0xfd,0xb2,0x2b,0x3c,0xd4,0x8b,0x52,0x3c,0xc8,0xa5,0x5b,0x3c,0x67,0x7c,0x30,0x3c,0x03,0x89,0x8d,0x3c,0x51,0xa6,0x42,0x3c,0x8c,0xd7,0x78,0x3c,0x11,0x70,0x43,0x3c,0xbb,0x99,0x7f,0x3c,0x8a,0x26,0x52,0x3c,0xd0,0x0a,0x20,0x3c,0xe9,0xbb,0x82,0x3c,0x9d,0x82,0xf3,0x3b,0xf2,0x64,0x69,0x3c,0xaf,0xc9,0x2f,0x3c,0x91,0x81,0x0d,0x3c,0x12,0x00,0x00,0x00,0x74,0x66,0x6c,0x2e,0x70,0x73,0x65,0x75,0x64,0x6f,0x5f,0x71,0x63,0x6f,0x6e,0x73,0x74,0x33,0x00,0x00,0x04,0x00,0x00,0x00,0x40,0x00,0x00,0x00,0x01,0x00,0x00,0x00,0x01,0x00,0x00,0x00,0x40,0x00,0x00,0x00,0xd2,0xfa,0xff,0xff,0x00,0x00,0x00,0x01,0x14,0x00,0x00,0x00,0x24,0x03,0x00,0x00,0x05,0x00,0x00,0x00,0x00,0x00,0x00,0x02,0x30,0x03,0x00,0x00,0x4c,0xfa,0xff,0xff,0x08,0x00,0x00,0x00,0x08,0x02,0x00,0x00,0x40,0x00,0x00,0x00,0x00,0x00,0x00,0x00,0x00,0x00,0x00,0x00,0x00,0x00,0x00,0x00,0x00,0x00,0x00,0x00,0x00,0x00,0x00,0x00,0x00,0x00,0x00,0x00,0x00,0x00,0x00,0x00,0x00,0x00,0x00,0x00,0x00,0x00,0x00,0x00,0x00,0x00,0x00,0x00,0x00,0x00,0x00,0x00,0x00,0x00,0x00,0x00,0x00,0x00,0x00,0x00,0x00,0x00,0x00,0x00,0x00,0x00,0x00,0x00,0x00,0x00,0x00,0x00,0x00,0x00,0x00,0x00,0x00,0x00,0x00,0x00,0x00,0x00,0x00,0x00,0x00,0x00,0x00,0x00,0x00,0x00,0x00,0x00,0x00,0x00,0x00,0x00,0x00,0x00,0x00,0x00,0x00,0x00,0x00,0x00,0x00,0x00,0x00,0x00,0x00,0x00,0x00,0x00,0x00,0x00,0x00,0x00,0x00,0x00,0x00,0x00,0x00,0x00,0x00,0x00,0x00,0x00,0x00,0x00,0x00,0x00,0x00,0x00,0x00,0x00,0x00,0x00,0x00,0x00,0x00,0x00,0x00,0x00,0x00,0x00,0x00,0x00,0x00,0x00,0x00,0x00,0x00,0x00,0x00,0x00,0x00,0x00,0x00,0x00,0x00,0x00,0x00,0x00,0x00,0x00,0x00,0x00,0x00,0x00,0x00,0x00,0x00,0x00,0x00,0x00,0x00,0x00,0x00,0x00,0x00,0x00,0x00,0x00,0x00,0x00,0x00,0x00,0x00,0x00,0x00,0x00,0x00,0x00,0x00,0x00,0x00,0x00,0x00,0x00,0x00,0x00,0x00,0x00,0x00,0x00,0x00,0x00,0x00,0x00,0x00,0x00,0x00,0x00,0x00,0x00,0x00,0x00,0x00,0x00,0x00,0x00,0x00,0x00,0x00,0x00,0x00,0x00,0x00,0x00,0x00,0x00,0x00,0x00,0x00,0x00,0x00,0x00,0x00,0x00,0x00,0x00,0x00,0x00,0x00,0x00,0x00,0x00,0x00,0x00,0x00,0x00,0x00,0x00,0x00,0x00,0x00,0x00,0x00,0x00,0x00,0x00,0x00,0x00,0x00,0x00,0x00,0x00,0x00,0x00,0x00,0x00,0x00,0x00,0x00,0x00,0x00,0x00,0x00,0x00,0x00,0x00,0x00,0x00,0x00,0x00,0x00,0x00,0x00,0x00,0x00,0x00,0x00,0x00,0x00,0x00,0x00,0x00,0x00,0x00,0x00,0x00,0x00,0x00,0x00,0x00,0x00,0x00,0x00,0x00,0x00,0x00,0x00,0x00,0x00,0x00,0x00,0x00,0x00,0x00,0x00,0x00,0x00,0x00,0x00,0x00,0x00,0x00,0x00,0x00,0x00,0x00,0x00,0x00,0x00,0x00,0x00,0x00,0x00,0x00,0x00,0x00,0x00,0x00,0x00,0x00,0x00,0x00,0x00,0x00,0x00,0x00,0x00,0x00,0x00,0x00,0x00,0x00,0x00,0x00,0x00,0x00,0x00,0x00,0x00,0x00,0x00,0x00,0x00,0x00,0x00,0x00,0x00,0x00,0x00,0x00,0x00,0x00,0x00,0x00,0x00,0x00,0x00,0x00,0x00,0x00,0x00,0x00,0x00,0x00,0x00,0x00,0x00,0x00,0x00,0x00,0x00,0x00,0x00,0x00,0x00,0x00,0x00,0x00,0x00,0x00,0x00,0x00,0x00,0x00,0x00,0x00,0x00,0x00,0x00,0x00,0x00,0x00,0x00,0x00,0x00,0x00,0x00,0x00,0x00,0x00,0x00,0x00,0x00,0x00,0x00,0x00,0x00,0x00,0x00,0x00,0x00,0x00,0x00,0x00,0x00,0x00,0x00,0x00,0x00,0x00,0x00,0x00,0x00,0x00,0x00,0x00,0x00,0x00,0x00,0x00,0x00,0x00,0x00,0x00,0x00,0x00,0x00,0x00,0x00,0x00,0x00,0x00,0x00,0x00,0x00,0x00,0x00,0x00,0x00,0x00,0x00,0x00,0x00,0x00,0x00,0x00,0x00,0x00,0x00,0x00,0x00,0x00,0x00,0x00,0x00,0x00,0x00,0x00,0x00,0x00,0x00,0x00,0x00,0x00,0x00,0x00,0x00,0x00,0x00,0x00,0x00,0x00,0x00,0x00,0x00,0x00,0x00,0x00,0x00,0x00,0x00,0x00,0x00,0x00,0x00,0x00,0x40,0x00,0x00,0x00,0xa7,0x2f,0x2a,0x3c,0x63,0xc6,0x0a,0x3c,0x99,0x89,0xf2,0x3b,0x4b,0x97,0x20,0x3c,0x82,0xdd,0xc0,0x3b,0xde,0x19,0x05,0x3c,0x47,0x09,0xf5,0x3b,0xf0,0xb1,0x43,0x3c,0x98,0x5e,0x0a,0x3c,0xb2,0x38,0x20,0x3c,0x75,0x2f,0x63,0x3c,0x72,0x1a,0x3a,0x3c,0x4c,0x46,0x02,0x3c,0x16,0xd0,0x4e,0x3c,0x66,0xdf,0x2f,0x3c,0xd7,0x29,0x2a,0x3c,0xab,0xe1,0x21,0x3c,0x38,0xe3,0x65,0x3c,0x27,0xd4,0x06,0x3c,0x77,0x6c,0x88,0x3c,0x5d,0x98,0xa3,0x3c,0xf9,0x62,0x35,0x3d,0x37,0x01,0x5c,0x3c,0x5e,0xb2,0x1b,0x3c,0xa4,0xe8,0xdf,0x3b,0x89,0xcc,0x5a,0x3c,0xef,0x62,0x2b,0x3c,0x27,0xf5,0x1c,0x3c,0x64,0x07,0x2a,0x3c,0x96,0x6e,0x1d,0x3c,0xa0,0xbd,0x3b,0x3c,0x57,0x11,0x7a,0x3c,0x4b,0xf4,0x34,0x3c,0x27,0x1e,0x52,0x3c,0x1a,0xb4,0x3b,0x3c,0xd5,0x49,0x2a,0x3c,0x8e,0xbc,0x62,0x3c,0x82,0xf8,0x0d,0x3c,0x83,0x70,0x0b,0x3c,0x44,0x11,0x3a,0x3c,0xfa,0x94,0x1d,0x3c,0x06,0x97,0x6e,0x3c,0x8e,0x76,0x0f,0x3c,0x88,0xde,0xfc,0x3b,0x6b,0x94,0xfe,0x3b,0x62,0x82,0xf8,0x3b,0x6a,0x51,0x6b,0x3c,0xc9,0xcf,0x2d,0x3c,0x42,0x69,0x17,0x3c,0x04,0xab,0x39,0x3c,0xa9,0xb1,0x41,0x3c,0xe1,0xa1,0x1b,0x3c,0x6d,0x9f,0x79,0x3c,0x5b,0xa6,0x2b,0x3c,0x53,0x70,0x5b,0x3c,0x45,0x58,0x2c,0x3c,0x12,0x66,0x61,0x3c,0xb2,0x51,0x39,0x3c,0xb2,0x21,0x0d,0x3c,0xac,0x92,0x66,0x3c,0xac,0xbc,0xd6,0x3b,0x00,0xd1,0x4d,0x3c,0x47,0x04,0x1b,0x3c,0x4b,0x92,0xf9,0x3b,0x12,0x00,0x00,0x00,0x74,0x66,0x6c,0x2e,0x70,0x73,0x65,0x75,0x64,0x6f,0x5f,0x71,0x63,0x6f,0x6e,0x73,0x74,0x32,0x00,0x00,0x01,0x00,0x00,0x00,0x40,0x00,0x00,0x00,0x22,0xfe,0xff,0xff,0x00,0x00,0x00,0x01,0x14,0x00,0x00,0x00,0xc0,0x00,0x00,0x00,0x04,0x00,0x00,0x00,0x00,0x00,0x00,0x09,0xcc,0x00,0x00,0x00,0x9c,0xfd,0xff,0xff,0x08,0x00,0x00,0x00,0x70,0x00,0x00,0x00,0x0d,0x00,0x00,0x00,0x00,0x00,0x00,0x00,0x00,0x00,0x00,0x00,0x00,0x00,0x00,0x00,0x00,0x00,0x00,0x00,0x00,0x00,0x00,0x00,0x00,0x00,0x00,0x00,0x00,0x00,0x00,0x00,0x00,0x00,0x00,0x00,0x00,0x00,0x00,0x00,0x00,0x00,0x00,0x00,0x00,0x00,0x00,0x00,0x00,0x00,0x00,0x00,0x00,0x00,0x00,0x00,0x00,0x00,0x00,0x00,0x00,0x00,0x00,0x00,0x00,0x00,0x00,0x00,0x00,0x00,0x00,0x00,0x00,0x00,0x00,0x00,0x00,0x00,0x00,0x00,0x00,0x00,0x00,0x00,0x00,0x00,0x00,0x00,0x00,0x00,0x00,0x00,0x00,0x00,0x00,0x00,0x00,0x00,0x00,0x00,0x00,0x00,0x00,0x00,0x00,0x00,0x00,0x00,0x0d,0x00,0x00,0x00,0x64,0x2e,0x3f,0x3c,0x57,0x1a,0x6d,0x3c,0xdc,0xbf,0x96,0x3c,0x86,0x68,0x35,0x3c,0xfb,0x50,0xe4,0x3b,0xc8,0x93,0xa2,0x3c,0x9a,0xf0,0x7e,0x3c,0xae,0xbf,0x20,0x3c,0x86,0xa3,0x5e,0x3c,0xe8,0xd0,0x39,0x3c,0x3b,0x39,0xa2,0x3c,0x22,0x63,0x52,0x3c,0xc9,0x00,0x41,0x3c,0x12,0x00,0x00,0x00,0x74,0x66,0x6c,0x2e,0x70,0x73,0x65,0x75,0x64,0x6f,0x5f,0x71,0x63,0x6f,0x6e,0x73,0x74,0x31,0x00,0x00,0x02,0x00,0x00,0x00,0x0d,0x00,0x00,0x00,0x40,0x00,0x00,0x00,0x12,0xff,0xff,0xff,0x00,0x00,0x00,0x01,0x14,0x00,0x00,0x00,0xc0,0x00,0x00,0x00,0x03,0x00,0x00,0x00,0x00,0x00,0x00,0x02,0xcc,0x00,0x00,0x00,0x8c,0xfe,0xff,0xff,0x08,0x00,0x00,0x00,0x70,0x00,0x00,0x00,0x0d,0x00,0x00,0x00,0x00,0x00,0x00,0x00,0x00,0x00,0x00,0x00,0x00,0x00,0x00,0x00,0x00,0x00,0x00,0x00,0x00,0x00,0x00,0x00,0x00,0x00,0x00,0x00,0x00,0x00,0x00,0x00,0x00,0x00,0x00,0x00,0x00,0x00,0x00,0x00,0x00,0x00,0x00,0x00,0x00,0x00,0x00,0x00,0x00,0x00,0x00,0x00,0x00,0x00,0x00,0x00,0x00,0x00,0x00,0x00,0x00,0x00,0x00,0x00,0x00,0x00,0x00,0x00,0x00,0x00,0x00,0x00,0x00,0x00,0x00,0x00,0x00,0x00,0x00,0x00,0x00,0x00,0x00,0x00,0x00,0x00,0x00,0x00,0x00,0x00,0x00,0x00,0x00,0x00,0x00,0x00,0x00,0x00,0x00,0x00,0x00,0x00,0x00,0x00,0x00,0x00,0x00,0x00,0x0d,0x00,0x00,0x00,0x9b,0x8c,0x1e,0x3a,0xfa,0xa1,0x44,0x3a,0x87,0x09,0x7a,0x3a,0xc5,0x71,0x16,0x3a,0x8d,0x58,0xbd,0x39,0xdd,0xd3,0x86,0x3a,0xd7,0x6c,0x53,0x3a,0xa9,0x4f,0x05,0x3a,0x2e,0xa3,0x38,0x3a,0x8e,0x19,0x1a,0x3a,0xc4,0x88,0x86,0x3a,0x20,0x7a,0x2e,0x3a,0x64,0x0f,0x20,0x3a,0x11,0x00,0x00,0x00,0x74,0x66,0x6c,0x2e,0x70,0x73,0x65,0x75,0x64,0x6f,0x5f,0x71,0x63,0x6f,0x6e,0x73,0x74,0x00,0x00,0x00,0x01,0x00,0x00,0x00,0x0d,0x00,0x00,0x00,0x00,0x00,0x16,0x00,0x1c,0x00,0x18,0x00,0x17,0x00,0x10,0x00,0x0c,0x00,0x08,0x00,0x00,0x00,0x00,0x00,0x00,0x00,0x07,0x00,0x16,0x00,0x00,0x00,0x00,0x00,0x00,0x01,0x18,0x00,0x00,0x00,0x18,0x00,0x00,0x00,0x02,0x00,0x00,0x00,0x00,0x00,0x00,0x02,0x20,0x00,0x00,0x00,0x04,0x00,0x04,0x00,0x04,0x00,0x00,0x00,0x0e,0x00,0x00,0x00,0x61,0x72,0x69,0x74,0x68,0x2e,0x63,0x6f,0x6e,0x73,0x74,0x61,0x6e,0x74,0x00,0x00,0x01,0x00,0x00,0x00,0x02,0x00,0x00,0x00,0x00,0x00,0x16,0x00,0x20,0x00,0x1c,0x00,0x1b,0x00,0x14,0x00,0x10,0x00,0x0c,0x00,0x00,0x00,0x00,0x00,0x08,0x00,0x07,0x00,0x16,0x00,0x00,0x00,0x00,0x00,0x00,0x01,0x18,0x00,0x00,0x00,0x34,0x00,0x00,0x00,0x54,0x00,0x00,0x00,0x01,0x00,0x00,0x00,0x00,0x00,0x00,0x09,0x6c,0x00,0x00,0x00,0x04,0x00,0x00,0x00,0xff,0xff,0xff,0xff,0x63,0x00,0x00,0x00,0x0c,0x00,0x00,0x00,0x01,0x00,0x00,0x00,0x0c,0x00,0x0c,0x00,0x00,0x00,0x00,0x00,0x08,0x00,0x04,0x00,0x0c,0x00,0x00,0x00,0x08,0x00,0x00,0x00,0x14,0x00,0x00,0x00,0x01,0x00,0x00,0x00,0x55,0x00,0x00,0x00,0x00,0x00,0x00,0x00,0x00,0x00,0x00,0x00,0x01,0x00,0x00,0x00,0xf3,0xaa,0x14,0x3f,0x1e,0x00,0x00,0x00,0x73,0x65,0x72,0x76,0x69,0x6e,0x67,0x5f,0x64,0x65,0x66,0x61,0x75,0x6c,0x74,0x5f,0x6b,0x65,0x72,0x61,0x73,0x5f,0x74,0x65,0x6e,0x73,0x6f,0x72,0x3a,0x30,0x00,0x00,0x04,0x00,0x00,0x00,0x01,0x00,0x00,0x00,0x63,0x00,0x00,0x00,0x0c,0x00,0x00,0x00,0x01,0x00,0x00,0x00,0x05,0x00,0x00,0x00,0x60,0x00,0x00,0x00,0x40,0x00,0x00,0x00,0x2c,0x00,0x00,0x00,0x18,0x00,0x00,0x00,0x04,0x00,0x00,0x00,0xc0,0xff,0xff,0xff,0x19,0x00,0x00,0x00,0x02,0x00,0x00,0x00,0x00,0x00,0x00,0x19,0xd0,0xff,0xff,0xff,0x09,0x00,0x00,0x00,0x04,0x00,0x00,0x00,0x00,0x00,0x00,0x09,0xe0,0xff,0xff,0xff,0x28,0x00,0x00,0x00,0x02,0x00,0x00,0x00,0x00,0x00,0x00,0x28,0xf0,0xff,0xff,0xff,0x04,0x00,0x00,0x00,0x03,0x00,0x00,0x00,0x00,0x00,0x00,0x04,0x0c,0x00,0x10,0x00,0x0f,0x00,0x00,0x00,0x08,0x00,0x04,0x00,0x0c,0x00,0x00,0x00,0x03,0x00,0x00,0x00,0x03,0x00,0x00,0x00,0x00,0x00,0x00,0x03
};
const unsigned int model_len = 15344;

#endif // MODEL_H