#ifndef MODEL_H
#define MODEL_H

const unsigned char model_data[] = {
0x20,0x00,0x00,0x00,0x54,0x46,0x4c,0x33,0x00,0x00,0x00,0x00,0x14,0x00,0x20,0x00,0x1c,0x00,0x18,0x00,0x14,0x00,0x10,0x00,0x0c,0x00,0x00,0x00,0x08,0x00,0x04,0x00,0x14,0x00,0x00,0x00,0x1c,0x00,0x00,0x00,0x98,0x00,0x00,0x00,0x18,0x01,0x00,0x00,0x94,0x1d,0x00,0x00,0xa4,0x1d,0x00,0x00,0x44,0x3b,0x00,0x00,0x03,0x00,0x00,0x00,0x01,0x00,0x00,0x00,0x10,0x00,0x00,0x00,0x00,0x00,0x0a,0x00,0x10,0x00,0x0c,0x00,0x08,0x00,0x04,0x00,0x0a,0x00,0x00,0x00,0x0c,0x00,0x00,0x00,0x1c,0x00,0x00,0x00,0x3c,0x00,0x00,0x00,0x0f,0x00,0x00,0x00,0x73,0x65,0x72,0x76,0x69,0x6e,0x67,0x5f,0x64,0x65,0x66,0x61,0x75,0x6c,0x74,0x00,0x01,0x00,0x00,0x00,0x04,0x00,0x00,0x00,0x68,0xff,0xff,0xff,0x0f,0x00,0x00,0x00,0x04,0x00,0x00,0x00,0x08,0x00,0x00,0x00,0x6f,0x75,0x74,0x70,0x75,0x74,0x5f,0x30,0x00,0x00,0x00,0x00,0x01,0x00,0x00,0x00,0x04,0x00,0x00,0x00,0x5a,0xe2,0xff,0xff,0x04,0x00,0x00,0x00,0x0c,0x00,0x00,0x00,0x6b,0x65,0x72,0x61,0x73,0x5f,0x74,0x65,0x6e,0x73,0x6f,0x72,0x00,0x00,0x00,0x00,0x03,0x00,0x00,0x00,0x5c,0x00,0x00,0x00,0x2c,0x00,0x00,0x00,0x04,0x00,0x00,0x00,0xb8,0xff,0xff,0xff,0x13,0x00,0x00,0x00,0x04,0x00,0x00,0x00,0x13,0x00,0x00,0x00,0x43,0x4f,0x4e,0x56,0x45,0x52,0x53,0x49,0x4f,0x4e,0x5f,0x4d,0x45,0x54,0x41,0x44,0x41,0x54,0x41,0x00,0xdc,0xff,0xff,0xff,0x12,0x00,0x00,0x00,0x04,0x00,0x00,0x00,0x13,0x00,0x00,0x00,0x6d,0x69,0x6e,0x5f,0x72,0x75,0x6e,0x74,0x69,0x6d,0x65,0x5f,0x76,0x65,0x72,0x73,0x69,0x6f,0x6e,0x00,0x08,0x00,0x0c,0x00,0x08,0x00,0x04,0x00,0x08,0x00,0x00,0x00,0x11,0x00,0x00,0x00,0x04,0x00,0x00,0x00,0x13,0x00,0x00,0x00,0x6d,0x69,0x6e,0x5f,0x72,0x75,0x6e,0x74,0x69,0x6d,0x65,0x5f,0x76,0x65,0x72,0x73,0x69,0x6f,0x6e,0x00,0x14,0x00,0x00,0x00,0x78,0x1c,0x00,0x00,0x70,0x1c,0x00,0x00,0x58,0x1c,0x00,0x00,0x14,0x1c,0x00,0x00,0xc4,0x18,0x00,0x00,0xb4,0x17,0x00,0x00,0xa4,0x07,0x00,0x00,0x94,0x06,0x00,0x00,0x44,0x04,0x00,0x00,0x34,0x03,0x00,0x00,0xe4,0x00,0x00,0x00,0xdc,0x00,0x00,0x00,0xd4,0x00,0x00,0x00,0xcc,0x00,0x00,0x00,0xc4,0x00,0x00,0x00,0xbc,0x00,0x00,0x00,0xb4,0x00,0x00,0x00,0x94,0x00,0x00,0x00,0x74,0x00,0x00,0x00,0x04,0x00,0x00,0x00,0x4e,0xe3,0xff,0xff,0x04,0x00,0x00,0x00,0x60,0x00,0x00,0x00,0x0c,0x00,0x00,0x00,0x08,0x00,0x0e,0x00,0x08,0x00,0x04,0x00,0x08,0x00,0x00,0x00,0x10,0x00,0x00,0x00,0x28,0x00,0x00,0x00,0x00,0x00,0x06,0x00,0x08,0x00,0x04,0x00,0x06,0x00,0x00,0x00,0x04,0x00,0x00,0x00,0x01,0x00,0x00,0x00,0xeb,0x03,0x00,0x00,0x0c,0x00,0x18,0x00,0x14,0x00,0x10,0x00,0x0c,0x00,0x04,0x00,0x0c,0x00,0x00,0x00,0x6f,0xd2,0x54,0x45,0xf3,0x1f,0x68,0x88,0x02,0x00,0x00,0x00,0x02,0x00,0x00,0x00,0x04,0x00,0x00,0x00,0x06,0x00,0x00,0x00,0x32,0x2e,0x31,0x38,0x2e,0x30,0x00,0x00,0xba,0xe3,0xff,0xff,0x04,0x00,0x00,0x00,0x10,0x00,0x00,0x00,0x00,0x00,0x00,0x00,0x00,0x00,0x00,0x00,0x00,0x00,0x00,0x00,0x00,0x00,0x00,0x00,0xd6,0xe3,0xff,0xff,0x04,0x00,0x00,0x00,0x10,0x00,0x00,0x00,0x31,0x2e,0x31,0x34,0x2e,0x30,0x00,0x00,0x00,0x00,0x00,0x00,0x00,0x00,0x00,0x00,0x98,0xc7,0xff,0xff,0x9c,0xc7,0xff,0xff,0xa0,0xc7,0xff,0xff,0xa4,0xc7,0xff,0xff,0xa8,0xc7,0xff,0xff,0xac,0xc7,0xff,0xff,0x0a,0xe4,0xff,0xff,0x04,0x00,0x00,0x00,0x40,0x02,0x00,0x00,0x3b,0x9b,0x8d,0x17,0xa3,0x81,0xde,0xb4,0x8a,0x50,0x7f,0xc5,0x1b,0x0f,0xa9,0xa4,0xd9,0xa4,0xfc,0x2b,0x31,0xe8,0xdb,0x4a,0xdf,0x81,0x3d,0xca,0xe6,0x81,0x0f,0x0b,0x23,0x40,0x54,0x42,0xb4,0xf5,0x81,0xb9,0xf9,0x93,0xa7,0xda,0xa8,0xf2,0xa9,0xf0,0x07,0xa0,0xd4,0x1f,0x81,0xb8,0xf8,0x91,0xc4,0xfa,0x81,0x8d,0x0a,0x8e,0x94,0x12,0x53,0x81,0x42,0x02,0x8a,0x75,0xcb,0xbc,0x49,0xbd,0x7f,0x18,0xda,0x42,0xf1,0xf2,0x03,0x95,0xdb,0x81,0xbf,0xed,0xaa,0xe0,0xf1,0xb3,0x11,0x31,0x81,0x0d,0x3a,0x9e,0x0a,0x10,0xb5,0x84,0xba,0xd7,0x0b,0xe9,0xff,0x7f,0x11,0x0f,0x6b,0xf9,0x7f,0x2a,0xe7,0x5d,0xfe,0xdd,0x3c,0x71,0xb3,0xec,0x4b,0x0a,0xe9,0x50,0x7f,0xcf,0x0c,0x44,0x1b,0x01,0xe5,0x06,0xe9,0x81,0x00,0x3d,0x7c,0x15,0x26,0xff,0xe4,0xf7,0x81,0xc1,0xd8,0x1e,0x98,0xc0,0x31,0xf2,0xce,0x7f,0x72,0x7f,0x20,0x13,0x65,0x22,0xf4,0x49,0x24,0xdf,0xd4,0x91,0xd2,0x1b,0xcc,0xe9,0x96,0xd9,0x81,0x81,0xbf,0x3c,0x84,0xec,0x4d,0xc0,0x1f,0x34,0x7f,0x43,0xeb,0x30,0xf9,0xe5,0xea,0xaa,0x0d,0x15,0x9f,0x7f,0x1a,0xb4,0x59,0x13,0xed,0xfc,0x0c,0xa3,0xf3,0x04,0x9c,0xb6,0x0a,0x81,0xa0,0x53,0x17,0x81,0xe6,0xfa,0xd4,0xb3,0xa3,0x01,0xc7,0xfc,0x1a,0xf9,0x25,0x48,0x0d,0x3d,0x7f,0x81,0x65,0x00,0x98,0x58,0xe8,0x9d,0x66,0xb6,0x77,0xfb,0x7f,0x46,0xb5,0x2d,0x22,0x91,0xde,0x12,0x4a,0xfb,0x08,0x32,0xc2,0xeb,0x21,0x81,0x7f,0xbd,0xe1,0x3a,0xc2,0x0f,0xf9,0xec,0x21,0xb2,0x27,0xf6,0xc0,0x48,0xd1,0x81,0x25,0xb3,0x7f,0x06,0x21,0x47,0xd9,0x24,0x3b,0xd3,0x0e,0xf9,0x9b,0xc8,0xee,0x81,0x86,0xf4,0x8c,0x83,0xa6,0x13,0x1e,0xf2,0x26,0x1d,0x7f,0x4f,0xf7,0x25,0x7f,0xfa,0xef,0x04,0x1f,0xdf,0x8d,0x07,0x53,0xa5,0x7f,0x76,0xfb,0x43,0x7a,0x96,0x24,0xa2,0x52,0xeb,0xa1,0x40,0xf5,0x81,0x5c,0xf4,0x0c,0x3a,0x3f,0x07,0x0d,0x52,0xfd,0xe1,0x7f,0x07,0xe9,0x92,0x00,0xad,0x19,0xe1,0xa3,0x7f,0x7e,0x7f,0x02,0xfd,0x39,0x14,0x86,0xd8,0x6d,0xc2,0x81,0x11,0xc6,0xf0,0x63,0xf1,0x6c,0x79,0x23,0x07,0x81,0xf4,0xaf,0xa1,0xc5,0x9d,0xf5,0x38,0x29,0x7f,0x3a,0xfb,0x7a,0x18,0xed,0x70,0xde,0xe1,0x42,0xe5,0xfb,0x64,0x00,0x01,0x7f,0x8e,0x7f,0x25,0x05,0x6c,0x00,0x78,0x4b,0x87,0x0a,0x7f,0x77,0x39,0x5f,0x73,0x7e,0x19,0x4c,0xd8,0x8d,0x81,0xeb,0xd4,0xd0,0xf0,0x13,0x00,0xe5,0x26,0x0f,0xc1,0x67,0x75,0xc3,0x40,0x7f,0x81,0xc3,0xa4,0xa0,0x16,0xf0,0xc8,0x68,0x42,0xf7,0xb2,0x20,0xf1,0xa4,0x32,0xf9,0x81,0x3e,0x48,0x63,0x7f,0xf5,0x0a,0x3d,0x17,0xec,0x24,0x7f,0x83,0x1d,0x2a,0xb7,0x17,0xdb,0xff,0xf3,0xe6,0x40,0x34,0x09,0x5a,0x4e,0x25,0x7d,0x7f,0x49,0x08,0x7f,0xe8,0xd8,0x66,0xb5,0xca,0x00,0x62,0x0f,0xdf,0x5f,0xbd,0xc7,0x4b,0x81,0xb2,0xc4,0x27,0x81,0x04,0x26,0xb8,0x35,0x36,0xe0,0xf4,0x9f,0x05,0xf7,0xa5,0xe0,0xe7,0x81,0xa8,0xfc,0xcf,0x81,0xfc,0xc4,0x9e,0xf8,0xa3,0xc1,0xe4,0x40,0x53,0x31,0xed,0x0e,0x74,0x81,0xd5,0x78,0x60,0xfd,0x14,0x5e,0x45,0xd7,0x1e,0x7f,0xed,0x7f,0x7c,0xb6,0x5f,0x0d,0x98,0x43,0x04,0x8d,0x7f,0xd1,0xce,0x60,0xd5,0x1e,0x41,0xe0,0x06,0x7f,0xe0,0x1b,0x32,0xc0,0x66,0xe9,0x87,0x17,0x48,0x81,0xf5,0xfe,0x9b,0xee,0xd4,0xb8,0x5e,0x7f,0x89,0xf6,0xf9,0xef,0xaf,0xa6,0x37,0x56,0xe6,0xff,0xff,0x04,0x00,0x00,0x00,0x00,0x01,0x00,0x00,0xff,0xff,0xff,0xff,0xf7,0xfe,0xff,0xff,0x46,0x00,0x00,0x00,0x99,0x02,0x00,0x00,0x38,0x00,0x00,0x00,0x74,0xfe,0xff,0xff,0x99,0x00,0x00,0x00,0x77,0x00,0x00,0x00,0x44,0xff,0xff,0xff,0xc1,0x00,0x00,0x00,0xe2,0x03,0x00,0x00,0x5a,0xff,0xff,0xff,0x06,0xff,0xff,0xff,0x39,0xfe,0xff,0xff,0xfe,0x00,0x00,0x00,0x33,0xff,0xff,0xff,0xaf,0xfe,0xff,0xff,0xf6,0xff,0xff,0xff,0xff,0xff,0xff,0xff,0xe0,0xff,0xff,0xff,0x29,0x00,0x00,0x00,0xb9,0xff,0xff,0xff,0x20,0x00,0x00,0x00,0x54,0xfd,0xff,0xff,0x0e,0x00,0x00,0x00,0x32,0x00,0x00,0x00,0x88,0xff,0xff,0xff,0x5e,0xfe,0xff,0xff,0xf5,0xfe,0xff,0xff,0x89,0xfe,0xff,0xff,0xdc,0xfe,0xff,0xff,0x9d,0xff,0xff,0xff,0xa1,0x00,0x00,0x00,0x7a,0x00,0x00,0x00,0x82,0xfb,0xff,0xff,0xe7,0xff,0xff,0xff,0x4a,0x00,0x00,0x00,0xe6,0xfd,0xff,0xff,0x51,0x00,0x00,0x00,0xb7,0xfe,0xff,0xff,0x2c,0x00,0x00,0x00,0x49,0x00,0x00,0x00,0xbc,0xff,0xff,0xff,0x9e,0xfe,0xff,0xff,0x71,0x00,0x00,0x00,0xf7,0xff,0xff,0xff,0x16,0xfe,0xff,0xff,0x1e,0xfe,0xff,0xff,0x6f,0xfe,0xff,0xff,0x6d,0x00,0x00,0x00,0xb6,0xfe,0xff,0xff,0xb0,0xff,0xff,0xff,0x20,0xff,0xff,0xff,0x0b,0x00,0x00,0x00,0x03,0x00,0x00,0x00,0x91,0xff,0xff,0xff,0xf5,0xff,0xff,0xff,0x58,0xff,0xff,0xff,0xfe,0xfd,0xff,0xff,0x2a,0xfe,0xff,0xff,0x0b,0x01,0x00,0x00,0x3d,0xff,0xff,0xff,0x71,0x00,0x00,0x00,0x9a,0x00,0x00,0x00,0x62,0xe7,0xff,0xff,0x04,0x00,0x00,0x00,0x40,0x02,0x00,0x00,0x78,0xb2,0xb3,0x2e,0xd4,0x2a,0x03,0x8c,0x7f,0x18,0x1b,0x7f,0x7f,0xce,0xef,0xad,0x16,0x7f,0x81,0x81,0x7f,0x95,0xb2,0x12,0xdf,0xe0,0x00,0xe0,0x7f,0x01,0x2d,0x3d,0x4c,0xf6,0x3a,0x45,0xe0,0xdf,0x7f,0xf5,0xc1,0x15,0x0f,0x77,0xa2,0xea,0x1a,0xed,0x91,0x7b,0x78,0x86,0x29,0x86,0x4d,0x40,0x0d,0x18,0x51,0x03,0xc8,0x81,0x74,0xc8,0xdc,0xbd,0x22,0x59,0x15,0x81,0xcf,0x2b,0x6a,0x7f,0x81,0x62,0x4f,0x76,0xe3,0xf2,0x59,0x06,0xd9,0x29,0x12,0x09,0x95,0x6c,0x49,0x7c,0x7f,0x5f,0x57,0xb7,0x7f,0x3c,0x1e,0x6b,0xa2,0x81,0x8e,0x6f,0x3f,0x1d,0xfd,0x23,0x55,0x56,0x4d,0x72,0x88,0x6c,0xf9,0x7f,0x7f,0xef,0x27,0xf5,0x65,0x81,0x0f,0x0f,0x7f,0x77,0x7f,0xe2,0xa4,0xd0,0xd8,0x7f,0x7f,0x31,0x7e,0x26,0x81,0xf0,0x9c,0x5c,0x09,0x0a,0xf3,0x4c,0x05,0x77,0x09,0xc9,0xf6,0x10,0x04,0x7f,0x9f,0x48,0xcb,0x52,0x4a,0x11,0x47,0x23,0xcd,0x3b,0xf9,0x4a,0x31,0xde,0xca,0x4f,0x19,0x62,0x69,0x7f,0xee,0xde,0x54,0x7f,0xc6,0x3c,0x7f,0x02,0x3f,0x3b,0x77,0x16,0x7f,0xf7,0x6d,0x07,0x6a,0xe6,0x32,0x12,0x7f,0x7f,0x7f,0xd2,0x12,0x43,0xe7,0x44,0x14,0x81,0x30,0xf4,0x27,0x71,0x3b,0xbc,0x48,0x12,0xff,0x7c,0x00,0xe9,0x4e,0x89,0xff,0x26,0xde,0x0d,0xd7,0x2f,0x3e,0x0e,0x13,0x1f,0x69,0xff,0xe7,0x01,0x24,0x22,0x70,0xf4,0xe3,0xf4,0xdf,0x7f,0x9c,0x03,0x16,0x00,0x02,0x39,0x4c,0xb5,0xb7,0x81,0xe6,0x3e,0xbd,0x4c,0x15,0x00,0xb0,0xe3,0x41,0xf1,0x16,0xf2,0xd7,0x50,0x19,0xb4,0xf8,0x38,0x46,0x0b,0xb3,0x60,0x20,0x7f,0x2c,0x31,0x64,0x14,0xdf,0x25,0xe5,0x17,0x08,0x7f,0x66,0x08,0x65,0x49,0x18,0x9c,0x64,0xf6,0x32,0x7f,0xd9,0x13,0x11,0x7f,0x1d,0x1f,0x24,0xf8,0x6f,0x65,0x5e,0x47,0x81,0x7f,0x08,0x3b,0x39,0x27,0x28,0x04,0x11,0xac,0xec,0x01,0x4f,0x7f,0x46,0x0b,0xad,0xf1,0x09,0x7e,0x54,0x2d,0x7f,0x3a,0xa3,0xcc,0x95,0x0c,0xfb,0x22,0xd8,0x62,0xdb,0x77,0x01,0xc0,0x9e,0x09,0xfb,0x69,0x01,0x2f,0xb7,0xf4,0xc2,0x4e,0x09,0x23,0xe2,0xeb,0xf6,0x4e,0xf8,0xf9,0xd8,0x1d,0x0e,0x68,0x7f,0x5d,0xe1,0x14,0x3a,0x3c,0x93,0x3b,0x4d,0xd9,0x23,0x75,0x68,0x1b,0x6a,0x06,0x61,0x02,0x52,0xc3,0xd1,0x25,0x5e,0x49,0x7a,0x24,0x60,0x69,0xdf,0x63,0x2e,0xd2,0xf4,0xcd,0x29,0x6c,0x36,0xa2,0x7f,0x7f,0xe2,0x69,0xb0,0x5f,0x02,0xac,0x64,0x54,0xe8,0x11,0xaa,0x7d,0x11,0x0e,0xe8,0x02,0x7f,0xfa,0x8b,0xbc,0x4d,0x62,0x65,0x14,0x01,0xe7,0xe1,0x7b,0x81,0x12,0x13,0xf8,0x75,0x1a,0x14,0xd8,0x81,0xb4,0xba,0x24,0x81,0x7f,0xc7,0xf9,0xbd,0x40,0x06,0x14,0x2f,0x25,0x87,0x7f,0xf6,0xcd,0x1b,0x39,0x02,0xb8,0xfb,0x72,0xf2,0x51,0x1e,0x62,0x7f,0xff,0x88,0x35,0xc0,0xee,0x76,0x5a,0x7d,0x81,0x33,0x37,0xe5,0x81,0x4c,0xa5,0x32,0x7b,0x81,0x79,0x7f,0x5e,0x09,0x44,0x23,0xe3,0x7f,0x4d,0x53,0x15,0xa3,0x7d,0x14,0xfc,0xfa,0x4d,0x16,0x14,0xf6,0xec,0xc9,0xf2,0x4a,0x65,0x25,0x35,0xac,0x0b,0xf9,0x6a,0xe3,0x4d,0x71,0x59,0xc5,0xb3,0xaf,0xb5,0xf0,0x29,0xe2,0x76,0xbd,0x63,0xed,0xda,0xbc,0xf3,0xf8,0x36,0x7f,0x07,0x81,0xc2,0x98,0x7f,0xf4,0x24,0xdb,0x81,0xe0,0x43,0xfe,0x2f,0xcd,0x12,0x07,0x7f,0x59,0x68,0xd8,0x1b,0x18,0x01,0x83,0x30,0x44,0xee,0x07,0x7f,0x4d,0x1b,0x61,0x11,0x40,0x04,0x5c,0xc2,0x9e,0x31,0x45,0x1b,0xae,0xe9,0xff,0xff,0x04,0x00,0x00,0x00,0x00,0x01,0x00,0x00,0x19,0x00,0x00,0x00,0xdf,0xff,0xff,0xff,0x0b,0x00,0x00,0x00,0x21,0x00,0x00,0x00,0x16,0x00,0x00,0x00,0xd1,0xff,0xff,0xff,0xf9,0xff,0xff,0xff,0x02,0x00,0x00,0x00,0x0d,0x00,0x00,0x00,0x16,0x00,0x00,0x00,0x06,0x00,0x00,0x00,0xf1,0xff,0xff,0xff,0xea,0xff,0xff,0xff,0xc9,0xff,0xff,0xff,0x17,0x00,0x00,0x00,0xdd,0xff,0xff,0xff,0xe3,0xff,0xff,0xff,0x07,0x00,0x00,0x00,0xfe,0xff,0xff,0xff,0x06,0x00,0x00,0x00,0x05,0x00,0x00,0x00,0xeb,0xff,0xff,0xff,0x13,0x00,0x00,0x00,0xcc,0xff,0xff,0xff,0x04,0x00,0x00,0x00,0xfe,0xff,0xff,0xff,0xf1,0xff,0xff,0xff,0xc1,0xff,0xff,0xff,0xe4,0xff,0xff,0xff,0x01,0x00,0x00,0x00,0xdc,0xff,0xff,0xff,0xe7,0xff,0xff,0xff,0x0a,0x00,0x00,0x00,0x0a,0x00,0x00,0x00,0x43,0x00,0x00,0x00,0xe8,0xff,0xff,0xff,0xff,0xff,0xff,0xff,0xae,0xff,0xff,0xff,0xff,0xff,0xff,0xff,0xe9,0xff,0xff,0xff,0xfe,0xff,0xff,0xff,0x09,0x00,0x00,0x00,0xf5,0xff,0xff,0xff,0xdf,0xff,0xff,0xff,0x19,0x00,0x00,0x00,0xfd,0xff,0xff,0xff,0x11,0x00,0x00,0x00,0xd6,0xff,0xff,0xff,0xd2,0xff,0xff,0xff,0xff,0xff,0xff,0xff,0xe2,0xff,0xff,0xff,0xf9,0xff,0xff,0xff,0xeb,0xff,0xff,0xff,0xfc,0xff,0xff,0xff,0xfc,0xff,0xff,0xff,0xeb,0xff,0xff,0xff,0x02,0x00,0x00,0x00,0xf2,0xff,0xff,0xff,0xdb,0xff,0xff,0xff,0xd8,0xff,0xff,0xff,0x1d,0x00,0x00,0x00,0xf2,0xff,0xff,0xff,0x0d,0x00,0x00,0x00,0x05,0x00,0x00,0x00,0xba,0xea,0xff,0xff,0x04,0x00,0x00,0x00,0x00,0x10,0x00,0x00,0xfc,0x03,0xd9,0xf5,0xfd,0xec,0xfd,0x16,0x02,0xf5,0xdc,0xfd,0x0d,0x0b,0xef,0x0f,0x01,0xf1,0x07,0xfe,0xf5,0x0b,0x81,0x02,0x16,0x29,0x02,0x06,0x07,0x15,0xec,0x0a,0x0d,0xeb,0xe5,0xd7,0x04,0x17,0xfe,0x18,0xe8,0xcd,0x0d,0x17,0xf2,0x03,0xd9,0x0a,0x06,0x07,0x0d,0x1d,0x05,0x0a,0x07,0xed,0xfc,0xff,0x0d,0x12,0xff,0x11,0xfd,0xf7,0xf5,0x09,0xcb,0xf0,0x1d,0xf8,0xbc,0xd5,0x03,0xd3,0xfe,0xcb,0x08,0x07,0xe2,0xf8,0xde,0x11,0xfb,0xf3,0x18,0xff,0x35,0xbf,0xdb,0x81,0xed,0x25,0xed,0xfc,0x0b,0xfc,0xd5,0x25,0x0c,0x26,0x33,0x01,0xf0,0xf3,0x07,0xca,0xf0,0x0c,0x16,0xf2,0xe0,0xee,0x00,0xdf,0xee,0x0e,0x0f,0xfa,0x0c,0xf0,0x0f,0x0d,0x48,0xf7,0x09,0x0e,0x0d,0x0c,0xc5,0x00,0xf5,0xf9,0xef,0xd9,0x10,0xe7,0x19,0x19,0xf5,0x03,0x08,0x0d,0x02,0xdd,0xfb,0x15,0x01,0x0e,0x0c,0x06,0x91,0xf4,0x08,0xd4,0x13,0xfb,0x1b,0x01,0x10,0xf5,0x05,0xfd,0x09,0x81,0x0f,0xff,0x1f,0x09,0xf2,0xf3,0x04,0xf4,0x07,0x0e,0x03,0xe2,0xf1,0xf9,0x0e,0xfd,0xf5,0xeb,0x1d,0xfa,0x26,0xe3,0x0c,0xf9,0x16,0x12,0x18,0x06,0xfe,0x21,0x0c,0xd3,0xc9,0x1f,0x15,0xf6,0x1c,0xe2,0x17,0x04,0xed,0xd3,0xf6,0x43,0xf2,0xdd,0xf4,0x04,0xcd,0x02,0x7f,0x0c,0xe5,0xde,0xf4,0x17,0x1c,0x15,0xb3,0x2c,0x94,0xf3,0xc1,0x39,0x09,0x09,0xa7,0x04,0xe8,0x0e,0xd5,0xbe,0xe5,0xb8,0x0e,0xe5,0x0a,0xbd,0x21,0xde,0x53,0xfe,0xe7,0x1a,0xb2,0x55,0xea,0x2a,0xdc,0xee,0xf6,0xf7,0x17,0x14,0x01,0xfe,0xdc,0xee,0x0a,0x13,0x05,0x07,0xe5,0xea,0xf1,0xfe,0x0f,0xe3,0xc0,0xff,0x04,0xde,0x07,0x0f,0x07,0x1c,0x81,0xcc,0xfe,0x0e,0xf8,0x19,0x14,0xfe,0xe0,0x08,0xfa,0xf2,0xe3,0xfa,0x16,0x08,0xf0,0x15,0x0a,0xd7,0x04,0x11,0x09,0xe1,0x06,0xf5,0xff,0xfb,0x05,0x07,0x06,0xfe,0x12,0xe6,0xe3,0xbe,0x26,0x16,0x07,0xf4,0xc2,0x08,0x10,0xe4,0xc2,0xf6,0x0a,0x29,0xcc,0xc9,0x81,0x1b,0xa0,0xcd,0x10,0xe6,0xc8,0x01,0xf9,0x1a,0x16,0xaf,0x37,0x1f,0xee,0x23,0xd5,0xb0,0xd8,0x17,0xd0,0x10,0xe1,0x0a,0xfe,0x2f,0x3c,0x11,0x3c,0x2b,0xc5,0xc0,0x38,0xca,0xbc,0x11,0xfd,0x05,0x21,0xd8,0xcf,0x05,0xcc,0xfd,0x16,0x07,0x09,0xed,0x38,0xa3,0xeb,0x10,0xfe,0x06,0xda,0x1d,0x9a,0xf1,0xfa,0x07,0xfd,0x21,0xf7,0x09,0x11,0xd8,0x00,0x00,0xe6,0x34,0x08,0xe0,0x0a,0xee,0xe8,0x16,0x81,0xef,0x13,0x48,0x0f,0x2f,0x16,0x1b,0x0a,0x11,0x1d,0xc5,0xe7,0xf0,0xe8,0x17,0xdc,0x1a,0xf7,0xde,0x13,0x2d,0xfc,0xe0,0xf9,0x16,0x01,0x00,0x2a,0xf9,0x0f,0x20,0x14,0xd1,0x1b,0xf2,0x0c,0x24,0xec,0x18,0x20,0x13,0x15,0xe2,0x02,0xe7,0xec,0x0d,0xf2,0x0e,0xf2,0xe8,0x11,0xdf,0x10,0x03,0xec,0xc9,0x1e,0xff,0x06,0x0b,0x2f,0x15,0x81,0x04,0x10,0x98,0xed,0x10,0x1a,0x01,0x0b,0x16,0xd8,0xdd,0xd5,0x12,0x1d,0x1e,0xd5,0x23,0xdd,0xf7,0x0b,0x08,0xe5,0x20,0xc5,0x1a,0x28,0xfc,0x17,0x0e,0x0e,0xd7,0x00,0xca,0x03,0x0a,0xfc,0x00,0x02,0x0f,0x0a,0xaa,0x27,0xcb,0x07,0xc2,0xf3,0xbe,0x10,0x66,0x2c,0xd9,0x0b,0xd8,0x2d,0xda,0x26,0xdb,0xe1,0x0a,0x00,0x66,0xf3,0x45,0xc6,0x10,0xc9,0x17,0xeb,0x0c,0x3c,0x2a,0x2b,0xd6,0x85,0x25,0xe1,0xfa,0xee,0xdd,0xfe,0x08,0x9d,0x0d,0x14,0xcd,0x33,0x81,0xff,0xef,0x3e,0xd2,0x2a,0x3e,0x42,0x93,0xea,0xcd,0xc5,0xe3,0x42,0xf8,0xd8,0x89,0x12,0xea,0xe5,0x17,0xe2,0x01,0x81,0xf9,0x26,0xae,0x9f,0xf6,0x0d,0xa1,0x9c,0x02,0xfa,0x27,0xf8,0xcf,0x10,0x4c,0x18,0xe0,0x3d,0xf4,0xe1,0x0d,0xc9,0xf3,0xac,0xe9,0xdd,0xe7,0xef,0x18,0xef,0x4e,0x20,0x05,0xed,0x0c,0xc1,0xf7,0xe7,0xf2,0x24,0xce,0xf5,0xef,0x36,0xcd,0x94,0xa5,0xec,0x20,0xfe,0xef,0x08,0xe4,0xe6,0xef,0xe8,0x2f,0x07,0xef,0xfa,0xfb,0x12,0x00,0xde,0xd7,0x23,0xf5,0x0b,0x02,0xea,0xcf,0xf3,0x01,0x1f,0x0c,0xe3,0x0d,0x04,0xf1,0x10,0xc5,0xde,0x0b,0x40,0x31,0x0a,0x11,0x13,0x1a,0x05,0x03,0xf5,0xce,0xc2,0xdb,0x34,0x28,0xf0,0x18,0x26,0xe2,0x06,0x10,0xf6,0x06,0x0d,0xc6,0xe5,0xf1,0xf8,0x01,0xf0,0xdd,0x1d,0x13,0x16,0x30,0x1f,0xa5,0x81,0xea,0x0b,0x02,0xed,0x30,0x09,0x09,0xd2,0x11,0x3a,0xf5,0xfb,0x1d,0xfa,0x12,0xf2,0x09,0x10,0x2a,0xf1,0x0b,0xf2,0xb2,0xe7,0x06,0xed,0x0b,0x81,0xfe,0xba,0x2b,0xfc,0xf1,0xd0,0xd4,0x1f,0x1b,0x14,0x8f,0x11,0x11,0xfd,0xe4,0x1a,0x12,0x09,0xfd,0xf7,0x2e,0xe6,0xf3,0x16,0xf5,0x04,0xf1,0x34,0x07,0x20,0xfa,0x17,0xe6,0xff,0xdb,0x27,0x2c,0x0a,0x14,0xcd,0xf0,0x0a,0x08,0x8c,0x12,0xf3,0x1c,0xc4,0xeb,0x1d,0x08,0xc3,0x08,0x01,0x15,0x25,0x81,0x06,0xc1,0xb5,0x1b,0x21,0xf3,0x17,0xc6,0xbd,0x14,0xd2,0xbf,0x92,0x13,0xe6,0xe2,0xef,0x62,0x2b,0x22,0xd7,0x2f,0xb9,0x08,0x46,0xfc,0xe4,0xa7,0xeb,0x24,0x0e,0xb6,0xd2,0x06,0x12,0x20,0x13,0xfb,0xc4,0x34,0xf0,0x0b,0x08,0x1f,0xed,0xd2,0xfd,0x12,0xf7,0xe5,0xe5,0xfc,0x1f,0xbd,0x08,0x17,0x21,0xaf,0x01,0xd1,0x0f,0x05,0x10,0xf4,0x07,0x1a,0x24,0xea,0x81,0x16,0x10,0x74,0xf9,0xe1,0x10,0xfa,0xe9,0x21,0xd5,0x04,0x04,0x9d,0xeb,0xf8,0x0c,0x21,0x03,0x0f,0x09,0xda,0xf6,0xfb,0xd3,0x0b,0xed,0xdd,0x0d,0x0d,0x09,0xfb,0x15,0x15,0xec,0xe0,0xea,0x04,0x0e,0xfc,0x11,0x13,0xe6,0x10,0x13,0xec,0x1c,0x2b,0xeb,0xcf,0xed,0xa6,0xb1,0xd1,0xdd,0x2b,0x08,0x03,0x24,0xdc,0xf3,0xfd,0xd9,0x0b,0x01,0x0e,0xf9,0x81,0x01,0x0a,0xef,0x05,0xf6,0xf6,0xc6,0xf2,0xe2,0xfd,0x17,0x00,0x3b,0xef,0xfc,0xe6,0x05,0xf4,0xcc,0x1d,0x0d,0x15,0x1f,0xf2,0x0f,0xe5,0xae,0x1a,0x07,0x07,0xf2,0x10,0x22,0x25,0xbe,0x0c,0x0b,0x01,0xfb,0x16,0xc5,0xfa,0x14,0x0d,0xea,0xf5,0xe7,0xf4,0x21,0x02,0xd0,0xf2,0x81,0x17,0xf7,0xed,0x01,0x15,0xcc,0xe2,0xf9,0xc5,0xd1,0x4a,0x18,0xf3,0xd6,0xfa,0xf9,0x12,0x1c,0xd3,0xef,0xe1,0xc2,0xe7,0xc6,0xf3,0x0e,0xd4,0xe7,0x18,0xe0,0xfe,0xdd,0x07,0xd5,0xfb,0xf3,0x04,0xec,0x1e,0x05,0x34,0x14,0xc3,0xc8,0x0b,0x14,0x12,0x0b,0x0d,0x0a,0x07,0xeb,0xe8,0xeb,0x11,0x01,0x24,0xed,0x24,0x1f,0x12,0xf8,0x0b,0xea,0xe5,0x13,0xff,0x08,0x08,0xde,0xf8,0x81,0xfc,0x0a,0x56,0xfb,0xe7,0x02,0xf5,0x0d,0x14,0x06,0xf6,0xe4,0xda,0xff,0x13,0xfd,0x12,0xf2,0x10,0x02,0xf0,0xf0,0x17,0xf3,0x24,0xfc,0xf3,0xfc,0x06,0x03,0x06,0x06,0xf2,0x19,0x01,0xd5,0xf8,0xee,0xff,0x07,0x14,0x1d,0x00,0xea,0x02,0x13,0x0a,0x23,0x81,0xf5,0xd8,0x09,0x09,0xff,0x13,0xf6,0xec,0x0d,0x02,0x0a,0xff,0xd7,0xcf,0x16,0xfd,0x0e,0xca,0xca,0xfc,0xd4,0xe7,0xec,0x0f,0x18,0x12,0x06,0xfb,0x24,0x0b,0xf0,0xfe,0xf7,0xe9,0x1c,0x03,0x06,0xf8,0x06,0x08,0x09,0xfd,0xe0,0x12,0xe9,0xe6,0xf2,0x04,0xcd,0x04,0x04,0x1d,0xef,0x05,0xe8,0x0c,0x1d,0x09,0xe6,0xd9,0xb5,0x23,0xf2,0x31,0xfc,0x00,0x33,0x05,0xcc,0x32,0xee,0x17,0x1c,0x02,0xf5,0x16,0xfb,0x0b,0x19,0xf7,0x81,0x9b,0x24,0x0b,0x14,0x12,0x32,0xef,0xd8,0x08,0xba,0x0a,0x01,0xe9,0xd2,0xf4,0x09,0x15,0xbf,0x07,0xf2,0x0b,0xf3,0x19,0x02,0xd7,0x0a,0xb8,0x1d,0x12,0xe4,0xbf,0xfe,0x20,0xd1,0x1c,0xea,0x15,0xfb,0x25,0xfe,0x3e,0x04,0xe5,0xef,0xfc,0xf3,0xf8,0x1b,0x81,0x05,0xf3,0x12,0x00,0x05,0x31,0x0e,0x20,0xf0,0xeb,0xee,0xea,0x2c,0x1c,0x9e,0xe1,0x1b,0x0e,0x07,0x08,0x02,0xa8,0x08,0x0e,0xc8,0xd7,0xa3,0x2a,0x06,0xe0,0x1a,0xdd,0x0d,0xf2,0xdc,0xfc,0xf9,0xd7,0xf2,0x13,0x1b,0xbf,0x0e,0x01,0x0b,0xfc,0x21,0x1b,0xc9,0x4e,0xda,0x16,0x26,0x1f,0xf5,0xf0,0xcc,0xe9,0x05,0x16,0x05,0x2a,0xad,0x43,0x1b,0x29,0xae,0xff,0x81,0xaa,0x48,0xd6,0xf2,0xfc,0xdd,0x0e,0x96,0xf1,0x36,0x4e,0xeb,0x15,0xdd,0xd7,0x11,0x59,0x18,0xb2,0xbe,0xb4,0xfe,0x05,0x01,0x3a,0xe4,0x1e,0x09,0xd0,0xe5,0x3e,0xe5,0x48,0x0e,0xf7,0xf6,0x1f,0xe6,0x0f,0x03,0xea,0x18,0xc1,0x1c,0x1e,0xe5,0xcf,0xd2,0xd9,0xbf,0xf2,0x00,0xc7,0xad,0xce,0xf7,0xb2,0xc7,0xb8,0xf7,0x35,0xfb,0xee,0xc5,0x0e,0xe1,0x03,0xf5,0x0c,0x0e,0x09,0x7f,0xea,0xfb,0x98,0xd9,0x02,0xc3,0xfc,0xc2,0xd7,0xd4,0x0f,0xcc,0x73,0x33,0xd5,0x41,0x22,0xbc,0xe7,0x12,0xfb,0xff,0xc1,0xdf,0xdb,0x42,0x15,0xd6,0x1a,0x2a,0xf6,0xae,0xc8,0x05,0x05,0x2e,0xc8,0x92,0x15,0xb7,0xf2,0xd8,0x14,0xac,0xe3,0x27,0x0c,0xf3,0xe5,0xcf,0xa9,0xea,0x2e,0xf3,0x41,0xfd,0x16,0x2c,0x9d,0x02,0xa4,0x81,0xe5,0xe9,0xe4,0xf2,0xb8,0x04,0x14,0xe7,0xf2,0x08,0x29,0xfe,0x13,0x96,0xe9,0x25,0x17,0xf5,0x36,0x05,0xec,0x1f,0x0f,0xdf,0xf5,0xb8,0x19,0xdc,0xed,0xda,0x47,0x0c,0x28,0x0b,0xfb,0x1e,0x44,0x2b,0x28,0xd0,0xfa,0xdd,0xe8,0xf5,0x0a,0xf9,0xcd,0xed,0x22,0x22,0xd9,0x18,0xe4,0x0a,0x0b,0xfc,0x27,0x0e,0x0b,0x19,0x08,0x05,0x1a,0x07,0x00,0x0d,0x0c,0xf8,0xfc,0x0e,0x17,0x12,0x12,0x17,0xfa,0xcd,0xfb,0xbd,0x81,0x08,0x15,0x2f,0xe9,0xec,0xbe,0xf7,0x04,0xec,0xfb,0x05,0x13,0x1e,0x05,0x26,0xc6,0x09,0xfd,0x0d,0x07,0xf5,0x15,0x22,0x28,0xed,0x16,0xfb,0xef,0xfc,0xf0,0xf3,0xfb,0xf9,0x0b,0x10,0x0c,0xba,0xf1,0x12,0x0e,0x81,0xf8,0xeb,0x22,0x1f,0xbe,0xfb,0xff,0xc4,0xf0,0x2a,0x03,0xe5,0x0e,0x07,0x0f,0xff,0xd5,0xf1,0xf4,0xf7,0xed,0xde,0xfa,0xc0,0xfd,0xee,0xf6,0xf8,0x33,0xbc,0x04,0x0c,0x03,0xe4,0x18,0xe9,0xcf,0x08,0xd9,0x0a,0x08,0xdd,0x05,0xec,0xf7,0xc9,0x2d,0xea,0xdb,0xf3,0xff,0xec,0x03,0xea,0xf3,0x27,0x35,0x0a,0xda,0xdc,0xdd,0x06,0xf1,0xf1,0x21,0x02,0xea,0x24,0xe6,0xf6,0xc9,0xfc,0xe8,0xc5,0x04,0x08,0xb6,0x1a,0x10,0xfd,0xbf,0x1c,0x1d,0xd4,0xf8,0xe4,0xda,0x03,0x13,0x2f,0xe9,0x1c,0xc3,0x06,0x0a,0x92,0x1f,0xee,0x27,0x00,0x0d,0xf5,0x81,0xdd,0x16,0x11,0x1e,0x1f,0xc2,0x23,0x1e,0xfc,0xe1,0xf5,0xf5,0xf6,0x0a,0x12,0xc5,0xcb,0x0f,0x1a,0x37,0xfb,0xa0,0x0d,0xf3,0x13,0xfe,0x08,0xfb,0xf4,0x81,0x0b,0xe2,0x87,0xeb,0x3b,0xfe,0x02,0x36,0x0a,0xf1,0x14,0x00,0xe8,0xf7,0xdc,0xf7,0xdb,0x11,0x02,0x08,0xe4,0x1f,0xd9,0xe9,0xfc,0xe2,0xf6,0x07,0x01,0x0a,0x14,0xfd,0xf9,0x21,0x0f,0x2e,0xff,0x00,0xce,0xdb,0x1a,0x03,0xd7,0x1a,0x0b,0xfb,0x13,0x2d,0xf1,0xf5,0x8e,0xec,0xee,0xd4,0xff,0x2e,0x26,0xd1,0xee,0x1c,0xd8,0x22,0x09,0xe8,0x0c,0x12,0xf5,0xfe,0xfc,0xf4,0x81,0xe1,0x19,0x2c,0x0a,0x09,0x10,0xd5,0xd1,0x03,0xe4,0x1c,0xfe,0xcf,0xb3,0x0e,0x0a,0x25,0xe5,0x06,0x28,0x14,0x09,0x0e,0xdb,0xe3,0x28,0xfd,0x19,0x1b,0x08,0xcc,0xfd,0xeb,0x01,0xd6,0xe8,0x20,0x1b,0x18,0xff,0x0c,0x0e,0xfb,0xfb,0x06,0xda,0xf6,0x04,0x0c,0xf4,0x15,0x01,0x0f,0x01,0xf4,0xf7,0x0c,0x06,0xe8,0x08,0x14,0x9f,0x05,0xb8,0xfa,0x08,0x0f,0x0a,0x08,0x0e,0xe2,0xfd,0xed,0xf6,0x81,0xf8,0xf5,0x13,0xe0,0xff,0xe4,0x0a,0x02,0x04,0x13,0xfb,0x00,0x04,0x02,0x0f,0xf1,0x11,0x0e,0x11,0x03,0x12,0xe9,0xec,0xec,0xff,0x23,0x07,0xfe,0xf9,0x25,0x20,0xf3,0xe6,0xed,0x12,0xe1,0xee,0xb4,0x01,0xc7,0xf4,0xf2,0x13,0x01,0x0a,0xd3,0x00,0x1f,0x19,0x1f,0xfe,0x1c,0x04,0x1c,0xd8,0x0b,0xe8,0xf5,0xa4,0x0d,0x12,0xf4,0x15,0x81,0xe4,0x1a,0x0b,0x14,0xe2,0xf1,0xf8,0xff,0xe4,0x0f,0xeb,0x11,0xf9,0xd3,0xf4,0xea,0xff,0x24,0x01,0x17,0xe2,0xc7,0xae,0x21,0xdb,0x1c,0x0e,0xfb,0xca,0x03,0x10,0xe2,0xc8,0xfd,0xfa,0x0a,0xd9,0xb3,0xcd,0x4d,0x81,0xc8,0x0a,0x0b,0xe8,0xff,0xfc,0x43,0x2c,0xe4,0x48,0x0a,0xc6,0x32,0xfe,0xac,0xb6,0x16,0xb3,0xf7,0xee,0x12,0xf7,0x18,0xf9,0x01,0x17,0xf7,0x9c,0x0a,0xc6,0xdb,0x0c,0x02,0x10,0xe2,0x24,0xe8,0xed,0xec,0xf7,0x25,0xf8,0xfa,0xcc,0x23,0xc9,0x09,0xcd,0x44,0x01,0xdd,0xf1,0x2c,0xe1,0xf0,0x08,0x1c,0x88,0x0e,0xe7,0xf2,0x10,0xfd,0xc2,0x26,0x8f,0x1d,0x10,0xc5,0x07,0x11,0x92,0xc8,0x0c,0xb4,0xf6,0x54,0x12,0x34,0xf7,0xf9,0x2d,0x95,0xf8,0xa9,0xd4,0x81,0xe6,0xd4,0xe9,0xcc,0x04,0x9e,0xc0,0x2e,0xdc,0xfd,0x0f,0x25,0xe7,0xc7,0xf8,0x8d,0x8f,0x4d,0xfd,0x03,0x04,0xb3,0x1e,0x16,0x01,0x3b,0x1a,0x39,0x0d,0x05,0x0a,0x09,0x81,0x21,0x1c,0x26,0xf2,0xec,0xb3,0xc4,0xfd,0x10,0x02,0x07,0xee,0x1b,0xf3,0xf9,0xfe,0x17,0xf8,0x11,0xdd,0x54,0x08,0xf9,0xe8,0x17,0xfe,0x14,0x16,0xe9,0xf9,0x26,0xe8,0x06,0xe8,0x08,0x2c,0x0b,0xfa,0x1b,0x10,0xd8,0x04,0x08,0x24,0xe8,0xe6,0x0a,0xe0,0xe8,0xfa,0xf5,0x18,0xeb,0xe9,0xe7,0xd8,0xfd,0xed,0xda,0x08,0x2e,0x0d,0xae,0xc0,0x15,0xe8,0x20,0xba,0xac,0x19,0x10,0x96,0xba,0xe6,0x66,0x1c,0xcd,0x11,0x2c,0xcb,0xf9,0x6c,0xc9,0x0f,0xf4,0x27,0x15,0xb0,0x02,0xc6,0xdb,0xee,0xe6,0x88,0x78,0xe0,0xd3,0xc5,0xdd,0xf5,0x1f,0xd5,0x0e,0xf7,0xd2,0xfc,0xfa,0xf8,0xb3,0xd0,0x07,0x4b,0x16,0xc0,0x04,0xe7,0x17,0x81,0x0c,0xe7,0x0e,0xda,0xe0,0xfb,0x02,0xdf,0xba,0xca,0x13,0x2b,0xf8,0xdf,0xd8,0x0f,0x15,0xe7,0xe8,0xda,0x36,0xf1,0xf7,0xef,0xf3,0x02,0xfe,0x57,0xf1,0xe7,0x31,0x18,0xf3,0xf8,0xf5,0xf6,0xd4,0xdb,0xeb,0x97,0x7f,0xa6,0x08,0xf2,0x21,0x0a,0x10,0xff,0xf9,0xf4,0xdf,0xf1,0x06,0x1b,0x0d,0xfc,0xf7,0x36,0xc8,0xb8,0xe1,0xcf,0x27,0x43,0x04,0xf4,0xfa,0xcc,0x08,0xdf,0xe6,0xaa,0xee,0x18,0x01,0x53,0xe5,0xe4,0x81,0xe1,0x0b,0xff,0x2a,0x0a,0x10,0x14,0xd0,0xf4,0xc2,0xcc,0x1a,0x1f,0x0e,0x23,0xd8,0xdf,0x14,0xfb,0xf2,0xcc,0x02,0xee,0xfb,0xba,0x01,0x29,0x32,0x13,0x17,0xd8,0xc3,0x32,0x05,0xe5,0xf9,0x95,0x29,0x03,0x18,0xf0,0x3c,0xe2,0x3e,0x03,0xce,0x00,0x3d,0x3f,0x18,0xee,0x15,0xe8,0x01,0x13,0xe8,0xd4,0xe4,0xff,0xfa,0x04,0xf8,0xfb,0x05,0xf2,0x12,0x17,0x11,0xec,0xf0,0x27,0xf6,0x0a,0x1c,0x20,0x0c,0x81,0xfd,0x1e,0x82,0xfd,0x10,0x15,0xee,0xf9,0xfe,0x17,0xba,0xc5,0x41,0x49,0x0e,0xd8,0x09,0xd3,0xbc,0x0e,0x02,0xfb,0x11,0x92,0x27,0x20,0xfc,0x0c,0xfd,0x1e,0xea,0x07,0xc2,0x24,0xec,0xe5,0xe0,0x09,0x07,0xfc,0x8b,0xe2,0x0a,0xde,0x00,0x16,0x10,0xf4,0xda,0x10,0x20,0xe7,0x0c,0x00,0x15,0xf6,0x1a,0x01,0x10,0x09,0xf6,0x0f,0x12,0x9a,0xe9,0xed,0x07,0x20,0x1c,0x14,0x04,0x1d,0xf2,0xf1,0xd6,0xeb,0x81,0x05,0x18,0x0f,0x0b,0x04,0xd4,0xf1,0x14,0x07,0x0a,0xf0,0x04,0x07,0xf1,0x18,0x11,0xf9,0x18,0x10,0xe4,0x14,0xfd,0x16,0x05,0xf8,0x22,0x05,0x01,0xee,0x52,0xff,0xdf,0xcc,0x36,0xc3,0xfd,0x15,0xd9,0x19,0x0a,0xeb,0x09,0xfe,0x3d,0x9e,0x0d,0x1b,0xa5,0xfe,0x49,0x09,0xe4,0x81,0x4d,0x0c,0x25,0xee,0x10,0xeb,0x8d,0xed,0xf1,0xba,0xca,0xcf,0xec,0xd3,0x1c,0xf9,0x1b,0xba,0x06,0x0e,0x02,0x29,0xba,0x02,0x02,0xe1,0x3c,0x40,0x21,0x33,0xf4,0x29,0xed,0x1f,0xa2,0xe7,0x25,0xe9,0x1b,0xa9,0x0b,0xf4,0xec,0x1a,0xf9,0xee,0x02,0xd9,0x15,0x1e,0xec,0xe6,0x15,0xf1,0x18,0x03,0xe1,0xf6,0x10,0x1b,0x1b,0xa4,0xd4,0x00,0xa9,0xd4,0x17,0xec,0x07,0xf5,0xd8,0xe0,0x05,0xdf,0x7f,0x5a,0xe2,0xc2,0xd3,0x25,0x11,0xf4,0x15,0x0e,0x15,0xfb,0x0a,0x25,0xf8,0xff,0x0c,0x3a,0x10,0x0b,0x01,0x39,0xdd,0x30,0xe2,0xf3,0x03,0xf0,0xc5,0x0a,0xe6,0x03,0xf9,0x1a,0xe8,0x92,0xf0,0x07,0xa4,0xa1,0xcb,0x16,0xf0,0x10,0xf4,0xf1,0x07,0xf8,0xba,0xd9,0xef,0x3f,0x00,0xf6,0x81,0xd6,0x29,0xdd,0x04,0xde,0xfe,0x11,0x18,0xc3,0x24,0x06,0xf9,0xf2,0xe7,0xeb,0xd5,0xc5,0xf5,0x02,0xcf,0x0d,0xc9,0xf2,0x0f,0xca,0x49,0xb6,0xea,0xe6,0x19,0xa0,0x39,0x34,0xf8,0xcc,0x07,0xf5,0xbe,0xf5,0xef,0x07,0xf3,0xed,0x10,0xed,0x0a,0x08,0x01,0xef,0xf1,0x09,0xfd,0x07,0xe1,0x15,0x0c,0x08,0x03,0x08,0xfa,0x81,0x02,0x15,0xfe,0x0b,0xf8,0x1d,0x05,0xfe,0x00,0xeb,0xec,0xe4,0xca,0x09,0x05,0x0e,0x0f,0xf0,0xff,0x0c,0xec,0x08,0x0d,0xf4,0x16,0x0b,0xfb,0x11,0x1b,0xf9,0xe4,0x06,0xf9,0xf7,0x07,0x04,0x08,0xfb,0xfe,0x01,0xf2,0x91,0x07,0x14,0xe8,0x19,0x44,0xe5,0xf4,0xe8,0x89,0xe9,0xfa,0x04,0x13,0xfb,0x10,0x15,0xfd,0x09,0xbb,0xf8,0x32,0x04,0xfd,0x21,0x81,0x08,0x0f,0x0c,0xd3,0xf9,0x04,0xd6,0xe1,0xd7,0xed,0x16,0x0c,0xf5,0x0a,0xf9,0xe1,0xfe,0xf1,0xcf,0x14,0xe9,0x1a,0x1b,0x04,0x13,0xe3,0xf0,0x1a,0x00,0x13,0xf8,0x38,0x1c,0x21,0xed,0x01,0x0a,0xe2,0xe9,0x0f,0xd6,0x02,0x08,0x06,0x00,0xf0,0xfc,0xd5,0xf4,0xe6,0xf7,0x00,0xf3,0x20,0xf5,0x0a,0xfc,0xc2,0xf9,0xe5,0x34,0xfe,0xf2,0x81,0xf9,0x19,0xe8,0xfa,0x01,0x0e,0x0d,0xe0,0xdc,0x15,0x00,0xf3,0xd1,0xfd,0x01,0xbd,0xe8,0x21,0x29,0xeb,0xf8,0xe8,0x00,0x06,0xee,0x0a,0xb3,0x04,0xf4,0xfc,0xfd,0x0e,0x06,0xd5,0xf1,0x12,0xf2,0x03,0x07,0xea,0x11,0xfe,0xe0,0x05,0x01,0x12,0xff,0xf2,0x16,0xf3,0x04,0x15,0xfd,0xf5,0x01,0xdf,0x06,0x1e,0x0f,0x12,0x81,0xfa,0xf5,0x10,0x00,0x0b,0x0a,0xf4,0xfa,0x0c,0x0b,0xea,0xf7,0x06,0x2b,0x07,0xf9,0x0c,0xda,0x0d,0xee,0x11,0x00,0x1a,0x06,0x1b,0x21,0xde,0x09,0xf4,0x0a,0xf9,0x17,0x0f,0xda,0xee,0xf8,0xf7,0xeb,0x23,0xfd,0xec,0xde,0xb9,0x15,0xd0,0x98,0x02,0xea,0xef,0x0f,0xc2,0xfa,0x48,0x04,0xf2,0x12,0x19,0x13,0x04,0x11,0x13,0x26,0x0d,0x54,0x04,0xee,0x14,0x14,0x2b,0x18,0xfd,0x03,0xd3,0xa6,0xf8,0x9c,0x2a,0x18,0xf1,0x1b,0x06,0x81,0x1d,0xd3,0xea,0xe9,0x88,0x02,0xe2,0x22,0xd1,0x01,0x0e,0x1d,0xea,0xef,0xd4,0x8d,0x2e,0x16,0x05,0xcb,0xf3,0x04,0xdd,0x01,0x32,0xd4,0xce,0x04,0x31,0x23,0xf0,0x18,0xe0,0xfe,0x14,0x02,0x11,0xb7,0x2b,0x07,0x23,0xf6,0xd4,0x15,0x1d,0xf7,0x01,0x81,0x05,0x03,0x27,0x0c,0x8d,0x07,0xf8,0xfd,0xe3,0x95,0xae,0x87,0x15,0xfb,0xfc,0x25,0x22,0xf1,0xf8,0xdb,0xf8,0xac,0x09,0x01,0x11,0x15,0x19,0x1c,0xdb,0xf0,0xe7,0x26,0x24,0xff,0x04,0x11,0x14,0xc2,0x0c,0xcd,0x29,0xfe,0xf0,0xf9,0x10,0x2b,0x08,0x0d,0x92,0x1e,0x09,0xfb,0x1c,0xe7,0x21,0x13,0xfa,0xf1,0xef,0xe2,0x27,0xfe,0x20,0xe2,0x81,0x01,0x27,0x09,0xf6,0xfe,0x02,0xff,0xee,0xe9,0xe7,0xfa,0x17,0x09,0x07,0x04,0x16,0xf3,0x17,0xf4,0x0e,0xdd,0xfe,0x02,0x08,0x19,0xd2,0xf9,0x00,0x09,0xec,0xeb,0x0e,0x0b,0x22,0xf3,0x0b,0x0d,0xf7,0xb8,0x34,0xfd,0xe1,0xf9,0x15,0x11,0xe9,0xaa,0xff,0x42,0x05,0xbc,0x0b,0xf3,0x51,0xcd,0xd7,0x0a,0xef,0xaf,0xe8,0x58,0xff,0xef,0x7f,0xf9,0x0d,0xa4,0x05,0x0d,0xfd,0x15,0xc8,0xc4,0x33,0xe1,0xfb,0xb6,0x09,0xd2,0xf0,0xeb,0x29,0xf8,0xed,0x08,0x03,0x14,0xdf,0xc3,0xda,0xd7,0x2f,0x02,0x0f,0x06,0x4c,0xa6,0xe1,0xc8,0x3d,0xff,0xec,0xd2,0x0d,0xd3,0x09,0xf3,0x15,0xc6,0xe2,0x19,0x09,0xf2,0x03,0x15,0xfc,0xce,0x24,0xfc,0x20,0x11,0x0b,0x27,0x09,0x81,0xf8,0xfd,0xf2,0x23,0x04,0x16,0xf8,0x0a,0x0b,0x20,0xd6,0x17,0x89,0x01,0x23,0x0b,0x1b,0x17,0xe8,0x05,0x2a,0x05,0xfd,0xf5,0x08,0xe9,0x03,0x17,0x15,0xf6,0xfb,0x1e,0x0a,0x1d,0x00,0x0c,0x0a,0x08,0x2b,0xf8,0x08,0xf2,0x04,0xfb,0xc3,0xfa,0x23,0xed,0x0e,0xf7,0xbe,0xf1,0x9a,0x24,0x0b,0x04,0xfd,0x0a,0xf2,0x04,0xf7,0x05,0x31,0x2b,0x1a,0x30,0xfb,0xee,0x2e,0x0c,0xe1,0xfb,0x19,0xde,0x06,0x97,0x2a,0xff,0x0f,0x1e,0x0d,0xc1,0xde,0x01,0x03,0x98,0xec,0xc5,0x0a,0x31,0x1d,0x14,0xf1,0x1e,0x14,0x06,0x0b,0x81,0x1c,0x25,0x19,0xe0,0x07,0xf5,0xdf,0xdf,0x1f,0xfb,0xfe,0xd9,0x29,0xf7,0x0a,0x05,0x9e,0x0f,0x7f,0xf3,0x36,0xea,0x2a,0xfc,0x34,0xe8,0xef,0x12,0x2d,0x33,0xe3,0xc9,0x61,0x25,0x36,0x06,0x0d,0x16,0xf5,0xe3,0xe6,0xa0,0xa8,0x1a,0xd7,0x1d,0x16,0xf5,0x06,0xf4,0xe9,0x15,0xb2,0xf5,0xf5,0xff,0xbe,0x1a,0xdc,0x00,0xd9,0xee,0xe5,0xe9,0x2a,0xcb,0xe9,0xda,0x02,0x14,0x03,0xe5,0x24,0xf2,0xe7,0xeb,0xf3,0xd6,0xfd,0xf6,0xe7,0xe1,0xcc,0x0d,0xef,0xe8,0x1b,0xcd,0x0b,0x01,0xd6,0x00,0x1d,0x4d,0xf1,0x00,0x16,0x10,0x03,0xf3,0x08,0x04,0x81,0x05,0x08,0xfc,0x4f,0xea,0xcc,0xe2,0xcd,0x0e,0xfd,0xe1,0x16,0x13,0x02,0xe6,0xc0,0x00,0xfc,0xff,0xe2,0x0a,0xe2,0xf6,0xe4,0xff,0x24,0x15,0xea,0xca,0xfd,0x0a,0x25,0x0a,0xfe,0xcf,0x0a,0xe1,0x06,0xd2,0x05,0x22,0x4b,0x21,0x06,0xf5,0xce,0xd5,0xa4,0x06,0xfb,0x0a,0x0d,0xfd,0xf7,0x81,0x8e,0xe7,0x5d,0x1e,0xe9,0xf4,0x01,0x12,0x04,0x18,0xe3,0x02,0x1a,0xcc,0xc5,0xf4,0x08,0xe7,0x1c,0x21,0xf6,0x19,0x02,0xb3,0x10,0x0b,0x0e,0xf4,0x17,0x2c,0xf7,0xf3,0xef,0x8e,0xb0,0xfe,0xf7,0xfc,0xa8,0xe2,0xff,0x94,0xef,0x01,0xe3,0x89,0x3d,0xef,0xfb,0x1e,0xcf,0xa9,0xba,0x18,0x07,0x03,0x12,0xf2,0x18,0xf5,0x81,0xf1,0x06,0x0d,0x10,0xe7,0x53,0x02,0x23,0x29,0x13,0x08,0xfd,0xd9,0xf4,0xb1,0x02,0xf3,0x0e,0x10,0x08,0x1e,0xf2,0xfa,0xf3,0x29,0x01,0x13,0x16,0x59,0x0d,0x07,0x0d,0xf4,0xd7,0xef,0x13,0xdb,0x4e,0xfd,0x0a,0xed,0x07,0xfe,0xd7,0x0b,0x0b,0xee,0xfc,0xea,0xed,0xd5,0x1f,0xf6,0x0a,0x25,0x98,0xfe,0xf8,0xf5,0x12,0x0c,0xd6,0x0d,0x46,0xe1,0xfe,0xcf,0xe3,0x0b,0x38,0x19,0x07,0x1a,0xff,0x00,0xd7,0x0b,0x07,0xd9,0x7f,0x19,0xbb,0xd1,0xf3,0xff,0x17,0xf8,0x19,0x06,0x01,0xff,0xf5,0x05,0xe3,0x1b,0x00,0x20,0xf5,0x0a,0xee,0xf2,0xd0,0x1a,0xe1,0x0c,0xf2,0xe5,0x03,0xf2,0x0b,0xe4,0xd3,0x27,0x17,0x36,0x17,0xeb,0xdb,0x38,0x12,0xc0,0xe9,0xa8,0xeb,0xe5,0x89,0x16,0x26,0xd9,0xf8,0x57,0xa5,0xc5,0x75,0x0c,0xf5,0xe9,0xcd,0xc3,0xd3,0xd5,0xf8,0x08,0x68,0xf5,0x11,0xf8,0xdd,0xea,0xa1,0x19,0x0a,0xc4,0xfb,0xd0,0x1a,0xeb,0x89,0xdd,0xc2,0x11,0x27,0x05,0x12,0x06,0xe0,0x81,0xe5,0x04,0x30,0xe2,0x21,0xb9,0xe7,0x0f,0xf6,0xfb,0x40,0x15,0xcd,0x1d,0x48,0xcc,0xed,0x1e,0x07,0x1a,0xa7,0x48,0x2c,0x0b,0xd6,0x16,0x4f,0x8e,0x1b,0x2d,0x3a,0x2e,0xdb,0x30,0x02,0x08,0xfb,0xe6,0xcb,0xa9,0xe9,0x2d,0x0f,0x38,0x21,0xb6,0xe5,0xd0,0xbb,0xff,0xf5,0xee,0x19,0x0c,0xf5,0x39,0x17,0xb5,0x81,0x1b,0x0a,0x1f,0xd6,0xf5,0x2c,0xcf,0xe2,0xff,0xd7,0xf6,0xea,0xf0,0xef,0x07,0xf2,0x05,0xf9,0xeb,0x08,0x11,0x0c,0xef,0xe0,0xd6,0x00,0x00,0x13,0x07,0xf4,0x0f,0xfe,0x0f,0xec,0xfb,0x7f,0x01,0xcf,0x11,0xe9,0x00,0x22,0xef,0xe8,0xee,0xfc,0xf7,0xf6,0xd1,0x1b,0x00,0x19,0xf9,0xd6,0xfd,0xf1,0xe2,0x16,0xe9,0xc1,0x06,0x1b,0xfe,0xc2,0xed,0xfe,0x02,0xef,0xc9,0xf6,0xf5,0xd4,0xee,0x04,0xc9,0x04,0x04,0xe1,0x31,0x18,0xe4,0x14,0x03,0xa1,0xf4,0xc4,0x13,0xe5,0xff,0xd9,0xf5,0x07,0x0b,0xad,0x0e,0x34,0xfe,0x06,0x0a,0x81,0x0f,0x22,0x00,0xf0,0xf1,0x06,0x0a,0xf1,0xd0,0x47,0x07,0x14,0xe5,0xf8,0xc1,0xea,0x0b,0x0b,0xfc,0xf0,0xdb,0xeb,0x37,0x01,0x02,0x24,0x18,0xfb,0x0d,0x0d,0x9d,0x3a,0x1f,0x1a,0xd7,0x0a,0xfb,0xca,0xd0,0x0a,0xdc,0xd9,0x0f,0x21,0x1f,0xfa,0xe6,0xd8,0x23,0xf1,0xed,0x12,0xfe,0x11,0x17,0x10,0x05,0xbe,0x08,0xf9,0x4c,0x04,0x1c,0x18,0x07,0x19,0x01,0xf7,0x07,0x0e,0xf8,0xe2,0xc1,0x66,0x01,0x05,0xb0,0x08,0x02,0xdd,0x11,0x13,0xd7,0xd8,0xdb,0x0d,0x1a,0xb0,0xf3,0x00,0xf2,0x04,0x06,0x15,0x14,0x29,0x81,0xef,0xf0,0x1d,0xe8,0xe1,0xeb,0x15,0xd5,0xfd,0x08,0xe4,0x0e,0xe0,0xf3,0xee,0xb3,0xf3,0xf4,0x2b,0xc1,0x2d,0x03,0x06,0x12,0x19,0xca,0xed,0xd8,0xca,0x2c,0xee,0x0e,0x3c,0xf2,0xf4,0x1e,0x1b,0x03,0xf4,0x8b,0xbc,0x10,0xfa,0x1f,0x04,0xf8,0x8d,0xed,0x19,0x9c,0xfb,0xf6,0x08,0x42,0x11,0xe7,0xfb,0x81,0x3a,0x12,0xfd,0xec,0xec,0x13,0x0e,0x9c,0x1e,0xf6,0xec,0xe2,0xa6,0xdd,0xf4,0xe2,0x33,0x59,0xc7,0xd7,0x02,0xc7,0x55,0xf8,0x5f,0xf1,0xd6,0x02,0x39,0x01,0xb4,0xf5,0x13,0x1a,0x14,0x01,0x7f,0xa1,0xc9,0x02,0xa3,0x11,0x20,0x32,0x00,0xb7,0x37,0xca,0xfe,0xde,0x10,0xbe,0x17,0x08,0xea,0xca,0xc8,0xa6,0x17,0x31,0x92,0xff,0xeb,0x0c,0xe7,0xd4,0xfb,0xa6,0x20,0xe6,0x15,0xfa,0x08,0x8a,0xbd,0xc1,0x87,0xff,0x19,0xd7,0x04,0xcf,0xef,0xce,0x19,0xfd,0x05,0xb7,0x11,0xd6,0xbf,0x49,0x81,0x18,0xd9,0x95,0x45,0xf6,0x00,0xe8,0x07,0x30,0x0a,0xee,0x0d,0xe4,0x0f,0x3b,0xf6,0x3e,0x5f,0x6b,0xff,0xd4,0xf6,0xbb,0x03,0x0c,0x08,0x1e,0x41,0xe4,0xf9,0x2e,0xf6,0x31,0xc5,0x44,0x04,0x34,0xc7,0xb5,0xbf,0x21,0xea,0x04,0xe7,0x1a,0x03,0xc6,0xfa,0xff,0xff,0x04,0x00,0x00,0x00,0x00,0x01,0x00,0x00,0xf0,0xff,0xff,0xff,0x01,0x00,0x00,0x00,0x0c,0x00,0x00,0x00,0xe1,0xff,0xff,0xff,0x0b,0x00,0x00,0x00,0xf9,0xff,0xff,0xff,0xe7,0xff,0xff,0xff,0xed,0xff,0xff,0xff,0xe4,0xff,0xff,0xff,0xf4,0xff,0xff,0xff,0xed,0xff,0xff,0xff,0x17,0x00,0x00,0x00,0xfe,0xff,0xff,0xff,0x01,0x00,0x00,0x00,0xe8,0xff,0xff,0xff,0xfc,0xff,0xff,0xff,0xef,0xff,0xff,0xff,0xfd,0xff,0xff,0xff,0xec,0xff,0xff,0xff,0xf4,0xff,0xff,0xff,0xcb,0xff,0xff,0xff,0xce,0xff,0xff,0xff,0xe3,0xff,0xff,0xff,0xe2,0xff,0xff,0xff,0xef,0xff,0xff,0xff,0xee,0xff,0xff,0xff,0xe2,0xff,0xff,0xff,0xed,0xff,0xff,0xff,0xfa,0xff,0xff,0xff,0x08,0x00,0x00,0x00,0xf7,0xff,0xff,0xff,0xe3,0xff,0xff,0xff,0xfa,0xff,0xff,0xff,0xd2,0xff,0xff,0xff,0xd2,0xff,0xff,0xff,0xc8,0xff,0xff,0xff,0xdd,0xff,0xff,0xff,0xf2,0xff,0xff,0xff,0xf1,0xff,0xff,0xff,0xeb,0xff,0xff,0xff,0xe5,0xff,0xff,0xff,0xfb,0xff,0xff,0xff,0xdb,0xff,0xff,0xff,0xea,0xff,0xff,0xff,0xfa,0xff,0xff,0xff,0xdb,0xff,0xff,0xff,0xd6,0xff,0xff,0xff,0xef,0xff,0xff,0xff,0xdb,0xff,0xff,0xff,0x04,0x00,0x00,0x00,0xdd,0xff,0xff,0xff,0xd2,0xff,0xff,0xff,0xf8,0xff,0xff,0xff,0xfc,0xff,0xff,0xff,0xe3,0xff,0xff,0xff,0xf0,0xff,0xff,0xff,0xfc,0xff,0xff,0xff,0xed,0xff,0xff,0xff,0xf9,0xff,0xff,0xff,0xea,0xff,0xff,0xff,0xdc,0xff,0xff,0xff,0xd5,0xff,0xff,0xff,0xe0,0xff,0xff,0xff,0x11,0x00,0x00,0x00,0xd2,0xfb,0xff,0xff,0x04,0x00,0x00,0x00,0x40,0x03,0x00,0x00,0x1d,0xa1,0xc4,0xd0,0x2f,0xff,0x25,0x3b,0x17,0x39,0xb7,0xfc,0xb6,0x57,0xd2,0x5b,0xcb,0xe6,0x4b,0x06,0x8a,0x58,0x32,0xc8,0xbd,0x47,0x9f,0x95,0xdc,0xef,0x36,0x6e,0x34,0xf8,0x2c,0xc8,0x12,0x11,0x3b,0x24,0x11,0xde,0xcd,0xfd,0x06,0x5c,0x50,0xca,0x26,0xf9,0xa0,0x0a,0xb0,0xe1,0xbe,0xc9,0x26,0x1f,0xf8,0x8c,0xf0,0xfd,0x1b,0x81,0x35,0xe9,0x19,0x1f,0xe5,0x1c,0x40,0xf3,0x03,0x23,0xf0,0xfe,0xf5,0x27,0xf4,0xf5,0xe0,0xea,0x01,0xb6,0xb5,0x3f,0x19,0xff,0x29,0x2e,0x18,0xc0,0x33,0x15,0x3b,0x2e,0xcb,0x7f,0xdf,0xfb,0x05,0x42,0xd1,0xf4,0xe5,0x20,0xf8,0xe3,0xaf,0xf3,0xc8,0xd8,0x28,0x26,0xf5,0xb9,0xc9,0xf0,0xff,0x00,0x33,0xfc,0x92,0x0f,0xca,0x1d,0xb2,0xf0,0xca,0x01,0x18,0x19,0xf9,0x20,0xe7,0xc0,0xea,0x3a,0xf6,0x1f,0x1c,0xce,0x05,0xec,0xed,0xdf,0xfd,0x0d,0x17,0x31,0x18,0x1c,0xef,0x20,0xdf,0xf9,0x20,0xde,0x03,0xdf,0xe2,0x11,0x16,0xef,0xce,0x19,0x29,0x00,0xdd,0xc0,0xe5,0xb7,0xea,0x3c,0x2d,0x10,0xf2,0x11,0xca,0x12,0xef,0xf6,0xee,0xe6,0x0c,0xe0,0xf0,0x81,0xf3,0xd4,0xf2,0x19,0x97,0x37,0xb5,0xb5,0xbb,0x28,0xcf,0xdb,0x1a,0x73,0x08,0xe0,0xae,0x7f,0xcd,0x1c,0x41,0xdc,0x13,0xe8,0x06,0xe0,0xf8,0x19,0xf9,0x09,0xf1,0x69,0xa4,0x19,0x29,0xe4,0x1b,0x98,0xf7,0xf4,0x8e,0xdc,0x00,0x22,0x1c,0xef,0x1b,0x7a,0x2d,0x08,0x04,0x0f,0xda,0xd3,0x5f,0x03,0x0e,0x44,0x2c,0x2b,0x02,0xe2,0x18,0x3b,0x26,0x92,0xf4,0xf1,0x51,0xd3,0x18,0xdc,0x26,0x94,0xfe,0x2b,0xe8,0x1f,0xc5,0xe5,0xa3,0x41,0xa0,0x0f,0x27,0xee,0x4d,0x2e,0x18,0x18,0x81,0xbd,0x06,0xc2,0xce,0xbe,0x11,0xf4,0x99,0x2d,0x27,0x39,0x06,0x04,0x44,0xef,0x18,0x26,0x3b,0x1f,0xd2,0x29,0xe4,0x05,0x0c,0xf7,0x36,0xf1,0xfb,0xbb,0x13,0xa7,0xef,0xfc,0xcc,0x73,0x28,0xbb,0xff,0xfd,0x07,0xce,0x6a,0x05,0x08,0xeb,0x04,0xda,0x36,0x47,0xf2,0xcf,0x31,0x0b,0xa1,0x2e,0xbd,0x29,0xdd,0x32,0x50,0xfe,0x97,0x2d,0x05,0xee,0x34,0x8a,0xf5,0x3b,0xb3,0x21,0xc9,0x21,0x1e,0xf4,0x11,0x81,0x5c,0x15,0x1b,0x1b,0x47,0x20,0xac,0xbe,0x1f,0xea,0xbf,0xe2,0xf7,0xef,0x2e,0xe5,0x4f,0xb5,0x10,0x3a,0x32,0x40,0xe3,0xb9,0xba,0x24,0xce,0x15,0x9b,0x12,0x09,0x20,0xf3,0x08,0xd2,0x92,0xfa,0x81,0x0c,0x1b,0x97,0xc8,0x44,0xc1,0xde,0x11,0xe0,0x11,0xe4,0x0f,0x94,0x37,0x1c,0x07,0xfe,0x15,0x49,0xcf,0xbb,0xf1,0x08,0xf0,0x5e,0x08,0x0c,0x13,0x02,0x20,0x10,0x87,0xd0,0x9f,0xf6,0xe4,0x0c,0x0a,0x8c,0xf4,0x45,0xfd,0x07,0xf7,0xe1,0x37,0x2b,0xd2,0x22,0x62,0xd9,0x22,0xf4,0x39,0x22,0x12,0x03,0xb8,0xf0,0xee,0x0a,0x7f,0xf3,0x3b,0xf3,0xfc,0xfa,0x11,0xdd,0xdd,0x55,0xea,0xd0,0x2f,0x24,0xdc,0xc8,0xd4,0x09,0xec,0xd6,0x0c,0xb9,0xf9,0x3e,0xbe,0x09,0xf8,0xa8,0xd5,0x62,0xd2,0xfd,0x04,0xe4,0x57,0x2c,0x57,0x44,0x00,0x12,0x1e,0xe4,0x0e,0x98,0x06,0x2d,0xbe,0xe3,0x15,0xc1,0x31,0xd6,0xbd,0x2d,0xe2,0xf6,0x0c,0x0c,0xee,0x38,0x2e,0x16,0xb6,0xe0,0xd9,0x21,0xf6,0x0e,0xe4,0x4d,0xf2,0x06,0x39,0x24,0xef,0x07,0xc1,0x22,0x81,0xd8,0xf3,0x19,0x03,0xfe,0x12,0x24,0xba,0x0b,0xe7,0x03,0x32,0xfd,0xc1,0xbe,0x13,0xfb,0xbd,0xf3,0x19,0xfd,0xf1,0xe5,0x19,0xd6,0xf2,0x25,0xfc,0x11,0x2c,0xda,0xe0,0x12,0xf2,0xfd,0x41,0x17,0x1e,0x44,0xe0,0x1a,0xf3,0x3a,0x09,0xf0,0xe4,0x2f,0x20,0xe1,0xdd,0xdc,0x4d,0xd4,0xed,0x73,0x9c,0x43,0xdd,0x01,0x19,0xe7,0x43,0x20,0x81,0x4b,0xd1,0x8e,0xfc,0x20,0x27,0x3c,0xa4,0xc5,0x00,0xff,0xcc,0xef,0x42,0x0a,0xc7,0x23,0xde,0x03,0x15,0x01,0xc4,0xb0,0xd5,0x17,0xcd,0xde,0xcb,0xfe,0x29,0xfb,0x36,0x3b,0xb9,0x26,0xbe,0x31,0x0a,0x62,0x1e,0x4f,0x02,0x37,0xe0,0xfe,0xda,0x02,0x15,0x20,0x6b,0x0a,0x39,0xf6,0x0f,0xcb,0xb1,0xc6,0x7c,0xcc,0xde,0xb4,0xef,0xfb,0xdc,0xf3,0xcd,0xdb,0xab,0x32,0x81,0xc7,0x2d,0x25,0x39,0xea,0xeb,0xfc,0x28,0x34,0x23,0x0e,0xa5,0xef,0x15,0xae,0x0a,0x07,0x24,0x0d,0xea,0x58,0x18,0x14,0xef,0xcd,0xea,0xec,0xf0,0x49,0xe9,0xee,0x0f,0x16,0x33,0x54,0xf7,0x24,0xf9,0x1e,0xff,0x07,0xe7,0xf6,0xf4,0xdc,0x05,0x01,0x0d,0x05,0xdd,0xf3,0xb6,0xf8,0x0e,0x26,0x10,0x15,0xf3,0xe8,0xfa,0x1f,0xf4,0x1a,0x11,0x14,0xfc,0xdc,0xab,0x05,0x1a,0x0d,0x00,0xf8,0xef,0x05,0x01,0xf5,0xd9,0xfc,0x35,0x07,0xa7,0x2c,0x18,0x04,0xf2,0x81,0xf9,0x01,0xfe,0xe7,0x26,0xd5,0xea,0x0e,0xcc,0xe8,0xed,0x21,0x0c,0x91,0x2d,0xe3,0x09,0xdf,0xe9,0xc4,0xca,0x20,0x81,0xf2,0xd6,0x1f,0xe9,0x43,0xd9,0x33,0x21,0x09,0x17,0x29,0x1a,0x38,0x27,0x05,0x41,0x15,0xf2,0xcf,0x0b,0xff,0xcf,0xec,0xbc,0xdf,0x21,0x05,0xe6,0xd9,0x27,0x2c,0xd7,0x47,0x1f,0x23,0xe2,0xf3,0x1b,0xdf,0xd4,0x28,0x23,0xf5,0x30,0x1c,0x1b,0xc9,0xf0,0xeb,0x2f,0xe9,0x24,0xfe,0x15,0x1e,0xff,0xff,0xff,0x04,0x00,0x00,0x00,0x34,0x00,0x00,0x00,0x69,0xfd,0xff,0xff,0x50,0xff,0xff,0xff,0x04,0x00,0x00,0x00,0x97,0xfd,0xff,0xff,0xfb,0xfd,0xff,0xff,0x40,0x02,0x00,0x00,0x62,0x01,0x00,0x00,0xe1,0x00,0x00,0x00,0x7a,0xff,0xff,0xff,0xc2,0x01,0x00,0x00,0xb7,0xff,0xff,0xff,0x7d,0xff,0xff,0xff,0x3b,0x00,0x00,0x00,0x5e,0xff,0xff,0xff,0x04,0x00,0x00,0x00,0x08,0x00,0x00,0x00,0x01,0x00,0x00,0x00,0x02,0x00,0x00,0x00,0x18,0xe3,0xff,0xff,0x1c,0xe3,0xff,0xff,0x0f,0x00,0x00,0x00,0x4d,0x4c,0x49,0x52,0x20,0x43,0x6f,0x6e,0x76,0x65,0x72,0x74,0x65,0x64,0x2e,0x00,0x01,0x00,0x00,0x00,0x14,0x00,0x00,0x00,0x00,0x00,0x0e,0x00,0x18,0x00,0x14,0x00,0x10,0x00,0x0c,0x00,0x08,0x00,0x04,0x00,0x0e,0x00,0x00,0x00,0x14,0x00,0x00,0x00,0x1c,0x00,0x00,0x00,0xd4,0x01,0x00,0x00,0xd8,0x01,0x00,0x00,0xdc,0x01,0x00,0x00,0x04,0x00,0x00,0x00,0x6d,0x61,0x69,0x6e,0x00,0x00,0x00,0x00,0x06,0x00,0x00,0x00,0x6c,0x01,0x00,0x00,0x00,0x01,0x00,0x00,0xac,0x00,0x00,0x00,0x78,0x00,0x00,0x00,0x40,0x00,0x00,0x00,0x04,0x00,0x00,0x00,0x22,0xff,0xff,0xff,0x1c,0x00,0x00,0x00,0x00,0x00,0x00,0x09,0x1c,0x00,0x00,0x00,0x20,0x00,0x00,0x00,0x04,0x00,0x00,0x00,0x00,0x00,0x06,0x00,0x08,0x00,0x04,0x00,0x06,0x00,0x00,0x00,0x00,0x00,0x80,0x3f,0x01,0x00,0x00,0x00,0x0f,0x00,0x00,0x00,0x01,0x00,0x00,0x00,0x0e,0x00,0x00,0x00,0x5a,0xff,0xff,0xff,0x14,0x00,0x00,0x00,0x00,0x00,0x00,0x08,0x10,0x00,0x00,0x00,0x14,0x00,0x00,0x00,0x03,0x00,0x00,0x00,0xdc,0xe3,0xff,0xff,0x01,0x00,0x00,0x00,0x0e,0x00,0x00,0x00,0x03,0x00,0x00,0x00,0x0d,0x00,0x00,0x00,0x03,0x00,0x00,0x00,0x02,0x00,0x00,0x00,0x8e,0xff,0xff,0xff,0x14,0x00,0x00,0x00,0x00,0x00,0x00,0x1b,0x10,0x00,0x00,0x00,0x14,0x00,0x00,0x00,0x02,0x00,0x00,0x00,0x10,0xe4,0xff,0xff,0x01,0x00,0x00,0x00,0x0d,0x00,0x00,0x00,0x02,0x00,0x00,0x00,0x0c,0x00,0x00,0x00,0x01,0x00,0x00,0x00,0x56,0xff,0xff,0xff,0x10,0x00,0x00,0x00,0x00,0x00,0x00,0x01,0x1c,0x00,0x00,0x00,0x20,0x00,0x00,0x00,0x48,0xff,0xff,0xff,0x00,0x00,0x00,0x01,0x01,0x00,0x00,0x00,0x01,0x00,0x00,0x00,0x00,0x00,0x00,0x01,0x01,0x00,0x00,0x00,0x0c,0x00,0x00,0x00,0x03,0x00,0x00,0x00,0x0b,0x00,0x00,0x00,0x05,0x00,0x00,0x00,0x04,0x00,0x00,0x00,0x00,0x00,0x0e,0x00,0x1a,0x00,0x14,0x00,0x10,0x00,0x0c,0x00,0x0b,0x00,0x04,0x00,0x0e,0x00,0x00,0x00,0x24,0x00,0x00,0x00,0x00,0x00,0x00,0x02,0x34,0x00,0x00,0x00,0x38,0x00,0x00,0x00,0x01,0x00,0x00,0x00,0x00,0x00,0x0e,0x00,0x18,0x00,0x17,0x00,0x10,0x00,0x0c,0x00,0x08,0x00,0x07,0x00,0x0e,0x00,0x00,0x00,0x00,0x00,0x00,0x01,0x01,0x00,0x00,0x00,0x01,0x00,0x00,0x00,0x01,0x00,0x00,0x00,0x00,0x00,0x00,0x01,0x01,0x00,0x00,0x00,0x0b,0x00,0x00,0x00,0x03,0x00,0x00,0x00,0x0a,0x00,0x00,0x00,0x07,0x00,0x00,0x00,0x06,0x00,0x00,0x00,0x00,0x00,0x0e,0x00,0x14,0x00,0x00,0x00,0x10,0x00,0x0c,0x00,0x0b,0x00,0x04,0x00,0x0e,0x00,0x00,0x00,0x1c,0x00,0x00,0x00,0x00,0x00,0x00,0x01,0x28,0x00,0x00,0x00,0x2c,0x00,0x00,0x00,0x0c,0x00,0x14,0x00,0x13,0x00,0x0c,0x00,0x08,0x00,0x07,0x00,0x0c,0x00,0x00,0x00,0x00,0x00,0x00,0x01,0x01,0x00,0x00,0x00,0x01,0x00,0x00,0x00,0x00,0x00,0x00,0x01,0x01,0x00,0x00,0x00,0x0a,0x00,0x00,0x00,0x03,0x00,0x00,0x00,0x00,0x00,0x00,0x00,0x09,0x00,0x00,0x00,0x08,0x00,0x00,0x00,0x01,0x00,0x00,0x00,0x0f,0x00,0x00,0x00,0x01,0x00,0x00,0x00,0x00,0x00,0x00,0x00,0x10,0x00,0x00,0x00,0xfc,0x1a,0x00,0x00,0xa0,0x1a,0x00,0x00,0x98,0x19,0x00,0x00,0xa4,0x18,0x00,0x00,0x50,0x15,0x00,0x00,0xec,0x11,0x00,0x00,0x98,0x0e,0x00,0x00,0x1c,0x0b,0x00,0x00,0xc8,0x07,0x00,0x00,0x64,0x04,0x00,0x00,0x90,0x03,0x00,0x00,0xa4,0x02,0x00,0x00,0xb0,0x01,0x00,0x00,0x1c,0x01,0x00,0x00,0x80,0x00,0x00,0x00,0x04,0x00,0x00,0x00,0x5a,0xe5,0xff,0xff,0x00,0x00,0x00,0x01,0x18,0x00,0x00,0x00,0x20,0x00,0x00,0x00,0x3c,0x00,0x00,0x00,0x10,0x00,0x00,0x00,0x00,0x00,0x00,0x09,0x50,0x00,0x00,0x00,0x02,0x00,0x00,0x00,0xff,0xff,0xff,0xff,0x0d,0x00,0x00,0x00,0x3c,0xe5,0xff,0xff,0x08,0x00,0x00,0x00,0x10,0x00,0x00,0x00,0x01,0x00,0x00,0x00,0x80,0xff,0xff,0xff,0xff,0xff,0xff,0xff,0x01,0x00,0x00,0x00,0x00,0x00,0x80,0x3b,0x1b,0x00,0x00,0x00,0x53,0x74,0x61,0x74,0x65,0x66,0x75,0x6c,0x50,0x61,0x72,0x74,0x69,0x74,0x69,0x6f,0x6e,0x65,0x64,0x43,0x61,0x6c,0x6c,0x5f,0x31,0x3a,0x30,0x00,0x02,0x00,0x00,0x00,0x01,0x00,0x00,0x00,0x0d,0x00,0x00,0x00,0xd2,0xe5,0xff,0xff,0x00,0x00,0x00,0x01,0x18,0x00,0x00,0x00,0x20,0x00,0x00,0x00,0x3c,0x00,0x00,0x00,0x0f,0x00,0x00,0x00,0x00,0x00,0x00,0x09,0x70,0x00,0x00,0x00,0x02,0x00,0x00,0x00,0xff,0xff,0xff,0xff,0x0d,0x00,0x00,0x00,0xb4,0xe5,0xff,0xff,0x08,0x00,0x00,0x00,0x10,0x00,0x00,0x00,0x01,0x00,0x00,0x00,0x16,0x00,0x00,0x00,0x00,0x00,0x00,0x00,0x01,0x00,0x00,0x00,0xbc,0x38,0x7a,0x3e,0x38,0x00,0x00,0x00,0x73,0x65,0x71,0x75,0x65,0x6e,0x74,0x69,0x61,0x6c,0x5f,0x31,0x2f,0x64,0x65,0x6e,0x73,0x65,0x5f,0x31,0x2f,0x4d,0x61,0x74,0x4d,0x75,0x6c,0x3b,0x73,0x65,0x71,0x75,0x65,0x6e,0x74,0x69,0x61,0x6c,0x5f,0x31,0x2f,0x64,0x65,0x6e,0x73,0x65,0x5f,0x31,0x2f,0x42,0x69,0x61,0x73,0x41,0x64,0x64,0x00,0x00,0x00,0x00,0x02,0x00,0x00,0x00,0x01,0x00,0x00,0x00,0x0d,0x00,0x00,0x00,0x6a,0xe6,0xff,0xff,0x00,0x00,0x00,0x01,0x18,0x00,0x00,0x00,0x20,0x00,0x00,0x00,0x40,0x00,0x00,0x00,0x0e,0x00,0x00,0x00,0x00,0x00,0x00,0x09,0x68,0x00,0x00,0x00,0x02,0x00,0x00,0x00,0xff,0xff,0xff,0xff,0x40,0x00,0x00,0x00,0x4c,0xe6,0xff,0xff,0x08,0x00,0x00,0x00,0x14,0x00,0x00,0x00,0x01,0x00,0x00,0x00,0x80,0xff,0xff,0xff,0xff,0xff,0xff,0xff,0x00,0x00,0x00,0x00,0x01,0x00,0x00,0x00,0xb8,0x3d,0x9c,0x3d,0x2c,0x00,0x00,0x00,0x73,0x65,0x71,0x75,0x65,0x6e,0x74,0x69,0x61,0x6c,0x5f,0x31,0x2f,0x67,0x6c,0x6f,0x62,0x61,0x6c,0x5f,0x61,0x76,0x65,0x72,0x61,0x67,0x65,0x5f,0x70,0x6f,0x6f,0x6c,0x69,0x6e,0x67,0x32,0x64,0x5f,0x31,0x2f,0x4d,0x65,0x61,0x6e,0x00,0x00,0x00,0x00,0x02,0x00,0x00,0x00,0x01,0x00,0x00,0x00,0x40,0x00,0x00,0x00,0xfa,0xe6,0xff,0xff,0x00,0x00,0x00,0x01,0x18,0x00,0x00,0x00,0x28,0x00,0x00,0x00,0x44,0x00,0x00,0x00,0x0d,0x00,0x00,0x00,0x00,0x00,0x00,0x09,0xc0,0x00,0x00,0x00,0x04,0x00,0x00,0x00,0xff,0xff,0xff,0xff,0x5f,0x00,0x00,0x00,0x08,0x00,0x00,0x00,0x40,0x00,0x00,0x00,0xe4,0xe6,0xff,0xff,0x08,0x00,0x00,0x00,0x10,0x00,0x00,0x00,0x01,0x00,0x00,0x00,0x80,0xff,0xff,0xff,0xff,0xff,0xff,0xff,0x01,0x00,0x00,0x00,0x30,0xf2,0xff,0x3f,0x80,0x00,0x00,0x00,0x73,0x65,0x71,0x75,0x65,0x6e,0x74,0x69,0x61,0x6c,0x5f,0x31,0x2f,0x63,0x6f,0x6e,0x76,0x32,0x64,0x5f,0x31,0x5f,0x32,0x2f,0x52,0x65,0x6c,0x75,0x3b,0x73,0x65,0x71,0x75,0x65,0x6e,0x74,0x69,0x61,0x6c,0x5f,0x31,0x2f,0x63,0x6f,0x6e,0x76,0x32,0x64,0x5f,0x31,0x5f,0x32,0x2f,0x42,0x69,0x61,0x73,0x41,0x64,0x64,0x3b,0x73,0x65,0x71,0x75,0x65,0x6e,0x74,0x69,0x61,0x6c,0x5f,0x31,0x2f,0x63,0x6f,0x6e,0x76,0x32,0x64,0x5f,0x31,0x5f,0x32,0x2f,0x63,0x6f,0x6e,0x76,0x6f,0x6c,0x75,0x74,0x69,0x6f,0x6e,0x3b,0x73,0x65,0x71,0x75,0x65,0x6e,0x74,0x69,0x61,0x6c,0x5f,0x31,0x2f,0x63,0x6f,0x6e,0x76,0x32,0x64,0x5f,0x31,0x5f,0x32,0x2f,0x53,0x71,0x75,0x65,0x65,0x7a,0x65,0x00,0x00,0x00,0x00,0x04,0x00,0x00,0x00,0x01,0x00,0x00,0x00,0x5f,0x00,0x00,0x00,0x08,0x00,0x00,0x00,0x40,0x00,0x00,0x00,0xea,0xe7,0xff,0xff,0x00,0x00,0x00,0x01,0x18,0x00,0x00,0x00,0x28,0x00,0x00,0x00,0x48,0x00,0x00,0x00,0x0c,0x00,0x00,0x00,0x00,0x00,0x00,0x09,0xb8,0x00,0x00,0x00,0x04,0x00,0x00,0x00,0xff,0xff,0xff,0xff,0x5f,0x00,0x00,0x00,0x08,0x00,0x00,0x00,0x40,0x00,0x00,0x00,0xd4,0xe7,0xff,0xff,0x08,0x00,0x00,0x00,0x14,0x00,0x00,0x00,0x01,0x00,0x00,0x00,0x80,0xff,0xff,0xff,0xff,0xff,0xff,0xff,0x00,0x00,0x00,0x00,0x01,0x00,0x00,0x00,0x79,0xcd,0x96,0x3f,0x77,0x00,0x00,0x00,0x73,0x65,0x71,0x75,0x65,0x6e,0x74,0x69,0x61,0x6c,0x5f,0x31,0x2f,0x64,0x65,0x70,0x74,0x68,0x77,0x69,0x73,0x65,0x5f,0x63,0x6f,0x6e,0x76,0x32,0x64,0x5f,0x31,0x2f,0x52,0x65,0x6c,0x75,0x3b,0x73,0x65,0x71,0x75,0x65,0x6e,0x74,0x69,0x61,0x6c,0x5f,0x31,0x2f,0x64,0x65,0x70,0x74,0x68,0x77,0x69,0x73,0x65,0x5f,0x63,0x6f,0x6e,0x76,0x32,0x64,0x5f,0x31,0x2f,0x42,0x69,0x61,0x73,0x41,0x64,0x64,0x3b,0x73,0x65,0x71,0x75,0x65,0x6e,0x74,0x69,0x61,0x6c,0x5f,0x31,0x2f,0x64,0x65,0x70,0x74,0x68,0x77,0x69,0x73,0x65,0x5f,0x63,0x6f,0x6e,0x76,0x32,0x64,0x5f,0x31,0x2f,0x64,0x65,0x70,0x74,0x68,0x77,0x69,0x73,0x65,0x3b,0x00,0x04,0x00,0x00,0x00,0x01,0x00,0x00,0x00,0x5f,0x00,0x00,0x00,0x08,0x00,0x00,0x00,0x40,0x00,0x00,0x00,0xd2,0xe8,0xff,0xff,0x00,0x00,0x00,0x01,0x18,0x00,0x00,0x00,0x28,0x00,0x00,0x00,0x48,0x00,0x00,0x00,0x0b,0x00,0x00,0x00,0x00,0x00,0x00,0x09,0xa0,0x00,0x00,0x00,0x04,0x00,0x00,0x00,0xff,0xff,0xff,0xff,0x61,0x00,0x00,0x00,0x0a,0x00,0x00,0x00,0x40,0x00,0x00,0x00,0xbc,0xe8,0xff,0xff,0x08,0x00,0x00,0x00,0x14,0x00,0x00,0x00,0x01,0x00,0x00,0x00,0x80,0xff,0xff,0xff,0xff,0xff,0xff,0xff,0x00,0x00,0x00,0x00,0x01,0x00,0x00,0x00,0x93,0xd5,0x8e,0x40,0x5c,0x00,0x00,0x00,0x73,0x65,0x71,0x75,0x65,0x6e,0x74,0x69,0x61,0x6c,0x5f,0x31,0x2f,0x63,0x6f,0x6e,0x76,0x32,0x64,0x5f,0x31,0x2f,0x52,0x65,0x6c,0x75,0x3b,0x73,0x65,0x71,0x75,0x65,0x6e,0x74,0x69,0x61,0x6c,0x5f,0x31,0x2f,0x63,0x6f,0x6e,0x76,0x32,0x64,0x5f,0x31,0x2f,0x42,0x69,0x61,0x73,0x41,0x64,0x64,0x3b,0x73,0x65,0x71,0x75,0x65,0x6e,0x74,0x69,0x61,0x6c,0x5f,0x31,0x2f,0x63,0x6f,0x6e,0x76,0x32,0x64,0x5f,0x31,0x2f,0x63,0x6f,0x6e,0x76,0x6f,0x6c,0x75,0x74,0x69,0x6f,0x6e,0x3b,0x31,0x00,0x00,0x00,0x00,0x04,0x00,0x00,0x00,0x01,0x00,0x00,0x00,0x61,0x00,0x00,0x00,0x0a,0x00,0x00,0x00,0x40,0x00,0x00,0x00,0xfa,0xe9,0xff,0xff,0x00,0x00,0x00,0x01,0x14,0x00,0x00,0x00,0x28,0x03,0x00,0x00,0x0a,0x00,0x00,0x00,0x00,0x00,0x00,0x09,0x34,0x03,0x00,0x00,0x74,0xe9,0xff,0xff,0x08,0x00,0x00,0x00,0x0c,0x02,0x00,0x00,0x40,0x00,0x00,0x00,0x00,0x00,0x00,0x00,0x00,0x00,0x00,0x00,0x00,0x00,0x00,0x00,0x00,0x00,0x00,0x00,0x00,0x00,0x00,0x00,0x00,0x00,0x00,0x00,0x00,0x00,0x00,0x00,0x00,0x00,0x00,0x00,0x00,0x00,0x00,0x00,0x00,0x00,0x00,0x00,0x00,0x00,0x00,0x00,0x00,0x00,0x00,0x00,0x00,0x00,0x00,0x00,0x00,0x00,0x00,0x00,0x00,0x00,0x00,0x00,0x00,0x00,0x00,0x00,0x00,0x00,0x00,0x00,0x00,0x00,0x00,0x00,0x00,0x00,0x00,0x00,0x00,0x00,0x00,0x00,0x00,0x00,0x00,0x00,0x00,0x00,0x00,0x00,0x00,0x00,0x00,0x00,0x00,0x00,0x00,0x00,0x00,0x00,0x00,0x00,0x00,0x00,0x00,0x00,0x00,0x00,0x00,0x00,0x00,0x00,0x00,0x00,0x00,0x00,0x00,0x00,0x00,0x00,0x00,0x00,0x00,0x00,0x00,0x00,0x00,0x00,0x00,0x00,0x00,0x00,0x00,0x00,0x00,0x00,0x00,0x00,0x00,0x00,0x00,0x00,0x00,0x00,0x00,0x00,0x00,0x00,0x00,0x00,0x00,0x00,0x00,0x00,0x00,0x00,0x00,0x00,0x00,0x00,0x00,0x00,0x00,0x00,0x00,0x00,0x00,0x00,0x00,0x00,0x00,0x00,0x00,0x00,0x00,0x00,0x00,0x00,0x00,0x00,0x00,0x00,0x00,0x00,0x00,0x00,0x00,0x00,0x00,0x00,0x00,0x00,0x00,0x00,0x00,0x00,0x00,0x00,0x00,0x00,0x00,0x00,0x00,0x00,0x00,0x00,0x00,0x00,0x00,0x00,0x00,0x00,0x00,0x00,0x00,0x00,0x00,0x00,0x00,0x00,0x00,0x00,0x00,0x00,0x00,0x00,0x00,0x00,0x00,0x00,0x00,0x00,0x00,0x00,0x00,0x00,0x00,0x00,0x00,0x00,0x00,0x00,0x00,0x00,0x00,0x00,0x00,0x00,0x00,0x00,0x00,0x00,0x00,0x00,0x00,0x00,0x00,0x00,0x00,0x00,0x00,0x00,0x00,0x00,0x00,0x00,0x00,0x00,0x00,0x00,0x00,0x00,0x00,0x00,0x00,0x00,0x00,0x00,0x00,0x00,0x00,0x00,0x00,0x00,0x00,0x00,0x00,0x00,0x00,0x00,0x00,0x00,0x00,0x00,0x00,0x00,0x00,0x00,0x00,0x00,0x00,0x00,0x00,0x00,0x00,0x00,0x00,0x00,0x00,0x00,0x00,0x00,0x00,0x00,0x00,0x00,0x00,0x00,0x00,0x00,0x00,0x00,0x00,0x00,0x00,0x00,0x00,0x00,0x00,0x00,0x00,0x00,0x00,0x00,0x00,0x00,0x00,0x00,0x00,0x00,0x00,0x00,0x00,0x00,0x00,0x00,0x00,0x00,0x00,0x00,0x00,0x00,0x00,0x00,0x00,0x00,0x00,0x00,0x00,0x00,0x00,0x00,0x00,0x00,0x00,0x00,0x00,0x00,0x00,0x00,0x00,0x00,0x00,0x00,0x00,0x00,0x00,0x00,0x00,0x00,0x00,0x00,0x00,0x00,0x00,0x00,0x00,0x00,0x00,0x00,0x00,0x00,0x00,0x00,0x00,0x00,0x00,0x00,0x00,0x00,0x00,0x00,0x00,0x00,0x00,0x00,0x00,0x00,0x00,0x00,0x00,0x00,0x00,0x00,0x00,0x00,0x00,0x00,0x00,0x00,0x00,0x00,0x00,0x00,0x00,0x00,0x00,0x00,0x00,0x00,0x00,0x00,0x00,0x00,0x00,0x00,0x00,0x00,0x00,0x00,0x00,0x00,0x00,0x00,0x00,0x00,0x00,0x00,0x00,0x00,0x00,0x00,0x00,0x00,0x00,0x00,0x00,0x00,0x00,0x00,0x00,0x00,0x00,0x00,0x00,0x00,0x00,0x00,0x00,0x00,0x00,0x00,0x00,0x00,0x00,0x00,0x00,0x00,0x00,0x00,0x00,0x00,0x00,0x00,0x00,0x00,0x00,0x00,0x00,0x00,0x00,0x00,0x00,0x00,0x00,0x00,0x00,0x00,0x00,0x00,0x00,0x00,0x00,0x00,0x00,0x00,0x00,0x00,0x00,0x00,0x00,0x00,0x00,0x00,0x00,0x00,0x00,0x00,0x40,0x00,0x00,0x00,0x70,0x13,0xdc,0x3b,0x54,0x67,0xf7,0x3b,0x79,0xd3,0x37,0x3c,0xd7,0x62,0x61,0x3b,0x4f,0xa6,0x24,0x3c,0x34,0x0d,0xc4,0x3b,0x56,0xed,0x25,0x3c,0xb3,0x31,0xea,0x3b,0x12,0x7f,0xf3,0x3b,0xf0,0x6e,0x88,0x3c,0x74,0x57,0xbc,0x3b,0xde,0xde,0xc5,0x3b,0x04,0x99,0xbc,0x3b,0xdd,0x99,0x96,0x3b,0x9e,0x06,0x25,0x3c,0xf2,0xd0,0x2f,0x3c,0x32,0xb2,0x8f,0x3b,0xfe,0xd3,0xcc,0x3b,0xaf,0x28,0x60,0x3a,0xaf,0x2b,0x17,0x3c,0xba,0x26,0x03,0x3c,0x6a,0x13,0xe7,0x3b,0xbb,0x4d,0xdd,0x3c,0x60,0x88,0x2e,0x3b,0x43,0x10,0x2c,0x3c,0x5b,0xe3,0xba,0x3c,0xa1,0x44,0x9b,0x3b,0xba,0x9c,0xe6,0x3b,0x81,0x50,0xca,0x3b,0x8d,0x29,0x23,0x3b,0x65,0x8f,0xbf,0x3b,0x4e,0x39,0xe5,0x3b,0x8c,0x06,0xd4,0x3b,0x86,0x5e,0xe4,0x3b,0x62,0x01,0xfc,0x3a,0x4d,0x15,0xef,0x3c,0x38,0x6c,0x8c,0x3c,0xbe,0xdc,0x80,0x3b,0xb2,0xe0,0xa1,0x3b,0x2b,0x8f,0xbb,0x3b,0x0f,0xe8,0xe8,0x3b,0x4a,0x03,0x09,0x3c,0x19,0xc4,0xe7,0x3b,0xe4,0x5c,0x4b,0x3b,0x78,0xb8,0x04,0x3c,0x00,0x70,0x14,0x3c,0xed,0x27,0x63,0x3b,0xd2,0x3d,0x94,0x3b,0x92,0x43,0xc7,0x3b,0xee,0x90,0xe6,0x3b,0x74,0x3c,0x90,0x3b,0x59,0x67,0xf3,0x3b,0xf9,0xbc,0xfa,0x3b,0x71,0x54,0xfd,0x3b,0x9e,0x36,0xba,0x3b,0xd7,0x85,0xa5,0x3b,0xd0,0xa2,0x16,0x3c,0x70,0x69,0x09,0x3c,0x16,0x35,0x88,0x3b,0x80,0xcc,0x91,0x3b,0x21,0x81,0xf2,0x3b,0x19,0xc6,0xc6,0x3b,0x37,0xc9,0xd5,0x3b,0x5d,0xc4,0xc9,0x3b,0x12,0x00,0x00,0x00,0x74,0x66,0x6c,0x2e,0x70,0x73,0x65,0x75,0x64,0x6f,0x5f,0x71,0x63,0x6f,0x6e,0x73,0x74,0x37,0x00,0x00,0x04,0x00,0x00,0x00,0x40,0x00,0x00,0x00,0x03,0x00,0x00,0x00,0x03,0x00,0x00,0x00,0x01,0x00,0x00,0x00,0x5a,0xed,0xff,0xff,0x00,0x00,0x00,0x01,0x14,0x00,0x00,0x00,0x24,0x03,0x00,0x00,0x09,0x00,0x00,0x00,0x00,0x00,0x00,0x02,0x30,0x03,0x00,0x00,0xd4,0xec,0xff,0xff,0x08,0x00,0x00,0x00,0x08,0x02,0x00,0x00,0x40,0x00,0x00,0x00,0x00,0x00,0x00,0x00,0x00,0x00,0x00,0x00,0x00,0x00,0x00,0x00,0x00,0x00,0x00,0x00,0x00,0x00,0x00,0x00,0x00,0x00,0x00,0x00,0x00,0x00,0x00,0x00,0x00,0x00,0x00,0x00,0x00,0x00,0x00,0x00,0x00,0x00,0x00,0x00,0x00,0x00,0x00,0x00,0x00,0x00,0x00,0x00,0x00,0x00,0x00,0x00,0x00,0x00,0x00,0x00,0x00,0x00,0x00,0x00,0x00,0x00,0x00,0x00,0x00,0x00,0x00,0x00,0x00,0x00,0x00,0x00,0x00,0x00,0x00,0x00,0x00,0x00,0x00,0x00,0x00,0x00,0x00,0x00,0x00,0x00,0x00,0x00,0x00,0x00,0x00,0x00,0x00,0x00,0x00,0x00,0x00,0x00,0x00,0x00,0x00,0x00,0x00,0x00,0x00,0x00,0x00,0x00,0x00,0x00,0x00,0x00,0x00,0x00,0x00,0x00,0x00,0x00,0x00,0x00,0x00,0x00,0x00,0x00,0x00,0x00,0x00,0x00,0x00,0x00,0x00,0x00,0x00,0x00,0x00,0x00,0x00,0x00,0x00,0x00,0x00,0x00,0x00,0x00,0x00,0x00,0x00,0x00,0x00,0x00,0x00,0x00,0x00,0x00,0x00,0x00,0x00,0x00,0x00,0x00,0x00,0x00,0x00,0x00,0x00,0x00,0x00,0x00,0x00,0x00,0x00,0x00,0x00,0x00,0x00,0x00,0x00,0x00,0x00,0x00,0x00,0x00,0x00,0x00,0x00,0x00,0x00,0x00,0x00,0x00,0x00,0x00,0x00,0x00,0x00,0x00,0x00,0x00,0x00,0x00,0x00,0x00,0x00,0x00,0x00,0x00,0x00,0x00,0x00,0x00,0x00,0x00,0x00,0x00,0x00,0x00,0x00,0x00,0x00,0x00,0x00,0x00,0x00,0x00,0x00,0x00,0x00,0x00,0x00,0x00,0x00,0x00,0x00,0x00,0x00,0x00,0x00,0x00,0x00,0x00,0x00,0x00,0x00,0x00,0x00,0x00,0x00,0x00,0x00,0x00,0x00,0x00,0x00,0x00,0x00,0x00,0x00,0x00,0x00,0x00,0x00,0x00,0x00,0x00,0x00,0x00,0x00,0x00,0x00,0x00,0x00,0x00,0x00,0x00,0x00,0x00,0x00,0x00,0x00,0x00,0x00,0x00,0x00,0x00,0x00,0x00,0x00,0x00,0x00,0x00,0x00,0x00,0x00,0x00,0x00,0x00,0x00,0x00,0x00,0x00,0x00,0x00,0x00,0x00,0x00,0x00,0x00,0x00,0x00,0x00,0x00,0x00,0x00,0x00,0x00,0x00,0x00,0x00,0x00,0x00,0x00,0x00,0x00,0x00,0x00,0x00,0x00,0x00,0x00,0x00,0x00,0x00,0x00,0x00,0x00,0x00,0x00,0x00,0x00,0x00,0x00,0x00,0x00,0x00,0x00,0x00,0x00,0x00,0x00,0x00,0x00,0x00,0x00,0x00,0x00,0x00,0x00,0x00,0x00,0x00,0x00,0x00,0x00,0x00,0x00,0x00,0x00,0x00,0x00,0x00,0x00,0x00,0x00,0x00,0x00,0x00,0x00,0x00,0x00,0x00,0x00,0x00,0x00,0x00,0x00,0x00,0x00,0x00,0x00,0x00,0x00,0x00,0x00,0x00,0x00,0x00,0x00,0x00,0x00,0x00,0x00,0x00,0x00,0x00,0x00,0x00,0x00,0x00,0x00,0x00,0x00,0x00,0x00,0x00,0x00,0x00,0x00,0x00,0x00,0x00,0x00,0x00,0x00,0x00,0x00,0x00,0x00,0x00,0x00,0x00,0x00,0x00,0x00,0x00,0x00,0x00,0x00,0x00,0x00,0x00,0x00,0x00,0x00,0x00,0x00,0x00,0x00,0x00,0x00,0x00,0x00,0x00,0x00,0x00,0x00,0x00,0x00,0x00,0x00,0x00,0x00,0x00,0x00,0x00,0x00,0x00,0x00,0x00,0x00,0x00,0x00,0x00,0x00,0x00,0x00,0x00,0x00,0x00,0x00,0x00,0x00,0x00,0x00,0x00,0x00,0x00,0x00,0x00,0x00,0x00,0x00,0x00,0x00,0x00,0x00,0x00,0x00,0x00,0x00,0x00,0x00,0x00,0x00,0x00,0x00,0x00,0x00,0x00,0x00,0x00,0x00,0x00,0x40,0x00,0x00,0x00,0x65,0x9c,0x7f,0x3b,0xf2,0xac,0x8f,0x3b,0x06,0x82,0xd5,0x3b,0xa6,0xe3,0x02,0x3b,0x31,0x3c,0xbf,0x3b,0x1a,0xb5,0x63,0x3b,0x06,0xb8,0xc0,0x3b,0x1f,0x01,0x88,0x3b,0x10,0x68,0x8d,0x3b,0x7c,0x76,0x1e,0x3c,0xa8,0xc0,0x5a,0x3b,0xf4,0xd1,0x65,0x3b,0xce,0x0c,0x5b,0x3b,0x0a,0xeb,0x2e,0x3b,0x0d,0xac,0xbf,0x3b,0x67,0x34,0xcc,0x3b,0xf3,0xe5,0x26,0x3b,0xac,0xe6,0x6d,0x3b,0x35,0x2d,0x02,0x3a,0x67,0x94,0xaf,0x3b,0xef,0x53,0x98,0x3b,0x88,0x31,0x86,0x3b,0xb8,0x84,0x80,0x3c,0xc7,0xb6,0xca,0x3a,0x9a,0xd8,0xc7,0x3b,0x7a,0x10,0x59,0x3c,0xb8,0x56,0x34,0x3b,0x9b,0xec,0x85,0x3b,0x48,0xfb,0x6a,0x3b,0xf4,0x81,0xbd,0x3a,0xa3,0x7d,0x5e,0x3b,0x33,0x1e,0x85,0x3b,0xbd,0x42,0x76,0x3b,0x25,0x9f,0x84,0x3b,0x15,0x59,0x92,0x3a,0xf8,0xd7,0x8a,0x3c,0xab,0x18,0x23,0x3c,0x55,0xab,0x15,0x3b,0x00,0x04,0x3c,0x3b,0x08,0xd8,0x59,0x3b,0xb0,0x41,0x87,0x3b,0xca,0x22,0x9f,0x3b,0x23,0x98,0x86,0x3b,0x01,0x33,0xec,0x3a,0x8c,0x26,0x9a,0x3b,0xbf,0x67,0xac,0x3b,0xc5,0xea,0x03,0x3b,0x76,0x2d,0x2c,0x3b,0x41,0x70,0x67,0x3b,0xc1,0xe5,0x85,0x3b,0x88,0x86,0x27,0x3b,0x49,0x5a,0x8d,0x3b,0xaf,0x9c,0x91,0x3b,0xfc,0x1d,0x93,0x3b,0xd9,0x47,0x58,0x3b,0xd1,0x3f,0x40,0x3b,0x6f,0xf5,0xae,0x3b,0x6e,0x99,0x9f,0x3b,0x4b,0x33,0x1e,0x3b,0x2c,0x57,0x29,0x3b,0x97,0xd4,0x8c,0x3b,0x85,0xde,0x66,0x3b,0x2d,0x4e,0x78,0x3b,0x83,0x58,0x6a,0x3b,0x12,0x00,0x00,0x00,0x74,0x66,0x6c,0x2e,0x70,0x73,0x65,0x75,0x64,0x6f,0x5f,0x71,0x63,0x6f,0x6e,0x73,0x74,0x36,0x00,0x00,0x01,0x00,0x00,0x00,0x40,0x00,0x00,0x00,0xaa,0xf0,0xff,0xff,0x00,0x00,0x00,0x01,0x28,0x00,0x00,0x00,0x40,0x03,0x00,0x00,0x08,0x00,0x00,0x00,0x00,0x00,0x00,0x09,0x4c,0x03,0x00,0x00,0x00,0x00,0x12,0x00,0x10,0x00,0x00,0x00,0x00,0x00,0x0c,0x00,0x08,0x00,0x00,0x00,0x00,0x00,0x04,0x00,0x12,0x00,0x00,0x00,0x03,0x00,0x00,0x00,0x08,0x00,0x00,0x00,0x0c,0x02,0x00,0x00,0x40,0x00,0x00,0x00,0x00,0x00,0x00,0x00,0x00,0x00,0x00,0x00,0x00,0x00,0x00,0x00,0x00,0x00,0x00,0x00,0x00,0x00,0x00,0x00,0x00,0x00,0x00,0x00,0x00,0x00,0x00,0x00,0x00,0x00,0x00,0x00,0x00,0x00,0x00,0x00,0x00,0x00,0x00,0x00,0x00,0x00,0x00,0x00,0x00,0x00,0x00,0x00,0x00,0x00,0x00,0x00,0x00,0x00,0x00,0x00,0x00,0x00,0x00,0x00,0x00,0x00,0x00,0x00,0x00,0x00,0x00,0x00,0x00,0x00,0x00,0x00,0x00,0x00,0x00,0x00,0x00,0x00,0x00,0x00,0x00,0x00,0x00,0x00,0x00,0x00,0x00,0x00,0x00,0x00,0x00,0x00,0x00,0x00,0x00,0x00,0x00,0x00,0x00,0x00,0x00,0x00,0x00,0x00,0x00,0x00,0x00,0x00,0x00,0x00,0x00,0x00,0x00,0x00,0x00,0x00,0x00,0x00,0x00,0x00,0x00,0x00,0x00,0x00,0x00,0x00,0x00,0x00,0x00,0x00,0x00,0x00,0x00,0x00,0x00,0x00,0x00,0x00,0x00,0x00,0x00,0x00,0x00,0x00,0x00,0x00,0x00,0x00,0x00,0x00,0x00,0x00,0x00,0x00,0x00,0x00,0x00,0x00,0x00,0x00,0x00,0x00,0x00,0x00,0x00,0x00,0x00,0x00,0x00,0x00,0x00,0x00,0x00,0x00,0x00,0x00,0x00,0x00,0x00,0x00,0x00,0x00,0x00,0x00,0x00,0x00,0x00,0x00,0x00,0x00,0x00,0x00,0x00,0x00,0x00,0x00,0x00,0x00,0x00,0x00,0x00,0x00,0x00,0x00,0x00,0x00,0x00,0x00,0x00,0x00,0x00,0x00,0x00,0x00,0x00,0x00,0x00,0x00,0x00,0x00,0x00,0x00,0x00,0x00,0x00,0x00,0x00,0x00,0x00,0x00,0x00,0x00,0x00,0x00,0x00,0x00,0x00,0x00,0x00,0x00,0x00,0x00,0x00,0x00,0x00,0x00,0x00,0x00,0x00,0x00,0x00,0x00,0x00,0x00,0x00,0x00,0x00,0x00,0x00,0x00,0x00,0x00,0x00,0x00,0x00,0x00,0x00,0x00,0x00,0x00,0x00,0x00,0x00,0x00,0x00,0x00,0x00,0x00,0x00,0x00,0x00,0x00,0x00,0x00,0x00,0x00,0x00,0x00,0x00,0x00,0x00,0x00,0x00,0x00,0x00,0x00,0x00,0x00,0x00,0x00,0x00,0x00,0x00,0x00,0x00,0x00,0x00,0x00,0x00,0x00,0x00,0x00,0x00,0x00,0x00,0x00,0x00,0x00,0x00,0x00,0x00,0x00,0x00,0x00,0x00,0x00,0x00,0x00,0x00,0x00,0x00,0x00,0x00,0x00,0x00,0x00,0x00,0x00,0x00,0x00,0x00,0x00,0x00,0x00,0x00,0x00,0x00,0x00,0x00,0x00,0x00,0x00,0x00,0x00,0x00,0x00,0x00,0x00,0x00,0x00,0x00,0x00,0x00,0x00,0x00,0x00,0x00,0x00,0x00,0x00,0x00,0x00,0x00,0x00,0x00,0x00,0x00,0x00,0x00,0x00,0x00,0x00,0x00,0x00,0x00,0x00,0x00,0x00,0x00,0x00,0x00,0x00,0x00,0x00,0x00,0x00,0x00,0x00,0x00,0x00,0x00,0x00,0x00,0x00,0x00,0x00,0x00,0x00,0x00,0x00,0x00,0x00,0x00,0x00,0x00,0x00,0x00,0x00,0x00,0x00,0x00,0x00,0x00,0x00,0x00,0x00,0x00,0x00,0x00,0x00,0x00,0x00,0x00,0x00,0x00,0x00,0x00,0x00,0x00,0x00,0x00,0x00,0x00,0x00,0x00,0x00,0x00,0x00,0x00,0x00,0x00,0x00,0x00,0x00,0x00,0x00,0x00,0x00,0x00,0x00,0x00,0x00,0x00,0x00,0x00,0x00,0x00,0x00,0x00,0x00,0x00,0x00,0x00,0x00,0x00,0x00,0x00,0x00,0x00,0x00,0x00,0x00,0x00,0x00,0x00,0x00,0x00,0x00,0x00,0x00,0x00,0x00,0x00,0x00,0x00,0x00,0x00,0x00,0x00,0x00,0x00,0x00,0x00,0x00,0x00,0x00,0x00,0x00,0x00,0x00,0x00,0x00,0x00,0x00,0x00,0x00,0x40,0x00,0x00,0x00,0xdb,0x75,0xb3,0x3b,0x5d,0x09,0x07,0x3c,0xd3,0x94,0xa7,0x3b,0x47,0x21,0xf4,0x3b,0x88,0x3a,0xd1,0x3b,0x9c,0x68,0xef,0x3b,0xb7,0xd1,0x4c,0x3c,0x4e,0x06,0x1b,0x3c,0x9f,0x0b,0xcb,0x3b,0x27,0x5b,0x04,0x3c,0x63,0x58,0x4d,0x3c,0x59,0x71,0x12,0x3c,0xb8,0x29,0xfe,0x3b,0xfc,0x0f,0xab,0x3b,0x4c,0x38,0xc3,0x3b,0x24,0xfb,0x1d,0x3c,0x08,0xcb,0xc5,0x3b,0xea,0x2b,0xc1,0x3b,0xf8,0x7e,0x3f,0x3a,0xfc,0x20,0x14,0x3c,0xd1,0x28,0x13,0x3c,0x13,0xf4,0xb9,0x3b,0xf2,0x1d,0xd5,0x3b,0x24,0x8a,0x80,0x3b,0x5a,0x8e,0xbb,0x3b,0x7a,0x05,0xcb,0x3b,0x69,0xbe,0x9a,0x3b,0x98,0xb3,0xe6,0x3b,0x9d,0xd1,0xf0,0x3b,0x12,0xfe,0x1b,0x3c,0x15,0xcc,0xcc,0x3b,0x7f,0x29,0xbb,0x3b,0x72,0x48,0x21,0x3c,0xdb,0x85,0x07,0x3c,0x7d,0x58,0xe6,0x3b,0x37,0x92,0xb0,0x3b,0xe1,0x35,0x03,0x3c,0x8d,0x53,0x55,0x3b,0xf0,0xc3,0x31,0x3c,0xff,0xae,0x12,0x3c,0xe4,0x03,0xc8,0x3b,0xe3,0xae,0x04,0x3c,0x50,0xaa,0xa4,0x3b,0x2b,0x30,0x99,0x3b,0x62,0x5d,0xc0,0x3b,0x67,0x12,0x11,0x3c,0xdc,0x5a,0xcb,0x3b,0xa1,0xc3,0xc0,0x3b,0x4e,0x73,0xac,0x3b,0x8f,0x22,0xd2,0x3b,0x6c,0xb3,0xc2,0x3b,0x8e,0x1c,0xdd,0x3b,0xc9,0x30,0x1b,0x3c,0x45,0x2a,0x94,0x3c,0x71,0xd4,0x83,0x3b,0x9f,0x36,0x42,0x3b,0x80,0x04,0xce,0x3b,0xe0,0x37,0x81,0x3c,0xa0,0x3a,0xed,0x3b,0xe6,0x0d,0xc4,0x3b,0xfc,0xfd,0xd0,0x3b,0xe0,0x1b,0x33,0x3c,0x83,0x04,0x71,0x3b,0x44,0xd7,0x24,0x3c,0x12,0x00,0x00,0x00,0x74,0x66,0x6c,0x2e,0x70,0x73,0x65,0x75,0x64,0x6f,0x5f,0x71,0x63,0x6f,0x6e,0x73,0x74,0x35,0x00,0x00,0x04,0x00,0x00,0x00,0x01,0x00,0x00,0x00,0x03,0x00,0x00,0x00,0x03,0x00,0x00,0x00,0x40,0x00,0x00,0x00,0x22,0xf4,0xff,0xff,0x00,0x00,0x00,0x01,0x14,0x00,0x00,0x00,0x24,0x03,0x00,0x00,0x07,0x00,0x00,0x00,0x00,0x00,0x00,0x02,0x30,0x03,0x00,0x00,0x9c,0xf3,0xff,0xff,0x08,0x00,0x00,0x00,0x08,0x02,0x00,0x00,0x40,0x00,0x00,0x00,0x00,0x00,0x00,0x00,0x00,0x00,0x00,0x00,0x00,0x00,0x00,0x00,0x00,0x00,0x00,0x00,0x00,0x00,0x00,0x00,0x00,0x00,0x00,0x00,0x00,0x00,0x00,0x00,0x00,0x00,0x00,0x00,0x00,0x00,0x00,0x00,0x00,0x00,0x00,0x00,0x00,0x00,0x00,0x00,0x00,0x00,0x00,0x00,0x00,0x00,0x00,0x00,0x00,0x00,0x00,0x00,0x00,0x00,0x00,0x00,0x00,0x00,0x00,0x00,0x00,0x00,0x00,0x00,0x00,0x00,0x00,0x00,0x00,0x00,0x00,0x00,0x00,0x00,0x00,0x00,0x00,0x00,0x00,0x00,0x00,0x00,0x00,0x00,0x00,0x00,0x00,0x00,0x00,0x00,0x00,0x00,0x00,0x00,0x00,0x00,0x00,0x00,0x00,0x00,0x00,0x00,0x00,0x00,0x00,0x00,0x00,0x00,0x00,0x00,0x00,0x00,0x00,0x00,0x00,0x00,0x00,0x00,0x00,0x00,0x00,0x00,0x00,0x00,0x00,0x00,0x00,0x00,0x00,0x00,0x00,0x00,0x00,0x00,0x00,0x00,0x00,0x00,0x00,0x00,0x00,0x00,0x00,0x00,0x00,0x00,0x00,0x00,0x00,0x00,0x00,0x00,0x00,0x00,0x00,0x00,0x00,0x00,0x00,0x00,0x00,0x00,0x00,0x00,0x00,0x00,0x00,0x00,0x00,0x00,0x00,0x00,0x00,0x00,0x00,0x00,0x00,0x00,0x00,0x00,0x00,0x00,0x00,0x00,0x00,0x00,0x00,0x00,0x00,0x00,0x00,0x00,0x00,0x00,0x00,0x00,0x00,0x00,0x00,0x00,0x00,0x00,0x00,0x00,0x00,0x00,0x00,0x00,0x00,0x00,0x00,0x00,0x00,0x00,0x00,0x00,0x00,0x00,0x00,0x00,0x00,0x00,0x00,0x00,0x00,0x00,0x00,0x00,0x00,0x00,0x00,0x00,0x00,0x00,0x00,0x00,0x00,0x00,0x00,0x00,0x00,0x00,0x00,0x00,0x00,0x00,0x00,0x00,0x00,0x00,0x00,0x00,0x00,0x00,0x00,0x00,0x00,0x00,0x00,0x00,0x00,0x00,0x00,0x00,0x00,0x00,0x00,0x00,0x00,0x00,0x00,0x00,0x00,0x00,0x00,0x00,0x00,0x00,0x00,0x00,0x00,0x00,0x00,0x00,0x00,0x00,0x00,0x00,0x00,0x00,0x00,0x00,0x00,0x00,0x00,0x00,0x00,0x00,0x00,0x00,0x00,0x00,0x00,0x00,0x00,0x00,0x00,0x00,0x00,0x00,0x00,0x00,0x00,0x00,0x00,0x00,0x00,0x00,0x00,0x00,0x00,0x00,0x00,0x00,0x00,0x00,0x00,0x00,0x00,0x00,0x00,0x00,0x00,0x00,0x00,0x00,0x00,0x00,0x00,0x00,0x00,0x00,0x00,0x00,0x00,0x00,0x00,0x00,0x00,0x00,0x00,0x00,0x00,0x00,0x00,0x00,0x00,0x00,0x00,0x00,0x00,0x00,0x00,0x00,0x00,0x00,0x00,0x00,0x00,0x00,0x00,0x00,0x00,0x00,0x00,0x00,0x00,0x00,0x00,0x00,0x00,0x00,0x00,0x00,0x00,0x00,0x00,0x00,0x00,0x00,0x00,0x00,0x00,0x00,0x00,0x00,0x00,0x00,0x00,0x00,0x00,0x00,0x00,0x00,0x00,0x00,0x00,0x00,0x00,0x00,0x00,0x00,0x00,0x00,0x00,0x00,0x00,0x00,0x00,0x00,0x00,0x00,0x00,0x00,0x00,0x00,0x00,0x00,0x00,0x00,0x00,0x00,0x00,0x00,0x00,0x00,0x00,0x00,0x00,0x00,0x00,0x00,0x00,0x00,0x00,0x00,0x00,0x00,0x00,0x00,0x00,0x00,0x00,0x00,0x00,0x00,0x00,0x00,0x00,0x00,0x00,0x00,0x00,0x00,0x00,0x00,0x00,0x00,0x00,0x00,0x00,0x00,0x00,0x00,0x00,0x00,0x00,0x00,0x00,0x00,0x00,0x00,0x00,0x00,0x00,0x00,0x00,0x00,0x00,0x00,0x00,0x00,0x00,0x00,0x00,0x00,0x00,0x00,0x00,0x00,0x00,0x00,0x00,0x00,0x00,0x00,0x00,0x00,0x40,0x00,0x00,0x00,0x2f,0x42,0xc8,0x3c,0xb4,0xaf,0x16,0x3d,0xb8,0x00,0xbb,0x3c,0x21,0x36,0x08,0x3d,0x0b,0x7a,0xe9,0x3c,0xc2,0x93,0x05,0x3d,0x67,0x8e,0x64,0x3d,0xa9,0xfd,0x2c,0x3d,0xaf,0x93,0xe2,0x3c,0xf7,0xb1,0x13,0x3d,0xaf,0x24,0x65,0x3d,0x18,0x6a,0x23,0x3d,0x2f,0xcf,0x0d,0x3d,0x29,0xe3,0xbe,0x3c,0x30,0xd8,0xd9,0x3c,0x35,0x4a,0x30,0x3d,0x44,0xb7,0xdc,0x3c,0x09,0x8f,0xd7,0x3c,0x60,0xb0,0x55,0x3b,0xc1,0x4b,0x25,0x3d,0xd3,0x36,0x24,0x3d,0x0b,0x81,0xcf,0x3c,0xd1,0xd0,0xed,0x3c,0xb9,0x6f,0x8f,0x3c,0xde,0x4a,0xd1,0x3c,0xd4,0x8c,0xe2,0x3c,0x6f,0xad,0xac,0x3c,0x16,0xb8,0x00,0x3d,0x2e,0x5d,0x06,0x3d,0x24,0x12,0x2e,0x3d,0x1e,0x88,0xe4,0x3c,0x53,0xda,0xd0,0x3c,0x7a,0xf9,0x33,0x3d,0x9f,0x3a,0x17,0x3d,0x41,0x85,0x00,0x3d,0xd3,0x08,0xc5,0x3c,0xb4,0x6a,0x12,0x3d,0xa2,0x0c,0x6e,0x3c,0xfa,0x5d,0x46,0x3d,0xe3,0xae,0x23,0x3d,0x0d,0x32,0xdf,0x3c,0x67,0x0f,0x14,0x3d,0xb1,0xbf,0xb7,0x3c,0x0a,0xf1,0xaa,0x3c,0x91,0xa8,0xd6,0x3c,0x79,0xe2,0x21,0x3d,0x1b,0xec,0xe2,0x3c,0xaa,0x1a,0xd7,0x3c,0xa8,0x6f,0xc0,0x3c,0xf5,0x7c,0xea,0x3c,0xea,0x43,0xd9,0x3c,0x9d,0xbc,0xf6,0x3c,0x10,0x2d,0x2d,0x3d,0x1d,0x56,0xa5,0x3d,0xa4,0x1b,0x93,0x3c,0xa6,0xb8,0x58,0x3c,0xbe,0xe4,0xe5,0x3c,0x98,0x31,0x90,0x3d,0x6f,0x5c,0x04,0x3d,0x8b,0xc6,0xda,0x3c,0x7a,0x36,0xe9,0x3c,0xc7,0xdd,0x47,0x3d,0x94,0x79,0x86,0x3c,0xdb,0xf1,0x37,0x3d,0x12,0x00,0x00,0x00,0x74,0x66,0x6c,0x2e,0x70,0x73,0x65,0x75,0x64,0x6f,0x5f,0x71,0x63,0x6f,0x6e,0x73,0x74,0x34,0x00,0x00,0x01,0x00,0x00,0x00,0x40,0x00,0x00,0x00,0x72,0xf7,0xff,0xff,0x00,0x00,0x00,0x01,0x14,0x00,0x00,0x00,0x28,0x03,0x00,0x00,0x06,0x00,0x00,0x00,0x00,0x00,0x00,0x09,0x34,0x03,0x00,0x00,0xec,0xf6,0xff,0xff,0x08,0x00,0x00,0x00,0x0c,0x02,0x00,0x00,0x40,0x00,0x00,0x00,0x00,0x00,0x00,0x00,0x00,0x00,0x00,0x00,0x00,0x00,0x00,0x00,0x00,0x00,0x00,0x00,0x00,0x00,0x00,0x00,0x00,0x00,0x00,0x00,0x00,0x00,0x00,0x00,0x00,0x00,0x00,0x00,0x00,0x00,0x00,0x00,0x00,0x00,0x00,0x00,0x00,0x00,0x00,0x00,0x00,0x00,0x00,0x00,0x00,0x00,0x00,0x00,0x00,0x00,0x00,0x00,0x00,0x00,0x00,0x00,0x00,0x00,0x00,0x00,0x00,0x00,0x00,0x00,0x00,0x00,0x00,0x00,0x00,0x00,0x00,0x00,0x00,0x00,0x00,0x00,0x00,0x00,0x00,0x00,0x00,0x00,0x00,0x00,0x00,0x00,0x00,0x00,0x00,0x00,0x00,0x00,0x00,0x00,0x00,0x00,0x00,0x00,0x00,0x00,0x00,0x00,0x00,0x00,0x00,0x00,0x00,0x00,0x00,0x00,0x00,0x00,0x00,0x00,0x00,0x00,0x00,0x00,0x00,0x00,0x00,0x00,0x00,0x00,0x00,0x00,0x00,0x00,0x00,0x00,0x00,0x00,0x00,0x00,0x00,0x00,0x00,0x00,0x00,0x00,0x00,0x00,0x00,0x00,0x00,0x00,0x00,0x00,0x00,0x00,0x00,0x00,0x00,0x00,0x00,0x00,0x00,0x00,0x00,0x00,0x00,0x00,0x00,0x00,0x00,0x00,0x00,0x00,0x00,0x00,0x00,0x00,0x00,0x00,0x00,0x00,0x00,0x00,0x00,0x00,0x00,0x00,0x00,0x00,0x00,0x00,0x00,0x00,0x00,0x00,0x00,0x00,0x00,0x00,0x00,0x00,0x00,0x00,0x00,0x00,0x00,0x00,0x00,0x00,0x00,0x00,0x00,0x00,0x00,0x00,0x00,0x00,0x00,0x00,0x00,0x00,0x00,0x00,0x00,0x00,0x00,0x00,0x00,0x00,0x00,0x00,0x00,0x00,0x00,0x00,0x00,0x00,0x00,0x00,0x00,0x00,0x00,0x00,0x00,0x00,0x00,0x00,0x00,0x00,0x00,0x00,0x00,0x00,0x00,0x00,0x00,0x00,0x00,0x00,0x00,0x00,0x00,0x00,0x00,0x00,0x00,0x00,0x00,0x00,0x00,0x00,0x00,0x00,0x00,0x00,0x00,0x00,0x00,0x00,0x00,0x00,0x00,0x00,0x00,0x00,0x00,0x00,0x00,0x00,0x00,0x00,0x00,0x00,0x00,0x00,0x00,0x00,0x00,0x00,0x00,0x00,0x00,0x00,0x00,0x00,0x00,0x00,0x00,0x00,0x00,0x00,0x00,0x00,0x00,0x00,0x00,0x00,0x00,0x00,0x00,0x00,0x00,0x00,0x00,0x00,0x00,0x00,0x00,0x00,0x00,0x00,0x00,0x00,0x00,0x00,0x00,0x00,0x00,0x00,0x00,0x00,0x00,0x00,0x00,0x00,0x00,0x00,0x00,0x00,0x00,0x00,0x00,0x00,0x00,0x00,0x00,0x00,0x00,0x00,0x00,0x00,0x00,0x00,0x00,0x00,0x00,0x00,0x00,0x00,0x00,0x00,0x00,0x00,0x00,0x00,0x00,0x00,0x00,0x00,0x00,0x00,0x00,0x00,0x00,0x00,0x00,0x00,0x00,0x00,0x00,0x00,0x00,0x00,0x00,0x00,0x00,0x00,0x00,0x00,0x00,0x00,0x00,0x00,0x00,0x00,0x00,0x00,0x00,0x00,0x00,0x00,0x00,0x00,0x00,0x00,0x00,0x00,0x00,0x00,0x00,0x00,0x00,0x00,0x00,0x00,0x00,0x00,0x00,0x00,0x00,0x00,0x00,0x00,0x00,0x00,0x00,0x00,0x00,0x00,0x00,0x00,0x00,0x00,0x00,0x00,0x00,0x00,0x00,0x00,0x00,0x00,0x00,0x00,0x00,0x00,0x00,0x00,0x00,0x00,0x00,0x00,0x00,0x00,0x00,0x00,0x00,0x00,0x00,0x00,0x00,0x00,0x00,0x00,0x00,0x00,0x00,0x00,0x00,0x00,0x00,0x00,0x00,0x00,0x00,0x00,0x00,0x00,0x00,0x00,0x00,0x00,0x00,0x00,0x00,0x00,0x00,0x00,0x00,0x00,0x00,0x00,0x00,0x00,0x00,0x00,0x00,0x00,0x00,0x00,0x00,0x00,0x00,0x00,0x00,0x00,0x00,0x00,0x40,0x00,0x00,0x00,0x2b,0x3f,0xd7,0x3c,0xd0,0x87,0x22,0x3c,0xa0,0x09,0x72,0x3c,0x4d,0x95,0x15,0x3c,0xb3,0x65,0x5e,0x3c,0xef,0x2c,0x6e,0x3c,0x4b,0xa7,0x5a,0x3c,0xfe,0xc8,0x8d,0x3c,0x70,0x49,0xb4,0x3b,0xe9,0x8d,0x54,0x3c,0x47,0x29,0x1c,0x3c,0x8e,0xf2,0x25,0x3c,0x54,0xe1,0x62,0x3c,0x92,0xa7,0x5a,0x3c,0x12,0x1f,0x71,0x3c,0xb7,0xd8,0xad,0x3c,0x2f,0x68,0x85,0x3c,0x7a,0x53,0x64,0x3c,0x58,0x6e,0x56,0x3c,0xf9,0x4d,0x3d,0x3c,0x5c,0x87,0xf7,0x3b,0x87,0x04,0x38,0x3c,0x2d,0xa3,0x26,0x3c,0xb5,0x2f,0x58,0x3c,0x57,0x18,0x6b,0x3c,0x6e,0x47,0x4e,0x3c,0x77,0x00,0x54,0x3c,0xf5,0x9d,0x76,0x3c,0xd0,0x80,0xc8,0x3c,0xc5,0x7a,0x2a,0x3c,0x5c,0x6e,0x78,0x3c,0xd1,0x3a,0x3e,0x3c,0x01,0x40,0x40,0x3c,0x2e,0x2d,0x15,0x3c,0x43,0x14,0x43,0x3c,0xa0,0xd6,0x36,0x3c,0x91,0x25,0x4b,0x3c,0x57,0xbd,0x73,0x3c,0x26,0x5f,0xe0,0x3b,0xb1,0xcd,0x18,0x3c,0xa7,0xee,0x16,0x3c,0x69,0xeb,0xcc,0x3c,0xe9,0x9c,0x4c,0x3c,0x66,0x69,0xdb,0x3c,0x20,0x75,0x8b,0x3c,0xde,0x34,0x29,0x3c,0x17,0xe7,0x51,0x3c,0x3c,0xfc,0x54,0x3c,0x5f,0xdb,0x49,0x3c,0x06,0x18,0x36,0x3c,0x52,0xa2,0x7f,0x3c,0x0d,0x39,0xff,0x3b,0x11,0xa9,0x65,0x3c,0x83,0x00,0x3a,0x3c,0xef,0x62,0x21,0x3c,0xe3,0xfd,0x3b,0x3c,0xb3,0x30,0x0e,0x3c,0x0c,0x04,0x10,0x3c,0xd4,0x67,0x75,0x3c,0x5f,0x21,0x82,0x3c,0x89,0xd7,0x5b,0x3c,0xb2,0xb3,0x38,0x3c,0x6f,0x36,0x01,0x3c,0xb2,0x97,0xdd,0x3b,0x12,0x00,0x00,0x00,0x74,0x66,0x6c,0x2e,0x70,0x73,0x65,0x75,0x64,0x6f,0x5f,0x71,0x63,0x6f,0x6e,0x73,0x74,0x33,0x00,0x00,0x04,0x00,0x00,0x00,0x40,0x00,0x00,0x00,0x01,0x00,0x00,0x00,0x01,0x00,0x00,0x00,0x40,0x00,0x00,0x00,0xd2,0xfa,0xff,0xff,0x00,0x00,0x00,0x01,0x14,0x00,0x00,0x00,0x24,0x03,0x00,0x00,0x05,0x00,0x00,0x00,0x00,0x00,0x00,0x02,0x30,0x03,0x00,0x00,0x4c,0xfa,0xff,0xff,0x08,0x00,0x00,0x00,0x08,0x02,0x00,0x00,0x40,0x00,0x00,0x00,0x00,0x00,0x00,0x00,0x00,0x00,0x00,0x00,0x00,0x00,0x00,0x00,0x00,0x00,0x00,0x00,0x00,0x00,0x00,0x00,0x00,0x00,0x00,0x00,0x00,0x00,0x00,0x00,0x00,0x00,0x00,0x00,0x00,0x00,0x00,0x00,0x00,0x00,0x00,0x00,0x00,0x00,0x00,0x00,0x00,0x00,0x00,0x00,0x00,0x00,0x00,0x00,0x00,0x00,0x00,0x00,0x00,0x00,0x00,0x00,0x00,0x00,0x00,0x00,0x00,0x00,0x00,0x00,0x00,0x00,0x00,0x00,0x00,0x00,0x00,0x00,0x00,0x00,0x00,0x00,0x00,0x00,0x00,0x00,0x00,0x00,0x00,0x00,0x00,0x00,0x00,0x00,0x00,0x00,0x00,0x00,0x00,0x00,0x00,0x00,0x00,0x00,0x00,0x00,0x00,0x00,0x00,0x00,0x00,0x00,0x00,0x00,0x00,0x00,0x00,0x00,0x00,0x00,0x00,0x00,0x00,0x00,0x00,0x00,0x00,0x00,0x00,0x00,0x00,0x00,0x00,0x00,0x00,0x00,0x00,0x00,0x00,0x00,0x00,0x00,0x00,0x00,0x00,0x00,0x00,0x00,0x00,0x00,0x00,0x00,0x00,0x00,0x00,0x00,0x00,0x00,0x00,0x00,0x00,0x00,0x00,0x00,0x00,0x00,0x00,0x00,0x00,0x00,0x00,0x00,0x00,0x00,0x00,0x00,0x00,0x00,0x00,0x00,0x00,0x00,0x00,0x00,0x00,0x00,0x00,0x00,0x00,0x00,0x00,0x00,0x00,0x00,0x00,0x00,0x00,0x00,0x00,0x00,0x00,0x00,0x00,0x00,0x00,0x00,0x00,0x00,0x00,0x00,0x00,0x00,0x00,0x00,0x00,0x00,0x00,0x00,0x00,0x00,0x00,0x00,0x00,0x00,0x00,0x00,0x00,0x00,0x00,0x00,0x00,0x00,0x00,0x00,0x00,0x00,0x00,0x00,0x00,0x00,0x00,0x00,0x00,0x00,0x00,0x00,0x00,0x00,0x00,0x00,0x00,0x00,0x00,0x00,0x00,0x00,0x00,0x00,0x00,0x00,0x00,0x00,0x00,0x00,0x00,0x00,0x00,0x00,0x00,0x00,0x00,0x00,0x00,0x00,0x00,0x00,0x00,0x00,0x00,0x00,0x00,0x00,0x00,0x00,0x00,0x00,0x00,0x00,0x00,0x00,0x00,0x00,0x00,0x00,0x00,0x00,0x00,0x00,0x00,0x00,0x00,0x00,0x00,0x00,0x00,0x00,0x00,0x00,0x00,0x00,0x00,0x00,0x00,0x00,0x00,0x00,0x00,0x00,0x00,0x00,0x00,0x00,0x00,0x00,0x00,0x00,0x00,0x00,0x00,0x00,0x00,0x00,0x00,0x00,0x00,0x00,0x00,0x00,0x00,0x00,0x00,0x00,0x00,0x00,0x00,0x00,0x00,0x00,0x00,0x00,0x00,0x00,0x00,0x00,0x00,0x00,0x00,0x00,0x00,0x00,0x00,0x00,0x00,0x00,0x00,0x00,0x00,0x00,0x00,0x00,0x00,0x00,0x00,0x00,0x00,0x00,0x00,0x00,0x00,0x00,0x00,0x00,0x00,0x00,0x00,0x00,0x00,0x00,0x00,0x00,0x00,0x00,0x00,0x00,0x00,0x00,0x00,0x00,0x00,0x00,0x00,0x00,0x00,0x00,0x00,0x00,0x00,0x00,0x00,0x00,0x00,0x00,0x00,0x00,0x00,0x00,0x00,0x00,0x00,0x00,0x00,0x00,0x00,0x00,0x00,0x00,0x00,0x00,0x00,0x00,0x00,0x00,0x00,0x00,0x00,0x00,0x00,0x00,0x00,0x00,0x00,0x00,0x00,0x00,0x00,0x00,0x00,0x00,0x00,0x00,0x00,0x00,0x00,0x00,0x00,0x00,0x00,0x00,0x00,0x00,0x00,0x00,0x00,0x00,0x00,0x00,0x00,0x00,0x00,0x00,0x00,0x00,0x00,0x00,0x00,0x00,0x00,0x00,0x00,0x00,0x00,0x00,0x00,0x00,0x00,0x00,0x00,0x00,0x00,0x00,0x00,0x00,0x00,0x00,0x00,0x00,0x00,0x00,0x00,0x00,0x00,0x00,0x00,0x00,0x00,0x00,0x00,0x00,0x00,0x00,0x00,0x00,0x00,0x00,0x40,0x00,0x00,0x00,0x8d,0x97,0xfd,0x3c,0x0f,0x7c,0x3f,0x3c,0xe8,0x93,0x8e,0x3c,0x15,0x3b,0x30,0x3c,0x17,0x02,0x83,0x3c,0x7f,0x4d,0x8c,0x3c,0x85,0xcd,0x80,0x3c,0x24,0x0b,0xa7,0x3c,0x77,0x67,0xd4,0x3b,0x81,0x6b,0x7a,0x3c,0x0d,0xfb,0x37,0x3c,0xa2,0x82,0x43,0x3c,0x21,0xa6,0x85,0x3c,0xaf,0xcd,0x80,0x3c,0xbc,0x09,0x8e,0x3c,0x08,0xd1,0xcc,0x3c,0x3e,0x2c,0x9d,0x3c,0x2c,0x80,0x86,0x3c,0x87,0xa1,0x7c,0x3c,0x42,0x07,0x5f,0x3c,0xfc,0xcf,0x11,0x3c,0xb3,0xcc,0x58,0x3c,0xb8,0x52,0x44,0x3c,0xf1,0xb2,0x7e,0x3c,0xf5,0x7c,0x8a,0x3c,0xd6,0x06,0x73,0x3c,0xdd,0xc4,0x79,0x3c,0x7f,0x46,0x91,0x3c,0xd0,0x38,0xec,0x3c,0x89,0xd9,0x48,0x3c,0x10,0x58,0x92,0x3c,0x4b,0x1e,0x60,0x3c,0x9d,0x7f,0x62,0x3c,0x69,0xc0,0x2f,0x3c,0xe5,0xd4,0x65,0x3c,0x04,0x69,0x57,0x3c,0x20,0x56,0x6f,0x3c,0x93,0x94,0x8f,0x3c,0xd7,0x2b,0x04,0x3c,0x55,0x06,0x34,0x3c,0xf5,0xd1,0x31,0x3c,0xd2,0x6c,0xf1,0x3c,0x56,0x10,0x71,0x3c,0xdd,0x3f,0x01,0x3d,0x1f,0x4d,0xa4,0x3c,0x93,0x59,0x47,0x3c,0xc1,0x4b,0x77,0x3c,0x7c,0xed,0x7a,0x3c,0x1b,0xd1,0x6d,0x3c,0x76,0x88,0x56,0x3c,0x4a,0x96,0x96,0x3c,0x47,0x58,0x16,0x3c,0x65,0x49,0x87,0x3c,0x2e,0x23,0x5b,0x3c,0x01,0x23,0x3e,0x3c,0x4c,0x7b,0x5d,0x3c,0x52,0x85,0x27,0x3c,0xed,0xab,0x29,0x3c,0xce,0x8f,0x90,0x3c,0x00,0x50,0x99,0x3c,0xbe,0x80,0x81,0x3c,0x13,0x9b,0x59,0x3c,0x35,0x3b,0x18,0x3c,0xbe,0x88,0x02,0x3c,0x12,0x00,0x00,0x00,0x74,0x66,0x6c,0x2e,0x70,0x73,0x65,0x75,0x64,0x6f,0x5f,0x71,0x63,0x6f,0x6e,0x73,0x74,0x32,0x00,0x00,0x01,0x00,0x00,0x00,0x40,0x00,0x00,0x00,0x22,0xfe,0xff,0xff,0x00,0x00,0x00,0x01,0x14,0x00,0x00,0x00,0xc0,0x00,0x00,0x00,0x04,0x00,0x00,0x00,0x00,0x00,0x00,0x09,0xcc,0x00,0x00,0x00,0x9c,0xfd,0xff,0xff,0x08,0x00,0x00,0x00,0x70,0x00,0x00,0x00,0x0d,0x00,0x00,0x00,0x00,0x00,0x00,0x00,0x00,0x00,0x00,0x00,0x00,0x00,0x00,0x00,0x00,0x00,0x00,0x00,0x00,0x00,0x00,0x00,0x00,0x00,0x00,0x00,0x00,0x00,0x00,0x00,0x00,0x00,0x00,0x00,0x00,0x00,0x00,0x00,0x00,0x00,0x00,0x00,0x00,0x00,0x00,0x00,0x00,0x00,0x00,0x00,0x00,0x00,0x00,0x00,0x00,0x00,0x00,0x00,0x00,0x00,0x00,0x00,0x00,0x00,0x00,0x00,0x00,0x00,0x00,0x00,0x00,0x00,0x00,0x00,0x00,0x00,0x00,0x00,0x00,0x00,0x00,0x00,0x00,0x00,0x00,0x00,0x00,0x00,0x00,0x00,0x00,0x00,0x00,0x00,0x00,0x00,0x00,0x00,0x00,0x00,0x00,0x00,0x00,0x00,0x00,0x00,0x0d,0x00,0x00,0x00,0xa1,0x9a,0xca,0x3b,0xf1,0x2f,0x35,0x3c,0x73,0x56,0x67,0x3c,0xde,0xb5,0x09,0x3c,0x5a,0x92,0xc0,0x3b,0xe6,0x86,0x04,0x3c,0x92,0xf6,0x27,0x3c,0xd3,0x5d,0x36,0x3c,0xba,0xbb,0x51,0x3c,0xbc,0x99,0x08,0x3c,0x05,0x46,0x37,0x3c,0x09,0xec,0x90,0x3c,0x28,0xbe,0x58,0x3c,0x12,0x00,0x00,0x00,0x74,0x66,0x6c,0x2e,0x70,0x73,0x65,0x75,0x64,0x6f,0x5f,0x71,0x63,0x6f,0x6e,0x73,0x74,0x31,0x00,0x00,0x02,0x00,0x00,0x00,0x0d,0x00,0x00,0x00,0x40,0x00,0x00,0x00,0x12,0xff,0xff,0xff,0x00,0x00,0x00,0x01,0x14,0x00,0x00,0x00,0xc0,0x00,0x00,0x00,0x03,0x00,0x00,0x00,0x00,0x00,0x00,0x02,0xcc,0x00,0x00,0x00,0x8c,0xfe,0xff,0xff,0x08,0x00,0x00,0x00,0x70,0x00,0x00,0x00,0x0d,0x00,0x00,0x00,0x00,0x00,0x00,0x00,0x00,0x00,0x00,0x00,0x00,0x00,0x00,0x00,0x00,0x00,0x00,0x00,0x00,0x00,0x00,0x00,0x00,0x00,0x00,0x00,0x00,0x00,0x00,0x00,0x00,0x00,0x00,0x00,0x00,0x00,0x00,0x00,0x00,0x00,0x00,0x00,0x00,0x00,0x00,0x00,0x00,0x00,0x00,0x00,0x00,0x00,0x00,0x00,0x00,0x00,0x00,0x00,0x00,0x00,0x00,0x00,0x00,0x00,0x00,0x00,0x00,0x00,0x00,0x00,0x00,0x00,0x00,0x00,0x00,0x00,0x00,0x00,0x00,0x00,0x00,0x00,0x00,0x00,0x00,0x00,0x00,0x00,0x00,0x00,0x00,0x00,0x00,0x00,0x00,0x00,0x00,0x00,0x00,0x00,0x00,0x00,0x00,0x00,0x00,0x00,0x0d,0x00,0x00,0x00,0x25,0x4e,0xf7,0x39,0xcb,0x29,0x5d,0x3a,0x74,0x30,0x8d,0x3a,0x0d,0x18,0x28,0x3a,0x38,0x0f,0xeb,0x39,0x4f,0xc4,0x21,0x3a,0x7f,0x05,0x4d,0x3a,0x48,0x9a,0x5e,0x3a,0xf6,0x00,0x80,0x3a,0x3b,0xbd,0x26,0x3a,0xb5,0xb5,0x5f,0x3a,0x8c,0xe5,0xb0,0x3a,0x21,0x48,0x84,0x3a,0x11,0x00,0x00,0x00,0x74,0x66,0x6c,0x2e,0x70,0x73,0x65,0x75,0x64,0x6f,0x5f,0x71,0x63,0x6f,0x6e,0x73,0x74,0x00,0x00,0x00,0x01,0x00,0x00,0x00,0x0d,0x00,0x00,0x00,0x00,0x00,0x16,0x00,0x1c,0x00,0x18,0x00,0x17,0x00,0x10,0x00,0x0c,0x00,0x08,0x00,0x00,0x00,0x00,0x00,0x00,0x00,0x07,0x00,0x16,0x00,0x00,0x00,0x00,0x00,0x00,0x01,0x18,0x00,0x00,0x00,0x18,0x00,0x00,0x00,0x02,0x00,0x00,0x00,0x00,0x00,0x00,0x02,0x20,0x00,0x00,0x00,0x04,0x00,0x04,0x00,0x04,0x00,0x00,0x00,0x0e,0x00,0x00,0x00,0x61,0x72,0x69,0x74,0x68,0x2e,0x63,0x6f,0x6e,0x73,0x74,0x61,0x6e,0x74,0x00,0x00,0x01,0x00,0x00,0x00,0x02,0x00,0x00,0x00,0x00,0x00,0x16,0x00,0x20,0x00,0x1c,0x00,0x1b,0x00,0x14,0x00,0x10,0x00,0x0c,0x00,0x00,0x00,0x00,0x00,0x08,0x00,0x07,0x00,0x16,0x00,0x00,0x00,0x00,0x00,0x00,0x01,0x18,0x00,0x00,0x00,0x34,0x00,0x00,0x00,0x54,0x00,0x00,0x00,0x01,0x00,0x00,0x00,0x00,0x00,0x00,0x09,0x6c,0x00,0x00,0x00,0x04,0x00,0x00,0x00,0xff,0xff,0xff,0xff,0x63,0x00,0x00,0x00,0x0c,0x00,0x00,0x00,0x01,0x00,0x00,0x00,0x0c,0x00,0x0c,0x00,0x00,0x00,0x00,0x00,0x08,0x00,0x04,0x00,0x0c,0x00,0x00,0x00,0x08,0x00,0x00,0x00,0x14,0x00,0x00,0x00,0x01,0x00,0x00,0x00,0x55,0x00,0x00,0x00,0x00,0x00,0x00,0x00,0x00,0x00,0x00,0x00,0x01,0x00,0x00,0x00,0xf3,0xaa,0x14,0x3f,0x1e,0x00,0x00,0x00,0x73,0x65,0x72,0x76,0x69,0x6e,0x67,0x5f,0x64,0x65,0x66,0x61,0x75,0x6c,0x74,0x5f,0x6b,0x65,0x72,0x61,0x73,0x5f,0x74,0x65,0x6e,0x73,0x6f,0x72,0x3a,0x30,0x00,0x00,0x04,0x00,0x00,0x00,0x01,0x00,0x00,0x00,0x63,0x00,0x00,0x00,0x0c,0x00,0x00,0x00,0x01,0x00,0x00,0x00,0x05,0x00,0x00,0x00,0x60,0x00,0x00,0x00,0x40,0x00,0x00,0x00,0x2c,0x00,0x00,0x00,0x18,0x00,0x00,0x00,0x04,0x00,0x00,0x00,0xc0,0xff,0xff,0xff,0x19,0x00,0x00,0x00,0x02,0x00,0x00,0x00,0x00,0x00,0x00,0x19,0xd0,0xff,0xff,0xff,0x09,0x00,0x00,0x00,0x04,0x00,0x00,0x00,0x00,0x00,0x00,0x09,0xe0,0xff,0xff,0xff,0x28,0x00,0x00,0x00,0x02,0x00,0x00,0x00,0x00,0x00,0x00,0x28,0xf0,0xff,0xff,0xff,0x04,0x00,0x00,0x00,0x03,0x00,0x00,0x00,0x00,0x00,0x00,0x04,0x0c,0x00,0x10,0x00,0x0f,0x00,0x00,0x00,0x08,0x00,0x04,0x00,0x0c,0x00,0x00,0x00,0x03,0x00,0x00,0x00,0x03,0x00,0x00,0x00,0x00,0x00,0x00,0x03
};
const unsigned int model_len = 15344;

#endif // MODEL_H