#ifndef MODEL_H
#define MODEL_H

const unsigned char model_data[] = {
0x20,0x00,0x00,0x00,0x54,0x46,0x4c,0x33,0x00,0x00,0x00,0x00,0x14,0x00,0x20,0x00,0x1c,0x00,0x18,0x00,0x14,0x00,0x10,0x00,0x0c,0x00,0x00,0x00,0x08,0x00,0x04,0x00,0x14,0x00,0x00,0x00,0x1c,0x00,0x00,0x00,0x98,0x00,0x00,0x00,0x18,0x01,0x00,0x00,0x94,0x1d,0x00,0x00,0xa4,0x1d,0x00,0x00,0x44,0x3b,0x00,0x00,0x03,0x00,0x00,0x00,0x01,0x00,0x00,0x00,0x10,0x00,0x00,0x00,0x00,0x00,0x0a,0x00,0x10,0x00,0x0c,0x00,0x08,0x00,0x04,0x00,0x0a,0x00,0x00,0x00,0x0c,0x00,0x00,0x00,0x1c,0x00,0x00,0x00,0x3c,0x00,0x00,0x00,0x0f,0x00,0x00,0x00,0x73,0x65,0x72,0x76,0x69,0x6e,0x67,0x5f,0x64,0x65,0x66,0x61,0x75,0x6c,0x74,0x00,0x01,0x00,0x00,0x00,0x04,0x00,0x00,0x00,0x68,0xff,0xff,0xff,0x0f,0x00,0x00,0x00,0x04,0x00,0x00,0x00,0x08,0x00,0x00,0x00,0x6f,0x75,0x74,0x70,0x75,0x74,0x5f,0x30,0x00,0x00,0x00,0x00,0x01,0x00,0x00,0x00,0x04,0x00,0x00,0x00,0x5a,0xe2,0xff,0xff,0x04,0x00,0x00,0x00,0x0c,0x00,0x00,0x00,0x6b,0x65,0x72,0x61,0x73,0x5f,0x74,0x65,0x6e,0x73,0x6f,0x72,0x00,0x00,0x00,0x00,0x03,0x00,0x00,0x00,0x5c,0x00,0x00,0x00,0x2c,0x00,0x00,0x00,0x04,0x00,0x00,0x00,0xb8,0xff,0xff,0xff,0x13,0x00,0x00,0x00,0x04,0x00,0x00,0x00,0x13,0x00,0x00,0x00,0x43,0x4f,0x4e,0x56,0x45,0x52,0x53,0x49,0x4f,0x4e,0x5f,0x4d,0x45,0x54,0x41,0x44,0x41,0x54,0x41,0x00,0xdc,0xff,0xff,0xff,0x12,0x00,0x00,0x00,0x04,0x00,0x00,0x00,0x13,0x00,0x00,0x00,0x6d,0x69,0x6e,0x5f,0x72,0x75,0x6e,0x74,0x69,0x6d,0x65,0x5f,0x76,0x65,0x72,0x73,0x69,0x6f,0x6e,0x00,0x08,0x00,0x0c,0x00,0x08,0x00,0x04,0x00,0x08,0x00,0x00,0x00,0x11,0x00,0x00,0x00,0x04,0x00,0x00,0x00,0x13,0x00,0x00,0x00,0x6d,0x69,0x6e,0x5f,0x72,0x75,0x6e,0x74,0x69,0x6d,0x65,0x5f,0x76,0x65,0x72,0x73,0x69,0x6f,0x6e,0x00,0x14,0x00,0x00,0x00,0x78,0x1c,0x00,0x00,0x70,0x1c,0x00,0x00,0x58,0x1c,0x00,0x00,0x14,0x1c,0x00,0x00,0xc4,0x18,0x00,0x00,0xb4,0x17,0x00,0x00,0xa4,0x07,0x00,0x00,0x94,0x06,0x00,0x00,0x44,0x04,0x00,0x00,0x34,0x03,0x00,0x00,0xe4,0x00,0x00,0x00,0xdc,0x00,0x00,0x00,0xd4,0x00,0x00,0x00,0xcc,0x00,0x00,0x00,0xc4,0x00,0x00,0x00,0xbc,0x00,0x00,0x00,0xb4,0x00,0x00,0x00,0x94,0x00,0x00,0x00,0x74,0x00,0x00,0x00,0x04,0x00,0x00,0x00,0x4e,0xe3,0xff,0xff,0x04,0x00,0x00,0x00,0x60,0x00,0x00,0x00,0x0c,0x00,0x00,0x00,0x08,0x00,0x0e,0x00,0x08,0x00,0x04,0x00,0x08,0x00,0x00,0x00,0x10,0x00,0x00,0x00,0x28,0x00,0x00,0x00,0x00,0x00,0x06,0x00,0x08,0x00,0x04,0x00,0x06,0x00,0x00,0x00,0x04,0x00,0x00,0x00,0x01,0x00,0x00,0x00,0xeb,0x03,0x00,0x00,0x0c,0x00,0x18,0x00,0x14,0x00,0x10,0x00,0x0c,0x00,0x04,0x00,0x0c,0x00,0x00,0x00,0x6f,0xd2,0x54,0x45,0xf3,0x1f,0x68,0x88,0x02,0x00,0x00,0x00,0x02,0x00,0x00,0x00,0x04,0x00,0x00,0x00,0x06,0x00,0x00,0x00,0x32,0x2e,0x31,0x38,0x2e,0x30,0x00,0x00,0xba,0xe3,0xff,0xff,0x04,0x00,0x00,0x00,0x10,0x00,0x00,0x00,0x00,0x00,0x00,0x00,0x00,0x00,0x00,0x00,0x00,0x00,0x00,0x00,0x00,0x00,0x00,0x00,0xd6,0xe3,0xff,0xff,0x04,0x00,0x00,0x00,0x10,0x00,0x00,0x00,0x31,0x2e,0x31,0x34,0x2e,0x30,0x00,0x00,0x00,0x00,0x00,0x00,0x00,0x00,0x00,0x00,0x98,0xc7,0xff,0xff,0x9c,0xc7,0xff,0xff,0xa0,0xc7,0xff,0xff,0xa4,0xc7,0xff,0xff,0xa8,0xc7,0xff,0xff,0xac,0xc7,0xff,0xff,0x0a,0xe4,0xff,0xff,0x04,0x00,0x00,0x00,0x40,0x02,0x00,0x00,0x05,0xcb,0x2a,0x07,0x90,0x1d,0x17,0x81,0x0f,0xfd,0x2f,0x7f,0xd5,0x05,0x69,0xf1,0xec,0x3f,0x21,0x71,0x5f,0xe5,0xe3,0xe3,0xb6,0x81,0xbf,0xba,0xe7,0x20,0x07,0xca,0xd1,0xfe,0x81,0x9b,0x72,0xf2,0xdc,0x18,0x8a,0xb1,0x9d,0x82,0x81,0x81,0xea,0xe7,0xd0,0xec,0xed,0x06,0xe0,0xd2,0xfe,0x69,0xe7,0x1f,0x29,0xb5,0xf2,0x05,0x81,0x09,0x6f,0xa2,0xfd,0xfb,0x03,0x06,0x81,0x5e,0x7f,0x12,0xd6,0x7f,0x04,0x9d,0x65,0xeb,0x89,0x19,0x0a,0x5b,0x43,0x1d,0x41,0x7f,0x37,0x47,0xdb,0x22,0x02,0xc8,0x20,0x39,0xc0,0x44,0x7f,0xda,0x4d,0x5d,0xbf,0x7f,0x5f,0xdc,0x56,0x3d,0x65,0x78,0x2c,0x23,0x38,0x7f,0xdf,0x17,0x75,0xd7,0x8f,0xaa,0x09,0x81,0xd9,0x1f,0xb5,0x00,0x00,0x7f,0x53,0x11,0x39,0x23,0x01,0x16,0x2b,0x81,0x14,0x7c,0xa8,0x28,0x7c,0xe8,0x2d,0x69,0x8d,0xc9,0xc7,0xb0,0xbb,0xa7,0xd0,0xb5,0x81,0x7f,0x1e,0xc1,0xfb,0xf6,0xec,0x86,0xc8,0x32,0xf9,0x5c,0x0b,0xfc,0x37,0x4b,0x01,0x17,0x7f,0x6d,0x95,0x5d,0x56,0xea,0x7f,0x29,0x44,0x5f,0xca,0x38,0xc4,0x9a,0x4c,0xb3,0xbd,0x37,0x81,0x7f,0x57,0x01,0xfa,0x04,0xf8,0x9c,0xa6,0xa6,0x03,0x27,0x2b,0x0b,0x46,0x55,0x04,0x64,0x7f,0xed,0x7f,0x72,0x06,0x70,0x46,0x44,0x76,0xfb,0x69,0x74,0x2f,0x2c,0x53,0x1f,0x33,0x7f,0x5e,0xfd,0x81,0xde,0xc8,0x96,0x0d,0xaf,0xb1,0x31,0x7f,0xba,0x6b,0x4b,0xc6,0x78,0x00,0xde,0x66,0x7f,0xf2,0xfd,0xf2,0xf4,0x24,0x89,0x3a,0xf3,0xb6,0x81,0xda,0xad,0xa2,0xb6,0xc5,0xdc,0xb7,0xe6,0xd4,0x81,0x04,0xc5,0x94,0x09,0xdc,0xba,0x42,0x11,0x75,0x51,0xff,0x7b,0x38,0xd7,0x7f,0x3e,0x13,0x4b,0x29,0xe2,0x65,0x16,0xc1,0x7f,0x0c,0x81,0xc6,0xfc,0xcd,0xa4,0xfa,0xef,0x95,0x7f,0x32,0xe9,0x70,0x45,0xa9,0x5e,0x71,0x98,0xee,0x90,0x81,0xc3,0x9d,0x9e,0xaf,0xa4,0xae,0x27,0x2b,0x30,0x45,0xd6,0x24,0x69,0x81,0x2a,0x3c,0x7f,0xf4,0xdf,0x65,0x2b,0xa2,0x6b,0x78,0x65,0x1a,0xba,0xed,0xd8,0xb4,0x81,0xaa,0xcc,0xf6,0x81,0xd3,0xfb,0x8a,0xf4,0xf9,0xad,0x1f,0xcc,0x81,0x5b,0xad,0xa8,0x59,0xa7,0xe5,0x50,0x37,0x20,0x35,0x65,0x10,0xfc,0x7f,0xe8,0xbe,0x5f,0x81,0x18,0x32,0xbd,0x18,0xee,0x01,0x00,0xe1,0x81,0x1f,0x0d,0xee,0x17,0x22,0x3d,0x06,0x2f,0x0a,0x0c,0x5e,0x5a,0xdb,0x7f,0x7a,0xbc,0x36,0x9f,0xc0,0x48,0xa1,0xa1,0x3d,0x81,0x99,0xf3,0xc1,0x66,0x00,0xb5,0x6f,0x0f,0xb1,0x7f,0x1f,0x81,0xdf,0x0c,0xa6,0xe6,0xd2,0xb0,0xf2,0xba,0x03,0x0d,0xfd,0x11,0x01,0xf9,0x81,0x9b,0x2d,0x45,0x16,0xff,0x6a,0x41,0xfe,0x7f,0x63,0xe6,0x42,0x81,0xfb,0x41,0x82,0xdc,0x4b,0x9a,0xcf,0x10,0x81,0xb7,0x28,0xd7,0xd0,0x52,0x4e,0xf5,0x59,0xe3,0x60,0xb4,0x29,0x5b,0x63,0x81,0xe3,0xa7,0x95,0xec,0xea,0x17,0x02,0x58,0x7f,0x2a,0x81,0xee,0x2f,0xd4,0xfc,0xed,0xfb,0xd9,0xc6,0xdb,0x18,0xc9,0xca,0xc8,0xf1,0xe0,0x81,0x7f,0xa9,0xe0,0x47,0xc5,0xf7,0xf2,0xca,0x18,0x10,0x29,0xcb,0xb7,0x42,0x2e,0xbf,0x0e,0x7f,0x5e,0x7f,0x5d,0x3f,0x68,0x39,0xf4,0x2f,0x16,0x22,0x81,0x94,0xfe,0xfb,0xcd,0xe7,0x6e,0xb9,0xdb,0xef,0x7f,0xf6,0xdf,0x39,0x06,0xd7,0xf5,0x0a,0xef,0x52,0xf6,0xad,0xed,0xf1,0x81,0x91,0xc5,0x81,0x56,0x0a,0x94,0x27,0x42,0x8b,0x25,0x28,0xee,0xc6,0x39,0x3a,0x0f,0x4d,0x7f,0x5f,0x2e,0x02,0x81,0x08,0xdb,0x9d,0xdd,0xae,0xb9,0x56,0xe6,0xff,0xff,0x04,0x00,0x00,0x00,0x00,0x01,0x00,0x00,0x1c,0xfe,0xff,0xff,0x5e,0x00,0x00,0x00,0x89,0x01,0x00,0x00,0x4f,0xff,0xff,0xff,0x57,0xfe,0xff,0xff,0x8b,0x00,0x00,0x00,0x3b,0xff,0xff,0xff,0x84,0xff,0xff,0xff,0xec,0xff,0xff,0xff,0xaf,0x00,0x00,0x00,0x36,0xff,0xff,0xff,0x4c,0xfd,0xff,0xff,0x37,0xfd,0xff,0xff,0xf4,0xfd,0xff,0xff,0x82,0x00,0x00,0x00,0x98,0xff,0xff,0xff,0x14,0x00,0x00,0x00,0x92,0xff,0xff,0xff,0x56,0x00,0x00,0x00,0x21,0x00,0x00,0x00,0x94,0xfc,0xff,0xff,0xe4,0xfe,0xff,0xff,0xe9,0xff,0xff,0xff,0x98,0x00,0x00,0x00,0x42,0x00,0x00,0x00,0xfe,0xfe,0xff,0xff,0xd9,0xff,0xff,0xff,0x0c,0x00,0x00,0x00,0x50,0x00,0x00,0x00,0x6f,0xff,0xff,0xff,0x7f,0x00,0x00,0x00,0xf3,0xfe,0xff,0xff,0x0c,0xff,0xff,0xff,0x58,0x02,0x00,0x00,0x52,0x00,0x00,0x00,0xfb,0xfe,0xff,0xff,0x11,0x00,0x00,0x00,0x0e,0x00,0x00,0x00,0xc8,0xfe,0xff,0xff,0xf9,0xff,0xff,0xff,0xd9,0xff,0xff,0xff,0xbb,0xff,0xff,0xff,0x03,0x01,0x00,0x00,0x71,0xff,0xff,0xff,0x0d,0x00,0x00,0x00,0x54,0xff,0xff,0xff,0xcf,0xff,0xff,0xff,0xc3,0xff,0xff,0xff,0x51,0xff,0xff,0xff,0xcf,0xff,0xff,0xff,0xb4,0xfe,0xff,0xff,0x17,0x00,0x00,0x00,0x8a,0xff,0xff,0xff,0x57,0x00,0x00,0x00,0x42,0x01,0x00,0x00,0xc0,0xfe,0xff,0xff,0x35,0xfd,0xff,0xff,0x1a,0x00,0x00,0x00,0xa2,0xff,0xff,0xff,0x69,0x00,0x00,0x00,0xfa,0xfe,0xff,0xff,0x89,0xff,0xff,0xff,0xa8,0x00,0x00,0x00,0x08,0x00,0x00,0x00,0x62,0xe7,0xff,0xff,0x04,0x00,0x00,0x00,0x40,0x02,0x00,0x00,0x00,0x21,0xff,0x1d,0xc0,0xe9,0xc0,0x5c,0x81,0xe3,0x42,0x12,0x7f,0x41,0xf5,0x81,0x17,0x4b,0x20,0x64,0x29,0x41,0x81,0x7f,0x79,0xef,0x7f,0x62,0xe0,0xd5,0xfc,0x0d,0x7f,0x18,0x81,0x2a,0xfb,0xbd,0x7f,0x9b,0x81,0x7f,0x7f,0xeb,0xbd,0xae,0x48,0x35,0xcf,0x10,0x02,0xae,0xe4,0x7f,0x12,0x7f,0x0f,0x7f,0x18,0x52,0xf7,0x21,0x1f,0x3e,0x91,0x02,0x41,0x11,0x31,0x7f,0xfc,0x7b,0xfd,0x31,0x3a,0x16,0x79,0x7f,0x7f,0x27,0x4a,0x73,0x0b,0x1a,0x86,0x35,0xf0,0x11,0x6d,0x3a,0xe9,0x29,0xe1,0xe3,0x1d,0x47,0x62,0x81,0xf4,0xf0,0x31,0xf4,0xfe,0xc7,0x1b,0xfb,0x27,0xf5,0x18,0x87,0x1b,0x95,0xe1,0x81,0x78,0xa5,0x66,0x4f,0x3f,0x5d,0x91,0x00,0x7f,0x81,0x81,0xe6,0xd3,0x54,0x1f,0x7f,0x28,0x49,0x34,0x36,0x62,0x4e,0x19,0x31,0xe9,0x86,0x57,0x47,0x13,0x76,0x7f,0x41,0x81,0x9d,0xdd,0x47,0x0b,0xec,0x6c,0x0c,0xc7,0x01,0x81,0x7f,0x7f,0x95,0xca,0xd7,0x33,0xf2,0x7a,0x47,0x2f,0x4b,0xfa,0x18,0x2d,0x26,0x0a,0x11,0xed,0x97,0x4a,0xfc,0x27,0x8a,0x7f,0xf8,0xc2,0x15,0xb1,0xbf,0x0b,0x86,0xe5,0x81,0xfe,0x3a,0x46,0xea,0xf2,0x04,0xec,0xef,0xd7,0x4f,0xa9,0x24,0xea,0x19,0x68,0x26,0x02,0xbe,0xf0,0x57,0x1c,0x53,0x12,0x52,0x8c,0x7b,0x1d,0xfb,0x6f,0x63,0xf5,0xd9,0xd7,0x3d,0x2d,0x39,0xb6,0x4a,0xd6,0xfe,0x4c,0x81,0xc7,0x3e,0x4a,0x09,0x93,0x00,0x1c,0xf5,0xa5,0x09,0x0a,0xfe,0xff,0x36,0x13,0x59,0x0e,0x77,0xea,0x1f,0x42,0x29,0x63,0x15,0x81,0x07,0x4a,0x27,0x71,0x51,0x14,0x76,0x04,0x5e,0x64,0xe2,0x55,0x53,0x58,0x24,0x05,0x76,0x34,0xfa,0x91,0x40,0x07,0x0f,0xf5,0x49,0xe9,0x3b,0x0a,0xe3,0xf7,0x47,0x3c,0xbf,0x07,0xde,0x24,0x1e,0xbb,0xf4,0x38,0xfd,0x02,0xbd,0x23,0x07,0xf4,0xfc,0xff,0x88,0x7e,0xb1,0x5f,0x2b,0x2b,0x1c,0x81,0x02,0x62,0xe9,0xdf,0x00,0x04,0x0b,0x34,0x5e,0x4d,0x7f,0x39,0x15,0x73,0x4f,0x1d,0x11,0x39,0x84,0x56,0x43,0x0c,0x59,0x57,0x37,0x9f,0x8e,0xc8,0x4d,0x2c,0xe5,0xf0,0xbb,0x95,0x09,0xeb,0x56,0x7f,0x90,0xe8,0x0a,0x35,0xfe,0x74,0x69,0x10,0x41,0x07,0x0b,0x22,0x46,0x25,0x1f,0xa8,0x05,0x65,0xf3,0x18,0xbc,0x5f,0xf1,0x9c,0x22,0x99,0xe8,0x06,0xda,0x16,0x9e,0xf6,0xda,0x5f,0xf2,0xe2,0xcd,0x20,0xf4,0x08,0x4a,0xfa,0x73,0xb6,0x1d,0x3b,0x05,0xfe,0x01,0xa2,0x68,0x0b,0x13,0x1f,0x7f,0xab,0x79,0x81,0xf7,0x6a,0x7f,0x1c,0xd7,0xb5,0x48,0x2b,0x50,0xa4,0x7f,0xd0,0x10,0x26,0xc4,0x42,0xee,0x12,0x43,0x81,0x5e,0x30,0xfc,0x81,0x14,0xe5,0x81,0x04,0xe8,0xfd,0x30,0x0d,0x5b,0xb9,0xf1,0x62,0x27,0x7f,0xf6,0xa2,0xf5,0x5f,0x32,0x7f,0x12,0x26,0x7f,0x0e,0x7f,0x7f,0xbf,0x38,0x3d,0xf4,0x0f,0xc7,0x7f,0x3e,0xd3,0x81,0x5b,0x31,0xec,0x85,0x39,0xe9,0x44,0x54,0xbe,0x04,0x3c,0x51,0xcf,0xfb,0xe9,0x49,0x53,0x9c,0x1a,0x75,0x01,0x01,0x81,0x23,0x7f,0x04,0x5d,0x1f,0x86,0x7f,0x8a,0x6d,0x0a,0x19,0xf1,0x94,0xf0,0x34,0x49,0x6d,0x13,0x2b,0xbf,0x36,0x6a,0x7f,0x6c,0x55,0xfd,0x7f,0x4f,0x27,0x19,0x64,0x81,0x38,0x18,0xe8,0x5b,0x37,0x1c,0x96,0x81,0xab,0x49,0x66,0x02,0xb8,0x81,0x9c,0xf7,0x50,0x2e,0x79,0x81,0xfd,0x1a,0x1f,0x07,0x7f,0x7f,0x0d,0x34,0x06,0xf9,0x22,0x59,0x26,0x24,0x81,0x7f,0x73,0xeb,0xfb,0xf9,0x5e,0xfc,0x81,0x01,0x9e,0x22,0x04,0x0f,0xe7,0xab,0xfc,0x81,0xae,0xe9,0xff,0xff,0x04,0x00,0x00,0x00,0x00,0x01,0x00,0x00,0x9d,0xff,0xff,0xff,0x00,0x00,0x00,0x00,0x51,0x00,0x00,0x00,0xcb,0xff,0xff,0xff,0xb4,0xff,0xff,0xff,0x16,0x00,0x00,0x00,0xce,0xff,0xff,0xff,0xee,0xff,0xff,0xff,0xfa,0xff,0xff,0xff,0x13,0x00,0x00,0x00,0xcc,0xff,0xff,0xff,0x28,0x00,0x00,0x00,0xaa,0xff,0xff,0xff,0x84,0xff,0xff,0xff,0x14,0x00,0x00,0x00,0xed,0xff,0xff,0xff,0x13,0x00,0x00,0x00,0xf2,0xff,0xff,0xff,0xf7,0xff,0xff,0xff,0xe9,0xff,0xff,0xff,0x96,0x00,0x00,0x00,0xcf,0xff,0xff,0xff,0xfb,0xff,0xff,0xff,0x17,0x00,0x00,0x00,0x1d,0x00,0x00,0x00,0xdc,0xff,0xff,0xff,0xfa,0xff,0xff,0xff,0xf5,0xff,0xff,0xff,0x19,0x00,0x00,0x00,0xdb,0xff,0xff,0xff,0x00,0x00,0x00,0x00,0xbb,0xff,0xff,0xff,0x9d,0xff,0xff,0xff,0xfe,0xff,0xff,0xff,0xf3,0xff,0xff,0xff,0xd8,0xff,0xff,0xff,0x01,0x00,0x00,0x00,0xfc,0xff,0xff,0xff,0x95,0xff,0xff,0xff,0xec,0xff,0xff,0xff,0xe8,0xff,0xff,0xff,0xf8,0xff,0xff,0xff,0x37,0x00,0x00,0x00,0xf7,0xff,0xff,0xff,0xec,0xff,0xff,0xff,0xd3,0xff,0xff,0xff,0xef,0xff,0xff,0xff,0x25,0x00,0x00,0x00,0xe6,0xff,0xff,0xff,0x21,0x00,0x00,0x00,0xba,0xff,0xff,0xff,0xff,0xff,0xff,0xff,0xdd,0xff,0xff,0xff,0x19,0x00,0x00,0x00,0xe7,0xff,0xff,0xff,0xbb,0xff,0xff,0xff,0x48,0x00,0x00,0x00,0xf6,0xff,0xff,0xff,0xe5,0xff,0xff,0xff,0xf5,0xff,0xff,0xff,0x96,0xff,0xff,0xff,0xe4,0xff,0xff,0xff,0x0a,0x00,0x00,0x00,0x29,0x00,0x00,0x00,0xba,0xea,0xff,0xff,0x04,0x00,0x00,0x00,0x00,0x10,0x00,0x00,0x0d,0x06,0xe3,0xe6,0x06,0xff,0xf7,0xd9,0xeb,0x09,0xfb,0x02,0x0c,0xff,0xfd,0xf0,0x09,0x20,0x06,0xf3,0x05,0x1c,0x0b,0xe4,0xff,0xef,0x16,0x0b,0x81,0xce,0xfb,0x0c,0x0a,0x1c,0x08,0x05,0x10,0xf0,0xff,0xf8,0xdc,0x12,0xf9,0x12,0x04,0x04,0x03,0x01,0x0a,0xfa,0x0b,0x0c,0xfb,0x02,0xf8,0x14,0xff,0xfb,0x20,0xf8,0xf9,0xf9,0xf0,0xec,0xfe,0x09,0xca,0xe0,0xfb,0xc5,0x1b,0x37,0xfa,0xf3,0x12,0x14,0x1c,0x0e,0x2e,0xe3,0xfd,0x3b,0x06,0xd4,0xe5,0x0e,0xd6,0xc8,0x0d,0x32,0x09,0x27,0xea,0xa4,0xf7,0xf3,0x25,0x39,0xa8,0x55,0xdc,0xd5,0x05,0x39,0x10,0x14,0x87,0x09,0x23,0x72,0x05,0x0a,0x1a,0xed,0x22,0xe4,0x97,0xf9,0xf7,0x40,0x0d,0x33,0x37,0xe8,0x00,0xc5,0x03,0x81,0x05,0xf5,0xda,0xdc,0xd0,0x02,0x14,0x33,0x14,0x03,0x03,0x11,0x05,0x23,0xf1,0x06,0x3a,0x9f,0x15,0xfc,0xd1,0xe2,0xde,0x12,0xc3,0xfb,0x10,0xe9,0x81,0xe4,0xe9,0x00,0xfb,0x27,0xbd,0xfc,0xf4,0xb9,0x30,0x02,0xec,0x08,0xf6,0x10,0xfd,0x27,0xf1,0x16,0xea,0xaf,0x09,0x0a,0x16,0x14,0x22,0x0d,0xe0,0x21,0x2f,0x17,0x13,0x08,0x18,0x04,0x2e,0x09,0xdb,0xee,0x13,0xd0,0xf3,0x31,0xc7,0xf5,0xee,0xef,0x1d,0xf9,0x01,0xf1,0x81,0x20,0x02,0xf2,0xfa,0x1e,0x06,0x01,0x1a,0x0a,0x0f,0x29,0x48,0xf1,0xf6,0x10,0xf1,0xd4,0xcb,0x1f,0xf8,0x0a,0xe3,0xba,0xed,0xf1,0xda,0xfa,0xfe,0x1d,0xeb,0x05,0x14,0x03,0x02,0xf2,0x29,0xe3,0x0f,0xfd,0xe6,0xf1,0xd9,0xf7,0xfa,0x18,0xe9,0x12,0x0a,0xf4,0xf2,0x06,0x07,0xd8,0x23,0xd9,0x42,0xfd,0x15,0xe0,0x21,0xff,0xf4,0xbd,0x2c,0x29,0x12,0xf4,0xdd,0x1c,0x36,0x04,0x18,0x18,0xe2,0xa3,0x16,0x25,0xc3,0x1a,0xf3,0x01,0x03,0x31,0x19,0x15,0x11,0x81,0x21,0xc1,0xcb,0x01,0x17,0xfb,0xf9,0x02,0x2b,0xf4,0x0f,0xf7,0x10,0xe3,0x27,0xf2,0xb1,0xf1,0x06,0x0a,0x03,0x0e,0xd9,0xd6,0xf9,0x0e,0xf5,0xe5,0xf5,0xfa,0xe5,0x0e,0xd5,0xda,0xfa,0xda,0x81,0x03,0xbb,0x04,0xe6,0x26,0xeb,0xc9,0xe8,0xf2,0x00,0xd1,0xcb,0xf3,0x06,0x20,0xd5,0xfd,0x12,0xbb,0x01,0xf8,0x16,0x05,0xe9,0xf8,0x1d,0x06,0xc0,0x11,0xeb,0xd1,0xb9,0x14,0x14,0xf2,0xee,0xee,0x0f,0x06,0x0c,0x04,0x33,0x15,0xe1,0xfd,0xed,0xff,0x1e,0xe8,0xdd,0x1a,0x21,0xd5,0x0f,0x12,0xf9,0xfa,0x28,0x0f,0xfa,0x04,0xfe,0x0d,0xf8,0xf1,0xfa,0xb4,0xf9,0x00,0xfd,0x08,0xff,0x12,0x20,0x11,0xe8,0x06,0x11,0x50,0xdd,0xed,0xfd,0xfe,0xfd,0x81,0xc8,0xc9,0xd5,0xf1,0xa2,0xd5,0x09,0x06,0x09,0xd7,0x0c,0xf9,0xd6,0x02,0xf1,0xff,0x2f,0x07,0x26,0xee,0xec,0xec,0x05,0x0c,0x27,0xc5,0xdd,0xa5,0x0b,0x05,0x08,0xec,0xfd,0x0c,0x03,0xf4,0x26,0x25,0x23,0x05,0xf1,0x1f,0x0e,0xfa,0x04,0x08,0xfb,0x10,0x16,0x0f,0xf5,0x04,0xde,0x14,0xf1,0x1a,0xf2,0x81,0xca,0x13,0x11,0x01,0xf4,0x0b,0x17,0xf0,0xeb,0x13,0xfa,0x03,0x16,0x05,0x01,0xee,0x01,0xf6,0xf3,0x02,0xe9,0x09,0xe6,0x01,0x1a,0xf8,0xff,0x0f,0x0a,0x0b,0xe6,0x18,0xc7,0xff,0x07,0x07,0x26,0x37,0xd3,0x42,0x3f,0x13,0x1c,0xb7,0x00,0xe8,0x2d,0xec,0xa7,0x3c,0xfe,0x13,0x04,0x81,0x5a,0xc8,0xcf,0xf2,0xc9,0xb1,0xff,0x27,0x07,0x62,0x76,0xf6,0x2e,0x19,0x29,0x03,0x25,0xec,0x23,0xe3,0xd5,0x03,0x04,0xd3,0xc4,0x0f,0xf5,0x0a,0x18,0xbb,0xdd,0xef,0x3d,0x20,0xcd,0xe5,0xda,0x34,0xf9,0xd2,0x3b,0xb5,0x01,0x4d,0x06,0xda,0x20,0xf7,0xe0,0xff,0xf0,0x0e,0xf9,0xe6,0xf2,0x07,0x1a,0xe0,0xcf,0x0f,0xbd,0x0f,0xff,0xf3,0xdb,0xf9,0xbf,0xe3,0x04,0xca,0x96,0x14,0xf2,0x81,0x8f,0xe5,0xed,0xcb,0x0a,0xf1,0xb0,0x10,0xfc,0xdb,0x1b,0x08,0x20,0xff,0xff,0xf9,0x17,0x17,0x0b,0xe1,0x04,0xe9,0x1b,0xfe,0x31,0x0b,0x27,0xfd,0xcd,0xef,0x05,0x09,0xef,0x10,0xfb,0x1e,0x1a,0xff,0xd3,0xf4,0x13,0xe6,0x11,0x33,0xe6,0x02,0x08,0x20,0xca,0xe0,0x00,0xff,0xdc,0x7f,0x9e,0xec,0xe2,0x58,0x11,0xf1,0x15,0x33,0xef,0xad,0xd7,0x01,0x0d,0xfb,0xe8,0xdf,0x45,0x14,0xc6,0x27,0xd1,0x0a,0x12,0x02,0xa7,0x0a,0xff,0x40,0xf5,0x06,0x0a,0xcf,0xf7,0xfa,0x3b,0xf4,0xf8,0x28,0x06,0x27,0xcb,0xc8,0x09,0x43,0xe8,0x07,0xff,0x17,0xd2,0x07,0x0f,0x0c,0x0b,0x0e,0x18,0xcf,0x1e,0x00,0xfc,0x11,0xf6,0x38,0x17,0xc1,0xf5,0xf5,0xf2,0xee,0x02,0x81,0x40,0x29,0xd0,0x3d,0x27,0x2a,0x34,0x04,0xfe,0x22,0x1a,0xf7,0x09,0xe0,0xbf,0x2f,0x2c,0x10,0xc9,0xc1,0x23,0xf0,0x18,0xde,0x07,0xec,0xc8,0xf5,0xed,0x08,0xfa,0x13,0xf2,0xc8,0x16,0xf2,0xd1,0xdd,0xb6,0xf4,0xda,0xab,0x2e,0x02,0x38,0x0e,0x0c,0x15,0x01,0xcf,0x2b,0xf2,0x39,0x0a,0xe6,0x07,0xa4,0x03,0xfa,0x21,0xfc,0x28,0xdc,0x0a,0x3c,0x1d,0x01,0x88,0xfe,0xc4,0xb8,0x07,0x47,0xe8,0xf4,0x02,0x16,0xfd,0xed,0x81,0xda,0x06,0xfb,0x0d,0x32,0x11,0x40,0x1a,0x11,0x14,0x0d,0x0a,0x19,0x35,0xc6,0x1b,0xec,0xeb,0xf7,0xf0,0x17,0x07,0xf4,0x41,0x08,0xf8,0xe4,0xeb,0x03,0xf7,0xf2,0x41,0x06,0xf5,0x11,0xf0,0xdf,0x0b,0xd7,0x13,0xdf,0x6d,0xf1,0x05,0xeb,0xdc,0xff,0xd8,0xb6,0x0a,0x11,0xf1,0x81,0x0d,0xe7,0x1c,0xe7,0x00,0x1f,0x12,0xee,0xf0,0x07,0x1c,0x08,0x05,0xe2,0x05,0xfb,0x1b,0x0d,0xc6,0xf3,0xe6,0x13,0xf7,0x17,0x06,0xde,0x1a,0xe4,0xff,0xf4,0xd4,0xfe,0xf6,0xe7,0x0e,0x2f,0x22,0xdd,0x1c,0x1b,0x02,0x32,0xf4,0xcd,0x01,0x06,0xdf,0x1d,0x0f,0xf5,0x14,0xe9,0x07,0xb7,0x1c,0x81,0x0d,0x37,0x11,0x2a,0x05,0xfb,0xe7,0xe0,0x38,0x16,0x36,0xe5,0xff,0x05,0x0f,0xe8,0x19,0x07,0x07,0x1d,0xfe,0xdc,0xe5,0x09,0x25,0xee,0xce,0x24,0xa2,0x20,0x00,0xfa,0xec,0x10,0x12,0xab,0x07,0xea,0x02,0x12,0x02,0xf8,0xed,0x1f,0xec,0xd2,0x11,0x17,0xce,0x2b,0xe5,0xfd,0xb1,0xf6,0xe7,0x1f,0x23,0xdf,0xfc,0xfb,0x25,0x04,0x1c,0xef,0x29,0xdc,0xe9,0x5d,0x34,0x1a,0x64,0xe0,0x38,0xdd,0x1e,0x10,0xf5,0x1a,0x11,0xdd,0x1e,0xe4,0xb0,0xe0,0x26,0xd2,0xfc,0xfa,0x06,0x0b,0xfe,0xd4,0x16,0x01,0x12,0xca,0xf9,0x0a,0x26,0xf1,0x0c,0xe8,0xdb,0x01,0x05,0xdf,0x81,0xf4,0x05,0x15,0xdb,0x10,0xc7,0xe2,0x2a,0x83,0xfb,0x16,0xdc,0x81,0xda,0xcc,0xeb,0xe8,0x78,0xaf,0x03,0xe4,0x52,0xe1,0x11,0x23,0xf1,0xfb,0xde,0xdf,0x28,0x14,0x05,0xda,0xe9,0x03,0xf2,0xc2,0x1a,0xe8,0x13,0xfc,0x19,0xf4,0xf1,0xed,0xfe,0x16,0xb7,0xda,0xb4,0x03,0x13,0x17,0xfc,0xdc,0xfb,0xd7,0x23,0xc5,0xbb,0x19,0x05,0xfb,0x19,0xf1,0xf0,0xf8,0x0a,0x03,0xd8,0xf8,0x0f,0x10,0x11,0x24,0xec,0x23,0x01,0x05,0xd4,0xf5,0x44,0x19,0x85,0xd5,0x15,0xfb,0xd6,0x06,0x0e,0xe6,0x2f,0x5a,0xa8,0xe6,0xff,0xe3,0x1a,0x4a,0xd1,0x21,0xd4,0xe9,0x14,0xff,0xb7,0xeb,0x18,0x81,0x1b,0xf4,0xf3,0x13,0xe5,0xef,0xf6,0x02,0xbd,0xef,0xa7,0xf5,0xa0,0x0b,0xfb,0xfb,0x12,0xe7,0xb8,0xb6,0x0b,0xe4,0x42,0x43,0xf3,0x2f,0xfa,0x25,0xb3,0x24,0x04,0xde,0x36,0x00,0x1e,0x81,0xf7,0x18,0x05,0x08,0xf1,0x2f,0xff,0xd9,0x04,0x08,0xe0,0x3d,0x0d,0xb4,0xe8,0x26,0xbe,0xa9,0xc0,0x40,0xfd,0xc9,0xf2,0x17,0xb1,0xc6,0x50,0x38,0x0c,0x23,0x26,0x33,0x16,0xd1,0xea,0x11,0x1d,0x8e,0x06,0x03,0xff,0x12,0xf4,0xff,0xc6,0xdb,0x2a,0xe9,0xeb,0xd4,0x01,0x06,0xec,0x14,0xee,0x13,0x04,0xa6,0xfe,0xe1,0xfa,0xf2,0xcc,0xf6,0xf0,0xfe,0xe1,0x01,0xee,0xfa,0x09,0x12,0x23,0xf7,0x2f,0xec,0x0a,0xd8,0x10,0xfd,0xe7,0x18,0xf0,0x81,0xf5,0xd9,0x26,0xfb,0x14,0xed,0xd3,0x0a,0xea,0xe9,0x08,0xff,0x11,0xdf,0xf6,0xf0,0x0a,0xdd,0x29,0xfb,0x05,0x22,0xef,0x04,0xb7,0x09,0xef,0x0c,0xae,0xe4,0xf3,0xd3,0x06,0x1a,0x35,0xff,0x04,0x09,0xd9,0x06,0xec,0x08,0x07,0x12,0xec,0x30,0x0b,0xe4,0x90,0xf5,0x15,0x06,0xf4,0x09,0xf4,0x81,0x0c,0xc9,0x18,0xc3,0x1e,0x11,0xf5,0xf5,0xdd,0x07,0x05,0x0d,0x13,0x0c,0x0c,0xec,0x04,0xf7,0xa2,0x1a,0xe7,0x05,0xf4,0x16,0xfc,0xb1,0x16,0xe1,0x19,0x22,0xde,0xf8,0x00,0x09,0x05,0x0e,0xf1,0x81,0xeb,0x18,0xd3,0xfb,0xbd,0x33,0xd9,0xe7,0x00,0x4d,0x21,0x02,0xda,0xf0,0x7b,0xfb,0xdf,0xe9,0x23,0x88,0xf7,0x0c,0xf7,0x1b,0x4f,0xeb,0xef,0x09,0xfe,0x08,0xdb,0x42,0xfc,0xcc,0xea,0x20,0x22,0xcc,0x22,0xb9,0xa5,0x00,0xee,0x10,0xed,0x96,0xe8,0x2b,0x04,0x3e,0xed,0xf5,0x19,0xec,0xfe,0x28,0xf3,0x0b,0xe7,0xc7,0x19,0x03,0xfc,0xf5,0x22,0xfb,0xf0,0x2d,0x4d,0x41,0xe3,0x20,0xb1,0x41,0x2d,0xd1,0xd7,0x48,0xd4,0xf4,0xf5,0xdb,0x09,0xfe,0xcc,0x9a,0x1b,0xd9,0x63,0x41,0x20,0xc8,0x0b,0x13,0xcf,0x8c,0xc4,0xf8,0x07,0x2a,0x81,0x32,0xe3,0xc8,0xd7,0x26,0x21,0x10,0x0e,0x27,0xe9,0x23,0x15,0x1d,0xf3,0x17,0xc1,0xc2,0xda,0xdd,0xf5,0x10,0x10,0xe7,0xa2,0x13,0x17,0xe1,0xd7,0xde,0x1b,0xf5,0x01,0xe1,0xdc,0x02,0x0a,0xe4,0xfc,0xef,0x31,0xe2,0x3f,0xbc,0x1a,0xf0,0xf6,0x0b,0xf2,0x94,0xfe,0x0e,0x3c,0x81,0xeb,0x12,0x11,0xfe,0x16,0xfa,0xfa,0xe9,0xd2,0x0c,0x03,0xf9,0x24,0xef,0xd7,0xfb,0x15,0x16,0xb7,0x04,0xe6,0x18,0x02,0x11,0x06,0xfe,0x18,0x04,0xd2,0xfd,0xdc,0x01,0xde,0xe8,0x1a,0x1b,0xca,0xe9,0xc7,0xf7,0xdc,0x1a,0x4f,0x05,0xee,0x06,0xc3,0x17,0xed,0xea,0x21,0xde,0x36,0x10,0xfd,0x81,0x08,0xce,0xed,0x54,0x04,0x01,0x23,0x13,0xda,0xac,0x12,0xd7,0x16,0xa7,0x03,0xf7,0xef,0x01,0x14,0x04,0x0e,0xc2,0x17,0x27,0x1e,0x04,0xcd,0xdc,0xd3,0x01,0x0c,0xcc,0xef,0xee,0x12,0x9f,0x06,0xed,0x01,0x22,0xfa,0xf3,0x98,0x2f,0xf0,0x11,0x03,0x13,0xd9,0x02,0x3b,0xee,0x18,0x1d,0xeb,0x20,0xb2,0xf6,0x97,0xf5,0xef,0x01,0xfc,0x23,0xd8,0x1d,0xf4,0x3e,0xd3,0x21,0x81,0x4b,0xb1,0x04,0x26,0xa1,0xf2,0xc2,0x3e,0xfb,0x36,0xd1,0xad,0x0e,0xba,0xba,0x3e,0xb7,0x4e,0x82,0x19,0x28,0x0d,0xe9,0xf3,0x95,0xd9,0x25,0xf0,0xf9,0xf4,0xe5,0x2f,0xd8,0x08,0x09,0xae,0x1f,0xfd,0xe4,0xf4,0xe2,0xf7,0x12,0xcd,0x12,0xe6,0x3b,0xe6,0xaa,0x06,0xe4,0x18,0xcc,0xe7,0x1c,0xe8,0xf9,0xf6,0xfc,0xcf,0x81,0x16,0xf3,0x41,0x99,0x12,0x16,0xfc,0x0b,0x20,0xc7,0xfd,0x0a,0x03,0xf2,0x27,0x10,0xaf,0xf3,0x00,0xf7,0x0a,0xf7,0xed,0xf7,0x18,0x23,0x0a,0x29,0x0f,0xf4,0x00,0xf1,0xec,0xdc,0xef,0xea,0x34,0xee,0xfc,0x24,0x2a,0xfe,0x1c,0x2b,0xf1,0xfe,0xd4,0xe1,0x0e,0x09,0xb5,0xc7,0x30,0x08,0x1a,0x07,0x81,0xd3,0x04,0xe2,0xe1,0xee,0x0d,0xd8,0x04,0x0f,0xb8,0x1c,0xfc,0x25,0x09,0x1d,0xf8,0x05,0xfc,0xed,0xea,0x0b,0x27,0xd9,0x22,0x10,0x05,0x1d,0x11,0x16,0xfa,0xf5,0xfd,0x05,0xfa,0xcf,0x03,0x0c,0x1e,0xbb,0x19,0x1d,0xca,0xef,0x2a,0x0a,0xf3,0x13,0x2f,0xfc,0xe2,0x0e,0xd1,0xed,0xfc,0xf3,0xf0,0xf8,0xff,0x2a,0xf8,0x02,0xf2,0x04,0x1c,0x04,0xcc,0x0b,0xfe,0x1e,0xbf,0xf7,0x0a,0xdd,0x17,0xbd,0x94,0x0b,0xd9,0x02,0x26,0x2a,0xe4,0x05,0xea,0xf5,0x18,0xee,0x0b,0x01,0x28,0xfc,0x03,0xf0,0x0e,0x25,0x0f,0xf5,0x09,0x06,0xfb,0x06,0xef,0xfa,0x81,0xee,0x09,0x0a,0x0e,0xe5,0xeb,0x12,0xbd,0x04,0x0d,0xe5,0x22,0x1f,0xff,0x3d,0xf8,0x15,0x10,0x33,0x02,0x0c,0x40,0x14,0xf0,0x0a,0x03,0xed,0xa7,0xdf,0x11,0xd2,0x14,0xdc,0xcf,0xa5,0x10,0xcf,0xff,0xe3,0x09,0xf1,0xec,0xfe,0xff,0x27,0xdc,0x2d,0xd6,0xf2,0x00,0x27,0xea,0x2a,0xcb,0x04,0x02,0x11,0x02,0x0b,0x04,0x81,0xff,0x07,0xf1,0xc7,0xd0,0xec,0xf9,0xef,0xf3,0xe8,0xf8,0xf0,0xf5,0xfe,0xb2,0xee,0x06,0x01,0xfd,0x0c,0xdf,0x01,0xf9,0xfe,0xec,0xec,0x27,0xe0,0xeb,0xf2,0x26,0x14,0x23,0x1d,0xfe,0xde,0x2b,0x7f,0xfb,0x06,0x14,0xed,0xc4,0x11,0xc4,0x08,0xfe,0x00,0x25,0x2c,0xb7,0xc5,0xdb,0x09,0xf2,0xfc,0xdc,0x03,0xf7,0xcb,0x00,0x16,0xd6,0xc8,0xe1,0xe2,0x01,0xea,0xc8,0x02,0x0b,0xeb,0xf3,0x49,0xc7,0xd0,0xfa,0x15,0xda,0xff,0xfb,0xff,0xdf,0x17,0x13,0x3d,0x01,0xd8,0xfc,0xad,0x58,0x1b,0x1a,0xff,0x04,0xd1,0xff,0xb2,0x2a,0x1b,0xe4,0x23,0xb0,0xa9,0xfe,0xf0,0x21,0xca,0x5d,0x04,0xe1,0x0f,0xbd,0xc3,0x04,0xde,0x26,0x59,0x4c,0xe7,0x0d,0xf3,0xf1,0x1f,0x0e,0x07,0x06,0x09,0x0f,0x0d,0x15,0x5d,0x0f,0x1c,0x28,0x04,0x81,0x01,0xf6,0xd3,0x05,0x0c,0x0e,0x11,0xe8,0x1c,0x00,0xfb,0x09,0x16,0x0f,0x0b,0x02,0x15,0xc9,0x08,0x02,0xdf,0xe5,0xd9,0x15,0x81,0x02,0xfd,0xd0,0xd6,0x0f,0xe2,0xfb,0x06,0x0f,0x14,0x07,0xe6,0xfc,0x0b,0x18,0x11,0x16,0xf9,0x0d,0x07,0xfe,0x05,0xda,0xf8,0xf9,0xff,0xf9,0xfd,0x0a,0x9d,0x0e,0xf2,0x09,0x03,0xf7,0xe8,0x05,0x09,0x0a,0xe5,0xfa,0xec,0xd7,0xdf,0xfa,0x13,0x40,0x0b,0xab,0xff,0xed,0x23,0x15,0xe8,0xf5,0xf1,0x3f,0x0a,0x05,0xe3,0x12,0xf5,0x00,0x28,0x31,0xc3,0x3c,0x27,0x10,0xca,0xf5,0x0f,0xf0,0x2e,0xef,0x1a,0xd2,0x18,0xf3,0x81,0xf2,0xe2,0xdf,0xba,0x06,0x02,0xf2,0x05,0xec,0xef,0xfc,0x2d,0xd1,0x04,0xe2,0xee,0x1e,0xfd,0x0c,0x02,0xe2,0xbe,0x09,0x2d,0xcf,0xd0,0xd1,0xe1,0xa5,0x1c,0x36,0x03,0x16,0x12,0x01,0x07,0xfc,0xed,0xd7,0x14,0x02,0x19,0xf3,0xf5,0x00,0x23,0xd2,0x12,0x00,0xfe,0xb2,0x81,0xea,0x12,0x01,0xe3,0x2c,0xd4,0x2b,0x15,0x26,0x0f,0xa0,0x1b,0xd0,0xd5,0x23,0x12,0x56,0xf5,0x0f,0x22,0xe7,0x00,0x05,0xbf,0xd0,0x11,0xdd,0x07,0xe3,0x2b,0x17,0x0b,0xf8,0xfa,0xdf,0x09,0x09,0xe5,0x0a,0x0c,0xe8,0xfd,0xe3,0x01,0xf8,0xf6,0x07,0x26,0x19,0xed,0x13,0x05,0xec,0xf5,0xfb,0xff,0x0b,0x9f,0x1a,0xc9,0xe9,0xfb,0xc3,0x81,0x03,0xd7,0xed,0x18,0xfd,0x04,0x05,0xfd,0x04,0x18,0x16,0x01,0xfe,0x07,0xda,0x1e,0x1e,0x01,0xff,0xcb,0xff,0x1c,0x00,0x18,0xf8,0x07,0xf9,0x11,0x13,0x18,0x10,0x1c,0x08,0x06,0x04,0x1d,0x1c,0xc9,0xb3,0x9c,0xb3,0xfb,0x1c,0xde,0x06,0x03,0x8a,0x08,0x00,0xdf,0xf2,0xb4,0x1e,0xfe,0x81,0xe0,0xfe,0x22,0xe6,0xf7,0xfd,0xf2,0x51,0x5b,0x99,0x14,0x08,0xd4,0x13,0x18,0x15,0x04,0xc1,0xfd,0x1c,0xf1,0xa9,0xc9,0xea,0xcc,0x36,0xf0,0xe4,0x2f,0xf7,0xff,0xf7,0x15,0xbb,0xe3,0xc6,0xb2,0xf6,0xeb,0xe7,0xf2,0xf5,0xe8,0x97,0x2d,0xcd,0x00,0x0e,0xe7,0xf2,0x15,0x49,0xd2,0xe3,0xa2,0x05,0x0a,0x03,0xef,0x81,0xac,0xfa,0x00,0x17,0x06,0x38,0x2a,0xe6,0x44,0x2e,0x0b,0x11,0x1d,0x05,0x12,0x1c,0x08,0xe8,0x83,0x1c,0xa5,0x73,0xfc,0xf1,0x15,0xf0,0xde,0xc5,0xd5,0xe8,0xec,0x12,0x01,0x0b,0xef,0xf7,0x0d,0xd0,0xf6,0x11,0xea,0xd7,0x90,0x0d,0x1a,0x0e,0xe4,0xff,0x1b,0xfd,0xd9,0x14,0x02,0xe2,0x0d,0x31,0xff,0xf8,0x09,0x01,0xfe,0xf1,0xeb,0xfb,0x2f,0xf5,0xe9,0xbb,0x00,0x12,0x20,0xf0,0x81,0xe6,0xe6,0x1f,0x51,0x0d,0xf0,0x1b,0xdc,0x22,0xdb,0x39,0x00,0x01,0x04,0xd5,0x22,0xe6,0xe6,0x16,0x15,0x18,0xeb,0xfb,0x15,0xfd,0x14,0xf7,0x06,0xdc,0xfc,0xef,0xeb,0xd6,0x07,0x00,0xf6,0x0c,0xed,0xc9,0x18,0x2e,0x06,0xf1,0x30,0xc8,0xfd,0x39,0x19,0x17,0x41,0xae,0xfe,0x26,0xf5,0xba,0x06,0x90,0xe3,0xfb,0xfc,0xd2,0x43,0xef,0x1a,0x4d,0x04,0x81,0x15,0x9d,0x07,0x22,0x12,0x04,0x94,0x2d,0x3b,0xbf,0x00,0x0d,0x2a,0x83,0xe9,0x1c,0x0f,0x31,0xd1,0x2f,0x5d,0xfb,0x25,0xe9,0x0e,0xdf,0x20,0xb2,0x9f,0xef,0x4e,0x3b,0x32,0x2f,0xfa,0x1a,0x23,0x0e,0xfc,0x03,0x22,0xed,0x19,0x14,0xee,0xe0,0x2a,0xf2,0x1e,0x2e,0xda,0x02,0xaf,0xfb,0x07,0x0b,0x19,0x28,0xe3,0xf7,0x22,0x02,0x11,0xf3,0xec,0xc6,0x04,0x23,0x2c,0xe9,0xf2,0x1b,0xf7,0x04,0x81,0xf6,0x20,0xd0,0xf7,0xe4,0x44,0x1b,0x21,0x15,0xe3,0x13,0xfb,0x07,0x07,0xf1,0xa1,0x13,0x01,0xf8,0x07,0xae,0xbb,0x28,0xe2,0xde,0x17,0x81,0xf5,0x08,0x16,0xe4,0x05,0xc3,0xf7,0xd7,0xc7,0xd6,0x42,0x01,0xf2,0xe0,0x0b,0x4c,0xd7,0x0b,0xdd,0x22,0xd4,0xfd,0x44,0xc5,0x20,0x67,0x29,0xff,0xd7,0x28,0x1a,0x0e,0x05,0x49,0xb5,0x24,0x10,0x04,0xe4,0x13,0xac,0x2d,0x06,0xe3,0x19,0xf8,0xc6,0xf9,0xed,0xef,0xbe,0x0e,0x1d,0x17,0xc9,0x0b,0x0b,0xef,0x32,0xf9,0x01,0xc5,0x35,0xe9,0x01,0xaf,0xb8,0xe2,0xe3,0x50,0x13,0x03,0x0c,0x91,0x14,0xbf,0xf8,0x38,0xb6,0x09,0x1f,0x15,0xa7,0x81,0x01,0x12,0x9e,0xd1,0x3e,0x3a,0x78,0x9a,0xd7,0x2f,0x99,0x69,0x1d,0x46,0x0b,0xab,0xf1,0x2c,0x98,0xff,0xd2,0x28,0x21,0x6b,0xa8,0xbe,0x06,0xd4,0xea,0xdf,0xe9,0x1b,0xec,0x3a,0x87,0x18,0x17,0x17,0xe9,0xf5,0x0f,0xaf,0x37,0x0a,0x9d,0x1a,0x1a,0xc7,0x21,0xf0,0xa4,0xf5,0xcd,0x08,0xd5,0xdd,0xc2,0x0e,0xd5,0x1e,0x12,0x64,0xec,0x17,0x64,0xfa,0x07,0x06,0x44,0x7f,0x7d,0xf8,0x2c,0x26,0xef,0x9a,0xdf,0x05,0xad,0x38,0x92,0xbc,0xca,0xfd,0xb2,0xb1,0xd8,0xe8,0xeb,0xf5,0x1f,0x13,0xe0,0xe7,0x1f,0xce,0xed,0xe3,0x0b,0xee,0xe6,0xbc,0xe7,0xfe,0xd4,0x2b,0xd7,0x21,0xbe,0xe2,0xeb,0x8d,0xf8,0x62,0x1d,0xe2,0xf6,0xd2,0x27,0x0d,0xf0,0xb5,0xee,0x7f,0xe7,0xf6,0xc1,0xf1,0x0e,0x28,0x48,0xec,0xf0,0x08,0x17,0x2c,0xe3,0xea,0xca,0xbf,0x2a,0xea,0x19,0xf2,0x03,0x06,0xde,0x93,0xd8,0xdd,0x05,0x44,0xd9,0xf7,0x17,0xf2,0x08,0x10,0x46,0xb2,0x04,0xcb,0xd6,0x10,0xf7,0x24,0x25,0xb6,0xe9,0xe1,0x2e,0xe6,0xd8,0x12,0xf7,0xb9,0xfe,0xdf,0x1d,0xd7,0xf3,0xeb,0xc1,0x21,0x05,0xae,0x41,0x10,0xff,0x81,0xb6,0x25,0xa5,0x15,0x10,0xda,0x91,0xa7,0xcf,0x54,0x3e,0xe4,0x1e,0xfa,0x22,0xac,0xeb,0x01,0x20,0xa2,0x03,0xbb,0xe1,0xf0,0x12,0xf2,0x13,0xf7,0xc3,0xe1,0x34,0x14,0x3e,0xc0,0x20,0xe6,0xc2,0xd1,0x02,0xf4,0x1c,0x04,0xe3,0xf7,0x17,0x81,0xe9,0xf8,0x0a,0xe8,0x0a,0x2c,0xff,0xef,0xf8,0xfe,0xdc,0x15,0xeb,0xfd,0xee,0xcc,0x21,0xe8,0xbf,0x26,0xd6,0xff,0x33,0xfe,0x00,0xe4,0x36,0x12,0xea,0x15,0x03,0x17,0x09,0x0e,0x0c,0x13,0x1d,0x01,0xfd,0x09,0xec,0x17,0xed,0x22,0xee,0x10,0xe9,0x85,0x16,0xf2,0xfa,0xf8,0x24,0x11,0xe9,0x01,0xf8,0x1b,0x1d,0x02,0x02,0xb5,0xe8,0x18,0xf1,0xfa,0xfa,0xbc,0x09,0xc7,0x07,0xf5,0xfc,0xab,0x1c,0x1e,0xde,0xdd,0x93,0x37,0xe1,0x2a,0xfd,0x24,0x42,0xe8,0x81,0x30,0x10,0x7d,0x69,0xcd,0xf3,0xf9,0x0a,0x0d,0x3d,0x27,0x34,0xa6,0x00,0x2a,0xc2,0x02,0xf4,0x0f,0x10,0x10,0x00,0x03,0x3b,0x00,0x04,0x07,0xfa,0xd8,0xfd,0x10,0xd0,0xc3,0x2e,0xc7,0x04,0x05,0xde,0xd3,0x15,0x20,0xf5,0xfe,0x24,0xe0,0xe9,0xfb,0xd8,0xff,0xbe,0x10,0x28,0xff,0xb6,0x01,0xb3,0xda,0xdb,0x7f,0x16,0xdd,0x93,0x2a,0xd3,0xc1,0x49,0x8d,0xab,0xd9,0x4d,0x5d,0x07,0xde,0x21,0x21,0xb1,0xc4,0x28,0xde,0xf4,0xeb,0x25,0xc3,0x5e,0x10,0xdd,0x21,0x89,0xfd,0x4d,0xff,0x42,0x07,0x2d,0x12,0xfb,0x36,0x47,0x0b,0x19,0xf4,0x27,0x1d,0x29,0xf5,0xdf,0x02,0xf9,0xe5,0xff,0xb8,0x04,0xe3,0x29,0xe9,0xe1,0x16,0xf3,0xea,0x22,0x04,0xe9,0xea,0xda,0x1e,0xaa,0x09,0x81,0x16,0xe6,0x70,0x5f,0x0c,0xed,0xd3,0xf5,0xfc,0x1f,0x11,0x20,0xe2,0x0e,0xeb,0x0c,0xe9,0xde,0xd7,0x09,0xff,0x24,0xf3,0xc0,0x02,0x39,0x02,0x21,0xfe,0xca,0xec,0xe1,0x16,0x10,0xe2,0x0b,0x36,0xf8,0xec,0x60,0xfc,0xe2,0xba,0xba,0xfe,0xf8,0x9b,0xbd,0x02,0xc4,0xc7,0x3b,0x1c,0xf5,0x29,0xc2,0x43,0xe6,0xfd,0xea,0xff,0x32,0xfe,0xff,0x29,0x1c,0x71,0xd1,0xbf,0xf1,0x15,0xff,0xbf,0x81,0x16,0xcc,0x90,0xfa,0xf6,0xdd,0x0f,0xbd,0x05,0xf2,0x4d,0xff,0x09,0x02,0xf2,0x0c,0x18,0x15,0x06,0x1b,0x2c,0xf3,0x05,0xc5,0xd6,0xf2,0xf1,0xe6,0x1e,0xf0,0x94,0xf1,0xff,0x1c,0xe2,0x3f,0x36,0x09,0xb7,0xdc,0x06,0x1c,0xf9,0xea,0x06,0xda,0x33,0x11,0x0c,0x02,0x28,0xcd,0xf6,0x7f,0x36,0xf7,0xf3,0xe7,0x20,0x87,0x21,0xf4,0xbf,0xf5,0x1b,0x93,0x24,0xd1,0xe7,0xc9,0x20,0xe3,0xcf,0xec,0xe6,0xec,0x0d,0x08,0xff,0xed,0x06,0x1b,0x05,0xe7,0x22,0x0f,0x18,0xfa,0x07,0x0a,0x08,0xef,0xc0,0x12,0x8e,0xf2,0x0b,0x13,0xf9,0x23,0xed,0x03,0xb4,0xf9,0xf4,0x0f,0x07,0xfe,0x16,0xdf,0x2d,0x0e,0xd2,0xe9,0xee,0x9f,0xf0,0xfb,0xfe,0xf6,0x7f,0x46,0xff,0xd1,0xfd,0x0d,0x09,0xfd,0x07,0xe2,0xed,0xfe,0xd4,0xe3,0x1d,0xe8,0xef,0xec,0xf4,0x09,0xeb,0xdc,0xf6,0x04,0xf1,0x08,0xfa,0xd9,0x1e,0xef,0x00,0x10,0xd4,0x05,0x02,0xf2,0xcb,0xe1,0x17,0xbb,0x2a,0x23,0xc3,0x4e,0xad,0x52,0x14,0xf0,0x0a,0x18,0xfd,0x20,0xa8,0x8c,0xed,0x4e,0xfd,0xf4,0x17,0x81,0x01,0x0a,0x3d,0x0c,0xfc,0xf2,0x17,0x0a,0x36,0x11,0xb5,0x02,0x21,0xbd,0xfb,0xc4,0x21,0x4e,0x11,0xf6,0xe4,0x39,0x0e,0x10,0x15,0xbc,0xfd,0xee,0xf9,0xf4,0x01,0xa7,0x05,0xd8,0xfc,0xee,0xe5,0xed,0x2f,0x12,0xc7,0x27,0x1d,0xca,0xd5,0xea,0x1d,0xfa,0x6d,0xe4,0x11,0xe3,0x10,0xf2,0xe6,0xeb,0x3a,0x81,0x32,0x0b,0x06,0xe8,0x10,0x07,0xe6,0x07,0xea,0xc9,0xc3,0xb0,0xce,0x51,0xf0,0x05,0xa0,0x8a,0xe7,0xa5,0x39,0xa6,0xca,0x34,0xfe,0xef,0x96,0x3d,0x27,0x21,0xeb,0xea,0xfb,0x0e,0x0a,0x1e,0x0a,0xca,0xe3,0x0a,0xda,0x05,0x29,0x9c,0xa5,0xe8,0x3a,0x05,0x22,0x06,0x0d,0xfc,0xf5,0x10,0x05,0xfe,0xfd,0xd1,0xd0,0x06,0xf8,0xd9,0x12,0xe6,0xf0,0x81,0x18,0xe7,0xdb,0x0c,0xf7,0xf8,0xe3,0x22,0xd1,0x11,0x3c,0x15,0x23,0x01,0x1e,0xe2,0x05,0x01,0x0b,0x03,0x19,0xdd,0x25,0x0a,0x0e,0x04,0xe4,0xbc,0xef,0xfa,0xc6,0x09,0xf9,0xc5,0x14,0xdb,0x0a,0xca,0x0d,0x09,0xef,0xd3,0x09,0x0f,0xa9,0x17,0x0c,0xe3,0xef,0x29,0xc2,0x0c,0x08,0x23,0x17,0x16,0x0d,0x13,0xf7,0xfc,0xb1,0x81,0xd9,0x1f,0x04,0x15,0x07,0x14,0xe8,0x1f,0xf7,0x00,0xa7,0xf7,0xf9,0x04,0x2a,0x00,0xf5,0xe3,0x52,0x14,0xea,0xe7,0x0f,0x0b,0xca,0xb5,0xfe,0x0d,0x4b,0xcc,0x0a,0x21,0x0b,0x14,0x0d,0xf3,0xf1,0x11,0xf7,0x00,0xd9,0x3a,0x03,0xeb,0x01,0x05,0xe2,0x10,0x09,0xdc,0xdf,0xe9,0xfc,0xef,0xe1,0xfe,0xf1,0xfd,0x00,0x12,0x19,0xdb,0x26,0xe2,0x24,0xf8,0x02,0xd8,0x29,0xe8,0xf8,0x81,0xf9,0x0d,0x38,0xbc,0xf8,0x12,0xfa,0x18,0x13,0xe9,0x1b,0xe9,0xa8,0x09,0xe0,0x02,0x20,0xe9,0xf3,0x1d,0xfc,0xfe,0xda,0xde,0xe7,0x10,0xf5,0x10,0x0b,0xf9,0x26,0xec,0x11,0x0f,0xce,0xef,0xf1,0x10,0xfd,0x06,0xca,0xed,0xe5,0xfd,0x0c,0x19,0x0e,0x24,0x0b,0x01,0x0e,0x0a,0xf1,0x03,0x03,0xfa,0x30,0x24,0x06,0x08,0x0f,0xf3,0xf8,0x0e,0x0d,0x07,0x81,0xb7,0x03,0xf5,0x0e,0xe7,0x03,0xe2,0x21,0xe3,0xfb,0xf2,0x11,0x21,0x02,0xeb,0xf0,0x00,0xfd,0xf2,0x07,0xfe,0x03,0x0b,0x09,0x00,0xf5,0x0a,0x01,0x06,0xfb,0xf5,0x0e,0xde,0xfc,0x01,0x1c,0x13,0x31,0xeb,0xe7,0x3b,0x24,0xf1,0x4a,0xed,0xda,0x19,0x19,0x11,0x25,0xea,0x24,0xc5,0xc3,0xcc,0xf0,0xd6,0xee,0x16,0xb8,0x67,0xf9,0x09,0x81,0x5b,0x32,0x3a,0x2e,0x25,0x20,0xaf,0x0d,0x02,0x96,0x18,0xac,0xdf,0xe4,0xef,0x0a,0x30,0x1b,0xe8,0x1b,0x01,0xd4,0x1d,0x0d,0xda,0x04,0x36,0x07,0xe0,0xe9,0xe5,0x05,0x17,0x50,0x06,0xcf,0x12,0x02,0x01,0x10,0x09,0x29,0x38,0xce,0x14,0xe4,0xb9,0xee,0x25,0xf6,0x16,0xec,0x13,0xf6,0x09,0x0c,0xf8,0xfd,0xc8,0xc5,0x91,0x24,0xf5,0x32,0xe2,0x0b,0xf4,0x19,0x05,0xda,0xf3,0xe0,0x81,0x01,0xe0,0xfa,0xed,0x1c,0xfc,0xc3,0x06,0xdd,0xf8,0xf1,0xf2,0x0c,0x33,0xfe,0xea,0x06,0xe6,0xed,0x0b,0xe7,0x0f,0xfd,0xe7,0x05,0xf3,0xed,0x0c,0x11,0xf3,0xf2,0xee,0xec,0x0f,0x0e,0xf8,0x00,0xf6,0xf4,0xf8,0x04,0xff,0xf4,0xfc,0x1a,0xf9,0x81,0xff,0x0a,0xf8,0xe8,0xe7,0xf5,0x06,0x23,0x35,0xd2,0x01,0x10,0x0a,0x1f,0x12,0x11,0xf6,0xe5,0xff,0x05,0x05,0xec,0xdf,0x0f,0xfd,0x17,0x00,0xff,0xf4,0xfc,0xee,0xfa,0xf7,0xfa,0x01,0xf8,0xf9,0xe5,0x02,0xfb,0x04,0x0a,0x04,0xdd,0xe2,0xd7,0xf1,0xdc,0xe8,0xf2,0x1d,0xdd,0x27,0xf2,0x30,0xa9,0x1a,0xfe,0x03,0xbf,0xe5,0x12,0x14,0x29,0xd7,0x12,0x2b,0x1f,0x08,0x35,0xdd,0xdd,0x09,0x10,0xdd,0x1a,0x11,0xef,0xfc,0x05,0x2f,0xfe,0x09,0xbf,0x33,0xe4,0xb8,0x2f,0x18,0x0d,0xff,0xd6,0x40,0xf6,0xf3,0x11,0x29,0xec,0xf9,0xff,0x81,0xff,0xdb,0x04,0xff,0xfc,0xd7,0xef,0xfc,0x02,0xd3,0xfc,0xf1,0xf5,0x04,0xde,0xf0,0x0e,0x27,0xd4,0xc9,0x1d,0xd0,0x03,0x23,0xe7,0xf3,0x03,0xe6,0xf2,0x06,0xec,0xb9,0x16,0xe1,0xbb,0x81,0xe5,0xfe,0xb0,0x11,0xe1,0xca,0xf2,0x0d,0xce,0x1d,0x0d,0x05,0xf6,0xfc,0xf0,0x0d,0x17,0x08,0xff,0x09,0xdf,0x1a,0xfe,0x33,0xf3,0x18,0xf9,0xdb,0xbe,0x0a,0x13,0x05,0x24,0xed,0x12,0xc6,0xfa,0xff,0xff,0x04,0x00,0x00,0x00,0x00,0x01,0x00,0x00,0xe6,0xff,0xff,0xff,0xb8,0xff,0xff,0xff,0x04,0x00,0x00,0x00,0xd0,0xff,0xff,0xff,0xd8,0xff,0xff,0xff,0xf8,0xff,0xff,0xff,0x09,0x00,0x00,0x00,0xfb,0xff,0xff,0xff,0x96,0xff,0xff,0xff,0xe4,0xff,0xff,0xff,0xc5,0xff,0xff,0xff,0xd4,0xff,0xff,0xff,0x09,0x00,0x00,0x00,0xf3,0xff,0xff,0xff,0xd3,0xff,0xff,0xff,0xc5,0xff,0xff,0xff,0xec,0xff,0xff,0xff,0xef,0xff,0xff,0xff,0xff,0xff,0xff,0xff,0xfa,0xff,0xff,0xff,0x02,0x00,0x00,0x00,0xdb,0xff,0xff,0xff,0xd1,0xff,0xff,0xff,0xf1,0xff,0xff,0xff,0xb2,0xff,0xff,0xff,0x02,0x00,0x00,0x00,0x00,0x00,0x00,0x00,0xf4,0xff,0xff,0xff,0xef,0xff,0xff,0xff,0xf2,0xff,0xff,0xff,0xef,0xff,0xff,0xff,0xd0,0xff,0xff,0xff,0xec,0xff,0xff,0xff,0xef,0xff,0xff,0xff,0xee,0xff,0xff,0xff,0xf5,0xff,0xff,0xff,0xcf,0xff,0xff,0xff,0xe9,0xff,0xff,0xff,0xda,0xff,0xff,0xff,0x12,0x00,0x00,0x00,0xec,0xff,0xff,0xff,0xca,0xff,0xff,0xff,0xd8,0xff,0xff,0xff,0xc8,0xff,0xff,0xff,0xe1,0xff,0xff,0xff,0xef,0xff,0xff,0xff,0xf9,0xff,0xff,0xff,0xd7,0xff,0xff,0xff,0x0f,0x00,0x00,0x00,0xe2,0xff,0xff,0xff,0xd6,0xff,0xff,0xff,0xec,0xff,0xff,0xff,0xe3,0xff,0xff,0xff,0xd8,0xff,0xff,0xff,0xea,0xff,0xff,0xff,0xf5,0xff,0xff,0xff,0xea,0xff,0xff,0xff,0xd0,0xff,0xff,0xff,0xed,0xff,0xff,0xff,0xd7,0xff,0xff,0xff,0xf3,0xff,0xff,0xff,0xf1,0xff,0xff,0xff,0xd9,0xff,0xff,0xff,0xea,0xff,0xff,0xff,0xd2,0xfb,0xff,0xff,0x04,0x00,0x00,0x00,0x40,0x03,0x00,0x00,0xf6,0x11,0xae,0x57,0x4a,0x22,0xff,0xf0,0xf3,0xba,0x1e,0x41,0xdf,0x1a,0x2c,0xe4,0xf6,0x24,0x0c,0xfb,0x97,0xa2,0x10,0x3d,0xe8,0x00,0x01,0xfd,0xe9,0x20,0x02,0xd7,0x64,0x14,0xca,0x08,0x02,0x13,0x3e,0xa2,0x1d,0xa6,0x35,0x11,0x14,0x2d,0xa1,0xc7,0xcc,0x21,0x14,0x8f,0xef,0x0f,0xf8,0xf4,0x81,0x01,0xca,0xdf,0xe2,0x2d,0xf5,0x90,0x1d,0x05,0x16,0x0f,0xf1,0xae,0xc0,0x02,0xeb,0x9c,0x81,0xfd,0x03,0xce,0xba,0xbf,0xba,0x56,0x1c,0xee,0x26,0xe7,0x3f,0xce,0xef,0xc7,0xc0,0x1b,0xf9,0x4a,0x46,0x2e,0x62,0x38,0x01,0x43,0x74,0xb4,0x3d,0xeb,0xaa,0xea,0xe3,0xfe,0x26,0x19,0xe2,0x2d,0x26,0x1b,0x05,0xca,0xfd,0xb9,0xa5,0xab,0xcf,0x15,0xe5,0xf0,0xce,0x3f,0x2e,0x98,0xec,0xf0,0xc4,0x05,0xf5,0xe9,0x19,0xee,0x13,0x08,0x00,0x1f,0x05,0xcc,0x19,0x11,0xfd,0x21,0xe6,0x2b,0xf1,0x03,0x0f,0xb2,0xfd,0x81,0x18,0x22,0xef,0xe6,0x28,0x15,0x03,0x11,0xc9,0x16,0x46,0xef,0xff,0xdf,0x21,0xf5,0x12,0xe2,0x61,0xe9,0x04,0xda,0x2d,0xfa,0xdb,0x31,0x0e,0x24,0xd7,0x2e,0xc8,0xc2,0xa4,0x12,0x1e,0x14,0xf0,0xe6,0x1b,0x1e,0xe2,0xe3,0x00,0x3d,0xa8,0x26,0x08,0xce,0xf7,0x01,0xf0,0xe8,0x23,0x0a,0xcc,0xef,0xfa,0xce,0xb2,0x1e,0xf4,0x44,0xfc,0x46,0xe3,0xe7,0x23,0xdc,0xed,0x0b,0xc5,0x01,0x44,0xcf,0xf4,0xfa,0xe6,0x07,0xff,0x34,0xfa,0xb8,0xc9,0x03,0x04,0x0f,0xfe,0x24,0x17,0xf8,0x27,0xf7,0x2d,0xd8,0x7f,0x17,0x5b,0xdb,0xff,0x10,0xa3,0x10,0x04,0xc8,0xfb,0x22,0xe7,0x25,0x01,0x27,0xf6,0x3e,0x5c,0x08,0xe5,0x16,0xf1,0xd1,0x2b,0x18,0x4f,0xff,0x28,0xa4,0xea,0x23,0xf2,0x52,0xa8,0xf0,0xa7,0x2a,0x22,0x8d,0x2c,0x0e,0xf1,0xed,0x17,0xfb,0x39,0xaa,0x51,0xc3,0x0b,0x77,0x11,0x1d,0xe8,0xfb,0xb6,0xe5,0x54,0xb6,0x07,0x27,0x15,0xbf,0x02,0x42,0x1c,0xd3,0xc2,0x0e,0x81,0xc5,0x03,0xfa,0x01,0x3d,0xc8,0x14,0xfd,0x0f,0xd5,0xd3,0xf4,0x21,0x2a,0x47,0xf5,0xda,0xe4,0xca,0x36,0xe5,0x1f,0xc7,0x1b,0x34,0x70,0x3d,0x05,0xfa,0x07,0x24,0xc8,0xf2,0x21,0x39,0x00,0xeb,0x1a,0x3a,0xfb,0xd4,0x31,0xed,0x07,0x33,0x15,0x1a,0x05,0xf4,0x12,0x95,0x18,0x18,0xde,0xf3,0x33,0xdd,0xe4,0xdf,0xfd,0xfc,0xf9,0xbe,0xd4,0x81,0xf7,0x19,0xb4,0xf8,0xa1,0xf6,0x14,0xbd,0x2c,0x9d,0x00,0x25,0x1c,0xee,0x11,0x32,0x0d,0x9d,0x0c,0x21,0x21,0x34,0x1a,0xbc,0x6f,0x7f,0x20,0x25,0xf7,0xe1,0xd1,0xec,0x20,0x20,0xfc,0x1c,0x92,0xfa,0xc7,0x22,0x14,0x06,0x12,0xe0,0x0e,0xf0,0x20,0xf0,0x15,0x1c,0xc9,0x17,0x3e,0x02,0xf4,0x1a,0x22,0xb4,0x82,0x35,0x2f,0xbe,0x1a,0xb8,0x11,0xd5,0x41,0xfc,0xf5,0xf7,0xfb,0x4b,0xc4,0x5e,0x15,0xd7,0xf2,0x4b,0x24,0x08,0x1c,0xec,0xbc,0xfc,0x1f,0x05,0xc4,0x4d,0xa5,0xc3,0x1d,0xc3,0xf2,0x09,0x2a,0xce,0x8e,0xe2,0x0d,0xe8,0xfc,0x10,0xdf,0xc0,0xf2,0x0e,0xd7,0x3f,0xec,0xbe,0xfb,0xed,0x12,0xc9,0x27,0x1c,0xd3,0x0b,0x00,0x13,0x16,0x52,0x7f,0xc9,0xe2,0x15,0xed,0x50,0x08,0xfa,0x6f,0x17,0xe4,0xe7,0x11,0xf2,0x22,0x4f,0xfb,0x2f,0xc9,0xbd,0xf2,0xcc,0xd5,0xcc,0xd0,0xf3,0x1b,0xb1,0x1c,0xf4,0xc4,0x92,0x36,0xe4,0xf2,0xce,0x0e,0xe9,0x0b,0x8e,0x33,0x22,0x03,0x0b,0x27,0xc6,0xef,0xed,0x3e,0x7f,0x93,0x23,0x23,0x29,0x09,0x20,0x23,0xc8,0x0e,0xdd,0xfa,0xe4,0xc9,0x4a,0xde,0x3c,0x21,0x43,0xb2,0x62,0x12,0xf9,0xfe,0xcb,0x3c,0x14,0x2c,0xc8,0xf3,0x50,0xfb,0xf0,0x03,0xec,0xa6,0xc4,0x2a,0xc0,0xc5,0x3d,0xda,0x0f,0x22,0xbf,0xb0,0xe4,0x59,0x15,0xf3,0x21,0xb1,0x23,0xe2,0xdf,0x1d,0xed,0xec,0xf2,0x36,0x4f,0xdc,0xf3,0x3c,0x22,0xde,0x9c,0xf7,0x19,0xc9,0x52,0xcf,0x42,0x23,0xf1,0xdf,0x31,0x13,0xb1,0x0a,0xbc,0x2e,0xf0,0x3a,0x7f,0x0b,0x09,0xfa,0x26,0x1a,0xe7,0x05,0x21,0xed,0xe6,0x58,0xa1,0xee,0x7f,0xf6,0xbc,0x2f,0x2b,0xce,0xcb,0x02,0x04,0x2d,0xe7,0x2c,0x9c,0x8d,0xcb,0x11,0x3a,0xe5,0x0b,0x22,0x1d,0xd0,0x0d,0x03,0xc0,0x26,0xee,0xb4,0xc5,0x52,0xda,0x08,0x1c,0x8d,0x2c,0xfc,0x06,0x1b,0xb9,0xe1,0xf7,0xe6,0x0d,0xbb,0x42,0x13,0xef,0x1a,0x07,0x09,0x0c,0xc2,0xee,0xd4,0xc3,0xda,0x33,0x22,0x08,0x2f,0xc8,0x3a,0xd7,0x02,0x0c,0x33,0x0a,0x4f,0x44,0x36,0x1c,0xf5,0x44,0xb9,0xe3,0x81,0xf8,0x17,0x50,0xcf,0xa3,0x16,0xdc,0x07,0x3b,0x1b,0xcb,0xe4,0x09,0xc4,0x06,0x36,0x00,0xb9,0x00,0xf7,0xa9,0xec,0xcd,0x20,0x0f,0xfb,0x2f,0x10,0x2f,0x3e,0x04,0xf2,0xf3,0x2e,0x0f,0xed,0xed,0x13,0xda,0x18,0x13,0x2e,0xb9,0x61,0xed,0xf9,0xae,0x07,0x46,0xc2,0x15,0x13,0xb0,0xf3,0x23,0xcd,0xfb,0xd3,0xea,0xfa,0x46,0xf8,0x0e,0x14,0x7b,0xdf,0xeb,0x00,0xec,0xd3,0x1c,0x81,0xbf,0x36,0xd5,0xa3,0xde,0xf0,0x4b,0x0c,0x59,0xd4,0xa9,0x14,0x64,0x37,0xde,0x08,0x26,0xcd,0xfd,0x2e,0xf4,0xfe,0xbe,0x5f,0x22,0xeb,0x14,0xd0,0xea,0x30,0x1e,0x1e,0xff,0xff,0xff,0x04,0x00,0x00,0x00,0x34,0x00,0x00,0x00,0xb9,0xfc,0xff,0xff,0xe6,0xff,0xff,0xff,0x47,0x00,0x00,0x00,0xcc,0xff,0xff,0xff,0x7e,0xfa,0xff,0xff,0xe6,0xff,0xff,0xff,0x14,0x01,0x00,0x00,0x0e,0x00,0x00,0x00,0x65,0xfd,0xff,0xff,0xa3,0x00,0x00,0x00,0xab,0x01,0x00,0x00,0xc5,0x00,0x00,0x00,0xb4,0x00,0x00,0x00,0x5e,0xff,0xff,0xff,0x04,0x00,0x00,0x00,0x08,0x00,0x00,0x00,0x01,0x00,0x00,0x00,0x02,0x00,0x00,0x00,0x18,0xe3,0xff,0xff,0x1c,0xe3,0xff,0xff,0x0f,0x00,0x00,0x00,0x4d,0x4c,0x49,0x52,0x20,0x43,0x6f,0x6e,0x76,0x65,0x72,0x74,0x65,0x64,0x2e,0x00,0x01,0x00,0x00,0x00,0x14,0x00,0x00,0x00,0x00,0x00,0x0e,0x00,0x18,0x00,0x14,0x00,0x10,0x00,0x0c,0x00,0x08,0x00,0x04,0x00,0x0e,0x00,0x00,0x00,0x14,0x00,0x00,0x00,0x1c,0x00,0x00,0x00,0xd4,0x01,0x00,0x00,0xd8,0x01,0x00,0x00,0xdc,0x01,0x00,0x00,0x04,0x00,0x00,0x00,0x6d,0x61,0x69,0x6e,0x00,0x00,0x00,0x00,0x06,0x00,0x00,0x00,0x6c,0x01,0x00,0x00,0x00,0x01,0x00,0x00,0xac,0x00,0x00,0x00,0x78,0x00,0x00,0x00,0x40,0x00,0x00,0x00,0x04,0x00,0x00,0x00,0x22,0xff,0xff,0xff,0x1c,0x00,0x00,0x00,0x00,0x00,0x00,0x09,0x1c,0x00,0x00,0x00,0x20,0x00,0x00,0x00,0x04,0x00,0x00,0x00,0x00,0x00,0x06,0x00,0x08,0x00,0x04,0x00,0x06,0x00,0x00,0x00,0x00,0x00,0x80,0x3f,0x01,0x00,0x00,0x00,0x0f,0x00,0x00,0x00,0x01,0x00,0x00,0x00,0x0e,0x00,0x00,0x00,0x5a,0xff,0xff,0xff,0x14,0x00,0x00,0x00,0x00,0x00,0x00,0x08,0x10,0x00,0x00,0x00,0x14,0x00,0x00,0x00,0x03,0x00,0x00,0x00,0xdc,0xe3,0xff,0xff,0x01,0x00,0x00,0x00,0x0e,0x00,0x00,0x00,0x03,0x00,0x00,0x00,0x0d,0x00,0x00,0x00,0x03,0x00,0x00,0x00,0x02,0x00,0x00,0x00,0x8e,0xff,0xff,0xff,0x14,0x00,0x00,0x00,0x00,0x00,0x00,0x1b,0x10,0x00,0x00,0x00,0x14,0x00,0x00,0x00,0x02,0x00,0x00,0x00,0x10,0xe4,0xff,0xff,0x01,0x00,0x00,0x00,0x0d,0x00,0x00,0x00,0x02,0x00,0x00,0x00,0x0c,0x00,0x00,0x00,0x01,0x00,0x00,0x00,0x56,0xff,0xff,0xff,0x10,0x00,0x00,0x00,0x00,0x00,0x00,0x01,0x1c,0x00,0x00,0x00,0x20,0x00,0x00,0x00,0x48,0xff,0xff,0xff,0x00,0x00,0x00,0x01,0x01,0x00,0x00,0x00,0x01,0x00,0x00,0x00,0x00,0x00,0x00,0x01,0x01,0x00,0x00,0x00,0x0c,0x00,0x00,0x00,0x03,0x00,0x00,0x00,0x0b,0x00,0x00,0x00,0x05,0x00,0x00,0x00,0x04,0x00,0x00,0x00,0x00,0x00,0x0e,0x00,0x1a,0x00,0x14,0x00,0x10,0x00,0x0c,0x00,0x0b,0x00,0x04,0x00,0x0e,0x00,0x00,0x00,0x24,0x00,0x00,0x00,0x00,0x00,0x00,0x02,0x34,0x00,0x00,0x00,0x38,0x00,0x00,0x00,0x01,0x00,0x00,0x00,0x00,0x00,0x0e,0x00,0x18,0x00,0x17,0x00,0x10,0x00,0x0c,0x00,0x08,0x00,0x07,0x00,0x0e,0x00,0x00,0x00,0x00,0x00,0x00,0x01,0x01,0x00,0x00,0x00,0x01,0x00,0x00,0x00,0x01,0x00,0x00,0x00,0x00,0x00,0x00,0x01,0x01,0x00,0x00,0x00,0x0b,0x00,0x00,0x00,0x03,0x00,0x00,0x00,0x0a,0x00,0x00,0x00,0x07,0x00,0x00,0x00,0x06,0x00,0x00,0x00,0x00,0x00,0x0e,0x00,0x14,0x00,0x00,0x00,0x10,0x00,0x0c,0x00,0x0b,0x00,0x04,0x00,0x0e,0x00,0x00,0x00,0x1c,0x00,0x00,0x00,0x00,0x00,0x00,0x01,0x28,0x00,0x00,0x00,0x2c,0x00,0x00,0x00,0x0c,0x00,0x14,0x00,0x13,0x00,0x0c,0x00,0x08,0x00,0x07,0x00,0x0c,0x00,0x00,0x00,0x00,0x00,0x00,0x01,0x01,0x00,0x00,0x00,0x01,0x00,0x00,0x00,0x00,0x00,0x00,0x01,0x01,0x00,0x00,0x00,0x0a,0x00,0x00,0x00,0x03,0x00,0x00,0x00,0x00,0x00,0x00,0x00,0x09,0x00,0x00,0x00,0x08,0x00,0x00,0x00,0x01,0x00,0x00,0x00,0x0f,0x00,0x00,0x00,0x01,0x00,0x00,0x00,0x00,0x00,0x00,0x00,0x10,0x00,0x00,0x00,0xfc,0x1a,0x00,0x00,0xa0,0x1a,0x00,0x00,0x98,0x19,0x00,0x00,0xa4,0x18,0x00,0x00,0x50,0x15,0x00,0x00,0xec,0x11,0x00,0x00,0x98,0x0e,0x00,0x00,0x1c,0x0b,0x00,0x00,0xc8,0x07,0x00,0x00,0x64,0x04,0x00,0x00,0x90,0x03,0x00,0x00,0xa4,0x02,0x00,0x00,0xb0,0x01,0x00,0x00,0x1c,0x01,0x00,0x00,0x80,0x00,0x00,0x00,0x04,0x00,0x00,0x00,0x5a,0xe5,0xff,0xff,0x00,0x00,0x00,0x01,0x18,0x00,0x00,0x00,0x20,0x00,0x00,0x00,0x3c,0x00,0x00,0x00,0x10,0x00,0x00,0x00,0x00,0x00,0x00,0x09,0x50,0x00,0x00,0x00,0x02,0x00,0x00,0x00,0xff,0xff,0xff,0xff,0x0d,0x00,0x00,0x00,0x3c,0xe5,0xff,0xff,0x08,0x00,0x00,0x00,0x10,0x00,0x00,0x00,0x01,0x00,0x00,0x00,0x80,0xff,0xff,0xff,0xff,0xff,0xff,0xff,0x01,0x00,0x00,0x00,0x00,0x00,0x80,0x3b,0x1b,0x00,0x00,0x00,0x53,0x74,0x61,0x74,0x65,0x66,0x75,0x6c,0x50,0x61,0x72,0x74,0x69,0x74,0x69,0x6f,0x6e,0x65,0x64,0x43,0x61,0x6c,0x6c,0x5f,0x31,0x3a,0x30,0x00,0x02,0x00,0x00,0x00,0x01,0x00,0x00,0x00,0x0d,0x00,0x00,0x00,0xd2,0xe5,0xff,0xff,0x00,0x00,0x00,0x01,0x18,0x00,0x00,0x00,0x20,0x00,0x00,0x00,0x3c,0x00,0x00,0x00,0x0f,0x00,0x00,0x00,0x00,0x00,0x00,0x09,0x70,0x00,0x00,0x00,0x02,0x00,0x00,0x00,0xff,0xff,0xff,0xff,0x0d,0x00,0x00,0x00,0xb4,0xe5,0xff,0xff,0x08,0x00,0x00,0x00,0x10,0x00,0x00,0x00,0x01,0x00,0x00,0x00,0x07,0x00,0x00,0x00,0x00,0x00,0x00,0x00,0x01,0x00,0x00,0x00,0xa2,0xe7,0x71,0x3e,0x38,0x00,0x00,0x00,0x73,0x65,0x71,0x75,0x65,0x6e,0x74,0x69,0x61,0x6c,0x5f,0x31,0x2f,0x64,0x65,0x6e,0x73,0x65,0x5f,0x31,0x2f,0x4d,0x61,0x74,0x4d,0x75,0x6c,0x3b,0x73,0x65,0x71,0x75,0x65,0x6e,0x74,0x69,0x61,0x6c,0x5f,0x31,0x2f,0x64,0x65,0x6e,0x73,0x65,0x5f,0x31,0x2f,0x42,0x69,0x61,0x73,0x41,0x64,0x64,0x00,0x00,0x00,0x00,0x02,0x00,0x00,0x00,0x01,0x00,0x00,0x00,0x0d,0x00,0x00,0x00,0x6a,0xe6,0xff,0xff,0x00,0x00,0x00,0x01,0x18,0x00,0x00,0x00,0x20,0x00,0x00,0x00,0x40,0x00,0x00,0x00,0x0e,0x00,0x00,0x00,0x00,0x00,0x00,0x09,0x68,0x00,0x00,0x00,0x02,0x00,0x00,0x00,0xff,0xff,0xff,0xff,0x40,0x00,0x00,0x00,0x4c,0xe6,0xff,0xff,0x08,0x00,0x00,0x00,0x14,0x00,0x00,0x00,0x01,0x00,0x00,0x00,0x80,0xff,0xff,0xff,0xff,0xff,0xff,0xff,0x00,0x00,0x00,0x00,0x01,0x00,0x00,0x00,0xca,0x8f,0x77,0x3d,0x2c,0x00,0x00,0x00,0x73,0x65,0x71,0x75,0x65,0x6e,0x74,0x69,0x61,0x6c,0x5f,0x31,0x2f,0x67,0x6c,0x6f,0x62,0x61,0x6c,0x5f,0x61,0x76,0x65,0x72,0x61,0x67,0x65,0x5f,0x70,0x6f,0x6f,0x6c,0x69,0x6e,0x67,0x32,0x64,0x5f,0x31,0x2f,0x4d,0x65,0x61,0x6e,0x00,0x00,0x00,0x00,0x02,0x00,0x00,0x00,0x01,0x00,0x00,0x00,0x40,0x00,0x00,0x00,0xfa,0xe6,0xff,0xff,0x00,0x00,0x00,0x01,0x18,0x00,0x00,0x00,0x28,0x00,0x00,0x00,0x44,0x00,0x00,0x00,0x0d,0x00,0x00,0x00,0x00,0x00,0x00,0x09,0xc0,0x00,0x00,0x00,0x04,0x00,0x00,0x00,0xff,0xff,0xff,0xff,0x5f,0x00,0x00,0x00,0x08,0x00,0x00,0x00,0x40,0x00,0x00,0x00,0xe4,0xe6,0xff,0xff,0x08,0x00,0x00,0x00,0x10,0x00,0x00,0x00,0x01,0x00,0x00,0x00,0x80,0xff,0xff,0xff,0xff,0xff,0xff,0xff,0x01,0x00,0x00,0x00,0x3d,0x37,0xc8,0x3f,0x80,0x00,0x00,0x00,0x73,0x65,0x71,0x75,0x65,0x6e,0x74,0x69,0x61,0x6c,0x5f,0x31,0x2f,0x63,0x6f,0x6e,0x76,0x32,0x64,0x5f,0x31,0x5f,0x32,0x2f,0x52,0x65,0x6c,0x75,0x3b,0x73,0x65,0x71,0x75,0x65,0x6e,0x74,0x69,0x61,0x6c,0x5f,0x31,0x2f,0x63,0x6f,0x6e,0x76,0x32,0x64,0x5f,0x31,0x5f,0x32,0x2f,0x42,0x69,0x61,0x73,0x41,0x64,0x64,0x3b,0x73,0x65,0x71,0x75,0x65,0x6e,0x74,0x69,0x61,0x6c,0x5f,0x31,0x2f,0x63,0x6f,0x6e,0x76,0x32,0x64,0x5f,0x31,0x5f,0x32,0x2f,0x63,0x6f,0x6e,0x76,0x6f,0x6c,0x75,0x74,0x69,0x6f,0x6e,0x3b,0x73,0x65,0x71,0x75,0x65,0x6e,0x74,0x69,0x61,0x6c,0x5f,0x31,0x2f,0x63,0x6f,0x6e,0x76,0x32,0x64,0x5f,0x31,0x5f,0x32,0x2f,0x53,0x71,0x75,0x65,0x65,0x7a,0x65,0x00,0x00,0x00,0x00,0x04,0x00,0x00,0x00,0x01,0x00,0x00,0x00,0x5f,0x00,0x00,0x00,0x08,0x00,0x00,0x00,0x40,0x00,0x00,0x00,0xea,0xe7,0xff,0xff,0x00,0x00,0x00,0x01,0x18,0x00,0x00,0x00,0x28,0x00,0x00,0x00,0x48,0x00,0x00,0x00,0x0c,0x00,0x00,0x00,0x00,0x00,0x00,0x09,0xb8,0x00,0x00,0x00,0x04,0x00,0x00,0x00,0xff,0xff,0xff,0xff,0x5f,0x00,0x00,0x00,0x08,0x00,0x00,0x00,0x40,0x00,0x00,0x00,0xd4,0xe7,0xff,0xff,0x08,0x00,0x00,0x00,0x14,0x00,0x00,0x00,0x01,0x00,0x00,0x00,0x80,0xff,0xff,0xff,0xff,0xff,0xff,0xff,0x00,0x00,0x00,0x00,0x01,0x00,0x00,0x00,0x3d,0x5e,0x83,0x3f,0x77,0x00,0x00,0x00,0x73,0x65,0x71,0x75,0x65,0x6e,0x74,0x69,0x61,0x6c,0x5f,0x31,0x2f,0x64,0x65,0x70,0x74,0x68,0x77,0x69,0x73,0x65,0x5f,0x63,0x6f,0x6e,0x76,0x32,0x64,0x5f,0x31,0x2f,0x52,0x65,0x6c,0x75,0x3b,0x73,0x65,0x71,0x75,0x65,0x6e,0x74,0x69,0x61,0x6c,0x5f,0x31,0x2f,0x64,0x65,0x70,0x74,0x68,0x77,0x69,0x73,0x65,0x5f,0x63,0x6f,0x6e,0x76,0x32,0x64,0x5f,0x31,0x2f,0x42,0x69,0x61,0x73,0x41,0x64,0x64,0x3b,0x73,0x65,0x71,0x75,0x65,0x6e,0x74,0x69,0x61,0x6c,0x5f,0x31,0x2f,0x64,0x65,0x70,0x74,0x68,0x77,0x69,0x73,0x65,0x5f,0x63,0x6f,0x6e,0x76,0x32,0x64,0x5f,0x31,0x2f,0x64,0x65,0x70,0x74,0x68,0x77,0x69,0x73,0x65,0x3b,0x00,0x04,0x00,0x00,0x00,0x01,0x00,0x00,0x00,0x5f,0x00,0x00,0x00,0x08,0x00,0x00,0x00,0x40,0x00,0x00,0x00,0xd2,0xe8,0xff,0xff,0x00,0x00,0x00,0x01,0x18,0x00,0x00,0x00,0x28,0x00,0x00,0x00,0x48,0x00,0x00,0x00,0x0b,0x00,0x00,0x00,0x00,0x00,0x00,0x09,0xa0,0x00,0x00,0x00,0x04,0x00,0x00,0x00,0xff,0xff,0xff,0xff,0x61,0x00,0x00,0x00,0x0a,0x00,0x00,0x00,0x40,0x00,0x00,0x00,0xbc,0xe8,0xff,0xff,0x08,0x00,0x00,0x00,0x14,0x00,0x00,0x00,0x01,0x00,0x00,0x00,0x80,0xff,0xff,0xff,0xff,0xff,0xff,0xff,0x00,0x00,0x00,0x00,0x01,0x00,0x00,0x00,0xf7,0xd5,0x17,0x40,0x5c,0x00,0x00,0x00,0x73,0x65,0x71,0x75,0x65,0x6e,0x74,0x69,0x61,0x6c,0x5f,0x31,0x2f,0x63,0x6f,0x6e,0x76,0x32,0x64,0x5f,0x31,0x2f,0x52,0x65,0x6c,0x75,0x3b,0x73,0x65,0x71,0x75,0x65,0x6e,0x74,0x69,0x61,0x6c,0x5f,0x31,0x2f,0x63,0x6f,0x6e,0x76,0x32,0x64,0x5f,0x31,0x2f,0x42,0x69,0x61,0x73,0x41,0x64,0x64,0x3b,0x73,0x65,0x71,0x75,0x65,0x6e,0x74,0x69,0x61,0x6c,0x5f,0x31,0x2f,0x63,0x6f,0x6e,0x76,0x32,0x64,0x5f,0x31,0x2f,0x63,0x6f,0x6e,0x76,0x6f,0x6c,0x75,0x74,0x69,0x6f,0x6e,0x3b,0x31,0x00,0x00,0x00,0x00,0x04,0x00,0x00,0x00,0x01,0x00,0x00,0x00,0x61,0x00,0x00,0x00,0x0a,0x00,0x00,0x00,0x40,0x00,0x00,0x00,0xfa,0xe9,0xff,0xff,0x00,0x00,0x00,0x01,0x14,0x00,0x00,0x00,0x28,0x03,0x00,0x00,0x0a,0x00,0x00,0x00,0x00,0x00,0x00,0x09,0x34,0x03,0x00,0x00,0x74,0xe9,0xff,0xff,0x08,0x00,0x00,0x00,0x0c,0x02,0x00,0x00,0x40,0x00,0x00,0x00,0x00,0x00,0x00,0x00,0x00,0x00,0x00,0x00,0x00,0x00,0x00,0x00,0x00,0x00,0x00,0x00,0x00,0x00,0x00,0x00,0x00,0x00,0x00,0x00,0x00,0x00,0x00,0x00,0x00,0x00,0x00,0x00,0x00,0x00,0x00,0x00,0x00,0x00,0x00,0x00,0x00,0x00,0x00,0x00,0x00,0x00,0x00,0x00,0x00,0x00,0x00,0x00,0x00,0x00,0x00,0x00,0x00,0x00,0x00,0x00,0x00,0x00,0x00,0x00,0x00,0x00,0x00,0x00,0x00,0x00,0x00,0x00,0x00,0x00,0x00,0x00,0x00,0x00,0x00,0x00,0x00,0x00,0x00,0x00,0x00,0x00,0x00,0x00,0x00,0x00,0x00,0x00,0x00,0x00,0x00,0x00,0x00,0x00,0x00,0x00,0x00,0x00,0x00,0x00,0x00,0x00,0x00,0x00,0x00,0x00,0x00,0x00,0x00,0x00,0x00,0x00,0x00,0x00,0x00,0x00,0x00,0x00,0x00,0x00,0x00,0x00,0x00,0x00,0x00,0x00,0x00,0x00,0x00,0x00,0x00,0x00,0x00,0x00,0x00,0x00,0x00,0x00,0x00,0x00,0x00,0x00,0x00,0x00,0x00,0x00,0x00,0x00,0x00,0x00,0x00,0x00,0x00,0x00,0x00,0x00,0x00,0x00,0x00,0x00,0x00,0x00,0x00,0x00,0x00,0x00,0x00,0x00,0x00,0x00,0x00,0x00,0x00,0x00,0x00,0x00,0x00,0x00,0x00,0x00,0x00,0x00,0x00,0x00,0x00,0x00,0x00,0x00,0x00,0x00,0x00,0x00,0x00,0x00,0x00,0x00,0x00,0x00,0x00,0x00,0x00,0x00,0x00,0x00,0x00,0x00,0x00,0x00,0x00,0x00,0x00,0x00,0x00,0x00,0x00,0x00,0x00,0x00,0x00,0x00,0x00,0x00,0x00,0x00,0x00,0x00,0x00,0x00,0x00,0x00,0x00,0x00,0x00,0x00,0x00,0x00,0x00,0x00,0x00,0x00,0x00,0x00,0x00,0x00,0x00,0x00,0x00,0x00,0x00,0x00,0x00,0x00,0x00,0x00,0x00,0x00,0x00,0x00,0x00,0x00,0x00,0x00,0x00,0x00,0x00,0x00,0x00,0x00,0x00,0x00,0x00,0x00,0x00,0x00,0x00,0x00,0x00,0x00,0x00,0x00,0x00,0x00,0x00,0x00,0x00,0x00,0x00,0x00,0x00,0x00,0x00,0x00,0x00,0x00,0x00,0x00,0x00,0x00,0x00,0x00,0x00,0x00,0x00,0x00,0x00,0x00,0x00,0x00,0x00,0x00,0x00,0x00,0x00,0x00,0x00,0x00,0x00,0x00,0x00,0x00,0x00,0x00,0x00,0x00,0x00,0x00,0x00,0x00,0x00,0x00,0x00,0x00,0x00,0x00,0x00,0x00,0x00,0x00,0x00,0x00,0x00,0x00,0x00,0x00,0x00,0x00,0x00,0x00,0x00,0x00,0x00,0x00,0x00,0x00,0x00,0x00,0x00,0x00,0x00,0x00,0x00,0x00,0x00,0x00,0x00,0x00,0x00,0x00,0x00,0x00,0x00,0x00,0x00,0x00,0x00,0x00,0x00,0x00,0x00,0x00,0x00,0x00,0x00,0x00,0x00,0x00,0x00,0x00,0x00,0x00,0x00,0x00,0x00,0x00,0x00,0x00,0x00,0x00,0x00,0x00,0x00,0x00,0x00,0x00,0x00,0x00,0x00,0x00,0x00,0x00,0x00,0x00,0x00,0x00,0x00,0x00,0x00,0x00,0x00,0x00,0x00,0x00,0x00,0x00,0x00,0x00,0x00,0x00,0x00,0x00,0x00,0x00,0x00,0x00,0x00,0x00,0x00,0x00,0x00,0x00,0x00,0x00,0x00,0x00,0x00,0x00,0x00,0x00,0x00,0x00,0x00,0x00,0x00,0x00,0x00,0x00,0x00,0x00,0x00,0x00,0x00,0x00,0x00,0x00,0x00,0x00,0x00,0x00,0x00,0x00,0x00,0x00,0x00,0x00,0x00,0x00,0x00,0x00,0x00,0x00,0x00,0x00,0x00,0x00,0x00,0x00,0x00,0x00,0x00,0x00,0x00,0x00,0x00,0x00,0x00,0x00,0x00,0x00,0x00,0x00,0x00,0x00,0x00,0x00,0x00,0x00,0x00,0x00,0x00,0x00,0x00,0x00,0x40,0x00,0x00,0x00,0x7d,0xbc,0x99,0x3b,0xa7,0x69,0x06,0x3c,0x22,0x56,0xbc,0x3b,0xee,0x82,0x8f,0x3b,0xe8,0x13,0x30,0x3b,0x7d,0xe4,0x0c,0x3c,0xe4,0x99,0x04,0x3c,0x2c,0xd6,0xcd,0x3b,0x20,0x65,0xd2,0x3b,0x4f,0x2e,0xcf,0x3b,0xa5,0xe2,0xcb,0x3b,0x3f,0xa2,0x8c,0x3b,0xd5,0x1f,0x3a,0x3b,0x31,0x89,0x82,0x3b,0x0a,0x32,0x04,0x3c,0x0e,0x0f,0xe8,0x3b,0xae,0x46,0x19,0x3c,0x24,0xdd,0xae,0x3b,0x01,0x0d,0x66,0x3c,0x83,0x03,0xda,0x3b,0x4a,0x33,0x55,0x3b,0x3a,0x4c,0x76,0x3b,0x88,0xa3,0x45,0x3c,0x01,0xfc,0x9c,0x3b,0x58,0x2f,0xa9,0x3c,0x02,0x79,0xbd,0x3b,0x27,0xc7,0x57,0x3b,0x7c,0x05,0xe4,0x3b,0x0b,0x26,0xb8,0x3c,0x4d,0x07,0x12,0x3c,0x2a,0xcc,0xce,0x3b,0xe2,0x22,0xcf,0x3b,0xf7,0x53,0xb4,0x3b,0x26,0xb7,0xa5,0x3b,0x4f,0xff,0x10,0x3c,0x94,0x81,0x00,0x3c,0xf8,0xc4,0xb3,0x3b,0xdc,0xe9,0x04,0x3c,0x57,0x0c,0x0b,0x3c,0xd9,0x14,0x0b,0x3c,0x37,0xd7,0x1f,0x3c,0x68,0x9a,0x17,0x3c,0x42,0x91,0x0f,0x3c,0xfe,0xcc,0xd5,0x3b,0xc2,0x7e,0xf5,0x3b,0xbc,0x47,0x17,0x3c,0xf7,0xa2,0xc5,0x3b,0x1f,0xe4,0xc1,0x3b,0x3e,0x33,0xdf,0x3b,0x46,0x48,0xb7,0x3b,0xf5,0xc7,0xa3,0x3b,0x85,0xee,0x1d,0x3a,0xdc,0x92,0x16,0x3c,0xb6,0x72,0xb1,0x3b,0xcf,0xf0,0xe0,0x3b,0x4b,0x05,0xa6,0x3b,0xf1,0xa5,0x6e,0x3b,0x06,0xb8,0x68,0x3b,0x22,0xd6,0xc5,0x3b,0xec,0x14,0x3b,0x3c,0x97,0x38,0xe2,0x3b,0x41,0x62,0x7b,0x3b,0x6d,0x6a,0x86,0x3b,0x76,0xea,0x34,0x3c,0x12,0x00,0x00,0x00,0x74,0x66,0x6c,0x2e,0x70,0x73,0x65,0x75,0x64,0x6f,0x5f,0x71,0x63,0x6f,0x6e,0x73,0x74,0x37,0x00,0x00,0x04,0x00,0x00,0x00,0x40,0x00,0x00,0x00,0x03,0x00,0x00,0x00,0x03,0x00,0x00,0x00,0x01,0x00,0x00,0x00,0x5a,0xed,0xff,0xff,0x00,0x00,0x00,0x01,0x14,0x00,0x00,0x00,0x24,0x03,0x00,0x00,0x09,0x00,0x00,0x00,0x00,0x00,0x00,0x02,0x30,0x03,0x00,0x00,0xd4,0xec,0xff,0xff,0x08,0x00,0x00,0x00,0x08,0x02,0x00,0x00,0x40,0x00,0x00,0x00,0x00,0x00,0x00,0x00,0x00,0x00,0x00,0x00,0x00,0x00,0x00,0x00,0x00,0x00,0x00,0x00,0x00,0x00,0x00,0x00,0x00,0x00,0x00,0x00,0x00,0x00,0x00,0x00,0x00,0x00,0x00,0x00,0x00,0x00,0x00,0x00,0x00,0x00,0x00,0x00,0x00,0x00,0x00,0x00,0x00,0x00,0x00,0x00,0x00,0x00,0x00,0x00,0x00,0x00,0x00,0x00,0x00,0x00,0x00,0x00,0x00,0x00,0x00,0x00,0x00,0x00,0x00,0x00,0x00,0x00,0x00,0x00,0x00,0x00,0x00,0x00,0x00,0x00,0x00,0x00,0x00,0x00,0x00,0x00,0x00,0x00,0x00,0x00,0x00,0x00,0x00,0x00,0x00,0x00,0x00,0x00,0x00,0x00,0x00,0x00,0x00,0x00,0x00,0x00,0x00,0x00,0x00,0x00,0x00,0x00,0x00,0x00,0x00,0x00,0x00,0x00,0x00,0x00,0x00,0x00,0x00,0x00,0x00,0x00,0x00,0x00,0x00,0x00,0x00,0x00,0x00,0x00,0x00,0x00,0x00,0x00,0x00,0x00,0x00,0x00,0x00,0x00,0x00,0x00,0x00,0x00,0x00,0x00,0x00,0x00,0x00,0x00,0x00,0x00,0x00,0x00,0x00,0x00,0x00,0x00,0x00,0x00,0x00,0x00,0x00,0x00,0x00,0x00,0x00,0x00,0x00,0x00,0x00,0x00,0x00,0x00,0x00,0x00,0x00,0x00,0x00,0x00,0x00,0x00,0x00,0x00,0x00,0x00,0x00,0x00,0x00,0x00,0x00,0x00,0x00,0x00,0x00,0x00,0x00,0x00,0x00,0x00,0x00,0x00,0x00,0x00,0x00,0x00,0x00,0x00,0x00,0x00,0x00,0x00,0x00,0x00,0x00,0x00,0x00,0x00,0x00,0x00,0x00,0x00,0x00,0x00,0x00,0x00,0x00,0x00,0x00,0x00,0x00,0x00,0x00,0x00,0x00,0x00,0x00,0x00,0x00,0x00,0x00,0x00,0x00,0x00,0x00,0x00,0x00,0x00,0x00,0x00,0x00,0x00,0x00,0x00,0x00,0x00,0x00,0x00,0x00,0x00,0x00,0x00,0x00,0x00,0x00,0x00,0x00,0x00,0x00,0x00,0x00,0x00,0x00,0x00,0x00,0x00,0x00,0x00,0x00,0x00,0x00,0x00,0x00,0x00,0x00,0x00,0x00,0x00,0x00,0x00,0x00,0x00,0x00,0x00,0x00,0x00,0x00,0x00,0x00,0x00,0x00,0x00,0x00,0x00,0x00,0x00,0x00,0x00,0x00,0x00,0x00,0x00,0x00,0x00,0x00,0x00,0x00,0x00,0x00,0x00,0x00,0x00,0x00,0x00,0x00,0x00,0x00,0x00,0x00,0x00,0x00,0x00,0x00,0x00,0x00,0x00,0x00,0x00,0x00,0x00,0x00,0x00,0x00,0x00,0x00,0x00,0x00,0x00,0x00,0x00,0x00,0x00,0x00,0x00,0x00,0x00,0x00,0x00,0x00,0x00,0x00,0x00,0x00,0x00,0x00,0x00,0x00,0x00,0x00,0x00,0x00,0x00,0x00,0x00,0x00,0x00,0x00,0x00,0x00,0x00,0x00,0x00,0x00,0x00,0x00,0x00,0x00,0x00,0x00,0x00,0x00,0x00,0x00,0x00,0x00,0x00,0x00,0x00,0x00,0x00,0x00,0x00,0x00,0x00,0x00,0x00,0x00,0x00,0x00,0x00,0x00,0x00,0x00,0x00,0x00,0x00,0x00,0x00,0x00,0x00,0x00,0x00,0x00,0x00,0x00,0x00,0x00,0x00,0x00,0x00,0x00,0x00,0x00,0x00,0x00,0x00,0x00,0x00,0x00,0x00,0x00,0x00,0x00,0x00,0x00,0x00,0x00,0x00,0x00,0x00,0x00,0x00,0x00,0x00,0x00,0x00,0x00,0x00,0x00,0x00,0x00,0x00,0x00,0x00,0x00,0x00,0x00,0x00,0x00,0x00,0x00,0x00,0x00,0x00,0x00,0x00,0x00,0x00,0x00,0x00,0x00,0x00,0x00,0x00,0x00,0x00,0x00,0x00,0x00,0x00,0x00,0x00,0x00,0x00,0x00,0x00,0x00,0x00,0x00,0x00,0x00,0x00,0x00,0x00,0x00,0x00,0x00,0x00,0x00,0x00,0x40,0x00,0x00,0x00,0x43,0x8f,0x32,0x3b,0xad,0x1d,0x9c,0x3b,0x1f,0xbf,0x5a,0x3b,0x0e,0xaf,0x26,0x3b,0x2d,0x82,0xcc,0x3a,0x5b,0xa4,0xa3,0x3b,0x08,0x03,0x9a,0x3b,0x8a,0x12,0x6f,0x3b,0xeb,0x5d,0x74,0x3b,0x3e,0xa2,0x70,0x3b,0x5b,0xce,0x6c,0x3b,0x6b,0x57,0x23,0x3b,0x62,0x2d,0xd8,0x3a,0xf7,0x9c,0x17,0x3b,0x69,0x8a,0x99,0x3b,0xaa,0xc3,0x86,0x3b,0x6e,0x06,0xb2,0x3b,0x3b,0x19,0x4b,0x3b,0x24,0x99,0x05,0x3c,0x3a,0x37,0x7d,0x3b,0x0a,0xa0,0xf7,0x3a,0x8a,0x08,0x0f,0x3b,0x0a,0x8d,0xe5,0x3b,0x0a,0x55,0x36,0x3b,0xb2,0x80,0x44,0x3c,0xf7,0x10,0x5c,0x3b,0x73,0x9e,0xfa,0x3a,0x70,0x6b,0x84,0x3b,0xed,0xe1,0x55,0x3c,0x78,0x9b,0xa9,0x3b,0x40,0x30,0x70,0x3b,0xf9,0x94,0x70,0x3b,0xeb,0x71,0x51,0x3b,0x16,0x79,0x40,0x3b,0xda,0x68,0xa8,0x3b,0x73,0x41,0x95,0x3b,0xd6,0xcb,0x50,0x3b,0xe9,0x5f,0x9a,0x3b,0xf9,0x7f,0xa1,0x3b,0xdb,0x89,0xa1,0x3b,0x51,0xa6,0xb9,0x3b,0x01,0x15,0xb0,0x3b,0xb2,0xbf,0xa6,0x3b,0x90,0x52,0x78,0x3b,0x37,0x91,0x8e,0x3b,0xfc,0xb4,0xaf,0x3b,0x61,0x8c,0x65,0x3b,0xb7,0x32,0x61,0x3b,0xac,0x9e,0x81,0x3b,0x59,0xe0,0x54,0x3b,0xf0,0x39,0x3e,0x3b,0xb6,0x6e,0xb7,0x39,0xe7,0xe2,0xae,0x3b,0xa0,0x19,0x4e,0x3b,0x6d,0xa1,0x82,0x3b,0xd9,0xd3,0x40,0x3b,0x4c,0x97,0x0a,0x3b,0xcb,0x25,0x07,0x3b,0xcf,0xc7,0x65,0x3b,0x0c,0x4a,0xd9,0x3b,0xc8,0x5f,0x83,0x3b,0xab,0xfc,0x11,0x3b,0x93,0x1e,0x1c,0x3b,0xb7,0x20,0xd2,0x3b,0x12,0x00,0x00,0x00,0x74,0x66,0x6c,0x2e,0x70,0x73,0x65,0x75,0x64,0x6f,0x5f,0x71,0x63,0x6f,0x6e,0x73,0x74,0x36,0x00,0x00,0x01,0x00,0x00,0x00,0x40,0x00,0x00,0x00,0xaa,0xf0,0xff,0xff,0x00,0x00,0x00,0x01,0x28,0x00,0x00,0x00,0x40,0x03,0x00,0x00,0x08,0x00,0x00,0x00,0x00,0x00,0x00,0x09,0x4c,0x03,0x00,0x00,0x00,0x00,0x12,0x00,0x10,0x00,0x00,0x00,0x00,0x00,0x0c,0x00,0x08,0x00,0x00,0x00,0x00,0x00,0x04,0x00,0x12,0x00,0x00,0x00,0x03,0x00,0x00,0x00,0x08,0x00,0x00,0x00,0x0c,0x02,0x00,0x00,0x40,0x00,0x00,0x00,0x00,0x00,0x00,0x00,0x00,0x00,0x00,0x00,0x00,0x00,0x00,0x00,0x00,0x00,0x00,0x00,0x00,0x00,0x00,0x00,0x00,0x00,0x00,0x00,0x00,0x00,0x00,0x00,0x00,0x00,0x00,0x00,0x00,0x00,0x00,0x00,0x00,0x00,0x00,0x00,0x00,0x00,0x00,0x00,0x00,0x00,0x00,0x00,0x00,0x00,0x00,0x00,0x00,0x00,0x00,0x00,0x00,0x00,0x00,0x00,0x00,0x00,0x00,0x00,0x00,0x00,0x00,0x00,0x00,0x00,0x00,0x00,0x00,0x00,0x00,0x00,0x00,0x00,0x00,0x00,0x00,0x00,0x00,0x00,0x00,0x00,0x00,0x00,0x00,0x00,0x00,0x00,0x00,0x00,0x00,0x00,0x00,0x00,0x00,0x00,0x00,0x00,0x00,0x00,0x00,0x00,0x00,0x00,0x00,0x00,0x00,0x00,0x00,0x00,0x00,0x00,0x00,0x00,0x00,0x00,0x00,0x00,0x00,0x00,0x00,0x00,0x00,0x00,0x00,0x00,0x00,0x00,0x00,0x00,0x00,0x00,0x00,0x00,0x00,0x00,0x00,0x00,0x00,0x00,0x00,0x00,0x00,0x00,0x00,0x00,0x00,0x00,0x00,0x00,0x00,0x00,0x00,0x00,0x00,0x00,0x00,0x00,0x00,0x00,0x00,0x00,0x00,0x00,0x00,0x00,0x00,0x00,0x00,0x00,0x00,0x00,0x00,0x00,0x00,0x00,0x00,0x00,0x00,0x00,0x00,0x00,0x00,0x00,0x00,0x00,0x00,0x00,0x00,0x00,0x00,0x00,0x00,0x00,0x00,0x00,0x00,0x00,0x00,0x00,0x00,0x00,0x00,0x00,0x00,0x00,0x00,0x00,0x00,0x00,0x00,0x00,0x00,0x00,0x00,0x00,0x00,0x00,0x00,0x00,0x00,0x00,0x00,0x00,0x00,0x00,0x00,0x00,0x00,0x00,0x00,0x00,0x00,0x00,0x00,0x00,0x00,0x00,0x00,0x00,0x00,0x00,0x00,0x00,0x00,0x00,0x00,0x00,0x00,0x00,0x00,0x00,0x00,0x00,0x00,0x00,0x00,0x00,0x00,0x00,0x00,0x00,0x00,0x00,0x00,0x00,0x00,0x00,0x00,0x00,0x00,0x00,0x00,0x00,0x00,0x00,0x00,0x00,0x00,0x00,0x00,0x00,0x00,0x00,0x00,0x00,0x00,0x00,0x00,0x00,0x00,0x00,0x00,0x00,0x00,0x00,0x00,0x00,0x00,0x00,0x00,0x00,0x00,0x00,0x00,0x00,0x00,0x00,0x00,0x00,0x00,0x00,0x00,0x00,0x00,0x00,0x00,0x00,0x00,0x00,0x00,0x00,0x00,0x00,0x00,0x00,0x00,0x00,0x00,0x00,0x00,0x00,0x00,0x00,0x00,0x00,0x00,0x00,0x00,0x00,0x00,0x00,0x00,0x00,0x00,0x00,0x00,0x00,0x00,0x00,0x00,0x00,0x00,0x00,0x00,0x00,0x00,0x00,0x00,0x00,0x00,0x00,0x00,0x00,0x00,0x00,0x00,0x00,0x00,0x00,0x00,0x00,0x00,0x00,0x00,0x00,0x00,0x00,0x00,0x00,0x00,0x00,0x00,0x00,0x00,0x00,0x00,0x00,0x00,0x00,0x00,0x00,0x00,0x00,0x00,0x00,0x00,0x00,0x00,0x00,0x00,0x00,0x00,0x00,0x00,0x00,0x00,0x00,0x00,0x00,0x00,0x00,0x00,0x00,0x00,0x00,0x00,0x00,0x00,0x00,0x00,0x00,0x00,0x00,0x00,0x00,0x00,0x00,0x00,0x00,0x00,0x00,0x00,0x00,0x00,0x00,0x00,0x00,0x00,0x00,0x00,0x00,0x00,0x00,0x00,0x00,0x00,0x00,0x00,0x00,0x00,0x00,0x00,0x00,0x00,0x00,0x00,0x00,0x00,0x00,0x00,0x00,0x00,0x00,0x00,0x00,0x00,0x00,0x00,0x00,0x00,0x00,0x00,0x00,0x00,0x00,0x00,0x00,0x00,0x00,0x00,0x00,0x00,0x00,0x00,0x00,0x00,0x00,0x00,0x00,0x00,0x00,0x00,0x00,0x00,0x00,0x00,0x00,0x00,0x00,0x00,0x00,0x00,0x00,0x00,0x00,0x00,0x00,0x00,0x00,0x00,0x00,0x40,0x00,0x00,0x00,0xb7,0xeb,0x94,0x3b,0x16,0x98,0xe6,0x3b,0x0c,0xc5,0x05,0x3c,0xdc,0xe5,0x83,0x3b,0xca,0x18,0x7a,0x3b,0x95,0xd8,0xd2,0x3b,0x49,0x75,0x04,0x3c,0x63,0x4c,0x6c,0x3c,0x58,0x23,0x99,0x3c,0x2d,0x7e,0xa3,0x3b,0xcc,0x9f,0x93,0x3b,0x65,0x9b,0xe2,0x3b,0x1b,0xfd,0xb6,0x3b,0x5b,0xb4,0x82,0x3b,0x96,0x5b,0xdb,0x3b,0x27,0x5a,0xdb,0x3b,0x0b,0x1e,0xac,0x3b,0xd5,0x80,0x69,0x3c,0x45,0x04,0x20,0x3c,0x36,0xe8,0xec,0x3b,0x1b,0x7c,0xce,0x3b,0x43,0x48,0xf3,0x3b,0xef,0x6c,0x21,0x3c,0x55,0x8e,0xb1,0x3b,0x4f,0x94,0x9a,0x3b,0x63,0x7a,0xee,0x3b,0x4f,0x1b,0x57,0x3b,0x1d,0xff,0xb8,0x3c,0x32,0x18,0x16,0x3c,0xfe,0x4b,0xd3,0x3b,0x06,0x25,0xaf,0x3b,0xd7,0x63,0xcd,0x3b,0x73,0xa5,0x5c,0x3b,0xbf,0xe0,0x00,0x3c,0x2f,0xa0,0x51,0x3c,0x21,0x13,0x13,0x3c,0xdc,0x15,0xab,0x3b,0xa7,0x8d,0xf7,0x3b,0x68,0xec,0x92,0x3b,0x29,0xe9,0x04,0x3c,0x6b,0x32,0x0f,0x3c,0x81,0x13,0x28,0x3c,0xb0,0xf5,0x3c,0x3c,0xf1,0xeb,0xc6,0x3b,0x87,0x0e,0x4f,0x3c,0x80,0xfa,0xb4,0x3b,0x03,0x45,0xd5,0x3b,0x30,0x62,0x99,0x3b,0x18,0x2a,0xb7,0x3b,0x76,0x4f,0x14,0x3c,0x2b,0xa8,0xa3,0x3b,0xa9,0x1b,0x57,0x3a,0xba,0x04,0x2a,0x3c,0xf4,0xd4,0x90,0x3b,0x1d,0xc4,0x26,0x3c,0x19,0x39,0xa1,0x3b,0x76,0x40,0xe2,0x3b,0x6b,0xb8,0x63,0x3b,0x8a,0x80,0xe7,0x3b,0x1d,0xe5,0xce,0x3b,0x8d,0x2d,0x4f,0x3b,0x7d,0x22,0x04,0x3c,0x5d,0x53,0x99,0x3b,0xe1,0xf5,0x17,0x3c,0x12,0x00,0x00,0x00,0x74,0x66,0x6c,0x2e,0x70,0x73,0x65,0x75,0x64,0x6f,0x5f,0x71,0x63,0x6f,0x6e,0x73,0x74,0x35,0x00,0x00,0x04,0x00,0x00,0x00,0x01,0x00,0x00,0x00,0x03,0x00,0x00,0x00,0x03,0x00,0x00,0x00,0x40,0x00,0x00,0x00,0x22,0xf4,0xff,0xff,0x00,0x00,0x00,0x01,0x14,0x00,0x00,0x00,0x24,0x03,0x00,0x00,0x07,0x00,0x00,0x00,0x00,0x00,0x00,0x02,0x30,0x03,0x00,0x00,0x9c,0xf3,0xff,0xff,0x08,0x00,0x00,0x00,0x08,0x02,0x00,0x00,0x40,0x00,0x00,0x00,0x00,0x00,0x00,0x00,0x00,0x00,0x00,0x00,0x00,0x00,0x00,0x00,0x00,0x00,0x00,0x00,0x00,0x00,0x00,0x00,0x00,0x00,0x00,0x00,0x00,0x00,0x00,0x00,0x00,0x00,0x00,0x00,0x00,0x00,0x00,0x00,0x00,0x00,0x00,0x00,0x00,0x00,0x00,0x00,0x00,0x00,0x00,0x00,0x00,0x00,0x00,0x00,0x00,0x00,0x00,0x00,0x00,0x00,0x00,0x00,0x00,0x00,0x00,0x00,0x00,0x00,0x00,0x00,0x00,0x00,0x00,0x00,0x00,0x00,0x00,0x00,0x00,0x00,0x00,0x00,0x00,0x00,0x00,0x00,0x00,0x00,0x00,0x00,0x00,0x00,0x00,0x00,0x00,0x00,0x00,0x00,0x00,0x00,0x00,0x00,0x00,0x00,0x00,0x00,0x00,0x00,0x00,0x00,0x00,0x00,0x00,0x00,0x00,0x00,0x00,0x00,0x00,0x00,0x00,0x00,0x00,0x00,0x00,0x00,0x00,0x00,0x00,0x00,0x00,0x00,0x00,0x00,0x00,0x00,0x00,0x00,0x00,0x00,0x00,0x00,0x00,0x00,0x00,0x00,0x00,0x00,0x00,0x00,0x00,0x00,0x00,0x00,0x00,0x00,0x00,0x00,0x00,0x00,0x00,0x00,0x00,0x00,0x00,0x00,0x00,0x00,0x00,0x00,0x00,0x00,0x00,0x00,0x00,0x00,0x00,0x00,0x00,0x00,0x00,0x00,0x00,0x00,0x00,0x00,0x00,0x00,0x00,0x00,0x00,0x00,0x00,0x00,0x00,0x00,0x00,0x00,0x00,0x00,0x00,0x00,0x00,0x00,0x00,0x00,0x00,0x00,0x00,0x00,0x00,0x00,0x00,0x00,0x00,0x00,0x00,0x00,0x00,0x00,0x00,0x00,0x00,0x00,0x00,0x00,0x00,0x00,0x00,0x00,0x00,0x00,0x00,0x00,0x00,0x00,0x00,0x00,0x00,0x00,0x00,0x00,0x00,0x00,0x00,0x00,0x00,0x00,0x00,0x00,0x00,0x00,0x00,0x00,0x00,0x00,0x00,0x00,0x00,0x00,0x00,0x00,0x00,0x00,0x00,0x00,0x00,0x00,0x00,0x00,0x00,0x00,0x00,0x00,0x00,0x00,0x00,0x00,0x00,0x00,0x00,0x00,0x00,0x00,0x00,0x00,0x00,0x00,0x00,0x00,0x00,0x00,0x00,0x00,0x00,0x00,0x00,0x00,0x00,0x00,0x00,0x00,0x00,0x00,0x00,0x00,0x00,0x00,0x00,0x00,0x00,0x00,0x00,0x00,0x00,0x00,0x00,0x00,0x00,0x00,0x00,0x00,0x00,0x00,0x00,0x00,0x00,0x00,0x00,0x00,0x00,0x00,0x00,0x00,0x00,0x00,0x00,0x00,0x00,0x00,0x00,0x00,0x00,0x00,0x00,0x00,0x00,0x00,0x00,0x00,0x00,0x00,0x00,0x00,0x00,0x00,0x00,0x00,0x00,0x00,0x00,0x00,0x00,0x00,0x00,0x00,0x00,0x00,0x00,0x00,0x00,0x00,0x00,0x00,0x00,0x00,0x00,0x00,0x00,0x00,0x00,0x00,0x00,0x00,0x00,0x00,0x00,0x00,0x00,0x00,0x00,0x00,0x00,0x00,0x00,0x00,0x00,0x00,0x00,0x00,0x00,0x00,0x00,0x00,0x00,0x00,0x00,0x00,0x00,0x00,0x00,0x00,0x00,0x00,0x00,0x00,0x00,0x00,0x00,0x00,0x00,0x00,0x00,0x00,0x00,0x00,0x00,0x00,0x00,0x00,0x00,0x00,0x00,0x00,0x00,0x00,0x00,0x00,0x00,0x00,0x00,0x00,0x00,0x00,0x00,0x00,0x00,0x00,0x00,0x00,0x00,0x00,0x00,0x00,0x00,0x00,0x00,0x00,0x00,0x00,0x00,0x00,0x00,0x00,0x00,0x00,0x00,0x00,0x00,0x00,0x00,0x00,0x00,0x00,0x00,0x00,0x00,0x00,0x00,0x00,0x00,0x00,0x00,0x00,0x00,0x00,0x00,0x00,0x00,0x00,0x00,0x00,0x00,0x00,0x00,0x00,0x00,0x00,0x00,0x00,0x00,0x00,0x00,0x00,0x00,0x00,0x00,0x00,0x00,0x00,0x00,0x00,0x00,0x00,0x40,0x00,0x00,0x00,0x01,0xa7,0x30,0x3c,0x70,0xc4,0x88,0x3c,0x10,0xae,0x9e,0x3c,0xa5,0x75,0x1c,0x3c,0xa7,0x55,0x14,0x3c,0xf3,0x1b,0x7a,0x3c,0xc7,0x1f,0x9d,0x3c,0x8e,0x26,0x0c,0x3d,0xae,0xa7,0x35,0x3d,0x25,0xf0,0x41,0x3c,0x47,0x1d,0x2f,0x3c,0x0f,0x67,0x86,0x3c,0x78,0x10,0x59,0x3c,0x40,0x0b,0x1b,0x3c,0x5c,0x1a,0x82,0x3c,0x83,0x19,0x82,0x3c,0x27,0x2b,0x4c,0x3c,0x27,0x7e,0x0a,0x3d,0x85,0xd0,0xbd,0x3c,0xfa,0x82,0x8c,0x3c,0x91,0xef,0x74,0x3c,0xf5,0x4a,0x90,0x3c,0x59,0x7c,0xbf,0x3c,0xb6,0x9e,0x52,0x3c,0x5a,0x5d,0x37,0x3c,0x82,0x71,0x8d,0x3c,0xca,0x29,0xff,0x3b,0x32,0x72,0x5b,0x3d,0x71,0x0b,0xb2,0x3c,0xda,0xa4,0x7a,0x3c,0x73,0xc2,0x4f,0x3c,0x1c,0xa3,0x73,0x3c,0x01,0xde,0x02,0x3c,0x90,0xe0,0x98,0x3c,0x61,0xa9,0xf8,0x3c,0x6b,0x76,0xae,0x3c,0xc6,0xf1,0x4a,0x3c,0x75,0xd3,0x92,0x3c,0x7c,0x48,0x2e,0x3c,0x3b,0xa9,0x9d,0x3c,0xd8,0xdc,0xa9,0x3c,0xf7,0x5f,0xc7,0x3c,0xb3,0x25,0xe0,0x3c,0xdb,0xf6,0x6b,0x3c,0x41,0x9d,0xf5,0x3c,0x09,0xae,0x56,0x3c,0xea,0xfb,0x7c,0x3c,0x3a,0xf2,0x35,0x3c,0xd6,0x45,0x59,0x3c,0xa8,0xed,0xaf,0x3c,0xf4,0x21,0x42,0x3c,0x34,0x2a,0xff,0x3a,0xc7,0xad,0xc9,0x3c,0x52,0xcd,0x2b,0x3c,0x1e,0xd2,0xc5,0x3c,0xdc,0x3e,0x3f,0x3c,0x20,0x31,0x86,0x3c,0x1b,0x10,0x07,0x3c,0x4f,0x4e,0x89,0x3c,0x21,0x6c,0x75,0x3c,0x0e,0xc2,0xf5,0x3b,0x90,0xbd,0x9c,0x3c,0xa4,0xe0,0x35,0x3c,0x14,0x42,0xb4,0x3c,0x12,0x00,0x00,0x00,0x74,0x66,0x6c,0x2e,0x70,0x73,0x65,0x75,0x64,0x6f,0x5f,0x71,0x63,0x6f,0x6e,0x73,0x74,0x34,0x00,0x00,0x01,0x00,0x00,0x00,0x40,0x00,0x00,0x00,0x72,0xf7,0xff,0xff,0x00,0x00,0x00,0x01,0x14,0x00,0x00,0x00,0x28,0x03,0x00,0x00,0x06,0x00,0x00,0x00,0x00,0x00,0x00,0x09,0x34,0x03,0x00,0x00,0xec,0xf6,0xff,0xff,0x08,0x00,0x00,0x00,0x0c,0x02,0x00,0x00,0x40,0x00,0x00,0x00,0x00,0x00,0x00,0x00,0x00,0x00,0x00,0x00,0x00,0x00,0x00,0x00,0x00,0x00,0x00,0x00,0x00,0x00,0x00,0x00,0x00,0x00,0x00,0x00,0x00,0x00,0x00,0x00,0x00,0x00,0x00,0x00,0x00,0x00,0x00,0x00,0x00,0x00,0x00,0x00,0x00,0x00,0x00,0x00,0x00,0x00,0x00,0x00,0x00,0x00,0x00,0x00,0x00,0x00,0x00,0x00,0x00,0x00,0x00,0x00,0x00,0x00,0x00,0x00,0x00,0x00,0x00,0x00,0x00,0x00,0x00,0x00,0x00,0x00,0x00,0x00,0x00,0x00,0x00,0x00,0x00,0x00,0x00,0x00,0x00,0x00,0x00,0x00,0x00,0x00,0x00,0x00,0x00,0x00,0x00,0x00,0x00,0x00,0x00,0x00,0x00,0x00,0x00,0x00,0x00,0x00,0x00,0x00,0x00,0x00,0x00,0x00,0x00,0x00,0x00,0x00,0x00,0x00,0x00,0x00,0x00,0x00,0x00,0x00,0x00,0x00,0x00,0x00,0x00,0x00,0x00,0x00,0x00,0x00,0x00,0x00,0x00,0x00,0x00,0x00,0x00,0x00,0x00,0x00,0x00,0x00,0x00,0x00,0x00,0x00,0x00,0x00,0x00,0x00,0x00,0x00,0x00,0x00,0x00,0x00,0x00,0x00,0x00,0x00,0x00,0x00,0x00,0x00,0x00,0x00,0x00,0x00,0x00,0x00,0x00,0x00,0x00,0x00,0x00,0x00,0x00,0x00,0x00,0x00,0x00,0x00,0x00,0x00,0x00,0x00,0x00,0x00,0x00,0x00,0x00,0x00,0x00,0x00,0x00,0x00,0x00,0x00,0x00,0x00,0x00,0x00,0x00,0x00,0x00,0x00,0x00,0x00,0x00,0x00,0x00,0x00,0x00,0x00,0x00,0x00,0x00,0x00,0x00,0x00,0x00,0x00,0x00,0x00,0x00,0x00,0x00,0x00,0x00,0x00,0x00,0x00,0x00,0x00,0x00,0x00,0x00,0x00,0x00,0x00,0x00,0x00,0x00,0x00,0x00,0x00,0x00,0x00,0x00,0x00,0x00,0x00,0x00,0x00,0x00,0x00,0x00,0x00,0x00,0x00,0x00,0x00,0x00,0x00,0x00,0x00,0x00,0x00,0x00,0x00,0x00,0x00,0x00,0x00,0x00,0x00,0x00,0x00,0x00,0x00,0x00,0x00,0x00,0x00,0x00,0x00,0x00,0x00,0x00,0x00,0x00,0x00,0x00,0x00,0x00,0x00,0x00,0x00,0x00,0x00,0x00,0x00,0x00,0x00,0x00,0x00,0x00,0x00,0x00,0x00,0x00,0x00,0x00,0x00,0x00,0x00,0x00,0x00,0x00,0x00,0x00,0x00,0x00,0x00,0x00,0x00,0x00,0x00,0x00,0x00,0x00,0x00,0x00,0x00,0x00,0x00,0x00,0x00,0x00,0x00,0x00,0x00,0x00,0x00,0x00,0x00,0x00,0x00,0x00,0x00,0x00,0x00,0x00,0x00,0x00,0x00,0x00,0x00,0x00,0x00,0x00,0x00,0x00,0x00,0x00,0x00,0x00,0x00,0x00,0x00,0x00,0x00,0x00,0x00,0x00,0x00,0x00,0x00,0x00,0x00,0x00,0x00,0x00,0x00,0x00,0x00,0x00,0x00,0x00,0x00,0x00,0x00,0x00,0x00,0x00,0x00,0x00,0x00,0x00,0x00,0x00,0x00,0x00,0x00,0x00,0x00,0x00,0x00,0x00,0x00,0x00,0x00,0x00,0x00,0x00,0x00,0x00,0x00,0x00,0x00,0x00,0x00,0x00,0x00,0x00,0x00,0x00,0x00,0x00,0x00,0x00,0x00,0x00,0x00,0x00,0x00,0x00,0x00,0x00,0x00,0x00,0x00,0x00,0x00,0x00,0x00,0x00,0x00,0x00,0x00,0x00,0x00,0x00,0x00,0x00,0x00,0x00,0x00,0x00,0x00,0x00,0x00,0x00,0x00,0x00,0x00,0x00,0x00,0x00,0x00,0x00,0x00,0x00,0x00,0x00,0x00,0x00,0x00,0x00,0x00,0x00,0x00,0x00,0x00,0x00,0x00,0x00,0x00,0x00,0x00,0x00,0x00,0x00,0x00,0x00,0x00,0x00,0x00,0x00,0x00,0x00,0x00,0x00,0x00,0x00,0x00,0x00,0x00,0x00,0x00,0x00,0x00,0x40,0x00,0x00,0x00,0x4d,0x2e,0x9b,0x3c,0x27,0xd6,0xe9,0x3b,0x1f,0x65,0x71,0x3c,0x70,0xd7,0x6f,0x3c,0xe3,0x89,0x52,0x3c,0x27,0xa4,0x85,0x3c,0x19,0xac,0x41,0x3c,0x8a,0x64,0x84,0x3c,0x79,0xd8,0xc4,0x3b,0xa8,0x31,0x89,0x3c,0x92,0x1c,0x14,0x3c,0xfc,0x6f,0x1f,0x3c,0xe4,0x54,0xf0,0x3b,0x59,0x2c,0x85,0x3c,0x39,0x06,0x48,0x3c,0x53,0xf9,0x2c,0x3c,0x16,0xec,0x1b,0x3c,0x18,0x48,0x63,0x3c,0xf8,0x3c,0x07,0x3c,0x06,0xfe,0x84,0x3c,0xe9,0xcc,0x50,0x3c,0x43,0x67,0x33,0x3c,0x31,0x2f,0x1f,0x3c,0xe6,0x64,0x81,0x3c,0x76,0x1d,0x86,0x3c,0x5b,0x28,0x50,0x3c,0x6b,0xb0,0x68,0x3c,0x19,0x6f,0x39,0x3c,0x88,0x06,0x42,0x3c,0xd7,0xf6,0x49,0x3c,0x57,0xe3,0x38,0x3c,0x71,0xbd,0x15,0x3c,0xf1,0xb0,0xee,0x3c,0xad,0x7a,0x64,0x3c,0x73,0x46,0x48,0x3c,0x07,0xec,0x8c,0x3c,0x64,0xce,0x5a,0x3c,0x6f,0x9f,0x17,0x3c,0x5a,0x0c,0x73,0x3c,0x70,0x9e,0x16,0x3c,0xc4,0xef,0x3f,0x3c,0x7a,0x09,0x1b,0x3c,0x98,0xad,0xdb,0x3b,0x4e,0x72,0xec,0x3b,0x18,0xda,0x21,0x3c,0x36,0x3b,0x28,0x3c,0x2c,0xe9,0x5e,0x3c,0x1e,0xc9,0xf5,0x3b,0x91,0x00,0xc5,0x3b,0xdf,0x01,0x33,0x3c,0xe0,0x8a,0xfe,0x3b,0xbe,0xbd,0x3e,0x3c,0xce,0x77,0x43,0x3c,0x8b,0xd4,0xe0,0x3b,0x23,0xbf,0x03,0x3c,0x2c,0x7d,0x52,0x3c,0x8f,0xec,0x80,0x3c,0x06,0xa8,0x79,0x3c,0xe9,0x4b,0xa5,0x3c,0xae,0xd5,0x02,0x3c,0xb4,0x52,0x3e,0x3c,0x6e,0xc0,0xfc,0x3c,0xdb,0xc0,0x2f,0x3c,0x51,0x5e,0xa1,0x3c,0x12,0x00,0x00,0x00,0x74,0x66,0x6c,0x2e,0x70,0x73,0x65,0x75,0x64,0x6f,0x5f,0x71,0x63,0x6f,0x6e,0x73,0x74,0x33,0x00,0x00,0x04,0x00,0x00,0x00,0x40,0x00,0x00,0x00,0x01,0x00,0x00,0x00,0x01,0x00,0x00,0x00,0x40,0x00,0x00,0x00,0xd2,0xfa,0xff,0xff,0x00,0x00,0x00,0x01,0x14,0x00,0x00,0x00,0x24,0x03,0x00,0x00,0x05,0x00,0x00,0x00,0x00,0x00,0x00,0x02,0x30,0x03,0x00,0x00,0x4c,0xfa,0xff,0xff,0x08,0x00,0x00,0x00,0x08,0x02,0x00,0x00,0x40,0x00,0x00,0x00,0x00,0x00,0x00,0x00,0x00,0x00,0x00,0x00,0x00,0x00,0x00,0x00,0x00,0x00,0x00,0x00,0x00,0x00,0x00,0x00,0x00,0x00,0x00,0x00,0x00,0x00,0x00,0x00,0x00,0x00,0x00,0x00,0x00,0x00,0x00,0x00,0x00,0x00,0x00,0x00,0x00,0x00,0x00,0x00,0x00,0x00,0x00,0x00,0x00,0x00,0x00,0x00,0x00,0x00,0x00,0x00,0x00,0x00,0x00,0x00,0x00,0x00,0x00,0x00,0x00,0x00,0x00,0x00,0x00,0x00,0x00,0x00,0x00,0x00,0x00,0x00,0x00,0x00,0x00,0x00,0x00,0x00,0x00,0x00,0x00,0x00,0x00,0x00,0x00,0x00,0x00,0x00,0x00,0x00,0x00,0x00,0x00,0x00,0x00,0x00,0x00,0x00,0x00,0x00,0x00,0x00,0x00,0x00,0x00,0x00,0x00,0x00,0x00,0x00,0x00,0x00,0x00,0x00,0x00,0x00,0x00,0x00,0x00,0x00,0x00,0x00,0x00,0x00,0x00,0x00,0x00,0x00,0x00,0x00,0x00,0x00,0x00,0x00,0x00,0x00,0x00,0x00,0x00,0x00,0x00,0x00,0x00,0x00,0x00,0x00,0x00,0x00,0x00,0x00,0x00,0x00,0x00,0x00,0x00,0x00,0x00,0x00,0x00,0x00,0x00,0x00,0x00,0x00,0x00,0x00,0x00,0x00,0x00,0x00,0x00,0x00,0x00,0x00,0x00,0x00,0x00,0x00,0x00,0x00,0x00,0x00,0x00,0x00,0x00,0x00,0x00,0x00,0x00,0x00,0x00,0x00,0x00,0x00,0x00,0x00,0x00,0x00,0x00,0x00,0x00,0x00,0x00,0x00,0x00,0x00,0x00,0x00,0x00,0x00,0x00,0x00,0x00,0x00,0x00,0x00,0x00,0x00,0x00,0x00,0x00,0x00,0x00,0x00,0x00,0x00,0x00,0x00,0x00,0x00,0x00,0x00,0x00,0x00,0x00,0x00,0x00,0x00,0x00,0x00,0x00,0x00,0x00,0x00,0x00,0x00,0x00,0x00,0x00,0x00,0x00,0x00,0x00,0x00,0x00,0x00,0x00,0x00,0x00,0x00,0x00,0x00,0x00,0x00,0x00,0x00,0x00,0x00,0x00,0x00,0x00,0x00,0x00,0x00,0x00,0x00,0x00,0x00,0x00,0x00,0x00,0x00,0x00,0x00,0x00,0x00,0x00,0x00,0x00,0x00,0x00,0x00,0x00,0x00,0x00,0x00,0x00,0x00,0x00,0x00,0x00,0x00,0x00,0x00,0x00,0x00,0x00,0x00,0x00,0x00,0x00,0x00,0x00,0x00,0x00,0x00,0x00,0x00,0x00,0x00,0x00,0x00,0x00,0x00,0x00,0x00,0x00,0x00,0x00,0x00,0x00,0x00,0x00,0x00,0x00,0x00,0x00,0x00,0x00,0x00,0x00,0x00,0x00,0x00,0x00,0x00,0x00,0x00,0x00,0x00,0x00,0x00,0x00,0x00,0x00,0x00,0x00,0x00,0x00,0x00,0x00,0x00,0x00,0x00,0x00,0x00,0x00,0x00,0x00,0x00,0x00,0x00,0x00,0x00,0x00,0x00,0x00,0x00,0x00,0x00,0x00,0x00,0x00,0x00,0x00,0x00,0x00,0x00,0x00,0x00,0x00,0x00,0x00,0x00,0x00,0x00,0x00,0x00,0x00,0x00,0x00,0x00,0x00,0x00,0x00,0x00,0x00,0x00,0x00,0x00,0x00,0x00,0x00,0x00,0x00,0x00,0x00,0x00,0x00,0x00,0x00,0x00,0x00,0x00,0x00,0x00,0x00,0x00,0x00,0x00,0x00,0x00,0x00,0x00,0x00,0x00,0x00,0x00,0x00,0x00,0x00,0x00,0x00,0x00,0x00,0x00,0x00,0x00,0x00,0x00,0x00,0x00,0x00,0x00,0x00,0x00,0x00,0x00,0x00,0x00,0x00,0x00,0x00,0x00,0x00,0x00,0x00,0x00,0x00,0x00,0x00,0x00,0x00,0x00,0x00,0x00,0x00,0x00,0x00,0x00,0x00,0x00,0x00,0x00,0x00,0x00,0x00,0x00,0x00,0x00,0x00,0x00,0x00,0x00,0x00,0x00,0x00,0x00,0x00,0x00,0x00,0x00,0x00,0x00,0x00,0x00,0x00,0x00,0x40,0x00,0x00,0x00,0xa3,0x43,0x9f,0x3c,0x55,0xfd,0xef,0x3b,0x37,0xbf,0x77,0x3c,0x11,0x27,0x76,0x3c,0x20,0x14,0x58,0x3c,0x64,0x28,0x89,0x3c,0xb8,0xc4,0x46,0x3c,0x5e,0xe0,0x87,0x3c,0x79,0x06,0xca,0x3b,0xd4,0xcd,0x8c,0x3c,0x49,0x02,0x18,0x3c,0xfe,0xa1,0x23,0x3c,0xd2,0xa7,0xf6,0x3b,0x6f,0xad,0x88,0x3c,0xa2,0x49,0x4d,0x3c,0x84,0x86,0x31,0x3c,0x6a,0x06,0x20,0x3c,0x1e,0x43,0x69,0x3c,0xf7,0xcb,0x0a,0x3c,0xe4,0x7d,0x88,0x3c,0x70,0x4b,0x56,0x3c,0xc4,0x1f,0x38,0x3c,0x7f,0x5f,0x23,0x3c,0x87,0xcc,0x84,0x3c,0xe4,0xa4,0x89,0x3c,0x8e,0xa2,0x55,0x3c,0xde,0xcf,0x6e,0x3c,0x3a,0x50,0x3e,0x3c,0x88,0x21,0x47,0x3c,0x52,0x47,0x4f,0x3c,0xca,0xc0,0x3d,0x3c,0x20,0xae,0x19,0x3c,0xd2,0xf8,0xf4,0x3c,0xc4,0x7d,0x6a,0x3c,0x8d,0x8b,0x4d,0x3c,0x50,0xa1,0x90,0x3c,0x52,0x90,0x60,0x3c,0xcd,0x9c,0x1b,0x3c,0x95,0x71,0x79,0x3c,0x0b,0x95,0x1a,0x3c,0xb2,0xfc,0x44,0x3c,0xd8,0x1d,0x1f,0x3c,0x66,0x75,0xe1,0x3b,0x10,0xab,0xf2,0x3b,0x5e,0x1c,0x26,0x3c,0x75,0xa8,0x2c,0x3c,0xc0,0xc6,0x64,0x3c,0xca,0x40,0xfc,0x3b,0x9f,0x2f,0xca,0x3b,0xb5,0xb7,0x37,0x3c,0xc4,0x9e,0x02,0x3c,0x9f,0xc2,0x43,0x3c,0x86,0x9c,0x48,0x3c,0x0d,0xbf,0xe6,0x3b,0x9d,0x36,0x07,0x3c,0x13,0x07,0x58,0x3c,0x06,0x51,0x84,0x3c,0xe2,0x1c,0x80,0x3c,0x63,0xa5,0xa9,0x3c,0x03,0x47,0x06,0x3c,0xc4,0x54,0x43,0x3c,0x83,0xb3,0x01,0x3d,0xc6,0x60,0x34,0x3c,0x55,0x9d,0xa5,0x3c,0x12,0x00,0x00,0x00,0x74,0x66,0x6c,0x2e,0x70,0x73,0x65,0x75,0x64,0x6f,0x5f,0x71,0x63,0x6f,0x6e,0x73,0x74,0x32,0x00,0x00,0x01,0x00,0x00,0x00,0x40,0x00,0x00,0x00,0x22,0xfe,0xff,0xff,0x00,0x00,0x00,0x01,0x14,0x00,0x00,0x00,0xc0,0x00,0x00,0x00,0x04,0x00,0x00,0x00,0x00,0x00,0x00,0x09,0xcc,0x00,0x00,0x00,0x9c,0xfd,0xff,0xff,0x08,0x00,0x00,0x00,0x70,0x00,0x00,0x00,0x0d,0x00,0x00,0x00,0x00,0x00,0x00,0x00,0x00,0x00,0x00,0x00,0x00,0x00,0x00,0x00,0x00,0x00,0x00,0x00,0x00,0x00,0x00,0x00,0x00,0x00,0x00,0x00,0x00,0x00,0x00,0x00,0x00,0x00,0x00,0x00,0x00,0x00,0x00,0x00,0x00,0x00,0x00,0x00,0x00,0x00,0x00,0x00,0x00,0x00,0x00,0x00,0x00,0x00,0x00,0x00,0x00,0x00,0x00,0x00,0x00,0x00,0x00,0x00,0x00,0x00,0x00,0x00,0x00,0x00,0x00,0x00,0x00,0x00,0x00,0x00,0x00,0x00,0x00,0x00,0x00,0x00,0x00,0x00,0x00,0x00,0x00,0x00,0x00,0x00,0x00,0x00,0x00,0x00,0x00,0x00,0x00,0x00,0x00,0x00,0x00,0x00,0x00,0x00,0x00,0x00,0x00,0x00,0x0d,0x00,0x00,0x00,0x9e,0xa4,0x07,0x3c,0xbf,0x80,0x0d,0x3c,0x82,0x1a,0x5b,0x3c,0x83,0x84,0x33,0x3c,0x6f,0xa6,0xb9,0x3b,0xc9,0x32,0x32,0x3c,0xb7,0x19,0x2d,0x3c,0xc1,0x24,0x2f,0x3c,0x8a,0xbf,0x1a,0x3c,0x06,0xe9,0x0b,0x3c,0xe7,0x0b,0x3e,0x3c,0xed,0xc9,0x36,0x3c,0x58,0xd6,0x19,0x3c,0x12,0x00,0x00,0x00,0x74,0x66,0x6c,0x2e,0x70,0x73,0x65,0x75,0x64,0x6f,0x5f,0x71,0x63,0x6f,0x6e,0x73,0x74,0x31,0x00,0x00,0x02,0x00,0x00,0x00,0x0d,0x00,0x00,0x00,0x40,0x00,0x00,0x00,0x12,0xff,0xff,0xff,0x00,0x00,0x00,0x01,0x14,0x00,0x00,0x00,0xc0,0x00,0x00,0x00,0x03,0x00,0x00,0x00,0x00,0x00,0x00,0x02,0xcc,0x00,0x00,0x00,0x8c,0xfe,0xff,0xff,0x08,0x00,0x00,0x00,0x70,0x00,0x00,0x00,0x0d,0x00,0x00,0x00,0x00,0x00,0x00,0x00,0x00,0x00,0x00,0x00,0x00,0x00,0x00,0x00,0x00,0x00,0x00,0x00,0x00,0x00,0x00,0x00,0x00,0x00,0x00,0x00,0x00,0x00,0x00,0x00,0x00,0x00,0x00,0x00,0x00,0x00,0x00,0x00,0x00,0x00,0x00,0x00,0x00,0x00,0x00,0x00,0x00,0x00,0x00,0x00,0x00,0x00,0x00,0x00,0x00,0x00,0x00,0x00,0x00,0x00,0x00,0x00,0x00,0x00,0x00,0x00,0x00,0x00,0x00,0x00,0x00,0x00,0x00,0x00,0x00,0x00,0x00,0x00,0x00,0x00,0x00,0x00,0x00,0x00,0x00,0x00,0x00,0x00,0x00,0x00,0x00,0x00,0x00,0x00,0x00,0x00,0x00,0x00,0x00,0x00,0x00,0x00,0x00,0x00,0x00,0x00,0x0d,0x00,0x00,0x00,0x04,0x2c,0x03,0x3a,0xb3,0xd6,0x08,0x3a,0xa4,0xe1,0x53,0x3a,0xaf,0x99,0x2d,0x3a,0xdc,0x87,0xb3,0x39,0x17,0x53,0x2c,0x3a,0x0a,0x65,0x27,0x3a,0xd6,0x5e,0x29,0x3a,0xb9,0xa5,0x15,0x3a,0x6a,0x4c,0x07,0x3a,0x3a,0xc8,0x37,0x3a,0x7f,0xc3,0x30,0x3a,0x37,0xc4,0x14,0x3a,0x11,0x00,0x00,0x00,0x74,0x66,0x6c,0x2e,0x70,0x73,0x65,0x75,0x64,0x6f,0x5f,0x71,0x63,0x6f,0x6e,0x73,0x74,0x00,0x00,0x00,0x01,0x00,0x00,0x00,0x0d,0x00,0x00,0x00,0x00,0x00,0x16,0x00,0x1c,0x00,0x18,0x00,0x17,0x00,0x10,0x00,0x0c,0x00,0x08,0x00,0x00,0x00,0x00,0x00,0x00,0x00,0x07,0x00,0x16,0x00,0x00,0x00,0x00,0x00,0x00,0x01,0x18,0x00,0x00,0x00,0x18,0x00,0x00,0x00,0x02,0x00,0x00,0x00,0x00,0x00,0x00,0x02,0x20,0x00,0x00,0x00,0x04,0x00,0x04,0x00,0x04,0x00,0x00,0x00,0x0e,0x00,0x00,0x00,0x61,0x72,0x69,0x74,0x68,0x2e,0x63,0x6f,0x6e,0x73,0x74,0x61,0x6e,0x74,0x00,0x00,0x01,0x00,0x00,0x00,0x02,0x00,0x00,0x00,0x00,0x00,0x16,0x00,0x20,0x00,0x1c,0x00,0x1b,0x00,0x14,0x00,0x10,0x00,0x0c,0x00,0x00,0x00,0x00,0x00,0x08,0x00,0x07,0x00,0x16,0x00,0x00,0x00,0x00,0x00,0x00,0x01,0x18,0x00,0x00,0x00,0x34,0x00,0x00,0x00,0x54,0x00,0x00,0x00,0x01,0x00,0x00,0x00,0x00,0x00,0x00,0x09,0x6c,0x00,0x00,0x00,0x04,0x00,0x00,0x00,0xff,0xff,0xff,0xff,0x63,0x00,0x00,0x00,0x0c,0x00,0x00,0x00,0x01,0x00,0x00,0x00,0x0c,0x00,0x0c,0x00,0x00,0x00,0x00,0x00,0x08,0x00,0x04,0x00,0x0c,0x00,0x00,0x00,0x08,0x00,0x00,0x00,0x14,0x00,0x00,0x00,0x01,0x00,0x00,0x00,0x55,0x00,0x00,0x00,0x00,0x00,0x00,0x00,0x00,0x00,0x00,0x00,0x01,0x00,0x00,0x00,0xf3,0xaa,0x14,0x3f,0x1e,0x00,0x00,0x00,0x73,0x65,0x72,0x76,0x69,0x6e,0x67,0x5f,0x64,0x65,0x66,0x61,0x75,0x6c,0x74,0x5f,0x6b,0x65,0x72,0x61,0x73,0x5f,0x74,0x65,0x6e,0x73,0x6f,0x72,0x3a,0x30,0x00,0x00,0x04,0x00,0x00,0x00,0x01,0x00,0x00,0x00,0x63,0x00,0x00,0x00,0x0c,0x00,0x00,0x00,0x01,0x00,0x00,0x00,0x05,0x00,0x00,0x00,0x60,0x00,0x00,0x00,0x40,0x00,0x00,0x00,0x2c,0x00,0x00,0x00,0x18,0x00,0x00,0x00,0x04,0x00,0x00,0x00,0xc0,0xff,0xff,0xff,0x19,0x00,0x00,0x00,0x02,0x00,0x00,0x00,0x00,0x00,0x00,0x19,0xd0,0xff,0xff,0xff,0x09,0x00,0x00,0x00,0x04,0x00,0x00,0x00,0x00,0x00,0x00,0x09,0xe0,0xff,0xff,0xff,0x28,0x00,0x00,0x00,0x02,0x00,0x00,0x00,0x00,0x00,0x00,0x28,0xf0,0xff,0xff,0xff,0x04,0x00,0x00,0x00,0x03,0x00,0x00,0x00,0x00,0x00,0x00,0x04,0x0c,0x00,0x10,0x00,0x0f,0x00,0x00,0x00,0x08,0x00,0x04,0x00,0x0c,0x00,0x00,0x00,0x03,0x00,0x00,0x00,0x03,0x00,0x00,0x00,0x00,0x00,0x00,0x03
};
const unsigned int model_len = 15344;

#endif // MODEL_H