const unsigned char model[] = {
32,0,0,0,84,70,76,51,0,0,0,0,20,0,32,0,28,0,24,0,20,0,16,0,12,0,0,0,8,0,4,0,20,0,0,0,28,0,0,0,152,0,0,0,240,0,0,0,40,46,0,0,56,46,0,0,156,58,0,0,3,0,0,0,1,0,0,0,16,0,0,0,0,0,10,0,16,0,12,0,8,0,4,0,10,0,0,0,12,0,0,0,28,0,0,0,60,0,0,0,15,0,0,0,115,101,114,118,105,110,103,95,100,101,102,97,117,108,116,0,1,0,0,0,4,0,0,0,144,255,255,255,12,0,0,0,4,0,0,0,8,0,0,0,111,117,116,112,117,116,95,48,0,0,0,0,1,0,0,0,4,0,0,0,198,209,255,255,4,0,0,0,14,0,0,0,107,101,114,97,115,95,116,101,110,115,111,114,95,56,0,0,2,0,0,0,52,0,0,0,4,0,0,0,220,255,255,255,15,0,0,0,4,0,0,0,19,0,0,0,67,79,78,86,69,82,83,73,79,78,95,77,69,84,65,68,65,84,65,0,8,0,12,0,8,0,4,0,8,0,0,0,14,0,0,0,4,0,0,0,19,0,0,0,109,105,110,95,114,117,110,116,105,109,101,95,118,101,114,115,105,111,110,0,16,0,0,0,52,45,0,0,44,45,0,0,28,36,0,0,12,35,0,0,244,34,0,0,228,25,0,0,212,9,0,0,196,0,0,0,188,0,0,0,180,0,0,0,172,0,0,0,164,0,0,0,156,0,0,0,148,0,0,0,116,0,0,0,4,0,0,0,130,210,255,255,4,0,0,0,96,0,0,0,12,0,0,0,8,0,14,0,8,0,4,0,8,0,0,0,16,0,0,0,40,0,0,0,0,0,6,0,8,0,4,0,6,0,0,0,4,0,0,0,1,0,0,0,234,3,0,0,12,0,24,0,20,0,16,0,12,0,4,0,12,0,0,0,255,139,119,219,229,104,205,196,2,0,0,0,2,0,0,0,4,0,0,0,6,0,0,0,50,46,49,56,46,48,0,0,238,210,255,255,4,0,0,0,16,0,0,0,50,46,49,55,46,48,0,0,0,0,0,0,0,0,0,0,88,199,255,255,92,199,255,255,96,199,255,255,100,199,255,255,104,199,255,255,108,199,255,255,34,211,255,255,4,0,0,0,0,9,0,0,69,97,4,135,63,83,207,42,181,122,204,69,129,99,127,2,156,13,2,137,207,227,58,23,122,15,214,48,197,97,228,19,255,233,111,158,181,59,115,224,59,225,32,165,163,177,35,55,174,62,59,109,181,130,148,236,90,237,59,3,120,134,191,168,7,72,162,1,3,59,83,142,42,13,162,218,231,185,248,101,84,232,127,184,134,233,62,19,110,224,18,26,42,190,227,1,209,51,180,254,150,161,190,225,154,241,192,64,63,75,1,17,118,72,151,255,208,141,105,16,134,159,51,211,138,10,155,121,101,138,44,11,179,224,62,213,235,166,215,70,250,252,182,141,205,225,106,137,121,210,178,224,117,234,184,13,11,40,99,173,150,55,125,64,3,214,145,69,139,1,91,80,158,103,127,76,237,77,104,152,95,69,174,242,76,88,190,9,83,0,17,220,151,110,153,14,231,28,99,211,243,197,52,156,179,144,92,0,70,129,95,242,211,143,235,120,93,65,57,8,200,97,43,0,60,214,143,163,37,188,66,245,197,177,113,23,94,239,189,219,234,51,79,132,223,154,209,207,60,191,173,224,205,8,30,104,114,120,145,150,162,190,24,243,153,180,6,113,48,242,81,53,166,231,176,144,218,3,103,178,240,159,75,240,164,145,113,27,45,235,0,205,85,22,42,151,152,46,172,11,188,188,127,157,211,181,235,85,95,253,135,201,83,187,173,40,121,201,201,91,47,154,178,103,86,23,191,131,138,122,163,219,177,144,155,127,152,94,14,221,34,185,191,168,141,33,24,138,145,136,175,48,198,148,188,166,84,73,118,29,22,48,146,22,149,189,251,210,213,232,62,98,57,51,255,49,42,180,221,104,119,220,63,25,129,41,88,97,74,73,157,61,61,114,32,106,149,223,171,145,195,65,237,30,152,166,48,216,103,189,141,140,23,5,2,63,227,0,221,246,238,34,95,71,1,12,145,78,255,191,46,230,90,66,97,203,10,112,3,9,160,17,184,155,108,201,117,185,97,233,16,152,89,42,180,204,30,188,216,64,67,222,234,186,16,51,78,132,180,226,226,35,168,76,254,97,100,133,255,223,104,166,152,210,9,106,138,220,0,167,192,43,53,77,135,187,223,112,202,167,164,210,62,243,43,214,111,129,91,15,44,242,127,219,232,21,35,96,247,123,19,63,139,39,26,30,94,59,145,187,81,156,208,72,98,62,7,0,239,64,98,93,1,242,125,113,45,126,175,168,212,102,77,200,181,73,89,80,171,115,99,188,235,241,174,161,91,63,229,246,54,218,238,15,143,201,7,113,93,120,250,219,43,18,129,233,135,161,232,183,134,156,246,205,89,30,10,29,112,213,198,20,251,78,187,204,111,229,243,6,36,233,94,125,172,106,41,12,82,84,84,218,13,40,144,53,36,87,79,36,223,53,210,17,121,235,178,191,149,56,205,174,221,191,10,247,221,21,144,44,31,79,138,71,51,179,4,170,170,192,255,119,116,219,185,5,234,240,138,16,115,26,127,182,79,68,63,47,96,222,14,92,219,136,198,70,232,82,77,104,30,177,209,75,212,150,205,135,176,243,160,134,149,190,17,9,66,177,199,169,214,2,38,30,241,56,201,45,89,107,95,35,212,15,93,162,199,54,226,157,50,72,68,12,211,13,188,28,101,125,198,129,170,170,117,58,197,122,29,213,199,96,171,75,24,158,150,71,237,100,43,125,137,62,13,230,87,34,185,189,63,65,157,254,19,54,74,127,19,9,132,214,161,231,175,205,157,244,39,245,132,28,156,235,10,214,121,81,118,131,95,118,105,242,118,216,44,120,81,158,235,7,71,172,62,17,147,76,75,149,244,201,243,98,74,188,58,81,23,97,107,222,61,188,155,65,169,162,114,174,98,126,155,174,117,127,76,21,195,14,89,82,50,170,153,13,13,173,139,6,78,144,198,120,152,231,30,195,228,22,95,104,48,106,251,111,204,98,50,253,236,161,229,201,162,60,24,75,17,22,225,138,43,50,245,209,101,182,99,41,45,27,243,57,20,82,40,57,239,33,29,66,43,186,60,85,51,78,94,13,105,9,154,19,10,30,139,123,205,237,114,183,44,148,185,127,169,197,178,14,222,4,14,205,187,122,235,139,182,124,85,1,135,124,29,243,158,85,233,145,208,34,107,248,254,143,200,97,238,130,214,69,103,248,22,78,1,216,117,229,108,73,163,3,248,83,28,11,120,143,36,78,200,83,190,227,129,205,229,194,120,20,63,85,121,192,44,106,152,66,55,235,121,96,219,184,9,238,93,220,0,47,79,252,12,142,105,254,74,89,220,41,198,20,17,207,60,54,108,222,70,125,151,53,247,80,192,164,136,108,251,94,172,112,226,118,45,178,40,129,74,194,99,203,109,98,241,245,134,157,24,20,199,146,145,103,227,82,46,12,254,200,226,81,7,63,215,115,112,183,3,75,58,66,27,175,243,174,135,189,230,159,173,150,42,100,44,31,202,193,165,254,180,246,86,142,19,17,241,65,252,35,208,196,174,240,116,233,210,80,235,87,178,181,165,77,26,86,124,131,120,216,4,49,0,165,129,24,161,165,158,10,167,26,63,251,83,231,245,65,236,76,20,222,35,211,88,199,162,21,72,43,98,211,126,238,124,178,19,196,174,24,77,140,112,138,208,152,183,77,155,145,229,72,129,238,245,146,95,215,4,254,28,75,5,224,243,147,58,166,16,205,0,29,225,73,18,76,21,108,195,237,171,139,122,233,253,72,153,233,222,165,197,112,95,24,52,172,215,4,167,16,221,84,241,44,188,53,76,10,108,80,232,65,198,224,129,119,105,27,115,131,91,175,216,132,181,125,183,246,114,47,250,15,237,80,149,204,152,88,233,174,25,109,192,165,237,123,118,178,67,202,92,46,228,129,122,187,148,108,147,21,142,90,201,170,29,233,211,34,53,192,220,168,236,101,163,184,163,39,243,239,172,109,168,149,32,39,177,211,40,23,117,196,56,79,204,52,197,129,39,142,74,168,117,33,175,62,195,3,158,44,73,224,58,117,149,92,35,197,180,64,226,31,173,227,250,47,136,48,232,195,147,120,250,241,54,28,171,120,17,167,33,161,234,241,207,196,247,14,19,7,118,42,215,18,65,10,48,77,130,67,251,129,191,98,26,136,133,158,163,204,209,171,71,46,202,89,112,14,172,22,103,8,210,8,17,207,230,34,208,52,90,210,5,129,107,245,48,42,75,93,22,231,192,147,89,19,0,116,241,38,184,117,156,125,102,66,242,50,71,165,120,240,13,235,109,103,251,197,159,75,147,227,75,213,118,201,77,190,142,32,56,232,77,29,95,131,146,15,216,223,227,206,120,20,175,164,32,70,135,133,201,19,239,137,214,179,221,127,149,82,109,127,196,156,163,58,3,73,42,161,187,0,192,193,5,156,195,66,110,156,190,118,33,250,143,155,182,27,147,75,198,151,104,58,183,133,145,130,1,106,184,244,30,244,32,215,244,165,220,60,0,80,121,57,25,185,95,127,123,155,59,8,81,79,111,197,43,70,55,95,0,177,212,93,124,181,66,152,11,157,204,182,187,27,5,23,159,125,216,253,157,5,65,100,134,230,172,242,90,114,19,109,81,210,127,226,175,152,250,92,34,108,175,237,39,23,113,144,96,76,20,66,89,176,4,29,68,76,229,70,36,115,213,180,24,152,65,35,245,238,59,253,126,201,0,251,89,30,129,44,130,67,58,224,243,234,162,199,108,106,62,69,225,102,72,230,95,134,42,170,58,241,55,69,17,37,29,10,127,23,254,168,125,153,61,83,145,143,107,214,56,119,93,225,244,192,145,41,74,194,205,123,191,116,161,136,99,32,238,25,201,77,19,175,57,249,65,205,198,145,31,174,73,66,177,212,21,106,170,38,143,85,251,222,30,210,218,119,8,250,241,3,122,80,92,181,12,205,70,165,191,9,31,249,93,159,225,24,220,127,191,71,24,139,16,145,237,35,45,104,11,238,101,51,225,170,29,49,31,251,220,76,241,150,207,101,177,140,65,24,206,132,220,187,68,136,13,37,68,82,230,142,26,22,155,47,157,111,248,92,48,225,202,184,205,199,142,131,157,38,129,225,199,210,190,22,234,59,75,132,32,103,42,162,125,36,101,189,103,215,109,227,134,154,14,49,15,90,134,174,44,40,209,27,247,129,43,98,13,139,175,2,101,68,233,114,20,137,35,204,18,82,46,24,165,209,29,211,186,215,153,118,36,70,52,193,136,192,74,16,102,150,88,58,246,46,63,94,55,148,224,67,40,145,18,149,93,10,75,18,186,217,197,115,105,6,169,52,59,76,78,53,27,120,15,155,239,19,186,181,208,97,231,23,243,37,165,61,114,233,27,239,169,28,230,127,214,149,49,242,14,235,9,211,103,120,108,79,49,151,118,25,80,33,40,161,251,210,206,76,113,57,93,18,102,201,163,154,19,166,141,53,166,16,235,105,251,228,220,27,184,208,69,74,183,168,112,237,57,111,179,101,10,174,102,56,234,29,159,133,114,144,140,56,70,89,239,239,24,226,1,247,202,85,108,198,78,80,129,210,238,40,26,44,93,155,251,109,100,227,228,195,60,170,212,220,117,153,180,15,36,41,69,78,238,135,106,176,74,17,241,129,64,183,195,249,4,1,174,68,114,121,114,52,71,212,187,253,136,29,31,121,58,199,121,88,175,109,24,141,119,11,59,92,4,42,8,217,4,31,58,131,27,149,87,238,193,225,233,108,198,216,39,226,220,173,251,199,106,99,136,210,53,249,140,99,105,150,207,117,138,231,152,111,123,138,203,127,168,82,90,108,113,10,120,205,156,219,225,218,46,48,39,48,61,118,37,161,160,206,82,52,39,43,14,225,203,99,138,81,52,133,22,33,69,214,61,220,33,67,127,193,166,183,22,146,57,48,39,37,82,192,178,201,73,61,19,223,118,156,14,23,231,63,190,174,221,176,240,249,241,208,153,127,27,147,253,252,9,192,211,175,223,51,14,8,169,201,186,149,85,11,158,46,9,131,138,18,181,136,220,246,204,142,138,237,191,56,43,18,3,39,25,100,134,152,172,248,59,95,80,222,204,103,52,229,213,39,200,11,117,191,231,233,2,152,4,215,83,252,57,29,187,116,159,57,44,135,213,73,48,127,46,220,255,255,4,0,0,0,0,16,0,0,63,156,126,123,222,112,27,8,78,0,13,65,150,189,18,13,181,16,53,86,90,140,239,1,130,73,191,137,60,0,8,106,93,189,183,230,250,129,123,188,140,184,215,37,50,87,224,181,231,97,136,209,196,245,165,215,114,58,144,75,76,76,191,78,69,81,125,15,241,170,200,211,116,146,55,37,66,141,102,159,185,18,106,76,26,222,149,228,247,149,25,139,196,164,167,21,97,165,129,146,46,13,110,204,125,172,183,84,94,173,89,0,55,71,215,112,54,208,197,156,251,56,34,15,97,184,35,45,134,65,96,201,22,244,154,212,65,97,251,167,59,34,193,155,170,223,222,127,118,105,115,185,137,115,234,62,204,80,38,237,129,183,53,62,159,230,36,63,108,103,100,131,83,95,85,59,14,223,213,22,74,53,118,94,158,241,112,62,142,13,43,194,9,87,254,113,106,38,212,41,162,70,65,208,193,95,251,141,203,99,23,105,71,178,247,71,72,167,251,77,188,52,60,14,190,142,146,79,62,5,181,205,151,89,50,127,240,170,246,31,172,2,135,53,137,253,86,92,140,155,66,22,207,172,11,153,226,1,208,40,90,0,143,218,7,72,74,243,60,147,72,245,67,212,227,37,201,209,43,187,99,156,164,12,17,61,236,181,188,97,231,48,66,111,208,188,118,206,224,105,177,72,89,241,127,57,52,171,184,72,190,225,125,166,176,130,124,31,222,27,10,27,234,56,155,198,95,154,141,16,251,197,242,240,96,37,180,193,169,151,226,140,45,213,235,79,2,234,124,143,160,83,53,196,140,172,231,25,127,52,179,147,34,102,251,10,137,151,105,105,105,225,223,64,68,73,173,11,43,29,19,117,69,226,69,183,214,157,212,69,96,28,98,171,33,73,162,254,228,228,61,114,183,38,245,50,112,195,72,157,234,69,46,170,162,104,184,129,219,120,104,162,77,248,27,7,157,2,117,79,72,183,4,161,124,18,74,37,221,168,105,131,188,217,171,238,212,55,65,164,108,254,156,1,192,196,83,214,66,231,84,78,107,129,227,154,8,59,40,68,14,109,45,99,17,35,92,79,64,126,249,142,86,150,105,195,164,36,158,124,159,252,27,34,129,144,92,239,94,137,85,21,233,190,243,197,56,89,189,26,205,23,232,165,242,183,4,43,126,92,1,152,114,45,15,164,41,221,228,214,8,123,134,172,242,86,146,174,79,191,69,127,162,63,112,242,221,56,73,0,60,233,39,79,26,85,248,254,6,89,133,97,76,192,71,184,38,221,161,71,248,1,19,199,229,118,48,185,61,143,228,89,244,219,3,6,235,169,155,216,139,240,72,216,231,227,48,190,112,79,8,132,45,192,177,210,237,70,151,41,252,49,222,185,71,89,78,30,127,217,18,51,62,171,146,158,54,18,16,30,142,85,102,89,34,45,225,14,21,2,195,121,46,26,219,29,4,129,164,211,254,84,164,81,78,14,202,172,26,171,211,122,220,144,9,55,139,27,56,42,181,205,221,18,183,206,50,205,19,44,170,178,77,133,93,5,137,83,49,211,234,236,119,152,251,54,229,26,212,47,181,172,154,32,216,206,215,245,211,89,34,88,182,67,139,201,182,33,12,217,62,4,146,114,126,78,143,178,127,48,248,92,102,190,64,157,27,54,171,205,254,112,90,78,85,41,77,240,88,234,3,119,88,3,187,68,209,106,117,121,5,130,208,151,175,31,186,178,253,185,75,148,65,242,37,86,22,180,127,44,157,104,215,83,72,27,98,62,91,147,167,235,165,65,100,255,189,72,47,164,77,27,49,198,148,209,124,156,205,48,191,226,3,208,195,79,207,129,185,124,255,226,30,91,101,101,245,247,125,115,133,0,77,131,45,190,126,121,254,34,172,252,34,202,225,143,110,166,95,174,124,208,189,189,92,98,39,168,252,89,18,232,110,136,129,222,255,7,211,218,166,115,133,5,40,93,6,49,19,93,42,216,4,177,173,44,18,219,224,99,242,191,139,152,119,251,242,199,158,27,141,232,114,136,12,239,74,177,141,64,204,48,143,87,96,159,243,16,100,132,247,135,142,221,229,121,133,201,6,114,254,66,255,184,224,232,194,62,129,243,118,66,160,165,214,148,144,104,82,114,216,187,148,139,86,112,104,240,142,32,169,41,187,52,62,107,131,154,129,32,85,225,8,207,177,209,248,41,35,72,150,193,200,224,154,63,225,73,142,26,224,186,239,30,108,16,184,25,120,163,176,22,248,243,242,189,28,238,92,143,169,5,191,24,192,122,88,20,155,187,165,7,89,143,3,204,239,73,250,39,141,0,1,83,149,100,155,41,62,79,168,19,39,76,191,32,48,129,184,216,11,45,133,208,115,38,129,5,203,229,87,89,116,49,131,119,235,90,241,1,24,144,65,115,172,50,43,224,81,242,203,76,221,65,238,195,50,227,124,188,250,188,150,156,201,184,106,91,160,197,38,55,201,0,192,20,132,145,174,46,34,142,20,11,46,237,38,205,70,156,205,51,143,101,109,143,92,72,112,238,214,243,205,47,103,4,21,127,54,27,74,209,42,148,209,27,178,188,77,108,74,157,57,2,181,138,73,174,123,199,28,196,136,40,1,64,8,3,47,8,96,149,151,34,207,123,223,113,183,202,30,136,127,219,110,162,234,46,108,113,234,217,81,61,110,155,78,64,151,200,185,188,149,33,77,203,203,96,227,165,15,28,79,83,1,239,237,80,28,61,160,20,171,83,188,31,95,199,130,214,77,57,116,100,247,55,21,162,41,196,252,157,130,127,131,170,23,60,116,239,194,68,176,119,57,185,227,3,9,25,236,92,39,185,221,66,214,134,61,58,106,167,124,147,130,39,215,193,143,67,105,45,247,49,88,156,127,165,112,56,134,166,76,26,130,40,169,119,185,107,103,19,81,112,54,53,173,24,202,212,53,134,210,221,105,242,254,24,48,26,45,52,153,255,135,246,228,115,170,34,155,203,255,59,64,206,176,246,241,193,104,104,225,254,66,2,157,68,208,78,253,129,106,182,193,28,235,242,193,14,86,54,55,39,17,148,48,46,118,112,127,105,147,94,91,182,59,193,121,154,143,171,92,2,56,126,206,8,77,158,119,81,222,102,165,99,247,236,1,196,198,242,88,159,9,159,33,61,71,215,127,25,37,15,23,143,236,149,139,98,116,117,37,196,209,188,186,244,192,113,149,143,187,180,85,79,35,91,11,254,175,102,155,186,147,8,72,240,80,201,8,47,40,14,7,14,44,228,21,68,145,229,103,247,136,135,218,197,47,151,64,93,241,197,30,129,191,43,97,186,100,107,136,56,154,226,59,25,19,3,242,156,177,246,84,76,137,101,253,90,222,70,238,240,77,50,94,199,19,106,23,215,75,209,120,199,86,59,60,119,238,234,73,164,7,166,206,164,237,55,46,26,38,169,223,146,136,14,229,79,59,130,130,108,191,50,236,127,3,180,72,66,73,171,139,143,140,52,254,33,94,253,43,200,67,84,252,69,107,176,157,79,43,210,103,47,233,112,217,249,101,250,54,196,116,94,93,13,108,41,180,141,56,213,112,77,5,164,251,135,143,38,249,96,7,87,4,161,165,224,212,184,134,200,240,193,30,10,9,186,211,16,180,226,198,253,178,103,73,150,52,194,153,17,53,78,178,79,3,223,170,121,215,24,86,31,125,49,254,203,59,75,204,80,75,167,73,204,97,230,122,236,127,166,138,9,254,0,193,26,233,44,192,130,186,21,173,170,16,216,189,79,139,88,175,74,8,104,104,75,77,247,54,79,203,208,172,220,44,171,5,242,206,205,74,149,68,210,2,67,238,229,33,119,196,75,23,234,2,30,177,113,147,129,240,143,130,165,61,70,48,127,65,216,254,92,150,79,73,131,48,19,174,5,102,146,25,117,233,55,87,231,98,223,168,167,180,3,142,106,94,65,47,230,174,86,217,207,182,249,240,148,82,38,197,157,203,99,148,151,3,192,43,70,12,20,77,138,105,92,59,170,160,97,81,85,189,225,87,99,121,127,83,130,189,200,40,148,72,158,255,143,203,197,208,168,180,202,213,172,157,120,153,141,118,232,202,74,140,220,60,187,55,200,200,208,95,229,70,140,229,155,102,231,41,179,144,83,18,129,24,161,14,125,85,251,239,233,197,40,180,183,144,85,199,138,21,203,42,160,86,170,40,126,165,245,193,77,149,61,8,127,36,108,196,42,167,143,59,81,71,32,118,40,74,209,82,60,188,15,194,82,216,202,10,183,163,240,98,251,243,104,241,162,70,122,120,111,21,242,203,150,13,219,126,11,214,175,90,131,6,13,69,180,170,34,214,215,149,34,93,182,74,148,129,92,127,29,208,29,248,219,246,156,59,202,229,249,150,212,191,145,147,200,238,79,207,191,195,191,184,48,194,13,51,253,154,10,223,147,22,66,42,93,52,129,115,211,180,23,68,131,105,180,133,3,37,118,118,200,47,77,109,161,181,237,102,169,68,230,44,209,117,58,241,8,74,192,84,59,16,141,157,24,60,180,179,125,72,124,189,172,61,252,207,232,227,158,32,155,54,19,181,189,219,96,119,46,209,95,207,182,17,148,119,18,178,200,17,157,115,37,165,90,46,14,53,9,55,232,206,203,244,92,147,133,67,11,21,207,48,220,50,83,129,199,241,136,45,204,238,254,186,35,177,209,10,5,180,83,157,183,23,212,31,99,41,88,43,164,145,188,106,176,9,113,62,24,211,207,98,110,198,6,197,187,118,206,250,164,26,23,99,76,138,149,198,199,15,209,73,97,153,9,165,65,20,188,204,103,41,57,71,144,116,197,169,87,38,170,41,120,18,127,197,105,182,216,197,225,237,163,249,79,55,120,83,97,39,0,191,198,60,80,251,136,0,153,41,242,144,244,253,3,136,230,127,150,31,184,247,226,65,60,36,228,50,28,249,210,232,155,26,253,185,141,217,175,70,216,242,37,200,156,59,137,77,210,10,129,24,247,56,123,29,136,243,113,232,8,101,24,127,84,120,56,232,52,100,43,240,158,201,185,110,39,59,134,203,204,98,60,72,11,19,12,106,51,90,116,222,112,31,223,52,183,8,228,162,46,243,91,138,100,159,132,109,143,85,171,199,113,60,255,9,0,0,185,9,60,208,172,25,246,206,170,78,60,245,53,21,52,76,246,77,149,225,137,167,206,181,103,47,91,174,206,180,40,185,16,54,220,148,32,178,76,92,211,196,230,13,79,146,5,195,59,142,245,91,135,21,102,21,94,129,158,112,118,63,241,195,152,57,2,16,4,80,162,40,23,31,166,127,186,118,191,147,188,201,70,156,178,175,126,46,208,82,248,125,246,143,22,248,140,41,42,0,249,114,142,45,49,99,120,205,254,129,202,179,255,130,254,192,39,196,81,166,165,243,127,167,63,167,117,228,148,132,58,154,4,137,66,161,42,212,210,179,182,52,34,129,42,161,87,176,167,155,138,87,127,182,144,7,92,47,82,237,169,44,161,137,152,125,2,37,255,206,15,55,16,143,185,51,218,147,196,34,59,23,41,243,206,123,149,240,71,142,168,137,59,211,24,137,126,112,193,37,28,129,105,101,126,15,34,251,9,169,178,195,243,144,229,6,236,36,121,121,203,118,227,127,184,109,88,245,180,194,121,3,232,110,196,104,151,121,139,186,213,23,215,33,32,102,224,145,42,87,235,230,170,76,23,45,119,249,253,114,186,25,23,28,195,200,177,90,150,163,238,94,46,122,126,47,139,114,152,125,251,169,60,20,124,127,212,203,49,160,216,183,228,104,70,1,25,54,30,88,227,132,93,165,174,92,243,227,50,17,69,255,18,125,80,88,237,156,228,227,21,193,97,89,234,25,57,191,4,107,77,186,118,129,22,150,235,29,153,175,212,160,187,242,50,39,185,108,58,245,28,83,171,165,214,3,139,7,89,19,80,214,233,191,156,172,245,144,21,157,140,233,251,234,229,78,112,134,130,86,229,58,223,173,221,191,249,104,73,92,181,235,3,232,92,244,109,215,65,149,43,24,165,140,154,165,212,108,124,32,107,49,177,108,233,30,172,174,51,64,164,239,125,11,80,87,13,206,252,49,8,95,149,127,73,76,3,82,94,200,237,38,177,7,118,48,43,8,120,173,47,215,131,182,85,47,182,78,75,248,178,14,104,138,215,196,192,182,163,193,198,76,216,109,70,108,237,180,206,49,26,72,46,255,25,177,97,51,146,223,0,24,10,18,113,127,233,115,147,43,225,56,89,235,184,62,60,51,210,224,251,48,184,37,205,252,162,188,169,95,196,130,185,55,184,215,162,251,67,73,71,45,155,145,48,2,165,2,150,27,147,129,21,65,138,206,93,29,247,140,139,176,232,195,123,49,19,116,90,240,151,233,157,28,140,22,207,177,162,77,141,168,188,238,176,106,169,13,162,156,179,219,212,232,60,2,73,138,220,150,42,112,55,219,193,35,72,171,192,130,58,94,20,40,13,166,151,72,18,114,111,35,222,114,2,0,156,110,15,160,202,6,186,62,65,19,79,241,149,224,127,185,91,193,109,3,228,152,123,234,168,209,124,135,247,105,130,223,162,121,115,91,180,177,171,102,21,80,20,50,14,53,98,237,138,92,54,185,145,79,190,148,155,6,184,136,151,244,137,178,14,244,193,136,220,232,207,125,129,206,9,117,223,194,76,129,154,160,214,196,92,151,43,19,46,177,33,174,34,225,64,122,104,53,124,243,231,72,96,1,2,243,211,230,38,28,8,109,76,172,109,34,107,171,5,122,235,17,90,74,32,253,166,136,119,73,171,172,221,116,233,59,207,76,203,250,178,154,132,130,237,127,62,63,68,63,230,114,134,162,27,197,135,221,14,3,152,22,19,75,198,170,215,95,85,212,100,149,127,168,213,101,198,58,30,19,166,192,206,181,36,254,209,71,87,202,125,124,105,208,70,86,249,209,23,62,49,120,79,236,213,21,199,53,50,44,50,38,151,37,147,182,84,94,241,129,144,235,24,36,151,45,101,43,151,51,226,105,243,2,15,71,234,246,142,180,117,127,84,114,36,231,223,202,171,214,105,197,90,236,222,223,189,23,63,137,213,147,137,230,116,198,19,79,144,11,115,54,245,73,84,179,162,119,137,245,52,194,167,119,187,243,111,95,249,100,72,151,165,177,214,241,216,213,48,55,9,95,127,117,165,127,101,192,172,137,178,246,217,78,60,226,207,141,36,51,7,177,250,236,35,88,98,122,32,9,7,219,2,183,240,154,206,168,53,69,72,24,130,185,136,78,113,203,231,241,243,228,219,89,12,173,119,141,135,191,245,163,63,144,88,77,19,208,28,152,255,49,150,88,243,223,23,216,101,80,84,103,216,198,135,65,236,125,78,124,248,100,180,215,99,221,194,44,140,22,94,65,132,0,227,190,5,72,11,57,198,169,110,75,129,67,156,54,63,107,223,250,161,171,159,134,243,159,52,91,34,124,247,166,194,54,204,145,58,236,182,129,186,170,73,130,48,168,154,97,123,43,97,239,18,76,125,96,155,113,46,177,247,152,95,2,5,16,177,255,33,47,124,241,252,102,199,16,130,131,38,177,129,180,209,177,198,207,170,166,211,96,38,196,57,90,208,40,94,173,36,72,156,215,111,37,169,97,140,166,109,73,121,223,208,149,69,113,1,231,192,72,122,59,162,199,227,70,225,73,225,34,174,210,79,29,165,94,44,0,71,116,231,122,4,195,174,220,148,63,126,37,163,78,58,210,160,247,199,93,49,161,248,14,114,64,0,40,249,11,41,127,78,41,204,184,184,76,53,200,72,134,219,3,127,67,164,114,252,177,43,170,52,225,158,224,78,177,120,211,131,211,201,209,106,166,117,187,157,175,188,179,96,89,214,41,47,21,12,101,47,159,85,15,1,5,88,24,170,116,171,228,232,129,20,135,148,63,158,21,144,136,201,51,133,13,18,104,208,22,90,107,189,177,178,0,25,33,93,241,36,112,52,142,96,96,108,223,170,213,216,111,145,141,248,239,166,62,104,196,68,231,174,20,163,213,240,73,38,244,146,129,40,211,25,95,137,81,114,192,201,126,150,244,105,139,218,139,5,129,46,79,132,100,173,17,250,146,232,36,213,79,70,171,98,156,158,6,143,142,203,82,87,170,186,219,247,38,8,16,113,46,70,137,80,254,198,116,27,80,54,47,203,135,254,253,86,65,165,127,172,210,225,103,159,189,48,240,126,203,12,23,85,92,191,54,56,193,250,99,115,125,231,28,18,187,25,246,106,169,69,250,80,65,14,182,110,89,121,59,120,205,115,47,133,131,18,58,194,42,107,160,199,253,114,252,206,149,167,134,137,148,191,165,165,23,32,121,208,172,231,127,192,131,143,163,160,237,237,34,159,202,239,136,195,37,252,38,140,255,198,52,35,243,84,47,219,112,229,213,106,193,142,249,27,39,75,124,192,78,212,194,75,241,172,143,168,206,127,45,206,205,163,79,67,1,104,150,127,189,163,243,243,16,114,164,37,242,28,254,119,53,44,138,17,73,174,246,200,188,203,79,3,75,219,83,65,220,75,188,226,21,168,232,106,75,215,117,28,12,4,211,221,33,67,40,159,225,62,74,7,101,93,67,137,174,19,155,39,106,229,24,199,33,94,242,226,51,22,1,23,196,182,233,158,71,50,108,251,27,8,177,200,16,31,127,220,251,158,124,24,139,84,177,35,95,207,110,35,72,33,1,214,195,227,107,22,188,217,75,19,24,184,115,174,103,160,25,129,137,16,29,150,138,11,101,106,163,138,223,140,234,9,19,165,227,4,68,20,148,143,154,152,210,183,232,175,205,138,37,214,152,108,238,10,137,6,50,255,160,116,183,120,189,134,76,63,126,177,31,50,203,150,64,93,70,43,100,195,44,71,51,125,109,23,64,213,6,9,91,105,171,205,237,61,142,187,225,83,213,172,220,240,91,21,250,127,38,233,103,137,129,181,18,136,86,36,28,27,60,232,109,254,79,207,132,112,58,204,70,236,98,7,5,88,162,34,229,22,28,154,99,155,211,209,27,19,206,17,124,9,43,81,147,189,7,21,62,62,150,106,188,242,155,112,43,223,78,46,99,157,198,226,108,193,106,169,177,140,16,71,87,62,25,46,9,27,80,191,93,248,196,129,58,236,255,255,4,0,0,0,0,9,0,0,236,127,161,188,174,53,114,189,56,189,187,60,146,129,144,61,128,129,230,59,64,143,228,187,232,40,160,61,240,243,230,60,184,188,128,189,233,133,158,189,244,84,152,60,128,113,190,187,159,182,182,189,202,236,187,61,103,232,98,189,4,14,122,189,35,219,160,189,224,235,31,188,14,184,197,189,168,70,73,61,127,248,58,189,48,15,50,188,101,13,104,189,80,20,59,61,255,126,62,189,172,224,150,60,212,110,61,61,40,72,37,188,32,53,13,189,74,85,202,61,92,237,99,189,206,205,144,61,21,134,162,189,60,207,25,61,32,160,80,60,207,202,138,189,136,5,96,189,204,249,183,188,0,225,115,59,218,233,153,61,90,230,134,189,254,220,198,189,54,34,157,61,188,214,146,61,74,197,136,61,38,230,128,189,216,199,71,189,132,149,102,189,113,56,92,189,152,58,57,60,232,179,120,61,8,38,48,188,58,236,175,61,120,229,214,188,244,236,63,61,72,223,94,189,80,205,7,188,27,9,111,189,43,57,164,189,52,206,193,188,36,4,171,61,228,231,142,60,87,252,32,189,0,161,126,58,100,187,28,189,114,38,174,61,86,113,140,189,51,70,69,189,92,16,30,61,51,75,147,189,92,238,134,188,176,138,94,61,112,189,140,59,252,22,16,189,96,191,53,189,128,137,175,61,84,127,174,189,98,64,190,61,76,29,152,60,116,123,99,61,240,70,204,189,234,242,141,61,84,215,115,61,102,140,108,189,4,130,182,60,0,222,229,57,166,235,55,189,0,99,55,61,40,148,204,60,156,141,176,189,242,162,165,61,76,143,37,189,119,110,137,189,200,69,215,188,176,184,148,61,28,180,143,188,32,7,13,61,24,206,140,61,173,237,143,189,192,54,59,61,254,13,21,189,18,31,139,61,241,166,176,189,22,246,161,61,112,20,147,61,158,92,77,189,109,60,53,189,144,233,171,61,94,222,130,189,176,203,3,189,68,13,190,189,50,152,183,61,200,57,103,189,192,101,186,186,9,189,50,189,38,40,143,61,232,214,65,60,240,26,203,189,208,126,6,61,146,135,168,189,48,30,76,189,80,224,148,188,77,64,197,189,245,103,104,189,184,242,127,60,140,160,9,61,192,122,95,60,84,9,135,61,104,217,21,61,31,84,117,189,84,177,222,188,80,58,237,59,232,163,67,188,188,232,103,189,12,157,144,188,72,224,78,60,12,87,124,61,176,164,58,61,96,228,119,188,224,10,91,189,104,16,138,60,254,29,200,61,172,52,123,61,75,99,194,189,192,26,169,187,152,48,9,60,72,72,122,61,177,115,206,189,60,139,114,61,166,166,88,189,116,95,41,61,164,207,88,61,32,60,160,189,100,156,138,189,160,154,161,59,40,108,73,61,0,128,126,182,168,60,40,188,136,243,48,60,56,105,244,188,24,253,240,188,92,120,144,61,88,49,70,60,140,188,233,188,60,137,22,61,8,239,108,61,38,206,133,61,236,189,113,189,158,84,109,189,48,41,106,61,12,8,164,61,55,227,196,189,226,218,66,189,70,91,195,61,138,62,142,189,32,194,61,61,148,152,28,61,96,69,99,60,0,152,10,60,230,0,96,189,240,172,150,189,218,90,34,189,14,193,205,61,109,162,199,189,196,26,174,188,155,207,165,189,0,215,12,58,112,0,179,188,36,80,113,61,164,200,99,61,24,223,241,60,108,85,177,61,8,222,47,61,28,102,185,189,180,164,3,61,24,149,36,188,52,200,98,61,118,51,174,189,32,193,162,61,80,180,158,60,16,46,228,60,252,145,41,189,254,232,190,61,96,120,248,60,162,32,73,189,122,107,140,61,35,106,174,189,164,12,45,189,176,92,36,60,200,86,15,60,106,214,133,61,116,205,11,189,96,236,71,61,214,20,138,61,192,45,31,61,184,48,233,60,220,49,207,189,26,219,188,61,30,96,193,61,202,168,149,61,18,231,17,189,157,31,90,189,216,175,226,188,20,44,206,61,8,106,177,189,129,245,155,189,64,236,76,59,240,43,54,60,128,122,175,61,208,13,244,188,90,20,196,189,52,221,139,188,250,45,201,61,192,36,251,188,224,18,6,61,247,111,50,189,128,241,190,189,36,130,160,189,221,85,44,189,170,98,153,61,220,97,137,60,96,253,236,187,0,30,174,61,16,59,31,60,44,120,97,61,60,162,190,188,8,212,116,61,72,1,97,61,233,26,89,189,112,149,87,61,20,60,184,188,128,34,144,58,125,100,169,189,21,118,159,189,244,68,128,60,64,97,72,61,0,0,131,56,144,226,240,60,192,168,101,188,224,199,151,189,124,0,132,60,0,14,237,187,196,38,161,61,243,91,53,189,230,9,174,189,142,183,143,61,22,51,146,189,168,182,81,61,128,153,106,61,158,124,125,189,112,109,200,60,183,219,182,189,192,186,218,59,72,181,35,188,60,228,144,60,128,66,249,187,103,58,199,189,96,252,128,188,192,219,246,58,150,107,204,61,9,218,173,189,0,58,90,187,172,84,55,61,76,78,130,61,254,97,135,189,179,21,93,189,112,147,157,188,204,255,195,61,82,206,115,189,142,120,96,189,210,245,9,189,160,218,243,60,158,227,136,61,225,115,105,189,37,230,182,189,70,187,100,189,176,88,41,61,144,98,24,61,40,197,130,60,144,46,39,61,58,204,23,189,82,226,57,189,192,152,27,188,134,62,86,189,82,105,201,189,67,39,79,189,203,167,133,189,162,80,154,61,72,101,139,61,176,176,218,188,240,208,98,61,21,49,147,189,83,103,46,189,0,234,200,188,154,9,134,61,161,3,191,189,40,68,190,60,200,192,29,189,48,76,244,60,248,177,118,61,0,158,14,57,64,62,4,61,96,107,111,59,124,223,243,188,235,158,116,189,0,252,12,59,12,238,178,188,224,157,64,189,48,98,51,61,128,196,110,187,168,123,169,189,64,82,140,59,239,150,44,189,151,211,176,189,24,184,167,188,112,199,239,60,12,79,8,189,216,226,14,60,172,218,147,60,152,182,59,188,232,1,157,60,62,15,129,61,232,69,39,61,232,33,49,60,230,166,190,189,122,191,176,61,192,67,130,61,208,28,117,188,130,244,128,189,216,248,100,188,208,121,123,188,100,148,145,61,12,198,203,188,176,81,135,189,32,55,54,187,56,1,51,189,100,72,66,189,140,13,173,61,192,118,109,61,212,3,25,61,230,145,200,61,184,21,82,60,8,73,220,60,128,212,36,186,0,214,222,60,192,57,164,189,24,244,110,61,68,160,92,61,203,101,75,189,208,23,69,61,227,21,123,189,118,214,153,61,204,216,74,61,64,65,138,186,52,193,169,189,16,159,140,59,166,106,28,189,136,153,82,61,78,104,165,61,209,63,158,189,22,86,189,61,119,156,143,189,160,115,161,61,229,11,126,189,140,164,13,61,213,207,53,189,52,60,90,61,208,80,248,59,212,131,75,61,145,167,183,189,224,6,35,188,128,83,4,61,32,135,42,187,116,213,137,188,124,139,51,61,2,104,145,61,56,12,174,189,226,10,193,189,176,104,248,188,92,17,74,189,80,86,198,61,128,157,54,58,80,101,38,61,168,185,146,189,84,224,17,61,68,95,171,188,124,218,194,188,128,153,199,61,131,21,192,189,228,81,156,61,155,133,148,189,212,212,170,188,197,1,135,189,60,165,72,61,32,244,4,187,80,181,214,60,128,76,44,59,168,35,164,189,98,102,128,61,32,172,117,60,152,36,187,60,134,21,160,61,16,183,132,61,216,225,182,61,0,227,144,57,32,8,50,59,24,36,177,61,9,105,64,189,144,135,183,189,160,79,237,59,176,159,190,187,162,128,139,189,216,10,151,188,80,254,96,61,164,96,161,189,56,95,154,189,48,80,157,187,54,191,131,189,205,3,77,189,8,88,218,60,196,88,109,61,136,62,101,60,166,156,170,61,12,38,117,61,32,126,55,187,128,127,132,186,132,140,201,61,174,245,96,189,200,149,39,188,128,201,16,187,72,191,206,60,224,105,90,189,48,203,34,61,236,108,136,188,208,149,200,61,88,55,72,61,96,230,44,61,64,79,60,187,20,27,70,189,200,219,114,188,120,138,152,61,54,102,163,61,214,51,86,189,216,15,212,188,200,163,93,61,120,147,187,189,200,90,222,60,194,141,190,189,244,3,173,61,236,116,19,189,144,50,76,61,180,120,231,188,160,96,173,60,229,237,200,189,8,45,205,189,80,44,205,61,176,29,23,61,150,211,166,61,219,131,196,189,204,252,54,61,13,159,67,189,168,27,99,60,42,99,95,189,224,2,11,61,158,84,145,61,24,80,21,61,72,210,221,60,8,215,110,61,208,85,199,189,164,44,130,60,104,117,19,61,96,200,19,61,68,61,128,189,128,139,145,188,64,134,70,61,232,29,239,60,160,196,160,61,232,46,144,61,56,65,237,60,22,12,186,61,214,161,14,189,88,137,192,189,28,239,134,61,162,250,197,189,236,58,173,189,98,94,190,61,160,130,194,60,220,26,165,61,168,1,12,188,144,218,225,188,254,171,155,189,22,145,188,189,168,235,217,188,206,144,143,61,62,235,138,61,120,237,216,60,224,98,19,189,74,56,146,189,220,232,65,61,52,91,156,188,56,52,38,61,165,240,136,189,4,110,71,189,115,189,181,189,190,79,122,189,208,80,178,187,52,140,150,189,211,133,160,189,78,54,167,189,72,217,138,188,96,143,3,61,146,82,205,61,129,56,157,189,216,2,44,61,158,109,137,189,216,87,17,189,224,82,244,60,214,140,117,189,118,170,90,189,22,25,143,189,16,87,10,61,228,51,132,189,50,1,149,61,136,222,37,60,212,54,246,188,74,121,156,61,24,68,63,61,79,196,75,189,0,207,223,58,15,23,90,189,172,130,119,61,128,154,213,60,168,224,100,188,68,96,61,189,224,130,174,188,103,189,170,189,96,161,125,61,200,11,143,189,196,188,165,61,152,193,139,188,186,21,82,189,78,186,130,61,180,92,58,61,45,219,121,189,20,249,162,189,28,227,3,189,64,35,152,61,248,190,33,188,254,25,166,189,172,234,21,189,128,74,187,61,228,63,34,61,216,102,77,188,49,249,178,189,114,34,155,61,133,80,55,189,70,245,255,255,4,0,0,0,8,0,0,0,1,0,0,0,2,0,0,0,90,245,255,255,4,0,0,0,0,1,0,0,0,0,0,0,0,0,0,0,0,0,0,0,0,0,0,0,0,0,0,0,0,0,0,0,0,0,0,0,0,0,0,0,0,0,0,0,0,0,0,0,0,0,0,0,0,0,0,0,0,0,0,0,0,0,0,0,0,0,0,0,0,0,0,0,0,0,0,0,0,0,0,0,0,0,0,0,0,0,0,0,0,0,0,0,0,0,0,0,0,0,0,0,0,0,0,0,0,0,0,0,0,0,0,0,0,0,0,0,0,0,0,0,0,0,0,0,0,0,0,0,0,0,0,0,0,0,0,0,0,0,0,0,0,0,0,0,0,0,0,0,0,0,0,0,0,0,0,0,0,0,0,0,0,0,0,0,0,0,0,0,0,0,0,0,0,0,0,0,0,0,0,0,0,0,0,0,0,0,0,0,0,0,0,0,0,0,0,0,0,0,0,0,0,0,0,0,0,0,0,0,0,0,0,0,0,0,0,0,0,0,0,0,0,0,0,0,0,0,0,0,0,0,0,0,0,0,0,0,0,0,0,0,0,0,0,0,0,0,0,0,0,0,0,0,0,0,0,0,0,0,0,0,0,0,0,0,102,246,255,255,4,0,0,0,0,9,0,0,122,50,129,61,64,20,197,59,58,148,187,189,236,117,126,61,128,222,163,189,56,234,240,60,82,180,168,189,144,190,230,188,32,14,67,61,100,207,151,61,68,112,176,189,16,87,208,60,76,217,129,61,124,8,137,61,136,238,160,61,144,162,134,188,218,142,136,61,204,120,67,61,109,217,200,189,146,104,184,61,80,106,142,61,62,107,138,61,128,178,120,187,85,251,191,189,172,27,53,61,186,63,184,61,62,38,146,61,16,89,67,188,144,31,117,188,52,75,128,189,128,36,78,186,54,140,185,189,16,46,161,61,192,247,91,60,166,76,207,61,174,208,152,189,242,162,191,189,178,147,23,189,44,121,78,61,116,76,144,189,26,207,188,61,48,61,66,60,212,46,168,189,192,1,139,61,0,159,31,61,132,185,13,189,40,122,50,60,224,129,42,187,112,81,222,60,92,22,158,189,40,92,106,61,103,192,55,189,169,114,121,189,154,191,186,61,44,141,69,61,125,34,173,189,32,133,83,187,149,73,128,189,24,120,251,188,128,211,111,187,12,3,44,61,96,184,163,61,144,253,138,187,209,139,149,189,16,251,168,189,100,68,118,61,164,189,44,61,208,5,77,188,19,20,180,189,174,241,85,189,16,51,60,60,196,9,27,61,238,189,139,61,249,187,183,189,204,134,163,189,32,173,24,61,66,95,138,61,66,186,195,189,176,98,172,61,192,21,235,186,184,143,30,188,184,236,134,189,8,79,125,188,116,175,167,61,195,96,157,189,12,172,50,189,242,217,77,189,217,60,133,189,32,131,85,187,84,46,117,61,189,129,82,189,179,56,148,189,216,47,82,188,242,112,145,189,123,25,44,189,87,174,47,189,242,18,29,189,238,23,136,61,210,151,150,61,43,103,170,189,136,212,161,60,47,61,59,189,128,255,254,186,216,153,24,61,0,15,180,58,176,164,55,60,220,55,195,188,168,11,127,61,176,216,122,60,134,105,136,61,42,138,193,61,224,42,204,60,144,207,99,61,72,108,175,61,196,253,82,61,180,248,72,61,44,191,116,61,120,26,216,60,244,246,150,60,168,198,136,188,218,189,172,61,121,84,196,189,131,112,143,189,114,39,155,61,2,132,132,61,40,101,113,188,213,235,90,189,184,26,142,188,156,191,130,61,236,46,207,189,160,147,98,60,24,240,87,61,136,183,15,189,176,134,84,189,107,133,163,189,244,165,17,189,64,193,181,186,142,78,134,61,64,179,181,61,132,104,137,61,224,80,210,188,128,164,182,188,250,206,162,61,130,134,166,61,120,15,53,61,52,240,23,61,40,118,164,61,136,248,71,189,76,235,156,61,198,134,160,61,168,46,166,60,72,120,6,189,218,160,152,61,200,221,73,61,166,12,194,61,241,235,182,189,2,244,187,189,68,17,128,60,84,84,199,61,232,219,123,61,144,229,10,61,32,18,183,59,159,75,167,189,144,127,225,60,38,129,156,61,184,228,79,61,198,254,194,189,116,211,134,61,168,173,186,60,235,62,93,189,92,205,97,61,215,141,66,189,104,55,141,60,10,42,159,61,16,128,134,61,48,84,204,187,212,216,185,188,0,180,107,189,208,64,237,188,243,19,190,189,0,92,27,188,78,79,204,189,64,66,99,61,70,143,73,189,192,55,161,187,4,140,114,189,10,52,132,189,72,92,167,61,210,56,168,189,60,169,151,60,112,121,223,187,192,60,186,59,8,152,9,61,116,158,45,61,190,122,196,61,92,104,89,189,152,210,11,61,40,175,242,188,4,32,193,188,206,246,139,61,148,232,144,61,59,127,124,189,2,149,143,189,78,63,7,189,184,232,252,60,177,150,199,189,24,133,61,60,32,201,4,61,178,70,8,189,46,208,135,61,16,161,42,188,64,214,147,189,204,47,36,61,194,155,143,61,164,178,185,60,24,205,1,188,135,94,33,189,60,77,198,188,220,127,24,61,216,35,244,188,24,112,147,60,8,1,144,61,4,18,28,189,104,89,93,188,192,77,66,59,126,72,168,189,64,50,243,186,225,97,62,189,116,220,152,61,8,118,220,60,24,197,190,61,72,18,190,188,220,154,225,188,185,21,94,189,23,19,125,189,16,69,123,60,168,18,93,61,72,142,131,61,107,172,193,189,236,104,71,61,173,13,173,189,70,70,129,61,6,67,181,189,204,250,64,61,176,113,203,60,106,235,178,61,44,67,72,189,76,253,132,61,55,179,172,189,0,176,101,56,150,84,177,61,20,197,159,61,16,182,29,60,252,76,194,61,106,137,199,61,172,24,122,61,24,234,99,189,170,213,142,189,20,95,43,61,221,182,80,189,115,69,72,189,152,81,134,188,244,105,154,188,136,93,27,188,224,161,174,189,170,72,15,189,230,103,158,61,0,243,144,57,144,67,12,61,86,59,168,61,26,2,9,189,10,45,141,61,96,98,67,188,236,229,40,61,16,160,62,60,106,196,196,61,232,44,53,61,16,85,46,61,223,33,199,189,84,10,190,189,32,155,15,189,58,148,187,189,162,194,174,61,160,214,101,188,192,229,111,59,248,159,239,60,190,171,188,189,23,197,164,189,208,228,169,61,48,222,89,60,236,235,28,61,226,117,182,61,180,52,182,61,144,7,82,60,224,213,76,61,112,204,43,60,59,123,71,189,184,157,27,60,40,190,82,60,208,148,10,61,28,57,187,61,44,12,243,188,112,4,143,61,112,149,183,61,61,162,52,189,191,217,92,189,16,234,193,187,140,239,97,61,64,191,161,59,128,4,207,188,32,133,121,60,136,102,71,188,230,48,132,61,104,168,104,188,192,64,204,187,104,20,136,60,248,110,194,60,84,203,154,60,97,31,102,189,44,5,240,188,20,227,191,188,94,30,7,189,112,91,190,61,22,64,178,189,224,64,2,189,232,52,185,60,60,116,198,61,143,16,195,189,52,161,72,189,0,64,165,54,68,71,189,61,30,195,182,61,204,240,1,61,219,7,45,189,244,133,169,188,50,75,130,61,224,194,81,60,8,37,190,61,192,67,5,60,48,61,150,61,244,230,137,189,132,78,205,61,20,137,184,189,200,78,22,61,0,139,82,61,53,162,85,189,188,60,37,61,10,44,203,61,211,241,141,189,96,226,49,187,21,3,58,189,186,160,184,61,48,112,109,189,120,11,201,60,68,214,180,189,164,156,128,189,64,108,103,188,48,254,171,61,228,50,141,188,208,99,1,61,246,82,134,189,184,99,168,189,32,3,60,61,12,202,158,60,232,250,161,189,144,155,60,60,232,2,63,61,162,95,165,61,8,30,23,61,208,56,183,59,20,84,196,189,204,225,204,189,64,149,189,188,91,65,92,189,28,143,128,61,251,68,161,189,174,205,141,61,192,237,85,59,104,117,57,61,112,182,53,189,42,67,194,61,184,102,75,60,191,64,149,189,15,141,107,189,48,199,120,61,187,116,153,189,222,107,123,189,85,3,101,189,12,161,36,61,0,207,92,186,152,142,62,61,196,181,221,188,72,199,211,60,4,58,17,61,53,234,201,189,56,134,102,61,168,220,39,188,104,166,115,60,117,124,48,189,156,137,176,189,32,211,241,187,124,117,3,61,0,181,241,60,16,197,221,60,176,211,142,189,62,130,137,61,210,174,157,61,128,101,61,59,50,118,162,189,22,67,202,189,10,180,150,61,88,118,163,188,134,251,174,61,252,43,60,61,199,238,148,189,104,50,53,61,241,199,88,189,164,96,68,61,141,65,120,189,50,208,203,189,2,32,207,189,126,158,196,61,199,183,205,189,120,143,237,60,166,78,133,61,176,63,79,188,162,63,34,189,115,211,155,189,113,168,68,189,160,85,224,60,172,13,83,189,32,79,213,59,56,157,71,60,216,248,233,60,144,197,105,61,220,50,170,189,0,130,250,186,238,243,195,61,224,237,76,187,94,14,150,61,154,97,180,189,136,218,192,188,12,41,189,188,196,40,62,61,10,58,170,189,170,168,200,61,104,143,104,188,128,228,149,187,160,70,236,60,72,85,198,60,128,191,3,187,208,100,206,187,232,34,34,60,70,97,140,61,134,181,59,189,80,25,226,60,216,116,49,188,176,167,196,188,112,49,171,189,28,130,10,189,48,116,46,189,41,181,45,189,162,146,164,61,114,29,134,61,254,85,146,61,120,32,208,60,13,125,98,189,160,151,171,188,136,205,140,61,212,125,93,61,146,245,131,189,42,50,143,61,44,241,176,61,58,192,44,189,20,92,159,188,152,158,45,188,26,103,134,189,71,161,190,189,136,149,106,188,164,24,165,61,114,196,143,61,192,163,123,188,42,175,175,61,16,237,251,188,180,225,181,60,17,98,50,189,0,207,19,58,176,16,238,60,96,97,205,187,218,153,32,189,184,240,179,61,88,98,76,189,247,205,156,189,88,252,112,188,246,27,135,189,98,94,143,61,84,88,139,61,228,142,149,61,166,57,182,61,200,127,51,61,26,187,199,61,104,162,178,60,87,252,85,189,40,94,137,60,2,200,37,189,228,22,150,189,168,224,196,61,84,50,58,189,20,105,71,61,64,194,13,61,144,237,218,188,51,79,147,189,84,180,71,61,44,112,161,60,25,98,182,189,222,6,133,61,56,244,47,189,22,70,149,61,54,159,146,61,58,51,178,61,40,3,195,61,176,131,108,61,120,14,70,189,84,82,138,61,8,67,212,188,52,215,175,60,204,145,91,61,119,227,40,189,80,214,189,187,118,248,1,189,248,127,188,60,146,104,134,61,0,221,201,188,176,87,227,187,164,85,179,61,176,204,37,61,192,93,118,60,123,21,65,189,160,182,231,188,192,29,215,187,8,72,132,60,144,111,121,188,228,11,207,61,193,123,130,189,52,161,52,61,190,152,138,61,159,10,187,189,88,118,170,189,181,78,106,189,38,138,130,61,52,211,160,188,64,233,205,189,160,172,32,59,192,134,205,188,192,14,76,187,168,9,97,189,195,162,106,189,197,160,31,189,200,216,133,189,56,209,143,61,120,118,184,189,120,186,71,188,51,203,186,189,226,85,163,61,175,253,58,189,72,89,75,61,180,84,199,188,128,153,42,189,150,213,135,61,212,103,21,61,78,212,185,61,252,210,248,188,248,160,187,60,248,155,59,61,224,226,120,61,236,125,17,189,192,243,255,255,196,243,255,255,15,0,0,0,77,76,73,82,32,67,111,110,118,101,114,116,101,100,46,0,1,0,0,0,20,0,0,0,0,0,14,0,24,0,20,0,16,0,12,0,8,0,4,0,14,0,0,0,20,0,0,0,28,0,0,0,228,1,0,0,232,1,0,0,236,1,0,0,4,0,0,0,109,97,105,110,0,0,0,0,6,0,0,0,124,1,0,0,16,1,0,0,188,0,0,0,136,0,0,0,64,0,0,0,4,0,0,0,18,255,255,255,28,0,0,0,0,0,0,9,28,0,0,0,32,0,0,0,4,0,0,0,0,0,6,0,8,0,4,0,6,0,0,0,0,0,128,63,1,0,0,0,12,0,0,0,1,0,0,0,11,0,0,0,74,255,255,255,32,0,0,0,0,0,0,8,32,0,0,0,36,0,0,0,3,0,0,0,12,0,8,0,0,0,0,0,0,0,7,0,12,0,0,0,0,0,0,1,1,0,0,0,11,0,0,0,3,0,0,0,10,0,0,0,6,0,0,0,255,255,255,255,142,255,255,255,20,0,0,0,0,0,0,27,16,0,0,0,20,0,0,0,2,0,0,0,200,244,255,255,1,0,0,0,10,0,0,0,2,0,0,0,9,0,0,0,3,0,0,0,86,255,255,255,16,0,0,0,0,0,0,1,28,0,0,0,32,0,0,0,72,255,255,255,0,0,0,1,1,0,0,0,1,0,0,0,0,0,0,1,1,0,0,0,9,0,0,0,3,0,0,0,8,0,0,0,5,0,0,0,2,0,0,0,0,0,14,0,26,0,20,0,16,0,12,0,11,0,4,0,14,0,0,0,36,0,0,0,0,0,0,2,52,0,0,0,56,0,0,0,1,0,0,0,0,0,14,0,24,0,23,0,16,0,12,0,8,0,7,0,14,0,0,0,0,0,0,1,1,0,0,0,1,0,0,0,1,0,0,0,0,0,0,1,1,0,0,0,8,0,0,0,3,0,0,0,7,0,0,0,4,0,0,0,2,0,0,0,0,0,14,0,20,0,0,0,16,0,12,0,11,0,4,0,14,0,0,0,28,0,0,0,0,0,0,1,40,0,0,0,44,0,0,0,12,0,20,0,19,0,12,0,8,0,7,0,12,0,0,0,0,0,0,1,1,0,0,0,1,0,0,0,0,0,0,1,1,0,0,0,7,0,0,0,3,0,0,0,0,0,0,0,1,0,0,0,2,0,0,0,1,0,0,0,12,0,0,0,1,0,0,0,0,0,0,0,13,0,0,0,216,9,0,0,120,9,0,0,36,9,0,0,228,8,0,0,132,8,0,0,20,5,0,0,12,3,0,0,116,2,0,0,204,1,0,0,52,1,0,0,192,0,0,0,96,0,0,0,4,0,0,0,114,246,255,255,0,0,0,1,20,0,0,0,28,0,0,0,28,0,0,0,13,0,0,0,52,0,0,0,2,0,0,0,255,255,255,255,36,0,0,0,84,246,255,255,27,0,0,0,83,116,97,116,101,102,117,108,80,97,114,116,105,116,105,111,110,101,100,67,97,108,108,95,49,58,48,0,2,0,0,0,1,0,0,0,36,0,0,0,202,246,255,255,0,0,0,1,20,0,0,0,28,0,0,0,28,0,0,0,12,0,0,0,56,0,0,0,2,0,0,0,255,255,255,255,36,0,0,0,172,246,255,255,31,0,0,0,115,101,113,117,101,110,116,105,97,108,95,51,95,49,47,100,101,110,115,101,95,51,95,49,47,77,97,116,77,117,108,0,2,0,0,0,1,0,0,0,36,0,0,0,38,247,255,255,0,0,0,1,20,0,0,0,28,0,0,0,28,0,0,0,11,0,0,0,76,0,0,0,2,0,0,0,255,255,255,255,64,0,0,0,8,247,255,255,48,0,0,0,115,101,113,117,101,110,116,105,97,108,95,51,95,49,47,103,108,111,98,97,108,95,97,118,101,114,97,103,101,95,112,111,111,108,105,110,103,50,100,95,51,95,49,47,77,101,97,110,0,0,0,0,2,0,0,0,1,0,0,0,64,0,0,0,150,247,255,255,0,0,0,1,20,0,0,0,36,0,0,0,36,0,0,0,10,0,0,0,104,0,0,0,4,0,0,0,255,255,255,255,95,0,0,0,8,0,0,0,64,0,0,0,128,247,255,255,68,0,0,0,115,101,113,117,101,110,116,105,97,108,95,51,95,49,47,99,111,110,118,50,100,95,55,95,49,47,82,101,108,117,59,115,101,113,117,101,110,116,105,97,108,95,51,95,49,47,99,111,110,118,50,100,95,55,95,49,47,99,111,110,118,111,108,117,116,105,111,110,0,0,0,0,4,0,0,0,1,0,0,0,95,0,0,0,8,0,0,0,64,0,0,0,42,248,255,255,0,0,0,1,20,0,0,0,36,0,0,0,36,0,0,0,9,0,0,0,120,0,0,0,4,0,0,0,255,255,255,255,95,0,0,0,8,0,0,0,64,0,0,0,20,248,255,255,86,0,0,0,115,101,113,117,101,110,116,105,97,108,95,51,95,49,47,100,101,112,116,104,119,105,115,101,95,99,111,110,118,50,100,95,51,95,49,47,82,101,108,117,59,115,101,113,117,101,110,116,105,97,108,95,51,95,49,47,100,101,112,116,104,119,105,115,101,95,99,111,110,118,50,100,95,51,95,49,47,100,101,112,116,104,119,105,115,101,0,0,4,0,0,0,1,0,0,0,95,0,0,0,8,0,0,0,64,0,0,0,206,248,255,255,0,0,0,1,20,0,0,0,36,0,0,0,36,0,0,0,8,0,0,0,104,0,0,0,4,0,0,0,255,255,255,255,97,0,0,0,10,0,0,0,64,0,0,0,184,248,255,255,68,0,0,0,115,101,113,117,101,110,116,105,97,108,95,51,95,49,47,99,111,110,118,50,100,95,54,95,49,47,82,101,108,117,59,115,101,113,117,101,110,116,105,97,108,95,51,95,49,47,99,111,110,118,50,100,95,54,95,49,47,99,111,110,118,111,108,117,116,105,111,110,0,0,0,0,4,0,0,0,1,0,0,0,97,0,0,0,10,0,0,0,64,0,0,0,74,250,255,255,0,0,0,1,20,0,0,0,212,1,0,0,7,0,0,0,0,0,0,9,224,1,0,0,252,253,255,255,8,0,0,0,40,1,0,0,36,0,0,0,0,0,0,0,0,0,0,0,0,0,0,0,0,0,0,0,0,0,0,0,0,0,0,0,0,0,0,0,0,0,0,0,0,0,0,0,0,0,0,0,0,0,0,0,0,0,0,0,0,0,0,0,0,0,0,0,0,0,0,0,0,0,0,0,0,0,0,0,0,0,0,0,0,0,0,0,0,0,0,0,0,0,0,0,0,0,0,0,0,0,0,0,0,0,0,0,0,0,0,0,0,0,0,0,0,0,0,0,0,0,0,0,0,0,0,0,0,0,0,0,0,0,0,0,0,0,0,0,0,0,0,0,0,0,0,0,0,0,0,0,0,0,0,0,0,0,0,0,0,0,0,0,0,0,0,0,0,0,0,0,0,0,0,0,0,0,0,0,0,0,0,0,0,0,0,0,0,0,0,0,0,0,0,0,0,0,0,0,0,0,0,0,0,0,0,0,0,0,0,0,0,0,0,0,0,0,0,0,0,0,0,0,0,0,0,0,0,0,0,0,0,0,0,0,0,0,0,0,0,0,0,0,0,0,0,0,0,0,0,0,0,0,0,0,0,0,0,0,0,0,0,0,0,0,0,0,0,0,0,0,0,0,0,0,0,0,0,0,0,0,0,0,0,0,0,0,0,0,0,0,0,0,0,0,0,0,0,0,36,0,0,0,88,187,248,58,156,230,248,58,201,75,239,58,210,193,250,58,182,167,250,58,225,226,251,58,65,137,217,58,146,132,252,58,211,242,250,58,133,171,241,58,249,229,240,58,50,181,250,58,158,182,244,58,199,247,251,58,158,138,252,58,149,224,241,58,107,59,248,58,99,158,252,58,60,200,241,58,178,71,248,58,35,225,251,58,168,3,251,58,105,186,246,58,188,14,238,58,3,234,251,58,195,116,247,58,243,92,252,58,78,140,251,58,16,176,244,58,170,90,251,58,158,253,247,58,71,225,247,58,123,100,246,58,170,37,252,58,53,74,249,58,193,125,252,58,18,0,0,0,116,102,108,46,112,115,101,117,100,111,95,113,99,111,110,115,116,49,0,0,2,0,0,0,36,0,0,0,64,0,0,0,78,252,255,255,0,0,0,1,32,0,0,0,52,3,0,0,6,0,0,0,0,0,0,9,64,3,0,0,12,0,12,0,0,0,0,0,8,0,4,0,12,0,0,0,8,0,0,0,12,2,0,0,64,0,0,0,0,0,0,0,0,0,0,0,0,0,0,0,0,0,0,0,0,0,0,0,0,0,0,0,0,0,0,0,0,0,0,0,0,0,0,0,0,0,0,0,0,0,0,0,0,0,0,0,0,0,0,0,0,0,0,0,0,0,0,0,0,0,0,0,0,0,0,0,0,0,0,0,0,0,0,0,0,0,0,0,0,0,0,0,0,0,0,0,0,0,0,0,0,0,0,0,0,0,0,0,0,0,0,0,0,0,0,0,0,0,0,0,0,0,0,0,0,0,0,0,0,0,0,0,0,0,0,0,0,0,0,0,0,0,0,0,0,0,0,0,0,0,0,0,0,0,0,0,0,0,0,0,0,0,0,0,0,0,0,0,0,0,0,0,0,0,0,0,0,0,0,0,0,0,0,0,0,0,0,0,0,0,0,0,0,0,0,0,0,0,0,0,0,0,0,0,0,0,0,0,0,0,0,0,0,0,0,0,0,0,0,0,0,0,0,0,0,0,0,0,0,0,0,0,0,0,0,0,0,0,0,0,0,0,0,0,0,0,0,0,0,0,0,0,0,0,0,0,0,0,0,0,0,0,0,0,0,0,0,0,0,0,0,0,0,0,0,0,0,0,0,0,0,0,0,0,0,0,0,0,0,0,0,0,0,0,0,0,0,0,0,0,0,0,0,0,0,0,0,0,0,0,0,0,0,0,0,0,0,0,0,0,0,0,0,0,0,0,0,0,0,0,0,0,0,0,0,0,0,0,0,0,0,0,0,0,0,0,0,0,0,0,0,0,0,0,0,0,0,0,0,0,0,0,0,0,0,0,0,0,0,0,0,0,0,0,0,0,0,0,0,0,0,0,0,0,0,0,0,0,0,0,0,0,0,0,0,0,0,0,0,0,0,0,0,0,0,0,0,0,0,0,0,0,0,0,0,0,0,0,0,0,0,0,0,0,0,0,0,0,0,0,0,0,0,0,0,0,0,0,0,0,0,0,0,0,0,0,0,0,0,0,0,0,0,0,0,0,0,0,0,0,0,0,0,0,0,0,0,0,0,0,0,0,0,0,0,0,0,0,0,0,0,0,0,0,0,0,0,0,0,0,0,0,0,0,0,0,0,0,0,0,0,0,0,0,0,0,0,0,0,0,0,0,0,0,0,0,0,0,0,0,0,0,0,0,64,0,0,0,212,195,211,58,54,199,218,58,114,200,215,58,57,223,221,58,154,204,213,58,11,200,218,58,129,87,219,58,143,86,222,58,39,59,214,58,172,167,220,58,134,31,221,58,126,117,218,58,110,180,218,58,147,248,221,58,83,159,219,58,154,88,222,58,199,76,221,58,74,103,220,58,45,37,223,58,84,192,219,58,156,66,223,58,106,25,221,58,86,38,222,58,134,152,216,58,98,237,218,58,168,197,218,58,107,220,222,58,243,148,220,58,136,201,219,58,7,156,222,58,100,240,220,58,89,190,212,58,14,252,221,58,63,14,218,58,180,36,215,58,243,185,221,58,91,247,218,58,11,104,213,58,19,155,222,58,122,14,217,58,3,12,222,58,190,154,221,58,227,2,222,58,253,35,212,58,203,231,222,58,23,114,222,58,100,135,220,58,59,16,214,58,205,68,222,58,37,34,221,58,45,128,222,58,189,54,222,58,55,5,221,58,177,102,222,58,61,31,221,58,6,224,220,58,73,0,223,58,188,74,222,58,128,81,222,58,178,118,221,58,146,127,219,58,251,76,221,58,110,68,220,58,232,177,212,58,17,0,0,0,116,102,108,46,112,115,101,117,100,111,95,113,99,111,110,115,116,0,0,0,4,0,0,0,64,0,0,0,1,0,0,0,1,0,0,0,64,0,0,0,46,255,255,255,0,0,0,1,16,0,0,0,16,0,0,0,5,0,0,0,28,0,0,0,164,254,255,255,15,0,0,0,97,114,105,116,104,46,99,111,110,115,116,97,110,116,51,0,4,0,0,0,1,0,0,0,3,0,0,0,3,0,0,0,64,0,0,0,0,0,22,0,28,0,24,0,23,0,16,0,12,0,8,0,0,0,0,0,0,0,7,0,22,0,0,0,0,0,0,1,20,0,0,0,20,0,0,0,4,0,0,0,0,0,0,2,28,0,0,0,4,255,255,255,15,0,0,0,97,114,105,116,104,46,99,111,110,115,116,97,110,116,50,0,1,0,0,0,2,0,0,0,198,255,255,255,0,0,0,1,16,0,0,0,16,0,0,0,3,0,0,0,28,0,0,0,60,255,255,255,15,0,0,0,97,114,105,116,104,46,99,111,110,115,116,97,110,116,49,0,1,0,0,0,64,0,0,0,0,0,22,0,24,0,20,0,0,0,16,0,12,0,8,0,0,0,0,0,0,0,7,0,22,0,0,0,0,0,0,1,16,0,0,0,16,0,0,0,2,0,0,0,28,0,0,0,140,255,255,255,14,0,0,0,97,114,105,116,104,46,99,111,110,115,116,97,110,116,0,0,4,0,0,0,64,0,0,0,3,0,0,0,3,0,0,0,1,0,0,0,0,0,22,0,28,0,24,0,0,0,20,0,16,0,12,0,0,0,0,0,8,0,7,0,22,0,0,0,0,0,0,1,20,0,0,0,40,0,0,0,40,0,0,0,1,0,0,0,72,0,0,0,4,0,0,0,255,255,255,255,99,0,0,0,12,0,0,0,1,0,0,0,4,0,4,0,4,0,0,0,32,0,0,0,115,101,114,118,105,110,103,95,100,101,102,97,117,108,116,95,107,101,114,97,115,95,116,101,110,115,111,114,95,56,58,48,0,0,0,0,4,0,0,0,1,0,0,0,99,0,0,0,12,0,0,0,1,0,0,0,5,0,0,0,96,0,0,0,68,0,0,0,40,0,0,0,20,0,0,0,4,0,0,0,216,255,255,255,25,0,0,0,0,0,0,25,204,255,255,255,9,0,0,0,12,0,0,0,0,0,0,9,244,255,255,255,40,0,0,0,0,0,0,40,12,0,12,0,11,0,0,0,0,0,4,0,12,0,0,0,4,0,0,0,0,0,0,4,12,0,16,0,15,0,0,0,8,0,4,0,12,0,0,0,3,0,0,0,5,0,0,0,0,0,0,3
};
unsigned int model_len = 15176;