#include <stddef.h>

const unsigned char model[] = {
0x1c,0x00,0x00,0x00,0x54,0x46,0x4c,0x33,0x14,0x00,0x20,0x00,0x1c,0x00,0x18,0x00,0x14,0x00,0x10,0x00,0x0c,0x00,0x00,0x00,0x08,0x00,0x04,0x00,0x14,0x00,0x00,0x00,0x1c,0x00,0x00,0x00,0x98,0x00,0x00,0x00,0x18,0x01,0x00,0x00,0xb0,0x23,0x00,0x00,0xc0,0x23,0x00,0x00,0x80,0x43,0x00,0x00,0x03,0x00,0x00,0x00,0x01,0x00,0x00,0x00,0x10,0x00,0x00,0x00,0x00,0x00,0x0a,0x00,0x10,0x00,0x0c,0x00,0x08,0x00,0x04,0x00,0x0a,0x00,0x00,0x00,0x0c,0x00,0x00,0x00,0x1c,0x00,0x00,0x00,0x3c,0x00,0x00,0x00,0x0f,0x00,0x00,0x00,0x73,0x65,0x72,0x76,0x69,0x6e,0x67,0x5f,0x64,0x65,0x66,0x61,0x75,0x6c,0x74,0x00,0x01,0x00,0x00,0x00,0x04,0x00,0x00,0x00,0x68,0xff,0xff,0xff,0x0f,0x00,0x00,0x00,0x04,0x00,0x00,0x00,0x08,0x00,0x00,0x00,0x6f,0x75,0x74,0x70,0x75,0x74,0x5f,0x30,0x00,0x00,0x00,0x00,0x01,0x00,0x00,0x00,0x04,0x00,0x00,0x00,0x3e,0xdc,0xff,0xff,0x04,0x00,0x00,0x00,0x0c,0x00,0x00,0x00,0x6b,0x65,0x72,0x61,0x73,0x5f,0x74,0x65,0x6e,0x73,0x6f,0x72,0x00,0x00,0x00,0x00,0x03,0x00,0x00,0x00,0x5c,0x00,0x00,0x00,0x2c,0x00,0x00,0x00,0x04,0x00,0x00,0x00,0xb8,0xff,0xff,0xff,0x13,0x00,0x00,0x00,0x04,0x00,0x00,0x00,0x13,0x00,0x00,0x00,0x43,0x4f,0x4e,0x56,0x45,0x52,0x53,0x49,0x4f,0x4e,0x5f,0x4d,0x45,0x54,0x41,0x44,0x41,0x54,0x41,0x00,0xdc,0xff,0xff,0xff,0x12,0x00,0x00,0x00,0x04,0x00,0x00,0x00,0x13,0x00,0x00,0x00,0x6d,0x69,0x6e,0x5f,0x72,0x75,0x6e,0x74,0x69,0x6d,0x65,0x5f,0x76,0x65,0x72,0x73,0x69,0x6f,0x6e,0x00,0x08,0x00,0x0c,0x00,0x08,0x00,0x04,0x00,0x08,0x00,0x00,0x00,0x11,0x00,0x00,0x00,0x04,0x00,0x00,0x00,0x13,0x00,0x00,0x00,0x6d,0x69,0x6e,0x5f,0x72,0x75,0x6e,0x74,0x69,0x6d,0x65,0x5f,0x76,0x65,0x72,0x73,0x69,0x6f,0x6e,0x00,0x14,0x00,0x00,0x00,0x94,0x22,0x00,0x00,0x8c,0x22,0x00,0x00,0x74,0x22,0x00,0x00,0xd4,0x21,0x00,0x00,0xc4,0x18,0x00,0x00,0xb4,0x17,0x00,0x00,0xa4,0x07,0x00,0x00,0x94,0x06,0x00,0x00,0x44,0x04,0x00,0x00,0x34,0x03,0x00,0x00,0xe4,0x00,0x00,0x00,0xdc,0x00,0x00,0x00,0xd4,0x00,0x00,0x00,0xcc,0x00,0x00,0x00,0xc4,0x00,0x00,0x00,0xbc,0x00,0x00,0x00,0xb4,0x00,0x00,0x00,0x94,0x00,0x00,0x00,0x74,0x00,0x00,0x00,0x04,0x00,0x00,0x00,0x32,0xdd,0xff,0xff,0x04,0x00,0x00,0x00,0x60,0x00,0x00,0x00,0x0c,0x00,0x00,0x00,0x08,0x00,0x0e,0x00,0x08,0x00,0x04,0x00,0x08,0x00,0x00,0x00,0x10,0x00,0x00,0x00,0x28,0x00,0x00,0x00,0x00,0x00,0x06,0x00,0x08,0x00,0x04,0x00,0x06,0x00,0x00,0x00,0x04,0x00,0x00,0x00,0x01,0x00,0x00,0x00,0xeb,0x03,0x00,0x00,0x0c,0x00,0x18,0x00,0x14,0x00,0x10,0x00,0x0c,0x00,0x04,0x00,0x0c,0x00,0x00,0x00,0x07,0xaf,0x67,0xdf,0xd5,0x4c,0x70,0xf9,0x02,0x00,0x00,0x00,0x02,0x00,0x00,0x00,0x04,0x00,0x00,0x00,0x06,0x00,0x00,0x00,0x32,0x2e,0x31,0x38,0x2e,0x30,0x00,0x00,0x9e,0xdd,0xff,0xff,0x04,0x00,0x00,0x00,0x10,0x00,0x00,0x00,0x00,0x00,0x00,0x00,0x00,0x00,0x00,0x00,0x00,0x00,0x00,0x00,0x00,0x00,0x00,0x00,0xba,0xdd,0xff,0xff,0x04,0x00,0x00,0x00,0x10,0x00,0x00,0x00,0x31,0x2e,0x31,0x34,0x2e,0x30,0x00,0x00,0x00,0x00,0x00,0x00,0x00,0x00,0x00,0x00,0x5c,0xbf,0xff,0xff,0x60,0xbf,0xff,0xff,0x64,0xbf,0xff,0xff,0x68,0xbf,0xff,0xff,0x6c,0xbf,0xff,0xff,0x70,0xbf,0xff,0xff,0xee,0xdd,0xff,0xff,0x04,0x00,0x00,0x00,0x40,0x02,0x00,0x00,0xae,0x1a,0xda,0xa6,0xd8,0xb1,0xcd,0xdb,0x81,0xf8,0xb9,0x6d,0x16,0xca,0x7f,0x03,0xc2,0x69,0x28,0x89,0xdd,0xf4,0x81,0xad,0x19,0xa9,0xd0,0xc1,0xbb,0xc9,0x9f,0x81,0xe0,0xa3,0xa8,0x97,0x07,0x79,0x5c,0x0f,0x6e,0x6a,0xf7,0x7f,0x72,0x10,0xfd,0xa3,0xfa,0xf3,0x81,0x24,0x20,0x88,0x39,0x71,0xeb,0x44,0x00,0xd0,0x2d,0x81,0xc7,0x05,0x81,0x9c,0xb8,0xd0,0xb8,0xb7,0xc1,0xbc,0x65,0x0c,0xb4,0x75,0xec,0xaa,0x7f,0xe5,0xb0,0x03,0xd8,0xbc,0x62,0xae,0xb8,0x7f,0x91,0xa7,0x8c,0xb5,0x6d,0x9d,0xe7,0x7f,0x9b,0x52,0x71,0xab,0x15,0x7f,0xee,0x54,0x72,0xdc,0x2a,0x7d,0x09,0xc9,0x7f,0xed,0xc5,0x71,0xf0,0x9f,0x59,0x0b,0xf9,0x1b,0x07,0x98,0x28,0xb0,0xd6,0x81,0xf0,0x26,0x83,0xdf,0x31,0x81,0xde,0x3b,0x81,0x38,0xf5,0x81,0x37,0xfd,0x8a,0x33,0xf0,0x97,0xf9,0x2c,0x7f,0xfd,0x42,0x71,0xff,0x64,0x76,0xfb,0xc4,0x7f,0x13,0xac,0x7f,0x1e,0xac,0x6e,0x02,0x79,0x23,0xfe,0x7f,0x1a,0xf0,0x7e,0xf2,0x05,0xd8,0x56,0xfa,0xac,0x66,0xdc,0xce,0x7f,0x26,0x7f,0x64,0x48,0x73,0x5f,0x53,0x74,0x36,0xe6,0x56,0x03,0xf3,0x76,0x11,0xf7,0x7f,0x15,0xc4,0xdd,0x81,0xa4,0xd4,0x88,0xa6,0xbf,0x89,0xe3,0x98,0xca,0xdd,0x81,0x8e,0xca,0xc4,0xe3,0xfb,0xdc,0x7f,0xd0,0x36,0x5d,0xeb,0x2d,0x1a,0x91,0x97,0x25,0x92,0xcd,0x62,0x81,0x25,0x7c,0x02,0xc8,0x66,0x1d,0xee,0x7f,0x06,0x09,0x5c,0xfd,0xc0,0x7f,0x24,0xaa,0x59,0x1c,0xae,0x64,0xbd,0x77,0x2a,0xd7,0x70,0x49,0xba,0x7f,0x63,0x4d,0xe4,0x6a,0x55,0xfc,0x6d,0x4a,0xe7,0x7f,0xf5,0xb2,0x77,0xf1,0xb4,0x7f,0xe3,0x9c,0x6d,0x2c,0x3b,0x81,0x08,0xf7,0x99,0x34,0x54,0x94,0x00,0x7e,0x69,0xee,0x7f,0x6f,0xbf,0x4d,0x4a,0xfe,0xb4,0x8d,0x07,0xaa,0x81,0xef,0xc2,0x84,0xb6,0x7f,0xdf,0xa6,0x52,0xcd,0x86,0x64,0xf8,0xe2,0x53,0x81,0xf6,0x43,0xa0,0xe3,0x2f,0xb2,0xe0,0x7f,0xeb,0xee,0x61,0x25,0xcb,0x4c,0x70,0x07,0xbc,0x81,0xd6,0xbf,0x84,0xc8,0xab,0xa2,0xc1,0x23,0x6d,0xc3,0x47,0x6b,0xdd,0x4b,0x7f,0x0e,0xb8,0x5d,0x11,0xcb,0x76,0x0f,0xe4,0x7f,0x85,0xfc,0x97,0x81,0xfc,0xc0,0x91,0xd7,0x8c,0x6f,0xa2,0x23,0x7e,0xc8,0xf1,0x7f,0xfe,0xe1,0xa4,0x74,0x7c,0x81,0x73,0x57,0x8c,0x5d,0x4e,0xf6,0xc1,0x8e,0xf4,0xb4,0x81,0x07,0xb6,0x91,0x91,0x21,0xb0,0x87,0x23,0xa7,0x81,0x22,0xb2,0xc0,0x42,0x7f,0xeb,0x52,0x74,0xd8,0x69,0x74,0xd8,0xa8,0x8e,0xf4,0xb6,0x9a,0xb6,0x81,0xc9,0xe3,0x9e,0xc0,0x19,0x02,0xff,0x1c,0x7f,0x1b,0x5c,0x8d,0xaf,0x2d,0x81,0xd0,0x54,0xa7,0xb5,0xf3,0x7f,0xb6,0xf4,0x79,0xae,0xd6,0x77,0x9d,0xe5,0x3f,0x7e,0xbd,0x28,0x7f,0xd6,0x6e,0x7a,0xd7,0xce,0xb0,0xd8,0xb5,0xf9,0xc9,0x81,0xf0,0xe1,0x87,0xfb,0xfe,0xa0,0xc4,0x3e,0x81,0xb4,0xba,0xc9,0xe3,0xc7,0xdc,0xa6,0xdb,0xee,0x81,0x1d,0x81,0x0e,0x5d,0xaf,0x01,0x6f,0xe1,0xf8,0xd9,0x7f,0xce,0xdb,0x67,0xc0,0xc3,0x75,0xd2,0x5d,0x81,0x45,0x49,0xa2,0x41,0x6b,0x9f,0x3c,0xba,0xb6,0x59,0xd3,0xc9,0x73,0xd0,0x18,0x7f,0x3a,0x71,0x38,0x3c,0x7f,0x2d,0x6c,0x5b,0x00,0xdd,0x1b,0x84,0xe2,0x1a,0x8e,0xdb,0x20,0x81,0xb7,0x7f,0x5a,0xa8,0x67,0x56,0x9a,0x5d,0x4f,0x5e,0x49,0xec,0x7f,0x14,0xad,0x73,0xe8,0x9e,0xf8,0x7a,0x75,0x37,0x7f,0x4d,0x6f,0x7e,0x0d,0x1b,0x74,0x81,0x2d,0x4c,0x81,0x24,0x11,0x91,0x3a,0xe0,0xff,0xff,0x04,0x00,0x00,0x00,0x00,0x01,0x00,0x00,0x0a,0x0d,0x00,0x00,0x2f,0x93,0xff,0xff,0xbf,0xf8,0xff,0xff,0xa2,0xa4,0xff,0xff,0x16,0xcf,0xff,0xff,0x02,0xb3,0xff,0xff,0x38,0xe6,0xfd,0xff,0x56,0xfa,0xff,0xff,0x34,0x5d,0xff,0xff,0x80,0x35,0xff,0xff,0x88,0xbc,0xff,0xff,0x26,0xdc,0xff,0xff,0x2f,0x93,0xff,0xff,0x6a,0x62,0x00,0x00,0xc3,0xfb,0xff,0xff,0x14,0xd0,0xff,0xff,0x51,0xd2,0xff,0xff,0x88,0xf8,0xff,0xff,0x47,0xb3,0xff,0xff,0x12,0x98,0xff,0xff,0xc8,0xee,0xff,0xff,0x2e,0xd5,0xff,0xff,0x19,0x18,0x00,0x00,0x49,0x27,0x00,0x00,0x97,0x1d,0x00,0x00,0x5e,0x45,0x00,0x00,0x51,0xca,0x01,0x00,0x4c,0x1f,0x00,0x00,0xef,0x84,0xff,0xff,0xd6,0xf8,0xff,0xff,0x58,0xdd,0xff,0xff,0x44,0x6c,0x00,0x00,0x63,0xc9,0xff,0xff,0xba,0x73,0xff,0xff,0xba,0xeb,0xff,0xff,0x9c,0xd1,0xff,0xff,0x69,0x3a,0x00,0x00,0xd6,0x2b,0x00,0x00,0xf4,0xf2,0xff,0xff,0x52,0xeb,0xff,0xff,0x02,0x04,0x00,0x00,0x6e,0xdc,0xff,0xff,0xec,0xca,0xff,0xff,0x5f,0x4a,0x00,0x00,0x73,0x2c,0x00,0x00,0x74,0x2b,0x00,0x00,0x2f,0x75,0xff,0xff,0xd5,0xb3,0x00,0x00,0x43,0x96,0xff,0xff,0x5d,0xbd,0xff,0xff,0xa0,0x38,0x00,0x00,0x67,0x29,0xff,0xff,0xf1,0xd1,0xff,0xff,0x8c,0x34,0x01,0x00,0x67,0xfb,0xff,0xff,0x25,0xbe,0xff,0xff,0x13,0xf1,0xff,0xff,0x58,0xd8,0xff,0xff,0x30,0x17,0x00,0x00,0x3b,0x19,0x00,0x00,0x51,0xb3,0xff,0xff,0xd7,0x18,0xff,0xff,0xf9,0xd2,0xff,0xff,0x84,0x76,0xff,0xff,0x46,0xe1,0xff,0xff,0x04,0x00,0x00,0x00,0x40,0x02,0x00,0x00,0x29,0x2b,0x6b,0x0a,0x9f,0xe0,0x98,0xfd,0x55,0x34,0x98,0xb4,0x46,0x26,0x24,0x9e,0x24,0x81,0x7f,0x2e,0x7f,0x42,0xcf,0x42,0xe2,0xbb,0x47,0xa6,0x1f,0x65,0x66,0x16,0x10,0xe4,0xee,0x32,0x0b,0x8d,0xab,0x45,0x00,0x69,0x05,0x0d,0xd3,0xdf,0xf0,0x0a,0x61,0xdf,0xc5,0x26,0x74,0x0d,0x23,0xeb,0x51,0xac,0x7a,0x25,0xf1,0x42,0x81,0x4e,0x55,0xea,0x46,0x28,0x04,0xf8,0xca,0x1f,0x5e,0x6f,0x4d,0x5b,0xf0,0x17,0xec,0xfd,0x2d,0x61,0xdf,0x45,0x41,0x0f,0x16,0x2f,0xb1,0x81,0x00,0x74,0xcc,0x69,0xe6,0x7f,0x3c,0x0a,0x77,0x86,0x18,0x01,0x3c,0x5e,0x70,0x2c,0x57,0xca,0x58,0x4b,0x7e,0x64,0x64,0x7f,0x23,0x61,0x32,0x41,0x7f,0x60,0x7f,0xec,0x3b,0x02,0x77,0x31,0x18,0xef,0xf4,0x71,0x02,0x04,0x7b,0x7f,0xbb,0x46,0x02,0x21,0x6b,0x7f,0x6f,0x34,0x81,0x35,0xb6,0xfe,0x06,0xd4,0x0b,0xae,0x62,0xc8,0xde,0xf4,0x89,0xdc,0x94,0x79,0x81,0xf6,0x81,0x7f,0x12,0x23,0x8f,0x7f,0x56,0xda,0x2e,0xef,0xcf,0x81,0x9c,0x73,0x77,0x42,0xe7,0x2a,0x7f,0x27,0xa6,0x8b,0xee,0x48,0x90,0x79,0x0c,0x9c,0xfa,0x30,0x43,0x54,0x33,0x1c,0x61,0xe4,0xbb,0xd8,0x96,0x54,0x53,0x68,0xca,0xab,0x35,0xf9,0x1f,0x8c,0x2d,0x83,0x67,0x38,0x71,0x44,0xd4,0x1c,0x13,0xca,0x37,0x81,0x22,0x70,0x51,0xee,0xfa,0xca,0x21,0x29,0x1b,0x9f,0xdb,0x3e,0xee,0x7f,0xeb,0x18,0xb8,0xce,0x02,0x10,0x7f,0xd8,0xd1,0x2e,0x7f,0x17,0xf1,0xe5,0x43,0xe9,0x7f,0x08,0xf7,0x7d,0xa6,0x56,0x7f,0x16,0x3b,0x6f,0xfc,0xee,0xd2,0x7f,0x4e,0x5e,0x6a,0x14,0xfa,0x7f,0xdf,0xf7,0x1c,0x7a,0xb6,0x61,0x41,0xfb,0x27,0x16,0xa9,0x0c,0xf2,0x58,0xd9,0x75,0x0b,0x5b,0x3e,0x08,0x7f,0xa9,0x14,0x11,0x31,0x7f,0x7f,0x4a,0x5d,0xf3,0x7e,0x5b,0x7f,0x6d,0x5e,0x7c,0x4d,0x7f,0x49,0x26,0x6a,0x78,0x65,0x0f,0x4c,0x0f,0x66,0x5c,0x33,0xf1,0x1a,0x71,0x02,0x21,0x7f,0x50,0x97,0x2a,0x0b,0x28,0x7f,0x53,0x7f,0x47,0x8a,0x2e,0x97,0xf5,0xc9,0x94,0x1d,0xb7,0x72,0x81,0xbb,0x2d,0x81,0xd9,0x81,0x7f,0xd3,0x0c,0xaa,0x5f,0x2e,0x1d,0x9c,0x72,0x72,0xe6,0x14,0x0f,0xe8,0xcf,0xb6,0x7f,0x3d,0x5c,0x14,0x1c,0x6a,0xfd,0xd4,0x84,0xfd,0x68,0x8e,0x65,0xfa,0x95,0x2c,0x2d,0x42,0x71,0x14,0x1f,0x7f,0x15,0xaf,0x0d,0x95,0x00,0x7f,0x7f,0x04,0x8a,0x3a,0x6b,0x14,0x81,0x1e,0x8d,0x6e,0x60,0x51,0x5d,0xf3,0x09,0x81,0x13,0x37,0x95,0x1c,0x5f,0x24,0xdf,0xee,0xc2,0xef,0x26,0x12,0x89,0xb3,0x60,0x16,0x66,0xf2,0x39,0xb1,0xc6,0x04,0x10,0x61,0xdc,0xfd,0x35,0x79,0x12,0xe6,0xff,0x4e,0xe6,0x79,0x21,0xf5,0x7f,0xde,0x40,0x62,0x13,0x18,0x7f,0x0c,0xf6,0xa5,0x6d,0x62,0x7b,0x71,0x2d,0x1e,0x4b,0xde,0xee,0x1f,0x62,0x94,0x7f,0x63,0x12,0x3a,0xd7,0x09,0x72,0xdb,0x67,0xc9,0x65,0x21,0x57,0x4e,0x23,0x5e,0x81,0x24,0xfa,0x4c,0x67,0x74,0x49,0x7f,0x34,0x7f,0x4f,0x4c,0x7f,0x5a,0x69,0x72,0x63,0x70,0x53,0x4f,0x7f,0x5f,0x2a,0x43,0xf1,0x7f,0x65,0x52,0xe3,0x24,0x7f,0xed,0x12,0x7f,0x7b,0x81,0x41,0x06,0x03,0x6d,0x73,0x51,0x1b,0x8a,0x28,0x81,0xdc,0x20,0xa6,0x1e,0x81,0x7f,0x8f,0x1f,0x49,0x9d,0xcd,0x95,0x7e,0x8b,0xfb,0xb1,0x7a,0x30,0x38,0x81,0x67,0x7f,0xd9,0x31,0x1b,0x1a,0x16,0xba,0x7c,0x67,0x34,0x06,0x39,0x3b,0xc8,0x09,0x81,0x0f,0x5e,0xc7,0x7f,0x12,0x81,0x20,0x4a,0x6d,0x7f,0x92,0xe3,0xff,0xff,0x04,0x00,0x00,0x00,0x00,0x01,0x00,0x00,0xaa,0x02,0x00,0x00,0xf0,0xe9,0xff,0xff,0x2b,0x05,0x00,0x00,0x0c,0xf5,0xff,0xff,0xf6,0xf4,0xff,0xff,0xa8,0xef,0xff,0xff,0x94,0x48,0x00,0x00,0xfb,0x03,0x00,0x00,0xa4,0xe8,0xff,0xff,0x09,0xd9,0xff,0xff,0x53,0xf3,0xff,0xff,0x27,0xf2,0xff,0xff,0x70,0xec,0xff,0xff,0xda,0x27,0x00,0x00,0xdb,0xff,0xff,0xff,0x43,0xf5,0xff,0xff,0x4d,0xf0,0xff,0xff,0xe9,0xf6,0xff,0xff,0x5c,0xdf,0xff,0xff,0x79,0xe3,0xff,0xff,0x6a,0xf9,0xff,0xff,0xb1,0xfa,0xff,0xff,0x68,0x05,0x00,0x00,0xd2,0x04,0x00,0x00,0x51,0xf9,0xff,0xff,0x6d,0xfb,0xff,0xff,0xce,0xfc,0xff,0xff,0x85,0xfd,0xff,0xff,0x38,0xff,0xff,0xff,0x78,0x04,0x00,0x00,0x5d,0xf1,0xff,0xff,0x09,0x24,0x00,0x00,0x5d,0xed,0xff,0xff,0x1a,0xe3,0xff,0xff,0xe3,0xfa,0xff,0xff,0xfc,0xf8,0xff,0xff,0x7b,0x01,0x00,0x00,0xb0,0xf7,0xff,0xff,0xe3,0xf8,0xff,0xff,0x58,0xfa,0xff,0xff,0x56,0xfe,0xff,0xff,0x46,0xf7,0xff,0xff,0x16,0xf1,0xff,0xff,0x31,0x07,0x00,0x00,0x1f,0x02,0x00,0x00,0x95,0x03,0x00,0x00,0x2b,0xe9,0xff,0xff,0xaa,0x21,0x00,0x00,0xeb,0xea,0xff,0xff,0x88,0xf0,0xff,0xff,0x85,0x0e,0x00,0x00,0x2c,0xcc,0xff,0xff,0xc7,0xf5,0xff,0xff,0xc4,0x01,0x00,0x00,0x74,0xfa,0xff,0xff,0xce,0xf0,0xff,0xff,0xf4,0xf8,0xff,0xff,0x36,0xf2,0xff,0xff,0x99,0xfe,0xff,0xff,0x72,0xfc,0xff,0xff,0xd8,0xeb,0xff,0xff,0xab,0xe0,0xff,0xff,0x0a,0xf1,0xff,0xff,0xca,0xe2,0xff,0xff,0x9e,0xe4,0xff,0xff,0x04,0x00,0x00,0x00,0x00,0x10,0x00,0x00,0x36,0x3f,0xcb,0x0c,0x24,0xd3,0x04,0x35,0xe7,0xd4,0xba,0x96,0x58,0x18,0xb4,0xeb,0x33,0x63,0xc2,0x34,0xbf,0x99,0xea,0xd3,0xed,0xc5,0x81,0x27,0xfd,0x2e,0x3c,0x36,0x5d,0xb7,0x47,0xcd,0xf0,0x91,0xd9,0x23,0x12,0x2e,0x04,0xcc,0xcc,0xbd,0x07,0x1c,0x8d,0x66,0xcc,0x02,0x02,0x0a,0xd6,0x72,0xc5,0xbc,0xe9,0xf7,0x33,0xe1,0x12,0xe1,0xf4,0x2e,0xf7,0x0f,0x1e,0xae,0xe9,0xe7,0x15,0x01,0xec,0x0b,0x03,0x0e,0xd3,0xd7,0xd1,0xc5,0xf2,0x1d,0x07,0x04,0xe9,0xf1,0x0b,0xca,0xf5,0xdb,0xf6,0x02,0x14,0xf8,0x46,0x81,0x26,0x9b,0x1a,0xa7,0x01,0xf1,0x0b,0xfc,0x1a,0x02,0xed,0x07,0xca,0xe2,0xe2,0x19,0x09,0x16,0x20,0x18,0x07,0x38,0xe1,0xa5,0x04,0xf8,0x30,0xe8,0x2f,0xe3,0x08,0x15,0xaf,0x25,0xba,0xf1,0xf3,0x2b,0xeb,0xfe,0xb2,0xd0,0x1e,0xfd,0xe4,0x2e,0x2a,0x14,0xf2,0x2a,0xdd,0xea,0x03,0x0d,0x0d,0xc1,0xe4,0xde,0xf9,0xfc,0x30,0xd5,0x27,0xec,0x0e,0x14,0x15,0x4c,0xb5,0xdf,0x2c,0xd9,0x1d,0x0b,0xd2,0x81,0x27,0xe6,0xc1,0x46,0xa7,0x1e,0xf3,0x37,0xee,0x49,0xd8,0xad,0xd7,0x0d,0x00,0x15,0xb2,0x2c,0xd7,0x02,0x20,0xd4,0xf2,0x2c,0x19,0x27,0xaa,0xcd,0xef,0xfb,0xc9,0x29,0xde,0xba,0x30,0x5b,0xed,0xfb,0x24,0x15,0x48,0x09,0xde,0x49,0x4e,0x61,0x1f,0xf6,0x00,0xe8,0x3c,0xc7,0x24,0xf4,0x1a,0xd9,0xd8,0x11,0x20,0x03,0xf8,0xbf,0x7f,0xb3,0x14,0x1e,0xf6,0xd8,0xad,0x27,0xf7,0xc5,0x04,0x1f,0x4c,0xc0,0x41,0x17,0xba,0xf8,0x1c,0xf5,0x01,0xd2,0x31,0x23,0xf6,0x13,0x86,0xf8,0x49,0x4d,0x0e,0xeb,0xfd,0x13,0xe3,0x22,0xe0,0xdd,0x31,0xcf,0x13,0x0b,0xe0,0xe3,0x04,0x04,0xa0,0xbd,0x38,0xaf,0xd8,0xcc,0x81,0x43,0xc1,0x13,0xf8,0x05,0x2d,0xea,0x13,0x02,0xc0,0xc8,0x04,0xfb,0x20,0xf7,0x3d,0xe2,0xd4,0x33,0x22,0xe0,0xe2,0xca,0xe8,0x1b,0xe3,0xfd,0x08,0x09,0xc9,0x2e,0x0e,0xef,0x03,0x04,0xba,0x2f,0xe6,0x08,0xe6,0x22,0xc7,0xf1,0xf5,0x01,0xf6,0x4d,0xfb,0x23,0xfe,0xf6,0xf1,0x0b,0xb0,0xf9,0xf2,0xcd,0xa5,0x22,0x15,0xeb,0x04,0xb0,0xe9,0x32,0xfc,0x0e,0x15,0x81,0xdf,0xfd,0x14,0xf7,0xec,0x19,0xb8,0xc6,0x30,0xf9,0x05,0xd4,0xc3,0x13,0x1b,0xea,0x2f,0xbf,0x3b,0xcd,0xf8,0xe2,0xd5,0xf1,0xe7,0x31,0xe9,0xf4,0x8c,0xd7,0x6f,0xeb,0x8c,0xfe,0xee,0xd8,0x98,0xad,0xef,0xd8,0x2c,0x4c,0x1e,0x47,0xe4,0x3d,0xf8,0x94,0x10,0xde,0xfa,0x8e,0x50,0x47,0x81,0x03,0x24,0xc1,0x21,0x12,0xeb,0xf5,0x9e,0xc7,0x97,0x2c,0xcc,0x9f,0x0e,0xed,0x99,0xe4,0x08,0xc2,0xd6,0x19,0xec,0xfc,0xb5,0xdf,0xd7,0x26,0x0c,0x9e,0xe9,0x2a,0x2a,0x16,0x60,0x2a,0x1b,0xee,0x0b,0x1e,0x37,0xc0,0xd7,0xcb,0x3c,0x00,0x00,0xba,0x11,0xd2,0x16,0xcd,0x36,0x2a,0x24,0xf2,0x1a,0x27,0xc3,0xcc,0xe9,0xe0,0x07,0x2f,0x07,0x10,0x08,0xde,0xbf,0x0b,0x0b,0xd8,0xeb,0xa1,0xaf,0xfa,0xf4,0x4c,0xea,0x04,0x0b,0xac,0x20,0xcf,0x4b,0xd6,0x81,0xc9,0x29,0xbb,0x37,0x0c,0x4b,0x98,0x22,0x08,0xe6,0x40,0x2a,0xdd,0xfb,0x27,0xab,0xe3,0x3c,0xeb,0xce,0xd7,0x16,0xeb,0xb7,0xa0,0x37,0x37,0xe1,0x00,0xfc,0x1f,0xea,0x47,0xbe,0xb8,0xd8,0x3c,0xe4,0x53,0xfd,0x55,0xcb,0x27,0x2e,0x0e,0x03,0xae,0xf3,0xe0,0x38,0x8b,0x9a,0x5d,0x12,0x32,0x2e,0x9e,0xda,0xee,0x99,0x07,0x06,0x7f,0xa9,0xf6,0xbd,0x1b,0x64,0x36,0x36,0xed,0xd6,0x29,0x03,0xfa,0xca,0x38,0xcf,0x22,0xd1,0xf3,0xff,0x07,0x81,0xe9,0x08,0xf3,0xc1,0xc1,0xe7,0xc7,0x0c,0x36,0x73,0x37,0x01,0x07,0x2d,0x09,0x1f,0xee,0x1d,0x15,0x12,0x10,0xff,0xbf,0xec,0xbc,0x22,0x17,0xf6,0x01,0xf8,0x0f,0xc7,0xf6,0xf1,0xf1,0xe9,0xc1,0x03,0xab,0x07,0xc7,0xf5,0x20,0x88,0x0d,0xf6,0x02,0xd9,0x0f,0xb1,0xff,0xf9,0xfb,0x14,0x2a,0x3f,0x43,0xe6,0x43,0x0d,0xf1,0xf9,0x29,0xb5,0xf8,0x5a,0x2f,0x05,0x15,0xf4,0xcd,0xbe,0x54,0x29,0x2d,0x14,0xcc,0x0e,0x0a,0xec,0x22,0xd5,0x34,0x97,0x09,0x2c,0xcf,0x26,0x9f,0xdc,0xf8,0xbf,0x25,0x0d,0x5d,0xff,0xe5,0x95,0x2e,0x81,0xb5,0x53,0x02,0x09,0xa5,0x08,0xef,0xf3,0x59,0xdc,0xe9,0x27,0xe7,0xe6,0x0d,0xf3,0xaf,0x94,0x1b,0x2e,0x39,0xf0,0xef,0x1a,0x18,0x81,0x16,0xb4,0x19,0x02,0xfd,0xdf,0xe2,0xe1,0x04,0xe8,0x0c,0x25,0x1a,0x07,0xf2,0x05,0x22,0xfa,0x0b,0x00,0xfc,0xdb,0xf2,0x14,0xe9,0xf9,0xf2,0x23,0xf4,0xe1,0x0e,0x0d,0xf0,0xed,0xc3,0xfd,0x11,0xdf,0xd6,0xe7,0xc6,0x07,0xdc,0x14,0xc8,0xd0,0xf8,0xfd,0x04,0x02,0xd4,0x03,0xe7,0xff,0xe7,0xea,0x22,0x53,0x12,0x1f,0x1a,0x18,0xf4,0xf7,0xc0,0x18,0x1f,0x81,0xd3,0xfc,0x0a,0x35,0x08,0xf2,0xb5,0xe2,0x33,0xe0,0xf0,0x00,0xe3,0x13,0x0b,0x00,0x25,0x1c,0x00,0x19,0xf9,0x19,0x21,0xc2,0x99,0x33,0x0a,0x05,0x37,0x22,0x22,0xfe,0xdd,0xbe,0x02,0xbf,0xf9,0xf4,0x1e,0xc1,0xe7,0xc6,0x12,0xdb,0xff,0x2c,0xee,0x4c,0x3b,0xec,0x1f,0xa6,0xce,0x40,0xfd,0xdf,0xfb,0x28,0xe4,0xd2,0xe6,0xb4,0xf0,0x1b,0xef,0x7f,0x68,0x33,0x10,0xd4,0xa7,0x3a,0xfc,0x0e,0xe2,0x13,0x2c,0x90,0x00,0xe3,0x6a,0xbb,0xbb,0x0a,0x0d,0xf0,0xd2,0xa3,0x09,0xe7,0xfa,0xfc,0xac,0x58,0x09,0xf1,0xf6,0xd8,0x04,0x49,0x29,0x0d,0xc2,0x3e,0xe5,0x3d,0x1d,0x1e,0xf4,0x07,0x12,0xf2,0x44,0x21,0x0a,0xdf,0x2e,0x3a,0xe0,0x0d,0xdf,0x20,0x28,0xb6,0xf7,0xa7,0x18,0x3b,0x4d,0x5b,0x2d,0x2a,0x11,0xd6,0x47,0xb9,0xe2,0x20,0xea,0x9c,0x34,0xab,0xfc,0x29,0x1d,0xae,0xce,0x42,0xae,0x09,0x0d,0xf7,0x5e,0xdc,0x32,0xf4,0xfc,0x57,0xe7,0xeb,0xea,0xb4,0x52,0x42,0x2b,0x10,0xf7,0x02,0x82,0x08,0x26,0x1b,0x0e,0x39,0x9c,0xe4,0x2e,0xf4,0xe8,0xd7,0x25,0x81,0xef,0xe3,0x07,0x38,0x0d,0xce,0x12,0xe8,0x0e,0xfa,0x29,0x38,0x2f,0x0f,0xdf,0xa6,0x38,0x12,0x0d,0x46,0xbf,0x0f,0x17,0x81,0x1b,0xf2,0x02,0xa2,0xf5,0x2b,0x12,0xda,0x15,0xf8,0x38,0xe1,0x42,0xe5,0xb1,0x24,0xfb,0x0a,0xf5,0xc4,0x4c,0x0f,0x4c,0x31,0xf9,0x37,0xc2,0x06,0x07,0x39,0xe0,0x23,0xdc,0xd4,0x39,0xfe,0xc1,0xe5,0xf5,0xc4,0x10,0xce,0xdb,0x12,0xef,0x26,0x1c,0x9b,0xe5,0x0d,0x24,0x13,0xbe,0x02,0xe1,0x5b,0xb3,0x39,0x0f,0x39,0xea,0x4b,0x2b,0x3c,0xef,0x1c,0x05,0x5a,0x02,0xe5,0xbb,0x08,0xb3,0x52,0x3d,0xcf,0x21,0x03,0xc4,0xcf,0x3c,0xf9,0xd4,0xd7,0x16,0x35,0x82,0x64,0x14,0x34,0x04,0x81,0x15,0xe7,0xc7,0xf2,0x30,0xe4,0xd2,0x3f,0x2a,0x2e,0x3d,0x51,0x55,0x0e,0xa4,0x97,0x4c,0x96,0xc9,0xd8,0xc0,0xc1,0xf9,0x5f,0x43,0xb4,0x1d,0xa0,0x8d,0x0e,0xed,0xc2,0xb2,0x16,0x8b,0xdc,0xec,0x96,0x16,0x06,0xed,0x44,0xd6,0x45,0xbf,0xe0,0x87,0x9b,0xbb,0xc4,0xc9,0xb1,0x1c,0x81,0x9b,0x6c,0x96,0x42,0x93,0xf8,0x6a,0x0d,0xfb,0x27,0x1a,0x5e,0xc7,0xe4,0x89,0xa6,0xda,0xe2,0xb6,0xc1,0xc2,0xe1,0xcf,0xf5,0x0b,0xf6,0xd5,0xe3,0xe9,0xf3,0xde,0x00,0xcc,0xea,0x09,0xf5,0xdb,0x1e,0xaf,0x1c,0x1b,0x03,0xd1,0x0f,0x29,0xe0,0xcf,0x10,0xa5,0x2c,0x33,0xf4,0x35,0xb5,0xde,0x19,0x81,0x14,0x18,0xf1,0xb4,0xe2,0x2c,0x04,0x41,0xf8,0x1d,0xd3,0xcb,0xac,0x0c,0xe5,0x0a,0xe0,0xd3,0x03,0x1b,0xfd,0x02,0x35,0x08,0x1d,0xe7,0xee,0x27,0xdf,0x08,0x13,0x19,0xe5,0x20,0xe9,0x05,0xeb,0xf3,0xba,0xd9,0x84,0xa6,0x11,0x0a,0xed,0x1b,0xff,0x17,0xed,0xf5,0xe8,0x1d,0xb4,0x0c,0x17,0x3a,0xc7,0xf6,0x15,0x1a,0x20,0xc8,0xfe,0x0e,0x04,0xea,0x12,0xc4,0x81,0xe2,0x2b,0x2e,0x12,0x0f,0xe5,0xc8,0xea,0xe8,0xb5,0xf6,0xa6,0x21,0x3b,0x10,0x26,0xfe,0x43,0xf2,0x08,0xf2,0x10,0xe7,0x05,0x06,0xee,0x4c,0xc6,0xd9,0xd6,0x06,0x22,0xf8,0x8c,0xd0,0xfd,0xd6,0x01,0xe9,0x21,0x05,0x81,0xc8,0xd0,0x27,0xb8,0x19,0x15,0xfe,0x00,0xa7,0xbb,0xc9,0x00,0xd7,0x22,0x2c,0x09,0xeb,0x08,0xdb,0x22,0x10,0xdc,0xad,0x41,0xbd,0x13,0x0f,0xb1,0x88,0x17,0x15,0xd6,0x3d,0xf7,0x12,0xd3,0x27,0xbd,0xeb,0x01,0x12,0xe7,0x41,0x16,0xc1,0xc4,0x07,0x07,0xec,0x12,0x08,0x40,0x0b,0x0e,0xed,0x9f,0xa4,0x13,0x06,0xf9,0x0b,0x0b,0x0b,0x13,0x13,0x0e,0x1f,0xe0,0xe1,0xaf,0x00,0xfb,0x81,0x1d,0x1d,0x00,0xfa,0xf9,0x0d,0xd8,0xc4,0x04,0x2b,0xef,0xe5,0x1f,0x38,0x1c,0xda,0x05,0xe6,0x0c,0x0a,0xf4,0x1f,0xe0,0x2f,0x0c,0x0d,0xec,0x0b,0xd2,0x1a,0x0c,0xf6,0xf4,0x1b,0x25,0xd8,0x22,0xef,0x1a,0x3b,0xec,0xf3,0x1b,0xf4,0xae,0xda,0x4e,0x40,0x00,0xf4,0x17,0x13,0x23,0xde,0xf3,0x1c,0xfd,0x05,0xdd,0x4e,0xa9,0xdb,0xee,0xc0,0x1b,0xdb,0x18,0x19,0xc9,0x09,0x24,0xd1,0xee,0x15,0x00,0x81,0xf9,0x26,0xf5,0x50,0x1f,0xb4,0xf7,0x0c,0xaf,0xc4,0x28,0xf9,0xe2,0xda,0xf8,0x23,0x51,0x23,0x18,0xf3,0xf7,0x01,0x1a,0x32,0xdc,0xcc,0x15,0xea,0xf4,0xff,0x35,0x32,0xa8,0xdf,0x12,0x1d,0x12,0xd1,0x04,0xe6,0x36,0x6c,0x0b,0x2f,0x14,0x23,0xe3,0x97,0x1b,0x21,0x08,0x70,0x57,0x0a,0x88,0xdb,0x1f,0xb3,0x0c,0xf4,0x21,0xfa,0xce,0xc0,0x9c,0x33,0x2e,0xf5,0x44,0xbc,0x81,0x94,0xf2,0xee,0x32,0x3f,0xe4,0x22,0x22,0xfb,0x0a,0x05,0x0f,0x14,0xf1,0x01,0x46,0xf2,0x00,0x6f,0x0b,0x33,0x11,0x20,0xea,0x19,0xde,0x0f,0xd4,0xda,0x42,0x32,0x04,0x15,0xc1,0x35,0x25,0xf8,0xfd,0x00,0x08,0x21,0xbb,0x1d,0xf9,0x2b,0x81,0x0e,0x1d,0x0a,0x03,0xe0,0xf5,0x08,0xe6,0x22,0xee,0xb7,0x31,0xf2,0xf1,0xdf,0xdb,0xe8,0x0b,0x28,0xff,0x09,0xdf,0xeb,0x21,0xf4,0xd1,0xf1,0xeb,0xca,0xf3,0x59,0x07,0xd5,0xbe,0x09,0x38,0x08,0x34,0x5d,0xdc,0xf9,0x20,0x32,0xb9,0x35,0xdb,0xcf,0x08,0x61,0x41,0x21,0x91,0x4b,0x45,0xea,0x3b,0x03,0x91,0x19,0xaa,0x00,0xe0,0x98,0x81,0xc8,0x46,0xda,0x39,0xc2,0x29,0xf7,0x2c,0x1e,0x23,0xb1,0x53,0x9b,0xe2,0xf2,0xe7,0x14,0xc6,0x64,0xc6,0xdf,0x22,0xfc,0x16,0x3c,0x3a,0x2d,0x39,0x06,0xd6,0x7d,0xd7,0xb5,0xfa,0x0c,0xae,0x08,0xd2,0xce,0xca,0xb5,0x3c,0xcd,0x9c,0xdf,0x40,0xe3,0x1c,0xe1,0x1f,0xf2,0x23,0x26,0x50,0x16,0x0f,0x5d,0xf3,0x94,0xe2,0xe6,0xfb,0x3c,0x5d,0x34,0x81,0xe7,0x1a,0xe9,0x2b,0xbe,0x13,0x1f,0xc1,0xbc,0xea,0x1d,0xc3,0x05,0xd5,0xa2,0x8f,0xf6,0x06,0xfb,0x1d,0xe9,0xf5,0x0e,0xb6,0xef,0x2a,0x0e,0xf1,0x2c,0xef,0x16,0x2a,0x2d,0x46,0x58,0x07,0xef,0xd0,0xea,0x0e,0x17,0xe8,0xf6,0x04,0x19,0xc5,0xa0,0xeb,0xf9,0x82,0x39,0x42,0xfe,0x07,0x11,0xfb,0x23,0xec,0xeb,0x07,0xd4,0x44,0x15,0xfc,0x02,0x07,0xd9,0x15,0x01,0x0a,0x34,0x05,0xf1,0xbe,0x13,0xed,0xf5,0x04,0xa3,0xe2,0xce,0x08,0xd3,0x0f,0x25,0xce,0xfe,0xc8,0xb3,0xf6,0x1e,0x05,0xeb,0x10,0x81,0x0c,0x23,0x20,0x20,0x22,0xf0,0x2a,0x06,0x41,0xd7,0xc3,0x15,0xe6,0x2b,0xe9,0xc0,0xee,0xd2,0x23,0x3a,0xf7,0x52,0x03,0x14,0x17,0x00,0x2b,0xd3,0xeb,0xd0,0x44,0x5a,0x81,0xed,0xde,0xed,0xf0,0xc4,0x10,0x07,0x98,0xca,0x98,0x41,0x2e,0x0a,0x1c,0x25,0x1c,0xa5,0x0f,0x28,0x16,0x26,0xef,0xfe,0x49,0xd9,0x2f,0x44,0xee,0xcb,0xd3,0x27,0x3c,0xe0,0xfb,0x3f,0x06,0xd4,0xf4,0xee,0xc4,0x3f,0x3d,0x0b,0x04,0xc5,0xf2,0xf9,0xd6,0x36,0xa5,0x43,0x24,0x0f,0x09,0x1a,0x2b,0x22,0xab,0x01,0xeb,0xf0,0x92,0xf4,0x2d,0x01,0xf2,0x0e,0x08,0x04,0xf1,0x56,0x2c,0xbc,0xf9,0xeb,0xcc,0x19,0xad,0x8a,0x5a,0xed,0xf7,0x35,0x00,0xe2,0xe5,0x1a,0xd9,0xc7,0x33,0xf4,0x2c,0xf7,0x2f,0xaa,0x81,0xf7,0xeb,0x32,0xe8,0x89,0x10,0xf9,0x74,0xe1,0x36,0x42,0xa4,0xf1,0x1b,0x37,0x05,0x36,0x56,0xd8,0x81,0xee,0xf5,0xf1,0xb9,0x04,0x44,0xdd,0xe4,0x0a,0x48,0x24,0xe0,0x0d,0x3b,0x0b,0x40,0x36,0xeb,0x26,0x05,0x4c,0x04,0x69,0xf5,0x07,0x18,0xb9,0x33,0xe8,0xac,0x27,0xf2,0xbb,0xe8,0xd0,0xba,0xc7,0x73,0x0a,0xf9,0x1b,0x86,0x24,0x10,0xc7,0x6e,0xcd,0x1d,0x28,0x49,0x01,0xea,0x33,0xda,0xf7,0x6e,0x52,0x5f,0x5b,0x11,0x0c,0xb4,0xea,0x15,0x1a,0x5a,0xbc,0xcf,0x67,0x97,0xe3,0xe0,0x9b,0xb5,0x19,0x16,0x02,0xc4,0x1d,0xef,0xda,0xec,0x39,0x3f,0xc4,0x36,0xd4,0x14,0x7f,0x2b,0xc2,0x33,0x10,0x36,0xf7,0x5c,0xbe,0xf8,0xf3,0x66,0xf4,0x60,0xd5,0x18,0x34,0xdf,0xa9,0x04,0x34,0xc4,0xc9,0x1f,0x01,0xdb,0x0f,0x02,0xcc,0xeb,0x17,0xbe,0x81,0xea,0x0a,0x00,0xf0,0xe6,0x0a,0xf3,0xd8,0x0c,0x2b,0xfa,0xdf,0xb2,0x18,0xc8,0xa0,0xc9,0x1b,0x11,0x30,0x20,0xf6,0x03,0xd4,0x06,0x0c,0x07,0xa4,0x02,0xfd,0x1b,0x2f,0x69,0x02,0xca,0x29,0xc3,0x14,0xd3,0x2c,0xf8,0x11,0x05,0x31,0xf4,0x54,0x11,0x11,0xe7,0x10,0x22,0xba,0x0a,0xf2,0x30,0xed,0x2a,0x31,0xcb,0x06,0xd7,0x27,0x18,0x34,0x2f,0x1a,0xf7,0xe7,0xaf,0xfe,0xf5,0xdd,0x29,0xc8,0x0e,0x32,0xd0,0xf7,0x11,0x7f,0x90,0xf0,0x42,0xd2,0xd5,0x0c,0xd5,0xf7,0xe0,0x18,0x25,0xe1,0x16,0xf0,0x0d,0x26,0xbc,0xa1,0xe8,0x0c,0x19,0xda,0x2d,0xdd,0x1b,0x34,0x26,0xb5,0xfd,0xe6,0x17,0x32,0x10,0xdd,0xd9,0x2e,0xf5,0x0d,0xee,0xcf,0x28,0x25,0x3d,0xf2,0xf1,0x1b,0x9e,0x09,0xac,0xfb,0xdf,0x17,0x17,0x3c,0xe0,0x7f,0xcb,0x08,0xdd,0x08,0x4f,0x38,0x26,0x2a,0x66,0x5d,0xcd,0x03,0x05,0x21,0xed,0x15,0x01,0x23,0xfa,0x02,0xc0,0x21,0xe9,0x93,0x1a,0x04,0x26,0x9d,0xe6,0x0c,0x00,0x11,0xc1,0x19,0xe3,0x0a,0x15,0x2a,0x28,0x0b,0xd7,0x40,0xf9,0x8f,0x39,0xf1,0x17,0x22,0x1d,0x2e,0xdf,0x13,0xe1,0x13,0x0c,0x21,0x1f,0x0c,0x00,0x01,0x17,0x81,0xd5,0xfd,0xed,0x06,0x08,0xeb,0xe2,0xfe,0x19,0x07,0xeb,0xff,0xfb,0xe7,0xf9,0xf8,0xe0,0x03,0x0b,0x06,0xf4,0x10,0x08,0xf0,0xff,0xeb,0x10,0x1b,0x2b,0x09,0x25,0x0b,0x05,0xf7,0xfb,0x1d,0x2c,0x15,0x0a,0xdc,0x05,0x1c,0x07,0xff,0x17,0x12,0xf1,0xfa,0xf2,0xf8,0xe9,0x12,0x5e,0xfe,0xca,0x14,0x38,0x0b,0xd0,0xc2,0x30,0x1d,0x34,0x36,0xcb,0x50,0xee,0xf7,0xd6,0xa6,0x16,0xde,0xfe,0xd3,0x2d,0x1b,0xaf,0x2c,0x1d,0xd2,0x16,0xdb,0x28,0xdf,0xfc,0xa4,0x92,0x04,0x25,0x18,0x3f,0xd2,0x81,0xa3,0xf0,0xec,0x09,0x39,0xde,0xdb,0x19,0xe9,0x24,0x3b,0x2b,0x14,0xd4,0x13,0x33,0x2e,0x21,0x38,0xb1,0x08,0x3d,0x2e,0xcd,0xa5,0xe4,0xd4,0x3e,0x1a,0x2f,0xd6,0xed,0xed,0xe2,0xf5,0x67,0xd0,0xef,0xf9,0x14,0xf5,0xca,0xc3,0xdf,0x29,0x65,0xe6,0xac,0xf6,0xd0,0xae,0x12,0x98,0x00,0xc7,0xef,0x81,0xeb,0x25,0xfe,0x43,0x12,0x25,0x07,0xde,0xd6,0x06,0x2c,0xf8,0xd7,0xe5,0x37,0x87,0xe9,0x12,0x1b,0x19,0x23,0xa3,0xf1,0x4b,0x2a,0x32,0xd6,0x1f,0xb4,0xd0,0x57,0x24,0x81,0xc4,0x21,0xf5,0xda,0xd0,0x13,0xf0,0x06,0x51,0x1c,0x43,0x2f,0x15,0x2d,0xd3,0x5e,0x11,0xe6,0xc1,0x73,0x2c,0xf4,0x06,0xdf,0xaa,0xd3,0x63,0x19,0x05,0xab,0x54,0xe6,0x20,0xb8,0x23,0x16,0x03,0x0f,0xfb,0x24,0xd8,0x01,0xfe,0xcc,0xdb,0xcf,0xd5,0x0e,0xed,0x1b,0xc5,0x06,0x3d,0x0d,0x04,0xd6,0x33,0xe7,0x19,0xc1,0xa5,0x09,0x2a,0xec,0x10,0x46,0x08,0x3e,0xf4,0xfd,0xfe,0xa9,0x48,0xda,0xde,0x3a,0x04,0x18,0x0b,0xe7,0x2a,0x38,0x0f,0x27,0x38,0x4b,0x00,0xe0,0xe0,0x07,0x11,0xed,0x00,0x40,0x7f,0x46,0x3a,0xeb,0x3b,0x09,0xf9,0x2c,0xf5,0xb3,0x28,0x0d,0xe9,0x12,0xee,0xbe,0x9a,0x2d,0x2a,0x4d,0x44,0x52,0xd5,0xdd,0x32,0xae,0x43,0x1f,0x27,0x2b,0x19,0xf9,0xf5,0xfb,0x20,0x25,0xf8,0xf6,0x15,0x29,0xe8,0xe4,0xec,0x18,0xb6,0x12,0xe6,0xe6,0x0f,0xeb,0xed,0x0b,0xbf,0x9b,0xbf,0x0f,0xeb,0xf4,0xfc,0x7f,0x03,0xff,0xd4,0x35,0x02,0x1e,0xae,0x02,0x13,0x44,0x12,0x8b,0xfd,0x0f,0x10,0x13,0x01,0x11,0xf1,0x3d,0xff,0x19,0x24,0xf9,0x09,0xd8,0xe6,0x35,0x14,0xfc,0xfb,0xe8,0xad,0x2d,0x17,0x4f,0xec,0xc7,0xe7,0xee,0xd8,0x48,0xad,0xbb,0xfa,0x4c,0x1e,0x0a,0x55,0x33,0x26,0x0f,0xbf,0x5b,0x34,0x3a,0x2b,0x62,0x5b,0x95,0x09,0x27,0xba,0xf5,0xf1,0xfb,0x18,0xc8,0x81,0xd1,0x39,0x28,0x37,0x15,0xa9,0x3a,0x97,0x1e,0xfd,0x53,0xf0,0xa6,0xfb,0x2a,0xc9,0xf1,0xca,0x38,0xff,0x2d,0x35,0x01,0x2f,0x59,0x3c,0x1d,0x1a,0xf1,0x18,0x7f,0x21,0xd8,0x31,0xb2,0xef,0xe6,0xee,0xdd,0x31,0xf7,0xa9,0xed,0x28,0x10,0xe8,0xe8,0xbc,0x50,0x1e,0xf0,0x35,0x33,0xf8,0xdc,0xc3,0x34,0x1a,0xb8,0x19,0x31,0x23,0xe4,0x13,0x22,0x2c,0x04,0x13,0x02,0xab,0xf8,0x2b,0x36,0xdb,0xf0,0x0e,0x00,0x1b,0xe7,0x20,0x03,0xe0,0xe4,0x31,0xa7,0xdc,0x09,0xc9,0x30,0xf1,0x1b,0x34,0xef,0x16,0x13,0x13,0x91,0xf7,0x27,0x12,0x01,0x13,0x0c,0xfc,0xf4,0xe5,0x2a,0x25,0x29,0xf7,0x36,0x10,0x21,0xe7,0x23,0x78,0xef,0x08,0x17,0xd8,0xf4,0xe8,0xf8,0xf4,0xec,0xfc,0x0f,0x1e,0x1c,0xe0,0xe3,0x0a,0xc1,0x81,0x1f,0x12,0x17,0xf5,0x03,0x0b,0xde,0x15,0xe9,0xf0,0xeb,0xf0,0x0e,0x2e,0x10,0xdd,0xd2,0x2f,0x01,0x1a,0xf0,0x12,0xfe,0xec,0x64,0xe5,0xc3,0xd4,0x54,0x40,0xd7,0xa0,0x27,0x07,0xd6,0x28,0x0d,0x5a,0xd9,0x2c,0xde,0xd4,0xfb,0xe5,0xdb,0xee,0x31,0x47,0xa0,0x1e,0x1d,0xab,0x7e,0xc7,0x3a,0xbb,0xe4,0x82,0x90,0x1d,0x21,0x14,0x74,0x0e,0xec,0x81,0xe9,0xc6,0xf9,0x30,0x97,0xf3,0x33,0x2f,0x48,0x2a,0x31,0xf1,0xbb,0xfb,0x72,0x03,0xdd,0x30,0x01,0x19,0x25,0x17,0xaf,0x3b,0x16,0x0d,0xdb,0x1c,0xd5,0xce,0x1a,0x06,0xc0,0x37,0x95,0x9d,0x01,0x2d,0xd0,0xd8,0x3f,0x01,0x04,0xa7,0xfa,0xca,0xe5,0xd6,0x2d,0x16,0x7f,0x0c,0x26,0xa4,0x2f,0x48,0xb4,0x9c,0x2d,0xdb,0x30,0x0a,0xd4,0x86,0x01,0x17,0x14,0x23,0xe1,0x06,0x0c,0x10,0x48,0x19,0xca,0xbf,0xc2,0xf6,0x32,0xce,0x82,0x01,0x06,0x34,0xc2,0x0c,0x0c,0xe2,0xfd,0xcf,0x1d,0x06,0xd1,0xf3,0x60,0xf1,0x8b,0xe2,0xbb,0xe0,0x12,0x08,0xc7,0x0b,0x81,0x0a,0x0e,0xb2,0xa3,0x25,0xe4,0x38,0x0d,0xf7,0x4d,0xc7,0x48,0xae,0x14,0xc9,0x09,0x06,0x3f,0x12,0x35,0x0c,0x9b,0xf8,0xb7,0xe0,0xe6,0x6b,0xeb,0xff,0x0e,0x3d,0x48,0x31,0x24,0x0f,0xfd,0x00,0x67,0x16,0xdf,0xcb,0x2f,0x4a,0xef,0x33,0xad,0x20,0xd4,0xfa,0xe0,0xe6,0xb2,0xb5,0x35,0x26,0xe7,0x57,0x43,0x26,0x06,0x0b,0xe0,0x0a,0xbe,0x25,0xff,0x97,0xd1,0x02,0x09,0xce,0x1b,0xf5,0x2c,0xcb,0x26,0xf8,0x22,0xdc,0x91,0xad,0x43,0xe2,0x4e,0x0f,0xbb,0x87,0xf5,0xeb,0xb2,0x4d,0xb2,0x1c,0x3f,0x07,0x81,0x34,0xd8,0xef,0x24,0x18,0x28,0x16,0xcd,0x49,0x09,0x09,0x27,0x0a,0x0d,0xee,0xfc,0x08,0x0a,0x0e,0x0d,0xf3,0x12,0xf8,0xef,0x05,0xf6,0xe8,0xf4,0x04,0x1b,0x10,0xf3,0x09,0xfa,0x81,0x0d,0x1b,0x05,0x15,0xed,0xf5,0x41,0xf9,0x28,0x0e,0xfa,0x01,0xea,0xeb,0x1d,0x09,0x0e,0xd7,0x28,0xbb,0x16,0xf8,0x07,0x05,0xd6,0xed,0x13,0x19,0x15,0xe4,0x5e,0x20,0x07,0xec,0x0c,0x05,0x18,0xe9,0xf6,0x63,0x05,0xe4,0xe3,0x3e,0xa1,0x2a,0xf7,0x1d,0x6e,0x1e,0xf0,0xce,0xe5,0x3c,0xf0,0x1d,0x3c,0xd0,0xb2,0x56,0x81,0xe1,0xe7,0x38,0xed,0x32,0x19,0xd2,0xba,0xe4,0x04,0x1b,0x1c,0x3c,0xf9,0x8a,0x57,0x13,0x0e,0xe1,0xe8,0xd6,0x4a,0x06,0x24,0xda,0x39,0xc8,0x40,0xf7,0x14,0xbb,0x36,0xe9,0x3b,0x5c,0xb7,0xa5,0xe2,0xf8,0x00,0x17,0xea,0x34,0xd3,0xf8,0x2d,0x36,0x81,0x0e,0xf7,0x0d,0x11,0x21,0xf8,0xc0,0x09,0x06,0x1d,0x25,0x3c,0xd9,0x0b,0x14,0x70,0xd1,0x02,0x44,0x4c,0x0c,0xef,0xda,0xef,0xd4,0x25,0x3e,0xd7,0x28,0xc6,0x58,0x02,0x35,0xcf,0xf6,0x1f,0xf2,0xf4,0xda,0xeb,0xb9,0x08,0x35,0x1d,0x0c,0xd5,0xc7,0x0f,0x25,0xf9,0xef,0x2e,0x50,0x05,0xfe,0xf5,0x41,0x10,0x57,0xdf,0xcf,0xfa,0xd5,0xdb,0xfd,0x24,0xd6,0x0a,0x1f,0x41,0xd4,0xd7,0xf7,0xf7,0x15,0x0f,0xdc,0xa6,0xfc,0xa1,0xf8,0x12,0xc3,0xdc,0x27,0x13,0x26,0xf1,0xc9,0x26,0xb0,0x31,0xf3,0x1f,0xd9,0x0f,0x06,0x39,0x42,0x37,0xd8,0xe0,0x2e,0x81,0x01,0xf1,0x38,0x03,0xce,0xec,0x21,0x2f,0x45,0x0d,0x2a,0xaa,0xfc,0x0e,0x28,0x9c,0xfe,0xed,0x0b,0x0f,0x2b,0x57,0x0a,0xc3,0xe3,0x2e,0x25,0x14,0xbd,0xe5,0xdf,0x52,0xe9,0xf6,0x45,0xfd,0xfd,0x2c,0x17,0x44,0x21,0xf2,0x5e,0x79,0x2a,0xf8,0xe2,0xdd,0xb4,0xfd,0x0c,0xdf,0x08,0xd7,0x07,0xa4,0x42,0xdf,0xe6,0xde,0xcd,0x14,0x81,0x09,0xf5,0xfd,0x0c,0x89,0xd5,0xf3,0x15,0xef,0xe8,0x22,0xa3,0x22,0x25,0x17,0x24,0x5b,0x41,0x26,0x39,0xc1,0xf5,0xec,0x06,0xed,0xec,0x4b,0xed,0xeb,0xf6,0x2b,0x0f,0x81,0x17,0x27,0xf8,0xf8,0x18,0xc0,0x09,0x8c,0x10,0xfb,0xa7,0xbd,0xda,0x01,0x14,0x15,0xdc,0x3d,0xc2,0x38,0xe3,0x3f,0xc3,0x06,0x18,0x14,0x21,0x54,0xd4,0x95,0x10,0xcc,0x05,0xe6,0x49,0xec,0x19,0xf1,0x36,0x36,0x40,0x0c,0xdb,0xdd,0xe8,0x3e,0x16,0xd0,0xf9,0x20,0xf4,0xd0,0x0f,0x57,0xa5,0x87,0xc6,0x11,0xd6,0xa6,0xe2,0x5f,0xc1,0xcd,0xd1,0xf3,0x35,0xe3,0x42,0xe3,0xba,0xca,0x34,0xd8,0x88,0x0d,0x19,0x9b,0x29,0x2b,0xa3,0x6c,0xdb,0x4d,0xe5,0xdf,0x81,0xaa,0x07,0x08,0xfa,0x30,0x05,0xa0,0x17,0x82,0xd4,0x8d,0x42,0xc6,0x36,0xed,0x17,0x15,0x4b,0xc8,0xd8,0x08,0xdf,0x63,0x25,0x00,0x1c,0xe7,0x24,0xa5,0x03,0x45,0xf6,0xbe,0xdd,0x55,0xf6,0xaf,0xd0,0x52,0xec,0x04,0x1e,0xeb,0x47,0x08,0x08,0xe1,0xdc,0xcd,0x13,0x1f,0x5c,0x42,0x36,0xc4,0x15,0x20,0xd5,0x30,0x9b,0x12,0xb9,0xf9,0x84,0xd8,0x38,0x0a,0x1f,0x1c,0x8d,0x94,0x81,0xbc,0xf8,0xcb,0x68,0xc3,0x0b,0xf4,0x2d,0x1e,0x5f,0x1d,0xea,0x07,0x3d,0x26,0x2e,0x08,0x42,0x1a,0x1c,0x25,0x0d,0xe6,0x0b,0x97,0x14,0x33,0x1d,0x37,0xfc,0xfc,0xf3,0xeb,0x3f,0x24,0xdb,0x01,0x11,0xbf,0x30,0x00,0x22,0xea,0xe3,0x81,0xcf,0x1e,0xf9,0x06,0xca,0x23,0x0e,0xdb,0x11,0x1c,0xf6,0xf7,0xba,0x11,0xf8,0x1a,0xbe,0xa3,0xdd,0xf6,0xcf,0x27,0x22,0xed,0x21,0x21,0x13,0xff,0x22,0xa4,0x24,0xf0,0xe5,0xfd,0xf3,0x9d,0x15,0xb4,0xd7,0x20,0x01,0xfc,0xcb,0xd7,0xcd,0xf9,0x0e,0x2c,0xd0,0x03,0xf6,0x81,0x22,0x1c,0xc7,0xe8,0xf6,0x1f,0xe0,0xd1,0xad,0x06,0xfd,0x4b,0x17,0xd1,0x06,0xc8,0x08,0x14,0xaf,0x0a,0x10,0xf0,0xdc,0x04,0x08,0x1b,0x22,0x22,0x38,0x3d,0xe1,0xe8,0x0a,0x06,0xea,0xf1,0xbe,0x0f,0xc0,0x08,0x1a,0x1a,0x18,0x01,0xbd,0x31,0x1f,0xf3,0x3c,0x00,0xe4,0xde,0xf2,0x81,0x34,0xfc,0x28,0x02,0x23,0xab,0xfa,0xf7,0xd7,0xd5,0xf6,0x52,0x24,0x2c,0xf3,0x65,0x33,0x3e,0xe6,0xe8,0x83,0x94,0xf9,0x1f,0x08,0xe4,0xd9,0x3a,0x1f,0xd9,0x2d,0x4b,0x25,0xb0,0xdd,0xf0,0x0d,0x8c,0xe3,0x76,0xe0,0x2d,0xd2,0x04,0xc2,0xcc,0x3e,0xd4,0xd2,0x33,0xc2,0x0c,0xe7,0x43,0xb0,0x84,0x24,0x25,0x3b,0xe3,0x17,0xe9,0xfc,0xdb,0xe6,0x81,0xf8,0x35,0x24,0x1e,0x0b,0x0c,0xea,0x12,0x28,0x1f,0xf5,0x08,0x0a,0xf0,0x17,0xfd,0xf0,0x00,0x2e,0x08,0xe9,0x02,0xba,0x0d,0xe7,0xf9,0x09,0xe2,0x17,0xfd,0x10,0x11,0xe8,0xe6,0xe7,0xef,0xd8,0xea,0x00,0xf6,0xe3,0xff,0x0c,0xeb,0xec,0x04,0x03,0xfb,0x09,0xe2,0x2b,0xfa,0xef,0xf9,0x14,0x0f,0x10,0x36,0xd0,0xf9,0x00,0x7b,0x16,0x0b,0x27,0xa1,0xee,0x22,0x02,0xf3,0x04,0x3f,0xd5,0x93,0x2e,0x19,0x12,0xf2,0xfd,0x2c,0x13,0x0f,0xfe,0xf5,0xfd,0x21,0x15,0x40,0x11,0x89,0x59,0x0d,0x18,0xdf,0x3c,0x1d,0x0c,0x05,0xac,0xaf,0x1f,0x72,0x0f,0xdf,0xd9,0x30,0xc2,0x26,0xef,0x22,0x2f,0x1c,0xbe,0xd0,0x04,0xa4,0x09,0xd6,0x81,0x38,0xa7,0x22,0x1c,0xec,0xf1,0xdc,0xca,0xf4,0x3c,0xe9,0xd8,0x1f,0xfb,0xf4,0x28,0xe1,0xe4,0xf7,0x42,0x14,0xed,0x17,0x11,0xfd,0xe4,0xe6,0x79,0x2b,0x16,0x1b,0x08,0xec,0x12,0xc6,0x0b,0x12,0x10,0xf6,0x1b,0x27,0x17,0x20,0x01,0xe5,0x38,0x7f,0x02,0x22,0xec,0x08,0xbf,0x1f,0xf2,0x30,0xf8,0x1b,0xd0,0x0c,0x22,0x38,0xf5,0xe4,0xeb,0x0d,0xd7,0x13,0xe7,0xf3,0x17,0xe4,0x26,0xe0,0x12,0x39,0x1f,0x2f,0x0b,0x0e,0x0c,0xcb,0x14,0x7f,0xec,0xfe,0x0c,0xd9,0x2c,0xdd,0x21,0xec,0xc5,0xaf,0xec,0x00,0xd5,0x21,0xf8,0x1e,0x0b,0x32,0xff,0x05,0xe9,0xec,0xc1,0x03,0xfe,0xfa,0xf6,0x06,0x0e,0x0d,0x1b,0x1c,0xfe,0xfe,0x1d,0x1a,0x1b,0xfb,0xd5,0x0d,0xe2,0xfd,0xae,0xfb,0x2a,0x0d,0x06,0x31,0x30,0xd4,0x0c,0xcb,0xe7,0xfe,0x22,0xa3,0xd0,0x04,0xd1,0x0b,0x23,0x09,0x0a,0xde,0x0c,0xbe,0x27,0x90,0xe0,0xf5,0x05,0x17,0x13,0xa1,0xdd,0x2b,0xd3,0x1c,0x14,0xf3,0xeb,0x34,0xfe,0x03,0xb8,0xdc,0xa1,0x30,0xbf,0xfa,0x20,0xc8,0x81,0x23,0x1b,0xf6,0x08,0xd1,0x28,0x02,0x1c,0xa1,0xed,0xba,0xf4,0xc1,0xef,0xff,0xd0,0x88,0x0b,0xaa,0xf4,0xff,0xff,0x04,0x00,0x00,0x00,0x00,0x01,0x00,0x00,0xfa,0xfb,0xff,0xff,0x1b,0xff,0xff,0xff,0xb0,0xfc,0xff,0xff,0xb7,0x01,0x00,0x00,0x93,0xf8,0xff,0xff,0xa3,0xfe,0xff,0xff,0xc0,0xf9,0xff,0xff,0x3c,0xfa,0xff,0xff,0x05,0xfe,0xff,0xff,0x2f,0xf6,0xff,0xff,0xa6,0xf6,0xff,0xff,0xcc,0xfb,0xff,0xff,0xc6,0xff,0xff,0xff,0x6b,0xfa,0xff,0xff,0x88,0xfb,0xff,0xff,0xfa,0xfc,0xff,0xff,0xbe,0xf7,0xff,0xff,0xf1,0xfd,0xff,0xff,0xdc,0xff,0xff,0xff,0xe5,0xfd,0xff,0xff,0xea,0x02,0x00,0x00,0x3f,0xff,0xff,0xff,0xd4,0xfa,0xff,0xff,0x14,0xfd,0xff,0xff,0x20,0xfe,0xff,0xff,0x4b,0xfb,0xff,0xff,0x05,0xfa,0xff,0xff,0x22,0xfd,0xff,0xff,0x8b,0xfe,0xff,0xff,0x2b,0x04,0x00,0x00,0xd2,0x03,0x00,0x00,0x3a,0xfd,0xff,0xff,0x3c,0xff,0xff,0xff,0xb3,0xfc,0xff,0xff,0x82,0xfe,0xff,0xff,0xed,0xfd,0xff,0xff,0x61,0xfe,0xff,0xff,0x77,0xfd,0xff,0xff,0x0a,0xf9,0xff,0xff,0x31,0x02,0x00,0x00,0x52,0xff,0xff,0xff,0xbb,0xff,0xff,0xff,0xf2,0xff,0xff,0xff,0xae,0xf9,0xff,0xff,0xe8,0xf9,0xff,0xff,0x10,0x00,0x00,0x00,0xc4,0xfd,0xff,0xff,0x44,0xfe,0xff,0xff,0x2f,0x00,0x00,0x00,0x10,0xfb,0xff,0xff,0xc6,0xf9,0xff,0xff,0xa1,0xfe,0xff,0xff,0xda,0xf9,0xff,0xff,0x53,0xfd,0xff,0xff,0xed,0xf6,0xff,0xff,0xce,0xf9,0xff,0xff,0x02,0xf8,0xff,0xff,0x20,0x00,0x00,0x00,0x7a,0xfe,0xff,0xff,0x5d,0xf8,0xff,0xff,0xba,0xff,0xff,0xff,0x4c,0x01,0x00,0x00,0x79,0xff,0xff,0xff,0x34,0x00,0x00,0x00,0xb6,0xf5,0xff,0xff,0x04,0x00,0x00,0x00,0x00,0x09,0x00,0x00,0xce,0x48,0x16,0xd7,0x96,0x3d,0xc2,0xe0,0x98,0x18,0xb6,0xc9,0xf4,0xd0,0x0d,0xe8,0x81,0x29,0x82,0xfa,0xcc,0x0c,0xdf,0x0e,0x14,0xf2,0x47,0xee,0x30,0xb4,0x06,0x00,0x32,0xe5,0x2c,0xf5,0xa7,0x99,0x09,0xb5,0xe5,0xac,0xc0,0xff,0x88,0x10,0xdc,0x1d,0xe9,0xbe,0xe7,0xcb,0x20,0xe0,0x4c,0x1b,0xbd,0xe5,0xa3,0xbc,0x17,0x8c,0xbb,0x06,0xb5,0x1c,0xea,0xd3,0xd2,0xb9,0xb9,0x50,0xb3,0x23,0xe1,0x2b,0xcd,0x5f,0xfa,0xc4,0xf6,0x1d,0xc2,0x24,0xc0,0xb4,0x01,0xfe,0x2f,0xe7,0x4c,0xd5,0xde,0xa9,0xeb,0x29,0xcf,0x47,0x2f,0x53,0x8d,0x41,0xe1,0xc2,0x09,0x1e,0xdb,0x36,0x8a,0x22,0xec,0x03,0xbe,0x33,0x19,0xe0,0xe7,0xca,0xed,0x81,0xfc,0xd0,0x4d,0xf3,0x1f,0x48,0x15,0xe5,0xcc,0x07,0xfa,0x21,0xf5,0xd3,0xd7,0xd1,0xea,0xf9,0x09,0xca,0x2a,0x08,0xe4,0x14,0x1c,0xdd,0xff,0x1d,0x20,0x2e,0xe4,0xe5,0xf9,0xe9,0xaf,0xe6,0x22,0x81,0x49,0xc2,0x3a,0xde,0x46,0x34,0x0b,0xde,0x40,0xb4,0xbc,0x0a,0x41,0xbe,0x13,0xee,0xed,0xd4,0xe7,0x08,0x2d,0xe2,0x1f,0xc5,0x04,0xed,0xc3,0xe0,0x2a,0xd0,0x09,0x0d,0xb9,0xd6,0xc8,0x0a,0x03,0xe2,0x24,0x81,0x0b,0xd6,0xe5,0xf9,0x1c,0xe8,0xec,0x41,0x36,0x21,0xe7,0xde,0x0b,0xfd,0x17,0xd4,0x0c,0x11,0xe6,0xff,0x0d,0xe4,0xd2,0xb6,0xf2,0x0d,0x0b,0x1b,0xf6,0x1d,0xf5,0x2e,0x25,0x2f,0xf4,0xf8,0xd4,0xff,0xc5,0x23,0xd3,0xe5,0xd7,0x13,0x07,0xed,0xf4,0xc1,0xce,0xef,0x02,0xe5,0xe1,0x4e,0x05,0x03,0xdf,0xf2,0x1a,0x17,0xef,0xfc,0x12,0xf8,0xfd,0xf9,0xec,0xc0,0xc6,0xb5,0xf8,0x11,0x20,0x1f,0xc6,0xf5,0xfe,0x17,0xf1,0x21,0x1a,0x2a,0xf3,0x01,0xfd,0x00,0xf5,0x81,0x20,0x12,0x20,0xcd,0x33,0x1a,0x05,0x17,0xb9,0xc3,0xee,0xf9,0x1a,0xa4,0x0f,0xe9,0x0b,0x25,0xed,0x32,0xca,0x0b,0xe3,0xfe,0x29,0x1d,0xe6,0x2a,0xaf,0xcd,0x20,0x11,0x05,0xfd,0xe9,0xe2,0x27,0x05,0x2d,0x7f,0xa1,0xce,0x29,0xd7,0x4d,0x0d,0xd9,0x36,0x6a,0x52,0xdc,0x3d,0x18,0xf3,0x16,0xf9,0xe8,0xed,0x28,0x3c,0xa2,0xf5,0xb9,0x64,0x01,0xf2,0xf0,0x30,0xd8,0xfc,0xb5,0x9d,0xdd,0x1b,0xd7,0xe5,0x11,0x19,0xc7,0xe0,0x2a,0xbf,0xee,0x17,0xf6,0xc8,0xc7,0xcc,0x33,0x04,0xd8,0xaa,0x0a,0x31,0xee,0x37,0xf1,0xba,0x91,0x81,0xf3,0x26,0xca,0x6c,0xc9,0x69,0xf3,0xc6,0xfd,0x2e,0x1c,0x28,0x4c,0x0c,0xe4,0x38,0x64,0xec,0x06,0x1b,0x1f,0xaf,0x1b,0xf5,0xc0,0xb1,0x10,0x49,0x16,0x67,0xb7,0xd6,0xe4,0x11,0xea,0xf3,0xd5,0x4d,0x23,0xf9,0x2f,0xbe,0x32,0x07,0xde,0xa3,0x35,0x04,0xf7,0xd9,0xd6,0xc3,0xb9,0xa3,0xb1,0x61,0x39,0x04,0x18,0xf0,0x3c,0xa3,0x0d,0xa8,0x2f,0x1a,0xe3,0xce,0x62,0xd6,0x2d,0x1b,0x09,0x8b,0x0a,0xa2,0xff,0xca,0xfd,0x04,0xd8,0x09,0x44,0x21,0xb7,0x29,0xe3,0xd0,0x58,0x47,0x30,0xb5,0xe3,0x81,0x0e,0xb0,0x32,0xc7,0x12,0x0e,0x26,0xf9,0xb6,0x29,0xea,0xbf,0x49,0xde,0x10,0x3b,0xef,0xb0,0xfe,0xdc,0x07,0xdc,0x16,0x41,0xfe,0x05,0xcb,0x2b,0xf8,0xeb,0xf5,0x20,0x31,0xd3,0xb2,0xd3,0x7f,0x04,0xeb,0xee,0x14,0xc7,0x5b,0x04,0x0d,0xc3,0x4d,0x3c,0xb4,0xca,0x9a,0x02,0xd6,0x07,0xf3,0xb2,0x17,0x31,0x19,0x23,0xf3,0xe1,0xf1,0x4e,0x35,0xf3,0xda,0x45,0x1e,0xfe,0xf7,0xff,0x25,0x19,0x1b,0xfe,0xba,0xe2,0x13,0xc4,0x01,0x4b,0xe0,0x13,0x09,0xc0,0xab,0xdd,0xb4,0x0d,0xbb,0x96,0x4d,0x21,0x0b,0x4c,0x17,0x31,0x2b,0xba,0xf7,0x4e,0xb9,0xb5,0xc3,0x51,0x6f,0xe2,0xa3,0xbc,0x2b,0x0a,0x3d,0xe7,0xb5,0x0b,0xbc,0xa3,0x81,0x9f,0x29,0x06,0xc1,0xf1,0x87,0x03,0xab,0x2c,0x2c,0xe9,0x09,0x20,0xec,0x87,0x31,0x53,0x06,0xd2,0xdc,0x1f,0xbb,0xb9,0xff,0x44,0x2f,0x33,0x41,0xcf,0xeb,0x0a,0xb4,0x82,0xd8,0x9b,0x1a,0x67,0x8a,0x03,0x1c,0x1f,0x06,0x09,0xf5,0xf7,0x1a,0xf2,0xb6,0xe4,0xb4,0x65,0x18,0x4e,0xf5,0x1b,0xc4,0x02,0x32,0x0d,0xb5,0x14,0x23,0xc1,0xd9,0x09,0xe0,0xfd,0xfc,0x0d,0xf5,0xc3,0xbf,0x06,0xce,0x15,0xbb,0x34,0xcc,0x81,0xdc,0x06,0x1f,0x21,0xd5,0x51,0xeb,0xdb,0xcf,0x06,0xf5,0xe4,0x4f,0xb6,0x1e,0x21,0xe1,0xc5,0xeb,0xb9,0x21,0x4a,0xa9,0xf9,0x11,0x35,0x2c,0x1a,0x15,0xfc,0x21,0xb9,0xc3,0x81,0xf0,0x35,0x3a,0x45,0x19,0xfb,0xf7,0x0f,0xfe,0xe1,0x9e,0xe4,0x19,0xf5,0xe4,0xd8,0x23,0xe1,0xd6,0x0b,0xd7,0xcf,0xce,0x0f,0x1e,0xfd,0xb8,0x3b,0xc6,0x91,0x03,0xee,0x0c,0x14,0x0c,0x20,0x06,0xd3,0x0b,0x3c,0xd6,0xef,0xfb,0x04,0x1f,0xdb,0xbc,0xd1,0x09,0xbf,0x22,0x5d,0xd2,0x12,0x29,0x0d,0xdd,0x15,0x21,0x18,0xd6,0xf1,0xc5,0xd9,0xe1,0x0a,0x02,0x15,0xe2,0xdd,0xfc,0xfe,0xeb,0x1e,0x0b,0xf0,0x15,0xc6,0xef,0xd7,0x1e,0xf1,0x81,0xe6,0xff,0x4b,0xd2,0xee,0xdd,0xe1,0x18,0x13,0x04,0xe4,0x12,0x1b,0xe7,0xf9,0xef,0x09,0xd8,0x0d,0xd7,0x33,0x31,0x0f,0x01,0xcf,0xdb,0xd7,0xdb,0xb3,0xf2,0x0d,0x3d,0x15,0x11,0x12,0x16,0xfb,0x06,0x94,0xe6,0x16,0x0c,0x21,0x67,0xfa,0xff,0x22,0xb9,0xe9,0x02,0x23,0x04,0xf6,0x2f,0xf6,0xa8,0xc8,0x2a,0xfc,0xd9,0x0a,0xfd,0xd0,0x22,0x1d,0x2d,0xe1,0x08,0x12,0x01,0x0b,0x21,0x05,0x30,0x7f,0xd2,0xb5,0xcd,0x27,0x1e,0xb6,0x15,0xcc,0xb2,0xdb,0x25,0xe4,0xe1,0x99,0xfe,0x02,0x07,0x41,0xd1,0xfc,0xad,0xf6,0x5e,0xf9,0xf6,0xe1,0x15,0x1e,0xfb,0xb6,0xe5,0x6a,0xbb,0x05,0x28,0x99,0x0e,0x24,0xd5,0x38,0x1b,0x2c,0xa3,0xe5,0x34,0x02,0xf6,0x08,0x67,0x07,0xcf,0x35,0x2a,0xb2,0x13,0x1f,0xae,0x41,0x27,0x06,0xda,0x23,0x1d,0x03,0xa1,0xd9,0x30,0xd3,0xae,0xcb,0x07,0x0b,0x75,0x3f,0x15,0x0b,0x81,0x25,0x91,0x73,0x31,0x4c,0x4f,0xf3,0xb6,0xf2,0xad,0xcd,0x51,0xfc,0xb7,0x81,0x17,0x03,0xfb,0x96,0xf6,0x30,0xbf,0xf1,0x2b,0xbe,0xfa,0x39,0xd8,0x14,0x0a,0x23,0x12,0x0f,0x11,0xc5,0x29,0xf4,0x03,0x1f,0x1d,0xd4,0xd5,0xfc,0xdd,0x05,0xe2,0x1b,0xea,0x22,0xd7,0x0d,0x37,0xfa,0xf7,0x21,0x14,0x46,0x0d,0x1b,0xbb,0xc3,0x07,0x24,0x14,0xe8,0x30,0x9d,0xe7,0x06,0xb6,0xe4,0xf9,0xf7,0xf7,0x18,0xcf,0xfb,0x28,0xba,0x46,0x68,0xc0,0xfc,0xa4,0x2d,0x0f,0x1f,0xc7,0x1e,0x44,0xf4,0x0b,0xec,0xac,0x2f,0x2f,0x01,0xf7,0x35,0xe5,0xbd,0x76,0x1f,0x47,0xce,0xfa,0xc3,0xfe,0xef,0x0e,0xf2,0x57,0xe4,0x2c,0xbc,0xaf,0x20,0xc2,0xf2,0x7f,0x01,0xea,0x22,0xd5,0x21,0x05,0x1b,0xfd,0x23,0xb5,0x00,0x07,0x27,0xf7,0x9a,0xd4,0xae,0xe4,0xd3,0xf2,0x66,0xa3,0xbf,0x98,0x05,0x55,0xdf,0xbe,0x33,0xd7,0xf7,0xfc,0xbd,0x12,0x29,0x42,0x0f,0x48,0x02,0x07,0xbf,0xd2,0x15,0x1a,0x11,0x12,0xb8,0x05,0xf4,0x28,0x32,0xd5,0xed,0xa8,0x06,0xe4,0x22,0xc6,0x31,0x40,0x38,0x16,0xef,0xf3,0xf6,0xc2,0xd7,0xfd,0xeb,0xe7,0x3a,0xfc,0x92,0x06,0xac,0xd2,0xe8,0x26,0xff,0x21,0x06,0xfc,0x3d,0xd2,0x81,0xb7,0x81,0xbd,0x0f,0xe2,0x02,0xfa,0x55,0x0d,0xd8,0xe1,0xba,0x3d,0x28,0x1f,0x29,0x34,0xeb,0xe6,0xdc,0x13,0xe2,0x0d,0xea,0xf4,0xf2,0x0d,0x47,0x33,0xfa,0x2b,0x2b,0xbe,0xfb,0x16,0xdd,0xc0,0x64,0xdb,0x14,0xc6,0x44,0xec,0x26,0xfe,0xeb,0x8a,0x9c,0x2e,0x27,0xe7,0xec,0x14,0xdc,0xc0,0x29,0xb2,0x51,0xdf,0xe9,0x16,0x09,0x00,0xde,0xb4,0xee,0xa4,0xfc,0xca,0x7c,0x81,0x1d,0xab,0x01,0x12,0xfd,0x43,0xef,0xde,0xc5,0xff,0x18,0x18,0x52,0x25,0xb5,0x07,0xb7,0x39,0x48,0x85,0x0f,0xfe,0x46,0xf9,0x08,0xc8,0x34,0x19,0x00,0xe0,0x19,0x34,0x48,0xc2,0x36,0xee,0x1c,0x03,0xd5,0xca,0xc9,0x5c,0xff,0x10,0xc0,0x3b,0xd3,0x8c,0xd7,0xc9,0xc5,0x1a,0xdc,0xec,0xf6,0xe7,0xef,0x4d,0x5e,0x40,0xe5,0x2b,0x7f,0x15,0x85,0x16,0x09,0x2e,0x21,0x0f,0x09,0x2f,0x1e,0xd0,0x0a,0x13,0x3c,0x24,0x37,0x9e,0xd8,0x37,0x42,0x02,0x41,0x9f,0x44,0xc5,0xc9,0x0b,0x0b,0xb6,0x17,0xd0,0xc7,0xe0,0xd5,0x1e,0xa8,0xed,0xe8,0xc1,0xdc,0x42,0xfc,0xea,0x0f,0xcb,0xf1,0xad,0x42,0x1e,0xf3,0x29,0xc8,0xda,0xf8,0xec,0xe1,0x19,0x41,0xdb,0xfc,0xe4,0xbf,0x1a,0x7f,0x94,0x16,0xf2,0xe2,0xec,0xbb,0xf3,0x20,0x4c,0x44,0xe9,0x08,0x43,0x2d,0x2f,0xdb,0xc8,0xbd,0x31,0xf3,0x35,0x7d,0xf4,0x6c,0x19,0xd6,0xd9,0x07,0xab,0xfe,0x93,0xd5,0x17,0x47,0xe9,0xb4,0xef,0x17,0xbd,0x91,0xcf,0x26,0xd8,0x51,0x16,0x9f,0x18,0x25,0xee,0xb3,0x12,0x16,0x26,0xc9,0xaf,0xfb,0xcf,0xe3,0xce,0xda,0xd6,0x41,0xd5,0x3f,0x88,0xd5,0x01,0x27,0x29,0x1e,0x43,0x1c,0xe6,0xf0,0x09,0x15,0x53,0x23,0x1d,0x23,0xff,0xc8,0x2e,0xbf,0xef,0x44,0x99,0x2f,0xef,0xeb,0xe0,0x33,0x03,0xf6,0x81,0xf0,0x25,0xdc,0x90,0x2c,0x09,0x41,0xa5,0xc4,0xb0,0x0e,0x1c,0x5f,0x3c,0xe6,0x15,0x06,0x0f,0xd5,0xb9,0xdf,0xff,0xfc,0xc0,0xe5,0xf0,0x0b,0x0c,0xfb,0x13,0x1b,0x1d,0x90,0x1f,0x38,0x3c,0xac,0x1d,0x29,0x1e,0x13,0xf5,0xf7,0xca,0x29,0xbd,0xcc,0x59,0xeb,0xfe,0x3f,0xdf,0xb8,0xde,0x8a,0xff,0x81,0x3a,0xe3,0x22,0x57,0x17,0xff,0x5c,0x28,0xa8,0xd8,0x18,0x6e,0x0a,0x19,0x0c,0xdf,0xd9,0x32,0xe4,0xd4,0x0a,0xc6,0x09,0x1e,0xaa,0xfa,0xe1,0xf6,0xbb,0x3a,0xe5,0x25,0x6c,0x1b,0x11,0x07,0xf4,0x24,0xc4,0xc2,0xb2,0x0b,0x0e,0xf1,0xe3,0xed,0xeb,0x12,0xe3,0xf9,0x01,0xf4,0x37,0x26,0x0e,0xd3,0x39,0x06,0x02,0xf7,0xae,0xbc,0x05,0xf9,0x05,0x02,0x03,0xe9,0xff,0xeb,0x01,0xf5,0xeb,0x00,0x1d,0xea,0xe5,0xf1,0x27,0x7f,0x31,0x02,0x13,0x0f,0x07,0x17,0x1f,0x21,0x00,0x1e,0xe5,0x0d,0xfd,0xc3,0x15,0x00,0xec,0xd8,0x30,0xde,0xca,0xe5,0x28,0x17,0x34,0xdc,0x2f,0xfb,0xdb,0x43,0xac,0xc8,0xd0,0x00,0xeb,0x23,0x9b,0xf8,0xc4,0xfc,0x23,0x1d,0xce,0x3e,0x1f,0x29,0x45,0x1f,0x29,0x00,0x19,0x32,0x31,0xe8,0x40,0xd2,0xc2,0xe4,0xe5,0xf7,0x1f,0x04,0x69,0xc0,0x0c,0xdf,0xd8,0xb2,0xf2,0x17,0x1c,0x32,0x7f,0x1d,0x34,0xd7,0xf2,0x52,0x1f,0xec,0x16,0x8e,0x10,0x09,0x33,0xca,0xd3,0xa0,0xfd,0xc5,0x1c,0xc9,0xd2,0x81,0x14,0xf1,0xba,0xbe,0xc4,0xdd,0x1e,0x36,0x47,0x12,0x40,0x2d,0xdf,0x1c,0xf5,0xfd,0x32,0xb5,0xf0,0xd3,0x35,0x9d,0x01,0xdd,0x1b,0xda,0x07,0x27,0x0d,0xf7,0xdc,0x16,0x1e,0x45,0x36,0x2a,0x20,0xd3,0x1b,0x57,0xd8,0x2a,0xfe,0x25,0x14,0x0f,0xa3,0x10,0xcf,0xc0,0xf1,0x25,0xef,0x52,0x3e,0xfb,0x34,0x3e,0xda,0xe0,0xf2,0x93,0xcf,0x41,0xb5,0xe3,0x05,0x29,0xba,0x2f,0xe1,0x3e,0x17,0xe6,0x2f,0xda,0x27,0x13,0x0e,0xcd,0xc1,0x22,0xcf,0x48,0xe8,0x34,0xee,0xed,0xef,0xc4,0xb1,0x09,0x3d,0xac,0xfd,0xc6,0x4c,0x1d,0x5e,0x44,0xf0,0xe3,0xa4,0x53,0x81,0x58,0x28,0x32,0x29,0xad,0x0a,0xdd,0x03,0xd4,0x22,0x32,0x2e,0xab,0x26,0x05,0x35,0xbf,0x6e,0x19,0x3b,0x1b,0xc5,0xc9,0x08,0xe4,0xdd,0x96,0x23,0xee,0xf0,0xea,0x14,0x11,0x1b,0x29,0xf6,0x90,0x7f,0x19,0xec,0xa8,0xe1,0x9c,0x01,0x1a,0x22,0xdf,0x0c,0x56,0x3d,0x02,0xc2,0xe9,0x23,0x1b,0x12,0x13,0xc0,0xe3,0xa0,0xb3,0x3a,0xe3,0x2c,0xdc,0xfb,0x3a,0xef,0x2a,0xc9,0x45,0xda,0xd8,0xb6,0x3d,0x09,0xfd,0x0a,0xe5,0x34,0x81,0x22,0xc7,0x0a,0x30,0x1b,0xab,0x0c,0x1e,0xcf,0xcc,0x1a,0x20,0xce,0xa9,0x15,0x2e,0x14,0x55,0xc3,0xb0,0x23,0x3b,0x40,0xb7,0xd6,0xe1,0x17,0x0d,0x31,0xe1,0x27,0x11,0x11,0xff,0xab,0xfb,0xd1,0x0b,0x29,0xbc,0x0d,0x03,0x95,0xa2,0x3f,0x1a,0x05,0xd5,0xf7,0x49,0x04,0x31,0xbb,0x1c,0x0d,0x00,0xb1,0xc6,0xfb,0x0d,0x35,0x0d,0xda,0xdb,0xe0,0x07,0xfc,0x0d,0xe5,0x21,0x03,0xe5,0xa2,0xcb,0x14,0x1b,0x1a,0x2a,0x1d,0x29,0x10,0x03,0xe1,0xc9,0xd5,0x27,0x2b,0x29,0x07,0xaf,0x11,0xa7,0x22,0xc5,0xe1,0xd2,0x29,0xe6,0xee,0x09,0x07,0xec,0x22,0x3c,0xfd,0x3b,0x03,0x81,0x44,0xce,0xf5,0x00,0x2c,0xeb,0xc6,0x08,0x05,0xeb,0xea,0xdb,0xec,0x20,0xfb,0xb5,0x00,0xef,0xf8,0x74,0xce,0x84,0xbb,0xae,0xf0,0xeb,0x17,0x3b,0x4d,0x09,0x81,0xdd,0x0e,0x59,0x36,0xdc,0xb5,0x8d,0x4a,0x56,0xef,0xf7,0xb5,0x14,0xfb,0x2b,0x33,0x14,0xf3,0xe8,0xd5,0xf2,0xae,0x16,0x15,0xa5,0xd7,0xe2,0xc9,0x09,0x01,0x3f,0x00,0x0f,0x9e,0xc4,0x8e,0xda,0xc7,0xe4,0x1c,0x0a,0xce,0xd7,0x2f,0x07,0x3c,0x5c,0xf8,0x2b,0xc7,0xfc,0xdd,0x1b,0x66,0x30,0xf9,0x2b,0x25,0x36,0xee,0x94,0xfd,0x86,0x2d,0x15,0x9c,0xde,0xe6,0xf8,0xdc,0xfa,0xea,0xce,0xe4,0x31,0x4b,0x5e,0xd1,0x81,0x05,0xe2,0xd4,0xed,0x12,0x2f,0x48,0xd4,0xc2,0xf4,0x1e,0x18,0x41,0xbd,0x3d,0xf6,0xb1,0x8c,0x57,0xb4,0x37,0x21,0x32,0xe6,0xfe,0xf8,0x23,0x25,0x0c,0xe4,0x09,0xe4,0xe7,0xf3,0x97,0x1c,0x3c,0x64,0x99,0xcc,0x0e,0x28,0x06,0x3f,0xed,0x36,0x05,0x16,0x30,0xf1,0x02,0xc4,0xc3,0xf3,0xef,0xc1,0x26,0x3a,0xdc,0xd1,0xf0,0x4e,0xdb,0x18,0x0c,0x4e,0xc2,0x4b,0x81,0xe0,0xa2,0xe1,0x37,0xc4,0xcc,0x1e,0xdc,0xc9,0x28,0xdb,0x55,0x26,0xde,0x1a,0xe8,0xc8,0x1a,0xf8,0x39,0xc5,0x29,0xe0,0xdc,0x33,0x34,0xed,0x05,0xf1,0x3e,0xf1,0xce,0xe5,0x18,0x32,0x23,0xd5,0x8c,0xe1,0x02,0xdf,0xa1,0xae,0xe5,0xd2,0x41,0xd2,0x04,0x22,0x25,0x3c,0xce,0xf5,0xfb,0x03,0xf2,0x81,0x44,0xf7,0x37,0xa1,0xf8,0xc1,0x16,0x0e,0xfc,0xb3,0x43,0x36,0x22,0xe6,0x5e,0x71,0x2f,0x2d,0x4b,0xf5,0xde,0x3d,0x29,0x40,0x1e,0x46,0x50,0xd3,0xd3,0xc2,0xe7,0xd6,0xed,0xf4,0x1a,0x7f,0xe9,0x0c,0x38,0xc0,0x4c,0x02,0x08,0x05,0x04,0x21,0xbb,0xac,0x21,0xdb,0x32,0x10,0x2f,0xca,0x30,0xbe,0x6a,0xfe,0xc0,0xf8,0xf7,0xbc,0x00,0xf6,0xe3,0x0c,0xe9,0x0e,0xca,0xde,0x3c,0x0a,0x05,0xd5,0x30,0x2c,0xe5,0x16,0x19,0x37,0x0f,0xec,0xef,0xda,0x42,0xc8,0x10,0x05,0x51,0x3c,0x37,0xec,0x23,0xfc,0xb9,0xd0,0xdc,0xeb,0xc2,0xfe,0xff,0xff,0x04,0x00,0x00,0x00,0x90,0x00,0x00,0x00,0x9c,0xf2,0xff,0xff,0xfe,0xf8,0xff,0xff,0xea,0x04,0x00,0x00,0x21,0xff,0xff,0xff,0x37,0x05,0x00,0x00,0x42,0x09,0x00,0x00,0x06,0x0d,0x00,0x00,0x05,0x04,0x00,0x00,0x69,0x09,0x00,0x00,0x7a,0xf8,0xff,0xff,0x5c,0xf8,0xff,0xff,0x90,0xfb,0xff,0xff,0xdf,0x08,0x00,0x00,0x38,0x07,0x00,0x00,0x30,0xf4,0xff,0xff,0xcc,0xfe,0xff,0xff,0x01,0x04,0x00,0x00,0x1f,0xff,0xff,0xff,0xff,0x07,0x00,0x00,0x50,0x11,0x00,0x00,0x10,0xf6,0xff,0xff,0x47,0xfc,0xff,0xff,0xe8,0x01,0x00,0x00,0x05,0x10,0x00,0x00,0xcc,0x00,0x00,0x00,0x6b,0xf7,0xff,0xff,0xe3,0xf6,0xff,0xff,0x76,0xf9,0xff,0xff,0x8d,0xf9,0xff,0xff,0x47,0xf3,0xff,0xff,0xc5,0x05,0x00,0x00,0x3d,0x0e,0x00,0x00,0x09,0xf4,0xff,0xff,0x95,0xfc,0xff,0xff,0x34,0xf8,0xff,0xff,0xdc,0xf8,0xff,0xff,0x5e,0xff,0xff,0xff,0x04,0x00,0x00,0x00,0x08,0x00,0x00,0x00,0x01,0x00,0x00,0x00,0x02,0x00,0x00,0x00,0xf8,0xe0,0xff,0xff,0xfc,0xe0,0xff,0xff,0x0f,0x00,0x00,0x00,0x4d,0x4c,0x49,0x52,0x20,0x43,0x6f,0x6e,0x76,0x65,0x72,0x74,0x65,0x64,0x2e,0x00,0x01,0x00,0x00,0x00,0x14,0x00,0x00,0x00,0x00,0x00,0x0e,0x00,0x18,0x00,0x14,0x00,0x10,0x00,0x0c,0x00,0x08,0x00,0x04,0x00,0x0e,0x00,0x00,0x00,0x14,0x00,0x00,0x00,0x1c,0x00,0x00,0x00,0xd4,0x01,0x00,0x00,0xd8,0x01,0x00,0x00,0xdc,0x01,0x00,0x00,0x04,0x00,0x00,0x00,0x6d,0x61,0x69,0x6e,0x00,0x00,0x00,0x00,0x06,0x00,0x00,0x00,0x6c,0x01,0x00,0x00,0x00,0x01,0x00,0x00,0xac,0x00,0x00,0x00,0x78,0x00,0x00,0x00,0x40,0x00,0x00,0x00,0x04,0x00,0x00,0x00,0x22,0xff,0xff,0xff,0x1c,0x00,0x00,0x00,0x00,0x00,0x00,0x09,0x1c,0x00,0x00,0x00,0x20,0x00,0x00,0x00,0x04,0x00,0x00,0x00,0x00,0x00,0x06,0x00,0x08,0x00,0x04,0x00,0x06,0x00,0x00,0x00,0x00,0x00,0x80,0x3f,0x01,0x00,0x00,0x00,0x0f,0x00,0x00,0x00,0x01,0x00,0x00,0x00,0x0e,0x00,0x00,0x00,0x5a,0xff,0xff,0xff,0x14,0x00,0x00,0x00,0x00,0x00,0x00,0x08,0x10,0x00,0x00,0x00,0x14,0x00,0x00,0x00,0x03,0x00,0x00,0x00,0xbc,0xe1,0xff,0xff,0x01,0x00,0x00,0x00,0x0e,0x00,0x00,0x00,0x03,0x00,0x00,0x00,0x0d,0x00,0x00,0x00,0x03,0x00,0x00,0x00,0x02,0x00,0x00,0x00,0x8e,0xff,0xff,0xff,0x14,0x00,0x00,0x00,0x00,0x00,0x00,0x1b,0x10,0x00,0x00,0x00,0x14,0x00,0x00,0x00,0x02,0x00,0x00,0x00,0xf0,0xe1,0xff,0xff,0x01,0x00,0x00,0x00,0x0d,0x00,0x00,0x00,0x02,0x00,0x00,0x00,0x0c,0x00,0x00,0x00,0x01,0x00,0x00,0x00,0x56,0xff,0xff,0xff,0x10,0x00,0x00,0x00,0x00,0x00,0x00,0x01,0x1c,0x00,0x00,0x00,0x20,0x00,0x00,0x00,0x48,0xff,0xff,0xff,0x00,0x00,0x00,0x01,0x01,0x00,0x00,0x00,0x01,0x00,0x00,0x00,0x00,0x00,0x00,0x01,0x01,0x00,0x00,0x00,0x0c,0x00,0x00,0x00,0x03,0x00,0x00,0x00,0x0b,0x00,0x00,0x00,0x05,0x00,0x00,0x00,0x04,0x00,0x00,0x00,0x00,0x00,0x0e,0x00,0x1a,0x00,0x14,0x00,0x10,0x00,0x0c,0x00,0x0b,0x00,0x04,0x00,0x0e,0x00,0x00,0x00,0x24,0x00,0x00,0x00,0x00,0x00,0x00,0x02,0x34,0x00,0x00,0x00,0x38,0x00,0x00,0x00,0x01,0x00,0x00,0x00,0x00,0x00,0x0e,0x00,0x18,0x00,0x17,0x00,0x10,0x00,0x0c,0x00,0x08,0x00,0x07,0x00,0x0e,0x00,0x00,0x00,0x00,0x00,0x00,0x01,0x01,0x00,0x00,0x00,0x01,0x00,0x00,0x00,0x01,0x00,0x00,0x00,0x00,0x00,0x00,0x01,0x01,0x00,0x00,0x00,0x0b,0x00,0x00,0x00,0x03,0x00,0x00,0x00,0x0a,0x00,0x00,0x00,0x07,0x00,0x00,0x00,0x06,0x00,0x00,0x00,0x00,0x00,0x0e,0x00,0x14,0x00,0x00,0x00,0x10,0x00,0x0c,0x00,0x0b,0x00,0x04,0x00,0x0e,0x00,0x00,0x00,0x1c,0x00,0x00,0x00,0x00,0x00,0x00,0x01,0x28,0x00,0x00,0x00,0x2c,0x00,0x00,0x00,0x0c,0x00,0x14,0x00,0x13,0x00,0x0c,0x00,0x08,0x00,0x07,0x00,0x0c,0x00,0x00,0x00,0x00,0x00,0x00,0x01,0x01,0x00,0x00,0x00,0x01,0x00,0x00,0x00,0x00,0x00,0x00,0x01,0x01,0x00,0x00,0x00,0x0a,0x00,0x00,0x00,0x03,0x00,0x00,0x00,0x00,0x00,0x00,0x00,0x09,0x00,0x00,0x00,0x08,0x00,0x00,0x00,0x01,0x00,0x00,0x00,0x0f,0x00,0x00,0x00,0x01,0x00,0x00,0x00,0x00,0x00,0x00,0x00,0x10,0x00,0x00,0x00,0x1c,0x1d,0x00,0x00,0xc0,0x1c,0x00,0x00,0xa0,0x1a,0x00,0x00,0x94,0x18,0x00,0x00,0x40,0x15,0x00,0x00,0xdc,0x11,0x00,0x00,0x88,0x0e,0x00,0x00,0x0c,0x0b,0x00,0x00,0xb8,0x07,0x00,0x00,0x54,0x04,0x00,0x00,0x88,0x03,0x00,0x00,0xa4,0x02,0x00,0x00,0xb0,0x01,0x00,0x00,0x1c,0x01,0x00,0x00,0x80,0x00,0x00,0x00,0x04,0x00,0x00,0x00,0x3a,0xe3,0xff,0xff,0x00,0x00,0x00,0x01,0x18,0x00,0x00,0x00,0x20,0x00,0x00,0x00,0x3c,0x00,0x00,0x00,0x10,0x00,0x00,0x00,0x00,0x00,0x00,0x09,0x50,0x00,0x00,0x00,0x02,0x00,0x00,0x00,0xff,0xff,0xff,0xff,0x24,0x00,0x00,0x00,0x1c,0xe3,0xff,0xff,0x08,0x00,0x00,0x00,0x10,0x00,0x00,0x00,0x01,0x00,0x00,0x00,0x80,0xff,0xff,0xff,0xff,0xff,0xff,0xff,0x01,0x00,0x00,0x00,0x00,0x00,0x80,0x3b,0x1b,0x00,0x00,0x00,0x53,0x74,0x61,0x74,0x65,0x66,0x75,0x6c,0x50,0x61,0x72,0x74,0x69,0x74,0x69,0x6f,0x6e,0x65,0x64,0x43,0x61,0x6c,0x6c,0x5f,0x31,0x3a,0x30,0x00,0x02,0x00,0x00,0x00,0x01,0x00,0x00,0x00,0x24,0x00,0x00,0x00,0xb2,0xe3,0xff,0xff,0x00,0x00,0x00,0x01,0x18,0x00,0x00,0x00,0x20,0x00,0x00,0x00,0x40,0x00,0x00,0x00,0x0f,0x00,0x00,0x00,0x00,0x00,0x00,0x09,0x70,0x00,0x00,0x00,0x02,0x00,0x00,0x00,0xff,0xff,0xff,0xff,0x24,0x00,0x00,0x00,0x94,0xe3,0xff,0xff,0x08,0x00,0x00,0x00,0x14,0x00,0x00,0x00,0x01,0x00,0x00,0x00,0x1e,0x00,0x00,0x00,0x00,0x00,0x00,0x00,0x00,0x00,0x00,0x00,0x01,0x00,0x00,0x00,0x91,0x62,0x7a,0x3c,0x34,0x00,0x00,0x00,0x73,0x65,0x71,0x75,0x65,0x6e,0x74,0x69,0x61,0x6c,0x5f,0x31,0x2f,0x64,0x65,0x6e,0x73,0x65,0x5f,0x31,0x2f,0x4d,0x61,0x74,0x4d,0x75,0x6c,0x3b,0x73,0x65,0x71,0x75,0x65,0x6e,0x74,0x69,0x61,0x6c,0x5f,0x31,0x2f,0x64,0x65,0x6e,0x73,0x65,0x5f,0x31,0x2f,0x41,0x64,0x64,0x00,0x00,0x00,0x00,0x02,0x00,0x00,0x00,0x01,0x00,0x00,0x00,0x24,0x00,0x00,0x00,0x4a,0xe4,0xff,0xff,0x00,0x00,0x00,0x01,0x18,0x00,0x00,0x00,0x20,0x00,0x00,0x00,0x40,0x00,0x00,0x00,0x0e,0x00,0x00,0x00,0x00,0x00,0x00,0x09,0x68,0x00,0x00,0x00,0x02,0x00,0x00,0x00,0xff,0xff,0xff,0xff,0x40,0x00,0x00,0x00,0x2c,0xe4,0xff,0xff,0x08,0x00,0x00,0x00,0x14,0x00,0x00,0x00,0x01,0x00,0x00,0x00,0x80,0xff,0xff,0xff,0xff,0xff,0xff,0xff,0x00,0x00,0x00,0x00,0x01,0x00,0x00,0x00,0x3c,0xbb,0xe3,0x3b,0x2c,0x00,0x00,0x00,0x73,0x65,0x71,0x75,0x65,0x6e,0x74,0x69,0x61,0x6c,0x5f,0x31,0x2f,0x67,0x6c,0x6f,0x62,0x61,0x6c,0x5f,0x61,0x76,0x65,0x72,0x61,0x67,0x65,0x5f,0x70,0x6f,0x6f,0x6c,0x69,0x6e,0x67,0x32,0x64,0x5f,0x31,0x2f,0x4d,0x65,0x61,0x6e,0x00,0x00,0x00,0x00,0x02,0x00,0x00,0x00,0x01,0x00,0x00,0x00,0x40,0x00,0x00,0x00,0xda,0xe4,0xff,0xff,0x00,0x00,0x00,0x01,0x18,0x00,0x00,0x00,0x28,0x00,0x00,0x00,0x48,0x00,0x00,0x00,0x0d,0x00,0x00,0x00,0x00,0x00,0x00,0x09,0xc0,0x00,0x00,0x00,0x04,0x00,0x00,0x00,0xff,0xff,0xff,0xff,0x5f,0x00,0x00,0x00,0x08,0x00,0x00,0x00,0x40,0x00,0x00,0x00,0xc4,0xe4,0xff,0xff,0x08,0x00,0x00,0x00,0x14,0x00,0x00,0x00,0x01,0x00,0x00,0x00,0x80,0xff,0xff,0xff,0xff,0xff,0xff,0xff,0x00,0x00,0x00,0x00,0x01,0x00,0x00,0x00,0x3f,0x3e,0x97,0x3c,0x7c,0x00,0x00,0x00,0x73,0x65,0x71,0x75,0x65,0x6e,0x74,0x69,0x61,0x6c,0x5f,0x31,0x2f,0x63,0x6f,0x6e,0x76,0x32,0x64,0x5f,0x31,0x5f,0x32,0x2f,0x52,0x65,0x6c,0x75,0x3b,0x73,0x65,0x71,0x75,0x65,0x6e,0x74,0x69,0x61,0x6c,0x5f,0x31,0x2f,0x63,0x6f,0x6e,0x76,0x32,0x64,0x5f,0x31,0x5f,0x32,0x2f,0x61,0x64,0x64,0x3b,0x73,0x65,0x71,0x75,0x65,0x6e,0x74,0x69,0x61,0x6c,0x5f,0x31,0x2f,0x63,0x6f,0x6e,0x76,0x32,0x64,0x5f,0x31,0x5f,0x32,0x2f,0x63,0x6f,0x6e,0x76,0x6f,0x6c,0x75,0x74,0x69,0x6f,0x6e,0x3b,0x73,0x65,0x71,0x75,0x65,0x6e,0x74,0x69,0x61,0x6c,0x5f,0x31,0x2f,0x63,0x6f,0x6e,0x76,0x32,0x64,0x5f,0x31,0x5f,0x32,0x2f,0x52,0x65,0x73,0x68,0x61,0x70,0x65,0x00,0x00,0x00,0x00,0x04,0x00,0x00,0x00,0x01,0x00,0x00,0x00,0x5f,0x00,0x00,0x00,0x08,0x00,0x00,0x00,0x40,0x00,0x00,0x00,0xca,0xe5,0xff,0xff,0x00,0x00,0x00,0x01,0x18,0x00,0x00,0x00,0x28,0x00,0x00,0x00,0x44,0x00,0x00,0x00,0x0c,0x00,0x00,0x00,0x00,0x00,0x00,0x09,0xb0,0x00,0x00,0x00,0x04,0x00,0x00,0x00,0xff,0xff,0xff,0xff,0x5f,0x00,0x00,0x00,0x08,0x00,0x00,0x00,0x40,0x00,0x00,0x00,0xb4,0xe5,0xff,0xff,0x08,0x00,0x00,0x00,0x10,0x00,0x00,0x00,0x01,0x00,0x00,0x00,0x80,0xff,0xff,0xff,0xff,0xff,0xff,0xff,0x01,0x00,0x00,0x00,0x00,0xec,0xc6,0x3c,0x73,0x00,0x00,0x00,0x73,0x65,0x71,0x75,0x65,0x6e,0x74,0x69,0x61,0x6c,0x5f,0x31,0x2f,0x64,0x65,0x70,0x74,0x68,0x77,0x69,0x73,0x65,0x5f,0x63,0x6f,0x6e,0x76,0x32,0x64,0x5f,0x31,0x2f,0x52,0x65,0x6c,0x75,0x3b,0x73,0x65,0x71,0x75,0x65,0x6e,0x74,0x69,0x61,0x6c,0x5f,0x31,0x2f,0x64,0x65,0x70,0x74,0x68,0x77,0x69,0x73,0x65,0x5f,0x63,0x6f,0x6e,0x76,0x32,0x64,0x5f,0x31,0x2f,0x61,0x64,0x64,0x3b,0x73,0x65,0x71,0x75,0x65,0x6e,0x74,0x69,0x61,0x6c,0x5f,0x31,0x2f,0x64,0x65,0x70,0x74,0x68,0x77,0x69,0x73,0x65,0x5f,0x63,0x6f,0x6e,0x76,0x32,0x64,0x5f,0x31,0x2f,0x64,0x65,0x70,0x74,0x68,0x77,0x69,0x73,0x65,0x3b,0x00,0x04,0x00,0x00,0x00,0x01,0x00,0x00,0x00,0x5f,0x00,0x00,0x00,0x08,0x00,0x00,0x00,0x40,0x00,0x00,0x00,0xaa,0xe6,0xff,0xff,0x00,0x00,0x00,0x01,0x18,0x00,0x00,0x00,0x28,0x00,0x00,0x00,0x44,0x00,0x00,0x00,0x0b,0x00,0x00,0x00,0x00,0x00,0x00,0x09,0x98,0x00,0x00,0x00,0x04,0x00,0x00,0x00,0xff,0xff,0xff,0xff,0x61,0x00,0x00,0x00,0x0a,0x00,0x00,0x00,0x40,0x00,0x00,0x00,0x94,0xe6,0xff,0xff,0x08,0x00,0x00,0x00,0x10,0x00,0x00,0x00,0x01,0x00,0x00,0x00,0x80,0xff,0xff,0xff,0xff,0xff,0xff,0xff,0x01,0x00,0x00,0x00,0x60,0xcd,0x7a,0x3c,0x58,0x00,0x00,0x00,0x73,0x65,0x71,0x75,0x65,0x6e,0x74,0x69,0x61,0x6c,0x5f,0x31,0x2f,0x63,0x6f,0x6e,0x76,0x32,0x64,0x5f,0x31,0x2f,0x52,0x65,0x6c,0x75,0x3b,0x73,0x65,0x71,0x75,0x65,0x6e,0x74,0x69,0x61,0x6c,0x5f,0x31,0x2f,0x63,0x6f,0x6e,0x76,0x32,0x64,0x5f,0x31,0x2f,0x61,0x64,0x64,0x3b,0x73,0x65,0x71,0x75,0x65,0x6e,0x74,0x69,0x61,0x6c,0x5f,0x31,0x2f,0x63,0x6f,0x6e,0x76,0x32,0x64,0x5f,0x31,0x2f,0x63,0x6f,0x6e,0x76,0x6f,0x6c,0x75,0x74,0x69,0x6f,0x6e,0x3b,0x31,0x00,0x00,0x00,0x00,0x04,0x00,0x00,0x00,0x01,0x00,0x00,0x00,0x61,0x00,0x00,0x00,0x0a,0x00,0x00,0x00,0x40,0x00,0x00,0x00,0xca,0xe7,0xff,0xff,0x00,0x00,0x00,0x01,0x14,0x00,0x00,0x00,0x28,0x03,0x00,0x00,0x0a,0x00,0x00,0x00,0x00,0x00,0x00,0x09,0x34,0x03,0x00,0x00,0x44,0xe7,0xff,0xff,0x08,0x00,0x00,0x00,0x0c,0x02,0x00,0x00,0x40,0x00,0x00,0x00,0x00,0x00,0x00,0x00,0x00,0x00,0x00,0x00,0x00,0x00,0x00,0x00,0x00,0x00,0x00,0x00,0x00,0x00,0x00,0x00,0x00,0x00,0x00,0x00,0x00,0x00,0x00,0x00,0x00,0x00,0x00,0x00,0x00,0x00,0x00,0x00,0x00,0x00,0x00,0x00,0x00,0x00,0x00,0x00,0x00,0x00,0x00,0x00,0x00,0x00,0x00,0x00,0x00,0x00,0x00,0x00,0x00,0x00,0x00,0x00,0x00,0x00,0x00,0x00,0x00,0x00,0x00,0x00,0x00,0x00,0x00,0x00,0x00,0x00,0x00,0x00,0x00,0x00,0x00,0x00,0x00,0x00,0x00,0x00,0x00,0x00,0x00,0x00,0x00,0x00,0x00,0x00,0x00,0x00,0x00,0x00,0x00,0x00,0x00,0x00,0x00,0x00,0x00,0x00,0x00,0x00,0x00,0x00,0x00,0x00,0x00,0x00,0x00,0x00,0x00,0x00,0x00,0x00,0x00,0x00,0x00,0x00,0x00,0x00,0x00,0x00,0x00,0x00,0x00,0x00,0x00,0x00,0x00,0x00,0x00,0x00,0x00,0x00,0x00,0x00,0x00,0x00,0x00,0x00,0x00,0x00,0x00,0x00,0x00,0x00,0x00,0x00,0x00,0x00,0x00,0x00,0x00,0x00,0x00,0x00,0x00,0x00,0x00,0x00,0x00,0x00,0x00,0x00,0x00,0x00,0x00,0x00,0x00,0x00,0x00,0x00,0x00,0x00,0x00,0x00,0x00,0x00,0x00,0x00,0x00,0x00,0x00,0x00,0x00,0x00,0x00,0x00,0x00,0x00,0x00,0x00,0x00,0x00,0x00,0x00,0x00,0x00,0x00,0x00,0x00,0x00,0x00,0x00,0x00,0x00,0x00,0x00,0x00,0x00,0x00,0x00,0x00,0x00,0x00,0x00,0x00,0x00,0x00,0x00,0x00,0x00,0x00,0x00,0x00,0x00,0x00,0x00,0x00,0x00,0x00,0x00,0x00,0x00,0x00,0x00,0x00,0x00,0x00,0x00,0x00,0x00,0x00,0x00,0x00,0x00,0x00,0x00,0x00,0x00,0x00,0x00,0x00,0x00,0x00,0x00,0x00,0x00,0x00,0x00,0x00,0x00,0x00,0x00,0x00,0x00,0x00,0x00,0x00,0x00,0x00,0x00,0x00,0x00,0x00,0x00,0x00,0x00,0x00,0x00,0x00,0x00,0x00,0x00,0x00,0x00,0x00,0x00,0x00,0x00,0x00,0x00,0x00,0x00,0x00,0x00,0x00,0x00,0x00,0x00,0x00,0x00,0x00,0x00,0x00,0x00,0x00,0x00,0x00,0x00,0x00,0x00,0x00,0x00,0x00,0x00,0x00,0x00,0x00,0x00,0x00,0x00,0x00,0x00,0x00,0x00,0x00,0x00,0x00,0x00,0x00,0x00,0x00,0x00,0x00,0x00,0x00,0x00,0x00,0x00,0x00,0x00,0x00,0x00,0x00,0x00,0x00,0x00,0x00,0x00,0x00,0x00,0x00,0x00,0x00,0x00,0x00,0x00,0x00,0x00,0x00,0x00,0x00,0x00,0x00,0x00,0x00,0x00,0x00,0x00,0x00,0x00,0x00,0x00,0x00,0x00,0x00,0x00,0x00,0x00,0x00,0x00,0x00,0x00,0x00,0x00,0x00,0x00,0x00,0x00,0x00,0x00,0x00,0x00,0x00,0x00,0x00,0x00,0x00,0x00,0x00,0x00,0x00,0x00,0x00,0x00,0x00,0x00,0x00,0x00,0x00,0x00,0x00,0x00,0x00,0x00,0x00,0x00,0x00,0x00,0x00,0x00,0x00,0x00,0x00,0x00,0x00,0x00,0x00,0x00,0x00,0x00,0x00,0x00,0x00,0x00,0x00,0x00,0x00,0x00,0x00,0x00,0x00,0x00,0x00,0x00,0x00,0x00,0x00,0x00,0x00,0x00,0x00,0x00,0x00,0x00,0x00,0x00,0x00,0x00,0x00,0x00,0x00,0x00,0x00,0x00,0x00,0x00,0x00,0x00,0x00,0x00,0x00,0x00,0x00,0x00,0x00,0x00,0x00,0x00,0x00,0x00,0x00,0x00,0x00,0x00,0x00,0x00,0x00,0x00,0x00,0x00,0x00,0x00,0x00,0x00,0x00,0x00,0x00,0x00,0x00,0x00,0x00,0x00,0x00,0x00,0x00,0x00,0x00,0x00,0x00,0x00,0x40,0x00,0x00,0x00,0x9c,0xe9,0xee,0x3a,0xad,0xfd,0x7b,0x3b,0x5e,0x7c,0x63,0x3b,0x20,0xfa,0xd3,0x3a,0xe8,0x4d,0xcf,0x3b,0x49,0x96,0x4b,0x3b,0x21,0xba,0x84,0x3a,0x3a,0x90,0x0a,0x3b,0x66,0x89,0x86,0x3b,0xec,0xa7,0x18,0x3b,0xdf,0xfe,0x76,0x3b,0x22,0xf9,0x77,0x3b,0x62,0x0b,0x5d,0x3b,0x93,0xdb,0xf3,0x3a,0xea,0x98,0x07,0x3c,0xbc,0x48,0x0e,0x3c,0x96,0x26,0xee,0x3b,0x67,0xc3,0xb6,0x3b,0xf8,0xc5,0x63,0x3b,0xbb,0x5a,0x40,0x3b,0xba,0x8e,0x81,0x3b,0x68,0xba,0xf9,0x3b,0xf1,0x6c,0xce,0x3b,0xcf,0xeb,0x03,0x3b,0x3b,0x66,0x5e,0x3a,0xf3,0xda,0x0a,0x3c,0x88,0xc9,0xa0,0x3b,0xcc,0x24,0xa0,0x3b,0x44,0xfa,0x87,0x3b,0xe0,0x02,0x75,0x3b,0x59,0xf4,0xab,0x3b,0xf9,0x45,0x69,0x3b,0x04,0x5f,0x9a,0x3b,0xf9,0x3c,0x56,0x3b,0x9d,0xde,0x45,0x3b,0x51,0xa0,0xd3,0x3b,0xf0,0x00,0x8d,0x3b,0x64,0x34,0xf8,0x3b,0x99,0x61,0xb8,0x3b,0xbd,0xff,0x9a,0x3b,0xd9,0x8b,0x1c,0x3b,0x55,0xc3,0x4c,0x3b,0x0b,0x75,0x6c,0x3b,0xf7,0x1c,0x1f,0x3c,0x69,0xab,0xf7,0x3b,0x25,0x24,0xb4,0x3b,0xe1,0x51,0x14,0x3b,0xbb,0x75,0x0f,0x3b,0xfb,0x12,0x1a,0x3b,0xa4,0xcb,0x90,0x3b,0x20,0xba,0x6c,0x3b,0x80,0xef,0xf3,0x3a,0xd9,0xd9,0x1d,0x3b,0x36,0xe5,0x7c,0x3b,0xd1,0xd3,0x94,0x3b,0x99,0x4d,0x77,0x3b,0xdc,0x3d,0x85,0x3b,0xd9,0x26,0xb2,0x3b,0x85,0xa4,0x3a,0x3b,0xa1,0x1b,0xe1,0x3b,0xdb,0x4f,0x94,0x3b,0xb0,0x09,0x27,0x3b,0xf1,0xff,0xb7,0x3b,0x43,0xe3,0x82,0x3b,0x12,0x00,0x00,0x00,0x74,0x66,0x6c,0x2e,0x70,0x73,0x65,0x75,0x64,0x6f,0x5f,0x71,0x63,0x6f,0x6e,0x73,0x74,0x37,0x00,0x00,0x04,0x00,0x00,0x00,0x40,0x00,0x00,0x00,0x03,0x00,0x00,0x00,0x03,0x00,0x00,0x00,0x01,0x00,0x00,0x00,0x2a,0xeb,0xff,0xff,0x00,0x00,0x00,0x01,0x14,0x00,0x00,0x00,0x24,0x03,0x00,0x00,0x09,0x00,0x00,0x00,0x00,0x00,0x00,0x02,0x30,0x03,0x00,0x00,0xa4,0xea,0xff,0xff,0x08,0x00,0x00,0x00,0x08,0x02,0x00,0x00,0x40,0x00,0x00,0x00,0x00,0x00,0x00,0x00,0x00,0x00,0x00,0x00,0x00,0x00,0x00,0x00,0x00,0x00,0x00,0x00,0x00,0x00,0x00,0x00,0x00,0x00,0x00,0x00,0x00,0x00,0x00,0x00,0x00,0x00,0x00,0x00,0x00,0x00,0x00,0x00,0x00,0x00,0x00,0x00,0x00,0x00,0x00,0x00,0x00,0x00,0x00,0x00,0x00,0x00,0x00,0x00,0x00,0x00,0x00,0x00,0x00,0x00,0x00,0x00,0x00,0x00,0x00,0x00,0x00,0x00,0x00,0x00,0x00,0x00,0x00,0x00,0x00,0x00,0x00,0x00,0x00,0x00,0x00,0x00,0x00,0x00,0x00,0x00,0x00,0x00,0x00,0x00,0x00,0x00,0x00,0x00,0x00,0x00,0x00,0x00,0x00,0x00,0x00,0x00,0x00,0x00,0x00,0x00,0x00,0x00,0x00,0x00,0x00,0x00,0x00,0x00,0x00,0x00,0x00,0x00,0x00,0x00,0x00,0x00,0x00,0x00,0x00,0x00,0x00,0x00,0x00,0x00,0x00,0x00,0x00,0x00,0x00,0x00,0x00,0x00,0x00,0x00,0x00,0x00,0x00,0x00,0x00,0x00,0x00,0x00,0x00,0x00,0x00,0x00,0x00,0x00,0x00,0x00,0x00,0x00,0x00,0x00,0x00,0x00,0x00,0x00,0x00,0x00,0x00,0x00,0x00,0x00,0x00,0x00,0x00,0x00,0x00,0x00,0x00,0x00,0x00,0x00,0x00,0x00,0x00,0x00,0x00,0x00,0x00,0x00,0x00,0x00,0x00,0x00,0x00,0x00,0x00,0x00,0x00,0x00,0x00,0x00,0x00,0x00,0x00,0x00,0x00,0x00,0x00,0x00,0x00,0x00,0x00,0x00,0x00,0x00,0x00,0x00,0x00,0x00,0x00,0x00,0x00,0x00,0x00,0x00,0x00,0x00,0x00,0x00,0x00,0x00,0x00,0x00,0x00,0x00,0x00,0x00,0x00,0x00,0x00,0x00,0x00,0x00,0x00,0x00,0x00,0x00,0x00,0x00,0x00,0x00,0x00,0x00,0x00,0x00,0x00,0x00,0x00,0x00,0x00,0x00,0x00,0x00,0x00,0x00,0x00,0x00,0x00,0x00,0x00,0x00,0x00,0x00,0x00,0x00,0x00,0x00,0x00,0x00,0x00,0x00,0x00,0x00,0x00,0x00,0x00,0x00,0x00,0x00,0x00,0x00,0x00,0x00,0x00,0x00,0x00,0x00,0x00,0x00,0x00,0x00,0x00,0x00,0x00,0x00,0x00,0x00,0x00,0x00,0x00,0x00,0x00,0x00,0x00,0x00,0x00,0x00,0x00,0x00,0x00,0x00,0x00,0x00,0x00,0x00,0x00,0x00,0x00,0x00,0x00,0x00,0x00,0x00,0x00,0x00,0x00,0x00,0x00,0x00,0x00,0x00,0x00,0x00,0x00,0x00,0x00,0x00,0x00,0x00,0x00,0x00,0x00,0x00,0x00,0x00,0x00,0x00,0x00,0x00,0x00,0x00,0x00,0x00,0x00,0x00,0x00,0x00,0x00,0x00,0x00,0x00,0x00,0x00,0x00,0x00,0x00,0x00,0x00,0x00,0x00,0x00,0x00,0x00,0x00,0x00,0x00,0x00,0x00,0x00,0x00,0x00,0x00,0x00,0x00,0x00,0x00,0x00,0x00,0x00,0x00,0x00,0x00,0x00,0x00,0x00,0x00,0x00,0x00,0x00,0x00,0x00,0x00,0x00,0x00,0x00,0x00,0x00,0x00,0x00,0x00,0x00,0x00,0x00,0x00,0x00,0x00,0x00,0x00,0x00,0x00,0x00,0x00,0x00,0x00,0x00,0x00,0x00,0x00,0x00,0x00,0x00,0x00,0x00,0x00,0x00,0x00,0x00,0x00,0x00,0x00,0x00,0x00,0x00,0x00,0x00,0x00,0x00,0x00,0x00,0x00,0x00,0x00,0x00,0x00,0x00,0x00,0x00,0x00,0x00,0x00,0x00,0x00,0x00,0x00,0x00,0x00,0x00,0x00,0x00,0x00,0x00,0x00,0x00,0x00,0x00,0x00,0x00,0x00,0x00,0x00,0x00,0x00,0x00,0x00,0x00,0x00,0x00,0x00,0x00,0x00,0x00,0x00,0x00,0x00,0x00,0x00,0x00,0x00,0x00,0x00,0x00,0x00,0x00,0x00,0x00,0x40,0x00,0x00,0x00,0x3d,0xd9,0xef,0x36,0x6c,0xfa,0x7c,0x37,0x89,0x60,0x64,0x37,0xbc,0xce,0xd4,0x36,0xd5,0x1d,0xd0,0x37,0x7b,0x62,0x4c,0x37,0x41,0x3f,0x85,0x36,0x34,0x1b,0x0b,0x37,0x56,0x10,0x87,0x37,0x09,0x41,0x19,0x37,0x9b,0xf6,0x77,0x37,0xd9,0xf1,0x78,0x37,0x17,0xe9,0x5d,0x37,0x29,0xd0,0xf4,0x36,0xeb,0x20,0x08,0x38,0x72,0xd7,0x0e,0x38,0x73,0x15,0xef,0x37,0xb6,0x7a,0xb7,0x37,0x6c,0xaa,0x64,0x37,0xa9,0x1b,0x41,0x37,0xac,0x10,0x82,0x37,0xe2,0xb4,0xfa,0x37,0xfc,0x3b,0xcf,0x37,0x20,0x70,0x04,0x37,0x4c,0x45,0x5f,0x36,0x38,0x66,0x0b,0x38,0xcd,0x6a,0xa1,0x37,0x6b,0xc5,0xa0,0x37,0xa6,0x82,0x88,0x37,0x9e,0xf8,0x75,0x37,0xd1,0xa0,0xac,0x37,0xf2,0x2f,0x6a,0x37,0xd9,0xf9,0x9a,0x37,0xda,0x13,0x57,0x37,0x13,0xa5,0x46,0x37,0x93,0x74,0xd4,0x37,0x5d,0x8e,0x8d,0x37,0x56,0x2d,0xf9,0x37,0x88,0x1a,0xb9,0x37,0x33,0x9b,0x9b,0x37,0xdd,0x28,0x1d,0x37,0xb5,0x90,0x4d,0x37,0x35,0x62,0x6d,0x37,0x8e,0xbc,0x1f,0x38,0xd2,0xa3,0xf8,0x37,0xd3,0xd8,0xb4,0x37,0xa4,0xe6,0x14,0x37,0x9f,0x05,0x10,0x37,0x84,0xad,0x1a,0x37,0xde,0x5c,0x91,0x37,0x8f,0xa7,0x6d,0x37,0x2a,0xe4,0xf4,0x36,0x2c,0x78,0x1e,0x37,0xdd,0xe2,0x7d,0x37,0x17,0x69,0x95,0x37,0xa4,0x45,0x78,0x37,0x80,0xc3,0x85,0x37,0x88,0xd9,0xb2,0x37,0xb8,0x5f,0x3b,0x37,0x69,0xfd,0xe1,0x37,0x9c,0xe4,0x94,0x37,0x3a,0xb1,0x27,0x37,0x7e,0xb8,0xb8,0x37,0x8a,0x66,0x83,0x37,0x12,0x00,0x00,0x00,0x74,0x66,0x6c,0x2e,0x70,0x73,0x65,0x75,0x64,0x6f,0x5f,0x71,0x63,0x6f,0x6e,0x73,0x74,0x36,0x00,0x00,0x01,0x00,0x00,0x00,0x40,0x00,0x00,0x00,0x7a,0xee,0xff,0xff,0x00,0x00,0x00,0x01,0x28,0x00,0x00,0x00,0x40,0x03,0x00,0x00,0x08,0x00,0x00,0x00,0x00,0x00,0x00,0x09,0x4c,0x03,0x00,0x00,0x00,0x00,0x12,0x00,0x10,0x00,0x00,0x00,0x00,0x00,0x0c,0x00,0x08,0x00,0x00,0x00,0x00,0x00,0x04,0x00,0x12,0x00,0x00,0x00,0x03,0x00,0x00,0x00,0x08,0x00,0x00,0x00,0x0c,0x02,0x00,0x00,0x40,0x00,0x00,0x00,0x00,0x00,0x00,0x00,0x00,0x00,0x00,0x00,0x00,0x00,0x00,0x00,0x00,0x00,0x00,0x00,0x00,0x00,0x00,0x00,0x00,0x00,0x00,0x00,0x00,0x00,0x00,0x00,0x00,0x00,0x00,0x00,0x00,0x00,0x00,0x00,0x00,0x00,0x00,0x00,0x00,0x00,0x00,0x00,0x00,0x00,0x00,0x00,0x00,0x00,0x00,0x00,0x00,0x00,0x00,0x00,0x00,0x00,0x00,0x00,0x00,0x00,0x00,0x00,0x00,0x00,0x00,0x00,0x00,0x00,0x00,0x00,0x00,0x00,0x00,0x00,0x00,0x00,0x00,0x00,0x00,0x00,0x00,0x00,0x00,0x00,0x00,0x00,0x00,0x00,0x00,0x00,0x00,0x00,0x00,0x00,0x00,0x00,0x00,0x00,0x00,0x00,0x00,0x00,0x00,0x00,0x00,0x00,0x00,0x00,0x00,0x00,0x00,0x00,0x00,0x00,0x00,0x00,0x00,0x00,0x00,0x00,0x00,0x00,0x00,0x00,0x00,0x00,0x00,0x00,0x00,0x00,0x00,0x00,0x00,0x00,0x00,0x00,0x00,0x00,0x00,0x00,0x00,0x00,0x00,0x00,0x00,0x00,0x00,0x00,0x00,0x00,0x00,0x00,0x00,0x00,0x00,0x00,0x00,0x00,0x00,0x00,0x00,0x00,0x00,0x00,0x00,0x00,0x00,0x00,0x00,0x00,0x00,0x00,0x00,0x00,0x00,0x00,0x00,0x00,0x00,0x00,0x00,0x00,0x00,0x00,0x00,0x00,0x00,0x00,0x00,0x00,0x00,0x00,0x00,0x00,0x00,0x00,0x00,0x00,0x00,0x00,0x00,0x00,0x00,0x00,0x00,0x00,0x00,0x00,0x00,0x00,0x00,0x00,0x00,0x00,0x00,0x00,0x00,0x00,0x00,0x00,0x00,0x00,0x00,0x00,0x00,0x00,0x00,0x00,0x00,0x00,0x00,0x00,0x00,0x00,0x00,0x00,0x00,0x00,0x00,0x00,0x00,0x00,0x00,0x00,0x00,0x00,0x00,0x00,0x00,0x00,0x00,0x00,0x00,0x00,0x00,0x00,0x00,0x00,0x00,0x00,0x00,0x00,0x00,0x00,0x00,0x00,0x00,0x00,0x00,0x00,0x00,0x00,0x00,0x00,0x00,0x00,0x00,0x00,0x00,0x00,0x00,0x00,0x00,0x00,0x00,0x00,0x00,0x00,0x00,0x00,0x00,0x00,0x00,0x00,0x00,0x00,0x00,0x00,0x00,0x00,0x00,0x00,0x00,0x00,0x00,0x00,0x00,0x00,0x00,0x00,0x00,0x00,0x00,0x00,0x00,0x00,0x00,0x00,0x00,0x00,0x00,0x00,0x00,0x00,0x00,0x00,0x00,0x00,0x00,0x00,0x00,0x00,0x00,0x00,0x00,0x00,0x00,0x00,0x00,0x00,0x00,0x00,0x00,0x00,0x00,0x00,0x00,0x00,0x00,0x00,0x00,0x00,0x00,0x00,0x00,0x00,0x00,0x00,0x00,0x00,0x00,0x00,0x00,0x00,0x00,0x00,0x00,0x00,0x00,0x00,0x00,0x00,0x00,0x00,0x00,0x00,0x00,0x00,0x00,0x00,0x00,0x00,0x00,0x00,0x00,0x00,0x00,0x00,0x00,0x00,0x00,0x00,0x00,0x00,0x00,0x00,0x00,0x00,0x00,0x00,0x00,0x00,0x00,0x00,0x00,0x00,0x00,0x00,0x00,0x00,0x00,0x00,0x00,0x00,0x00,0x00,0x00,0x00,0x00,0x00,0x00,0x00,0x00,0x00,0x00,0x00,0x00,0x00,0x00,0x00,0x00,0x00,0x00,0x00,0x00,0x00,0x00,0x00,0x00,0x00,0x00,0x00,0x00,0x00,0x00,0x00,0x00,0x00,0x00,0x00,0x00,0x00,0x00,0x00,0x00,0x00,0x00,0x00,0x00,0x00,0x00,0x00,0x00,0x00,0x00,0x00,0x00,0x00,0x00,0x00,0x00,0x00,0x00,0x00,0x00,0x00,0x00,0x00,0x00,0x00,0x00,0x00,0x00,0x00,0x00,0x00,0x00,0x00,0x00,0x00,0x00,0x00,0x00,0x00,0x00,0x00,0x00,0x00,0x00,0x00,0x00,0x00,0x00,0x00,0x00,0x00,0x00,0x00,0x00,0x00,0x00,0x00,0x00,0x00,0x40,0x00,0x00,0x00,0x38,0xd1,0x11,0x3b,0x91,0x0a,0x77,0x3b,0xe5,0xd7,0x6b,0x3b,0xb7,0xff,0x4a,0x3b,0x9d,0x5c,0x9d,0x3b,0x39,0x98,0x51,0x3b,0x91,0x9f,0x43,0x3b,0x00,0x29,0xe2,0x3a,0x84,0x9e,0xac,0x3b,0x14,0x13,0x20,0x3b,0x34,0xc9,0x62,0x3b,0x71,0xae,0x2c,0x3b,0x69,0x23,0x8e,0x3b,0x6d,0x98,0xbe,0x3a,0x1d,0x7a,0xef,0x3b,0x9c,0x43,0x68,0x3c,0xa1,0x0e,0xfd,0x3b,0x77,0x15,0x94,0x3b,0x44,0xb9,0xce,0x3a,0x58,0x0f,0xe0,0x3a,0x49,0x42,0x77,0x3b,0x4d,0x19,0x79,0x3b,0x77,0x3f,0x8b,0x3b,0xca,0xcd,0xf8,0x3a,0x50,0x05,0x9b,0x3a,0xed,0x6e,0xc1,0x3b,0x1a,0x46,0xda,0x3b,0xe8,0x5f,0x68,0x3b,0x2b,0xff,0xb3,0x3b,0xee,0x4a,0x42,0x3b,0x11,0x65,0x26,0x3b,0x9a,0x52,0x53,0x3b,0x5f,0x12,0xa9,0x3b,0x10,0x7e,0x64,0x3b,0x3a,0x11,0x64,0x3b,0x64,0xd5,0xa6,0x3b,0x73,0x36,0xee,0x3b,0x9a,0x7f,0x8a,0x3b,0xc5,0xce,0x82,0x3b,0x62,0x29,0x73,0x3b,0xaf,0xee,0x5b,0x3b,0x1e,0x08,0x90,0x3b,0x34,0xda,0x63,0x3b,0x9f,0x78,0xd9,0x3b,0x47,0x60,0x7f,0x3b,0x82,0x38,0x8d,0x3b,0x5a,0x81,0x32,0x3b,0xc9,0xd3,0x24,0x3b,0x08,0x51,0x40,0x3b,0xce,0xdd,0x7e,0x3b,0xb7,0x55,0x44,0x3b,0x6c,0x52,0xd2,0x3a,0xb4,0xc6,0x24,0x3b,0xb5,0x9b,0x83,0x3b,0x38,0xcf,0x89,0x3b,0x2d,0x0c,0x5a,0x3b,0xb5,0x3d,0x59,0x3b,0xbb,0xf8,0x7a,0x3b,0x76,0x70,0x41,0x3b,0x75,0xd4,0xd5,0x3b,0x4c,0xa5,0x80,0x3b,0x7c,0x48,0x79,0x3b,0x4d,0x5e,0xa9,0x3b,0xdb,0x1c,0x81,0x3b,0x12,0x00,0x00,0x00,0x74,0x66,0x6c,0x2e,0x70,0x73,0x65,0x75,0x64,0x6f,0x5f,0x71,0x63,0x6f,0x6e,0x73,0x74,0x35,0x00,0x00,0x04,0x00,0x00,0x00,0x01,0x00,0x00,0x00,0x03,0x00,0x00,0x00,0x03,0x00,0x00,0x00,0x40,0x00,0x00,0x00,0xf2,0xf1,0xff,0xff,0x00,0x00,0x00,0x01,0x14,0x00,0x00,0x00,0x24,0x03,0x00,0x00,0x07,0x00,0x00,0x00,0x00,0x00,0x00,0x02,0x30,0x03,0x00,0x00,0x6c,0xf1,0xff,0xff,0x08,0x00,0x00,0x00,0x08,0x02,0x00,0x00,0x40,0x00,0x00,0x00,0x00,0x00,0x00,0x00,0x00,0x00,0x00,0x00,0x00,0x00,0x00,0x00,0x00,0x00,0x00,0x00,0x00,0x00,0x00,0x00,0x00,0x00,0x00,0x00,0x00,0x00,0x00,0x00,0x00,0x00,0x00,0x00,0x00,0x00,0x00,0x00,0x00,0x00,0x00,0x00,0x00,0x00,0x00,0x00,0x00,0x00,0x00,0x00,0x00,0x00,0x00,0x00,0x00,0x00,0x00,0x00,0x00,0x00,0x00,0x00,0x00,0x00,0x00,0x00,0x00,0x00,0x00,0x00,0x00,0x00,0x00,0x00,0x00,0x00,0x00,0x00,0x00,0x00,0x00,0x00,0x00,0x00,0x00,0x00,0x00,0x00,0x00,0x00,0x00,0x00,0x00,0x00,0x00,0x00,0x00,0x00,0x00,0x00,0x00,0x00,0x00,0x00,0x00,0x00,0x00,0x00,0x00,0x00,0x00,0x00,0x00,0x00,0x00,0x00,0x00,0x00,0x00,0x00,0x00,0x00,0x00,0x00,0x00,0x00,0x00,0x00,0x00,0x00,0x00,0x00,0x00,0x00,0x00,0x00,0x00,0x00,0x00,0x00,0x00,0x00,0x00,0x00,0x00,0x00,0x00,0x00,0x00,0x00,0x00,0x00,0x00,0x00,0x00,0x00,0x00,0x00,0x00,0x00,0x00,0x00,0x00,0x00,0x00,0x00,0x00,0x00,0x00,0x00,0x00,0x00,0x00,0x00,0x00,0x00,0x00,0x00,0x00,0x00,0x00,0x00,0x00,0x00,0x00,0x00,0x00,0x00,0x00,0x00,0x00,0x00,0x00,0x00,0x00,0x00,0x00,0x00,0x00,0x00,0x00,0x00,0x00,0x00,0x00,0x00,0x00,0x00,0x00,0x00,0x00,0x00,0x00,0x00,0x00,0x00,0x00,0x00,0x00,0x00,0x00,0x00,0x00,0x00,0x00,0x00,0x00,0x00,0x00,0x00,0x00,0x00,0x00,0x00,0x00,0x00,0x00,0x00,0x00,0x00,0x00,0x00,0x00,0x00,0x00,0x00,0x00,0x00,0x00,0x00,0x00,0x00,0x00,0x00,0x00,0x00,0x00,0x00,0x00,0x00,0x00,0x00,0x00,0x00,0x00,0x00,0x00,0x00,0x00,0x00,0x00,0x00,0x00,0x00,0x00,0x00,0x00,0x00,0x00,0x00,0x00,0x00,0x00,0x00,0x00,0x00,0x00,0x00,0x00,0x00,0x00,0x00,0x00,0x00,0x00,0x00,0x00,0x00,0x00,0x00,0x00,0x00,0x00,0x00,0x00,0x00,0x00,0x00,0x00,0x00,0x00,0x00,0x00,0x00,0x00,0x00,0x00,0x00,0x00,0x00,0x00,0x00,0x00,0x00,0x00,0x00,0x00,0x00,0x00,0x00,0x00,0x00,0x00,0x00,0x00,0x00,0x00,0x00,0x00,0x00,0x00,0x00,0x00,0x00,0x00,0x00,0x00,0x00,0x00,0x00,0x00,0x00,0x00,0x00,0x00,0x00,0x00,0x00,0x00,0x00,0x00,0x00,0x00,0x00,0x00,0x00,0x00,0x00,0x00,0x00,0x00,0x00,0x00,0x00,0x00,0x00,0x00,0x00,0x00,0x00,0x00,0x00,0x00,0x00,0x00,0x00,0x00,0x00,0x00,0x00,0x00,0x00,0x00,0x00,0x00,0x00,0x00,0x00,0x00,0x00,0x00,0x00,0x00,0x00,0x00,0x00,0x00,0x00,0x00,0x00,0x00,0x00,0x00,0x00,0x00,0x00,0x00,0x00,0x00,0x00,0x00,0x00,0x00,0x00,0x00,0x00,0x00,0x00,0x00,0x00,0x00,0x00,0x00,0x00,0x00,0x00,0x00,0x00,0x00,0x00,0x00,0x00,0x00,0x00,0x00,0x00,0x00,0x00,0x00,0x00,0x00,0x00,0x00,0x00,0x00,0x00,0x00,0x00,0x00,0x00,0x00,0x00,0x00,0x00,0x00,0x00,0x00,0x00,0x00,0x00,0x00,0x00,0x00,0x00,0x00,0x00,0x00,0x00,0x00,0x00,0x00,0x00,0x00,0x00,0x00,0x00,0x00,0x00,0x00,0x00,0x00,0x00,0x00,0x00,0x00,0x00,0x00,0x00,0x00,0x00,0x00,0x00,0x00,0x00,0x00,0x00,0x00,0x00,0x00,0x00,0x00,0x00,0x00,0x00,0x40,0x00,0x00,0x00,0x4c,0xdb,0x0e,0x38,0x82,0x06,0x72,0x38,0x0a,0x0e,0x67,0x38,0x94,0xe0,0x46,0x38,0xaf,0x2a,0x9a,0x38,0xcd,0x56,0x4d,0x38,0xc4,0xa6,0x3f,0x38,0x7a,0x91,0xdd,0x37,0x49,0x1d,0xa9,0x38,0x0d,0xd3,0x1c,0x38,0x6d,0x2e,0x5e,0x38,0xe3,0x2c,0x29,0x38,0x9c,0x40,0x8b,0x38,0xc2,0xb9,0xba,0x37,0x5f,0x9d,0xea,0x38,0x5c,0x8c,0x63,0x39,0x4d,0xeb,0xf7,0x38,0xc3,0x13,0x91,0x38,0xc4,0x86,0xca,0x37,0xbc,0x82,0xdb,0x37,0x18,0x3d,0x72,0x38,0x8c,0x0a,0x74,0x38,0xb0,0x6b,0x88,0x38,0x91,0xc0,0xf3,0x37,0x8e,0xdf,0x97,0x37,0x82,0x81,0xbd,0x38,0x91,0xd7,0xd5,0x38,0x15,0xa8,0x63,0x38,0x97,0x57,0xb0,0x38,0x0b,0x59,0x3e,0x38,0x30,0x04,0x23,0x38,0x33,0x08,0x4f,0x38,0x94,0xa3,0xa5,0x38,0x6a,0xda,0x5f,0x38,0xca,0x6f,0x5f,0x38,0x3b,0x72,0xa3,0x38,0x47,0x60,0xe9,0x38,0xb9,0xaf,0x87,0x38,0xdd,0x26,0x80,0x38,0x7d,0x39,0x6e,0x38,0x88,0x77,0x57,0x38,0x7a,0x1b,0x8d,0x38,0xe2,0x39,0x5f,0x38,0x42,0x0e,0xd5,0x38,0xe5,0x30,0x7a,0x38,0x7a,0x5a,0x8a,0x38,0x86,0xe1,0x2e,0x38,0x0e,0x7b,0x21,0x38,0x6b,0x69,0x3c,0x38,0x12,0xb1,0x79,0x38,0x37,0x59,0x40,0x38,0x38,0x0d,0xce,0x37,0x3d,0x6e,0x21,0x38,0xa4,0xef,0x80,0x38,0xeb,0x02,0x87,0x38,0xd1,0x9e,0x55,0x38,0x8b,0xd4,0x54,0x38,0x3e,0xe0,0x75,0x38,0x03,0x83,0x3d,0x38,0x06,0x7d,0xd1,0x38,0x42,0x11,0x7c,0x38,0xc6,0x38,0x74,0x38,0xf7,0xed,0xa5,0x38,0x85,0xfb,0x7c,0x38,0x12,0x00,0x00,0x00,0x74,0x66,0x6c,0x2e,0x70,0x73,0x65,0x75,0x64,0x6f,0x5f,0x71,0x63,0x6f,0x6e,0x73,0x74,0x34,0x00,0x00,0x01,0x00,0x00,0x00,0x40,0x00,0x00,0x00,0x42,0xf5,0xff,0xff,0x00,0x00,0x00,0x01,0x14,0x00,0x00,0x00,0x28,0x03,0x00,0x00,0x06,0x00,0x00,0x00,0x00,0x00,0x00,0x09,0x34,0x03,0x00,0x00,0xbc,0xf4,0xff,0xff,0x08,0x00,0x00,0x00,0x0c,0x02,0x00,0x00,0x40,0x00,0x00,0x00,0x00,0x00,0x00,0x00,0x00,0x00,0x00,0x00,0x00,0x00,0x00,0x00,0x00,0x00,0x00,0x00,0x00,0x00,0x00,0x00,0x00,0x00,0x00,0x00,0x00,0x00,0x00,0x00,0x00,0x00,0x00,0x00,0x00,0x00,0x00,0x00,0x00,0x00,0x00,0x00,0x00,0x00,0x00,0x00,0x00,0x00,0x00,0x00,0x00,0x00,0x00,0x00,0x00,0x00,0x00,0x00,0x00,0x00,0x00,0x00,0x00,0x00,0x00,0x00,0x00,0x00,0x00,0x00,0x00,0x00,0x00,0x00,0x00,0x00,0x00,0x00,0x00,0x00,0x00,0x00,0x00,0x00,0x00,0x00,0x00,0x00,0x00,0x00,0x00,0x00,0x00,0x00,0x00,0x00,0x00,0x00,0x00,0x00,0x00,0x00,0x00,0x00,0x00,0x00,0x00,0x00,0x00,0x00,0x00,0x00,0x00,0x00,0x00,0x00,0x00,0x00,0x00,0x00,0x00,0x00,0x00,0x00,0x00,0x00,0x00,0x00,0x00,0x00,0x00,0x00,0x00,0x00,0x00,0x00,0x00,0x00,0x00,0x00,0x00,0x00,0x00,0x00,0x00,0x00,0x00,0x00,0x00,0x00,0x00,0x00,0x00,0x00,0x00,0x00,0x00,0x00,0x00,0x00,0x00,0x00,0x00,0x00,0x00,0x00,0x00,0x00,0x00,0x00,0x00,0x00,0x00,0x00,0x00,0x00,0x00,0x00,0x00,0x00,0x00,0x00,0x00,0x00,0x00,0x00,0x00,0x00,0x00,0x00,0x00,0x00,0x00,0x00,0x00,0x00,0x00,0x00,0x00,0x00,0x00,0x00,0x00,0x00,0x00,0x00,0x00,0x00,0x00,0x00,0x00,0x00,0x00,0x00,0x00,0x00,0x00,0x00,0x00,0x00,0x00,0x00,0x00,0x00,0x00,0x00,0x00,0x00,0x00,0x00,0x00,0x00,0x00,0x00,0x00,0x00,0x00,0x00,0x00,0x00,0x00,0x00,0x00,0x00,0x00,0x00,0x00,0x00,0x00,0x00,0x00,0x00,0x00,0x00,0x00,0x00,0x00,0x00,0x00,0x00,0x00,0x00,0x00,0x00,0x00,0x00,0x00,0x00,0x00,0x00,0x00,0x00,0x00,0x00,0x00,0x00,0x00,0x00,0x00,0x00,0x00,0x00,0x00,0x00,0x00,0x00,0x00,0x00,0x00,0x00,0x00,0x00,0x00,0x00,0x00,0x00,0x00,0x00,0x00,0x00,0x00,0x00,0x00,0x00,0x00,0x00,0x00,0x00,0x00,0x00,0x00,0x00,0x00,0x00,0x00,0x00,0x00,0x00,0x00,0x00,0x00,0x00,0x00,0x00,0x00,0x00,0x00,0x00,0x00,0x00,0x00,0x00,0x00,0x00,0x00,0x00,0x00,0x00,0x00,0x00,0x00,0x00,0x00,0x00,0x00,0x00,0x00,0x00,0x00,0x00,0x00,0x00,0x00,0x00,0x00,0x00,0x00,0x00,0x00,0x00,0x00,0x00,0x00,0x00,0x00,0x00,0x00,0x00,0x00,0x00,0x00,0x00,0x00,0x00,0x00,0x00,0x00,0x00,0x00,0x00,0x00,0x00,0x00,0x00,0x00,0x00,0x00,0x00,0x00,0x00,0x00,0x00,0x00,0x00,0x00,0x00,0x00,0x00,0x00,0x00,0x00,0x00,0x00,0x00,0x00,0x00,0x00,0x00,0x00,0x00,0x00,0x00,0x00,0x00,0x00,0x00,0x00,0x00,0x00,0x00,0x00,0x00,0x00,0x00,0x00,0x00,0x00,0x00,0x00,0x00,0x00,0x00,0x00,0x00,0x00,0x00,0x00,0x00,0x00,0x00,0x00,0x00,0x00,0x00,0x00,0x00,0x00,0x00,0x00,0x00,0x00,0x00,0x00,0x00,0x00,0x00,0x00,0x00,0x00,0x00,0x00,0x00,0x00,0x00,0x00,0x00,0x00,0x00,0x00,0x00,0x00,0x00,0x00,0x00,0x00,0x00,0x00,0x00,0x00,0x00,0x00,0x00,0x00,0x00,0x00,0x00,0x00,0x00,0x00,0x00,0x00,0x00,0x00,0x00,0x00,0x00,0x00,0x00,0x00,0x00,0x00,0x00,0x00,0x00,0x00,0x00,0x00,0x00,0x00,0x00,0x00,0x00,0x00,0x00,0x00,0x00,0x00,0x00,0x40,0x00,0x00,0x00,0x3a,0xed,0x70,0x3b,0x35,0xe7,0x13,0x3c,0xe6,0xb9,0xd3,0x3b,0xa7,0x2b,0x8f,0x3b,0x5d,0x39,0xb0,0x3b,0xdc,0x13,0x55,0x3c,0x23,0xfb,0xe3,0x3b,0x03,0xb8,0xaa,0x3b,0xe8,0x98,0x7c,0x3b,0x63,0x69,0xe2,0x3b,0xe1,0xe6,0x82,0x3b,0x67,0x7c,0x1f,0x3c,0x38,0x10,0xa3,0x3b,0xeb,0xd3,0x99,0x3b,0x00,0x6d,0x9e,0x3b,0x58,0xb8,0xb2,0x3b,0xdf,0xca,0x68,0x3b,0xa8,0x5a,0xf8,0x3a,0xb4,0x4d,0xea,0x3b,0x0f,0x94,0x04,0x3c,0xcf,0xb5,0x9a,0x3b,0xe4,0xe0,0xe2,0x3b,0x23,0xad,0xc5,0x3b,0x05,0x34,0x9c,0x3b,0x44,0xf7,0xd6,0x3b,0x2a,0x07,0x70,0x3b,0x23,0xdb,0xae,0x3b,0xb9,0xef,0x20,0x3c,0xdc,0xed,0x9e,0x3b,0x7c,0xf0,0xe5,0x3b,0x8e,0xd3,0x2d,0x3b,0x57,0x84,0x89,0x3b,0xf0,0x9c,0x9e,0x3b,0xa7,0x8e,0xcc,0x3b,0x6c,0x09,0x9a,0x3b,0x78,0xa6,0x15,0x3c,0x31,0xf8,0xc3,0x3b,0x19,0x6e,0xc1,0x3b,0x3e,0xb7,0x94,0x3b,0x69,0xb6,0x64,0x3b,0xba,0x2d,0xd0,0x3b,0xb9,0x56,0x75,0x3b,0x5a,0x7a,0x6e,0x3b,0x32,0xd3,0xd3,0x3b,0x60,0x5c,0xb8,0x3b,0x4d,0x8d,0xda,0x3b,0x58,0x6b,0xae,0x3b,0xa1,0x18,0xd2,0x3b,0x0b,0x14,0xf3,0x3b,0xc4,0x9f,0xaa,0x3b,0x9e,0xb1,0xac,0x3b,0xef,0xb0,0xb0,0x3b,0x61,0xbf,0x9c,0x3b,0x30,0x68,0xea,0x3b,0x5a,0x19,0x89,0x3b,0xf6,0x41,0xac,0x3b,0x01,0x45,0xc1,0x3b,0xb9,0xbb,0xc4,0x3b,0x4f,0xd0,0x9c,0x3b,0x95,0xb4,0x30,0x3c,0x84,0x6e,0x85,0x3b,0xc9,0x0b,0x83,0x3b,0x31,0x24,0xc9,0x3b,0x94,0xfb,0xf0,0x3b,0x12,0x00,0x00,0x00,0x74,0x66,0x6c,0x2e,0x70,0x73,0x65,0x75,0x64,0x6f,0x5f,0x71,0x63,0x6f,0x6e,0x73,0x74,0x33,0x00,0x00,0x04,0x00,0x00,0x00,0x40,0x00,0x00,0x00,0x01,0x00,0x00,0x00,0x01,0x00,0x00,0x00,0x40,0x00,0x00,0x00,0xa2,0xf8,0xff,0xff,0x00,0x00,0x00,0x01,0x14,0x00,0x00,0x00,0x24,0x03,0x00,0x00,0x05,0x00,0x00,0x00,0x00,0x00,0x00,0x02,0x30,0x03,0x00,0x00,0x1c,0xf8,0xff,0xff,0x08,0x00,0x00,0x00,0x08,0x02,0x00,0x00,0x40,0x00,0x00,0x00,0x00,0x00,0x00,0x00,0x00,0x00,0x00,0x00,0x00,0x00,0x00,0x00,0x00,0x00,0x00,0x00,0x00,0x00,0x00,0x00,0x00,0x00,0x00,0x00,0x00,0x00,0x00,0x00,0x00,0x00,0x00,0x00,0x00,0x00,0x00,0x00,0x00,0x00,0x00,0x00,0x00,0x00,0x00,0x00,0x00,0x00,0x00,0x00,0x00,0x00,0x00,0x00,0x00,0x00,0x00,0x00,0x00,0x00,0x00,0x00,0x00,0x00,0x00,0x00,0x00,0x00,0x00,0x00,0x00,0x00,0x00,0x00,0x00,0x00,0x00,0x00,0x00,0x00,0x00,0x00,0x00,0x00,0x00,0x00,0x00,0x00,0x00,0x00,0x00,0x00,0x00,0x00,0x00,0x00,0x00,0x00,0x00,0x00,0x00,0x00,0x00,0x00,0x00,0x00,0x00,0x00,0x00,0x00,0x00,0x00,0x00,0x00,0x00,0x00,0x00,0x00,0x00,0x00,0x00,0x00,0x00,0x00,0x00,0x00,0x00,0x00,0x00,0x00,0x00,0x00,0x00,0x00,0x00,0x00,0x00,0x00,0x00,0x00,0x00,0x00,0x00,0x00,0x00,0x00,0x00,0x00,0x00,0x00,0x00,0x00,0x00,0x00,0x00,0x00,0x00,0x00,0x00,0x00,0x00,0x00,0x00,0x00,0x00,0x00,0x00,0x00,0x00,0x00,0x00,0x00,0x00,0x00,0x00,0x00,0x00,0x00,0x00,0x00,0x00,0x00,0x00,0x00,0x00,0x00,0x00,0x00,0x00,0x00,0x00,0x00,0x00,0x00,0x00,0x00,0x00,0x00,0x00,0x00,0x00,0x00,0x00,0x00,0x00,0x00,0x00,0x00,0x00,0x00,0x00,0x00,0x00,0x00,0x00,0x00,0x00,0x00,0x00,0x00,0x00,0x00,0x00,0x00,0x00,0x00,0x00,0x00,0x00,0x00,0x00,0x00,0x00,0x00,0x00,0x00,0x00,0x00,0x00,0x00,0x00,0x00,0x00,0x00,0x00,0x00,0x00,0x00,0x00,0x00,0x00,0x00,0x00,0x00,0x00,0x00,0x00,0x00,0x00,0x00,0x00,0x00,0x00,0x00,0x00,0x00,0x00,0x00,0x00,0x00,0x00,0x00,0x00,0x00,0x00,0x00,0x00,0x00,0x00,0x00,0x00,0x00,0x00,0x00,0x00,0x00,0x00,0x00,0x00,0x00,0x00,0x00,0x00,0x00,0x00,0x00,0x00,0x00,0x00,0x00,0x00,0x00,0x00,0x00,0x00,0x00,0x00,0x00,0x00,0x00,0x00,0x00,0x00,0x00,0x00,0x00,0x00,0x00,0x00,0x00,0x00,0x00,0x00,0x00,0x00,0x00,0x00,0x00,0x00,0x00,0x00,0x00,0x00,0x00,0x00,0x00,0x00,0x00,0x00,0x00,0x00,0x00,0x00,0x00,0x00,0x00,0x00,0x00,0x00,0x00,0x00,0x00,0x00,0x00,0x00,0x00,0x00,0x00,0x00,0x00,0x00,0x00,0x00,0x00,0x00,0x00,0x00,0x00,0x00,0x00,0x00,0x00,0x00,0x00,0x00,0x00,0x00,0x00,0x00,0x00,0x00,0x00,0x00,0x00,0x00,0x00,0x00,0x00,0x00,0x00,0x00,0x00,0x00,0x00,0x00,0x00,0x00,0x00,0x00,0x00,0x00,0x00,0x00,0x00,0x00,0x00,0x00,0x00,0x00,0x00,0x00,0x00,0x00,0x00,0x00,0x00,0x00,0x00,0x00,0x00,0x00,0x00,0x00,0x00,0x00,0x00,0x00,0x00,0x00,0x00,0x00,0x00,0x00,0x00,0x00,0x00,0x00,0x00,0x00,0x00,0x00,0x00,0x00,0x00,0x00,0x00,0x00,0x00,0x00,0x00,0x00,0x00,0x00,0x00,0x00,0x00,0x00,0x00,0x00,0x00,0x00,0x00,0x00,0x00,0x00,0x00,0x00,0x00,0x00,0x00,0x00,0x00,0x00,0x00,0x00,0x00,0x00,0x00,0x00,0x00,0x00,0x00,0x00,0x00,0x00,0x00,0x00,0x00,0x00,0x00,0x00,0x00,0x00,0x00,0x00,0x00,0x00,0x00,0x00,0x00,0x00,0x00,0x00,0x00,0x00,0x00,0x00,0x00,0x00,0x00,0x00,0x00,0x00,0x00,0x40,0x00,0x00,0x00,0x96,0x35,0xbb,0x38,0x58,0xda,0x65,0x39,0xf7,0x84,0x24,0x39,0x7f,0x7f,0xde,0x38,0xd3,0xee,0x08,0x39,0xca,0x91,0xa5,0x39,0x69,0x26,0x31,0x39,0xb4,0xa7,0x04,0x39,0x20,0x47,0xc4,0x38,0x3c,0xee,0x2f,0x39,0x7e,0x6e,0xcb,0x38,0x7d,0xda,0x77,0x39,0xbd,0x69,0xfd,0x38,0x6e,0x0f,0xef,0x38,0xb5,0x34,0xf6,0x38,0x56,0xdf,0x0a,0x39,0x83,0xe3,0xb4,0x38,0x12,0xfb,0x40,0x38,0x19,0x10,0x36,0x39,0x78,0x09,0x4e,0x39,0x7b,0x6e,0xf0,0x38,0x18,0x4b,0x30,0x39,0x25,0x9a,0x19,0x39,0x78,0xc0,0xf2,0x38,0x6b,0x09,0x27,0x39,0xd1,0x82,0xba,0x38,0xaf,0xde,0x07,0x39,0x8c,0x1b,0x7a,0x39,0xf7,0xfc,0xf6,0x38,0xfa,0xab,0x32,0x39,0xdf,0x11,0x87,0x38,0x43,0xb6,0xd5,0x38,0x35,0x7f,0xf6,0x38,0xe9,0xf2,0x1e,0x39,0x94,0x62,0xef,0x38,0x6d,0x91,0x68,0x39,0x9f,0x46,0x18,0x39,0x79,0x4d,0x16,0x39,0xa6,0x1d,0xe7,0x38,0xed,0xb7,0xb1,0x38,0x48,0xc3,0x21,0x39,0x3f,0xa3,0xbe,0x38,0x7a,0x4e,0xb9,0x38,0x9f,0x98,0x24,0x39,0x67,0x41,0x0f,0x39,0xc4,0xd2,0x29,0x39,0xd1,0x87,0x07,0x39,0xbb,0x40,0x23,0x39,0x97,0xe1,0x3c,0x39,0xdd,0x94,0x04,0x39,0x94,0x30,0x06,0x39,0xbc,0x4b,0x09,0x39,0x0b,0x99,0xf3,0x38,0xad,0x24,0x36,0x39,0xfe,0x0f,0xd5,0x38,0xd1,0xd9,0x05,0x39,0x8a,0x2d,0x16,0x39,0x8e,0xde,0x18,0x39,0x5a,0xb3,0xf3,0x38,0x92,0x4e,0x89,0x39,0xf8,0x5c,0xcf,0x38,0xd9,0xa7,0xcb,0x38,0x6b,0x4b,0x1c,0x39,0xbc,0x40,0x3b,0x39,0x12,0x00,0x00,0x00,0x74,0x66,0x6c,0x2e,0x70,0x73,0x65,0x75,0x64,0x6f,0x5f,0x71,0x63,0x6f,0x6e,0x73,0x74,0x32,0x00,0x00,0x01,0x00,0x00,0x00,0x40,0x00,0x00,0x00,0xf2,0xfb,0xff,0xff,0x00,0x00,0x00,0x01,0x14,0x00,0x00,0x00,0xd8,0x01,0x00,0x00,0x04,0x00,0x00,0x00,0x00,0x00,0x00,0x09,0xe4,0x01,0x00,0x00,0x6c,0xfb,0xff,0xff,0x08,0x00,0x00,0x00,0x2c,0x01,0x00,0x00,0x24,0x00,0x00,0x00,0x00,0x00,0x00,0x00,0x00,0x00,0x00,0x00,0x00,0x00,0x00,0x00,0x00,0x00,0x00,0x00,0x00,0x00,0x00,0x00,0x00,0x00,0x00,0x00,0x00,0x00,0x00,0x00,0x00,0x00,0x00,0x00,0x00,0x00,0x00,0x00,0x00,0x00,0x00,0x00,0x00,0x00,0x00,0x00,0x00,0x00,0x00,0x00,0x00,0x00,0x00,0x00,0x00,0x00,0x00,0x00,0x00,0x00,0x00,0x00,0x00,0x00,0x00,0x00,0x00,0x00,0x00,0x00,0x00,0x00,0x00,0x00,0x00,0x00,0x00,0x00,0x00,0x00,0x00,0x00,0x00,0x00,0x00,0x00,0x00,0x00,0x00,0x00,0x00,0x00,0x00,0x00,0x00,0x00,0x00,0x00,0x00,0x00,0x00,0x00,0x00,0x00,0x00,0x00,0x00,0x00,0x00,0x00,0x00,0x00,0x00,0x00,0x00,0x00,0x00,0x00,0x00,0x00,0x00,0x00,0x00,0x00,0x00,0x00,0x00,0x00,0x00,0x00,0x00,0x00,0x00,0x00,0x00,0x00,0x00,0x00,0x00,0x00,0x00,0x00,0x00,0x00,0x00,0x00,0x00,0x00,0x00,0x00,0x00,0x00,0x00,0x00,0x00,0x00,0x00,0x00,0x00,0x00,0x00,0x00,0x00,0x00,0x00,0x00,0x00,0x00,0x00,0x00,0x00,0x00,0x00,0x00,0x00,0x00,0x00,0x00,0x00,0x00,0x00,0x00,0x00,0x00,0x00,0x00,0x00,0x00,0x00,0x00,0x00,0x00,0x00,0x00,0x00,0x00,0x00,0x00,0x00,0x00,0x00,0x00,0x00,0x00,0x00,0x00,0x00,0x00,0x00,0x00,0x00,0x00,0x00,0x00,0x00,0x00,0x00,0x00,0x00,0x00,0x00,0x00,0x00,0x00,0x00,0x00,0x00,0x00,0x00,0x00,0x00,0x00,0x00,0x00,0x00,0x00,0x00,0x00,0x00,0x00,0x00,0x00,0x00,0x00,0x00,0x00,0x00,0x00,0x00,0x00,0x00,0x00,0x00,0x00,0x00,0x00,0x00,0x00,0x00,0x00,0x00,0x00,0x00,0x00,0x00,0x00,0x00,0x00,0x00,0x00,0x00,0x00,0x00,0x00,0x00,0x00,0x00,0x00,0x00,0x00,0x00,0x00,0x00,0x00,0x00,0x00,0x00,0x00,0x00,0x00,0x00,0x00,0x00,0x00,0x24,0x00,0x00,0x00,0x54,0x81,0x66,0x3b,0x4b,0x43,0x65,0x3b,0xa5,0xf4,0x9f,0x3b,0xba,0x56,0xd7,0x3b,0xed,0xae,0xd1,0x3b,0xfe,0x0a,0x6a,0x3b,0x81,0x6f,0x52,0x3b,0x7b,0x73,0xb3,0x3b,0x08,0x39,0x48,0x3b,0xc6,0x26,0x5c,0x3b,0xad,0xa7,0x8b,0x3b,0x14,0x1c,0xb0,0x3b,0xc1,0xa4,0xbf,0x3b,0x19,0x90,0xa7,0x3b,0x0f,0xc5,0x8b,0x3b,0x0b,0xae,0xa7,0x3b,0xfd,0xc1,0x60,0x3b,0xbd,0x4f,0x85,0x3b,0x8d,0x32,0xa2,0x3b,0xb7,0x7d,0x52,0x3b,0x0f,0xbf,0x97,0x3b,0x39,0x7d,0x66,0x3b,0x3e,0x9a,0x82,0x3b,0x36,0x7e,0x5a,0x3b,0xc6,0x85,0xe9,0x3b,0xa8,0x81,0x92,0x3b,0xd8,0x0a,0xc0,0x3b,0xe2,0x71,0x9f,0x3b,0x00,0xa0,0x8a,0x3b,0x8d,0xd8,0x9c,0x3b,0xfc,0xa5,0xba,0x3b,0xf7,0xc2,0x99,0x3b,0x59,0x4d,0x85,0x3b,0xdb,0x5a,0x87,0x3b,0x1b,0xe5,0x8e,0x3b,0xf6,0xf7,0xaa,0x3b,0x12,0x00,0x00,0x00,0x74,0x66,0x6c,0x2e,0x70,0x73,0x65,0x75,0x64,0x6f,0x5f,0x71,0x63,0x6f,0x6e,0x73,0x74,0x31,0x00,0x00,0x02,0x00,0x00,0x00,0x24,0x00,0x00,0x00,0x40,0x00,0x00,0x00,0xfa,0xfd,0xff,0xff,0x00,0x00,0x00,0x01,0x14,0x00,0x00,0x00,0xd8,0x01,0x00,0x00,0x03,0x00,0x00,0x00,0x00,0x00,0x00,0x02,0xe4,0x01,0x00,0x00,0x74,0xfd,0xff,0xff,0x08,0x00,0x00,0x00,0x2c,0x01,0x00,0x00,0x24,0x00,0x00,0x00,0x00,0x00,0x00,0x00,0x00,0x00,0x00,0x00,0x00,0x00,0x00,0x00,0x00,0x00,0x00,0x00,0x00,0x00,0x00,0x00,0x00,0x00,0x00,0x00,0x00,0x00,0x00,0x00,0x00,0x00,0x00,0x00,0x00,0x00,0x00,0x00,0x00,0x00,0x00,0x00,0x00,0x00,0x00,0x00,0x00,0x00,0x00,0x00,0x00,0x00,0x00,0x00,0x00,0x00,0x00,0x00,0x00,0x00,0x00,0x00,0x00,0x00,0x00,0x00,0x00,0x00,0x00,0x00,0x00,0x00,0x00,0x00,0x00,0x00,0x00,0x00,0x00,0x00,0x00,0x00,0x00,0x00,0x00,0x00,0x00,0x00,0x00,0x00,0x00,0x00,0x00,0x00,0x00,0x00,0x00,0x00,0x00,0x00,0x00,0x00,0x00,0x00,0x00,0x00,0x00,0x00,0x00,0x00,0x00,0x00,0x00,0x00,0x00,0x00,0x00,0x00,0x00,0x00,0x00,0x00,0x00,0x00,0x00,0x00,0x00,0x00,0x00,0x00,0x00,0x00,0x00,0x00,0x00,0x00,0x00,0x00,0x00,0x00,0x00,0x00,0x00,0x00,0x00,0x00,0x00,0x00,0x00,0x00,0x00,0x00,0x00,0x00,0x00,0x00,0x00,0x00,0x00,0x00,0x00,0x00,0x00,0x00,0x00,0x00,0x00,0x00,0x00,0x00,0x00,0x00,0x00,0x00,0x00,0x00,0x00,0x00,0x00,0x00,0x00,0x00,0x00,0x00,0x00,0x00,0x00,0x00,0x00,0x00,0x00,0x00,0x00,0x00,0x00,0x00,0x00,0x00,0x00,0x00,0x00,0x00,0x00,0x00,0x00,0x00,0x00,0x00,0x00,0x00,0x00,0x00,0x00,0x00,0x00,0x00,0x00,0x00,0x00,0x00,0x00,0x00,0x00,0x00,0x00,0x00,0x00,0x00,0x00,0x00,0x00,0x00,0x00,0x00,0x00,0x00,0x00,0x00,0x00,0x00,0x00,0x00,0x00,0x00,0x00,0x00,0x00,0x00,0x00,0x00,0x00,0x00,0x00,0x00,0x00,0x00,0x00,0x00,0x00,0x00,0x00,0x00,0x00,0x00,0x00,0x00,0x00,0x00,0x00,0x00,0x00,0x00,0x00,0x00,0x00,0x00,0x00,0x00,0x00,0x00,0x00,0x00,0x00,0x00,0x00,0x00,0x00,0x00,0x00,0x00,0x00,0x00,0x00,0x00,0x24,0x00,0x00,0x00,0x44,0x0d,0xcd,0x37,0x59,0xf2,0xcb,0x37,0xec,0x4a,0x0e,0x38,0x66,0x8f,0x3f,0x38,0x78,0x87,0x3a,0x38,0xec,0x32,0xd0,0x37,0xc8,0x32,0xbb,0x37,0xa5,0xa2,0x1f,0x38,0x03,0x1d,0xb2,0x37,0x65,0xd7,0xc3,0x37,0xa5,0x77,0xf8,0x37,0xb4,0xa9,0x1c,0x38,0x41,0x7b,0x2a,0x38,0x54,0x0f,0x15,0x38,0xec,0xab,0xf8,0x37,0xf7,0x29,0x15,0x38,0x66,0xf0,0xc7,0x37,0x6a,0x2e,0xed,0x37,0x74,0x49,0x10,0x38,0x6c,0x3f,0xbb,0x37,0x66,0xfd,0x06,0x38,0x9d,0x09,0xcd,0x37,0x95,0x5c,0xe8,0x37,0xb7,0x5d,0xc2,0x37,0x6a,0xbc,0x4f,0x38,0x1f,0x54,0x02,0x38,0x12,0xd6,0x2a,0x38,0x99,0xd6,0x0d,0x38,0x87,0xa2,0xf6,0x37,0xbc,0x86,0x0b,0x38,0xb1,0x09,0x26,0x38,0x56,0xc8,0x08,0x38,0x29,0x2a,0xed,0x37,0x1f,0xd1,0xf0,0x37,0x54,0x3b,0xfe,0x37,0xea,0x16,0x18,0x38,0x11,0x00,0x00,0x00,0x74,0x66,0x6c,0x2e,0x70,0x73,0x65,0x75,0x64,0x6f,0x5f,0x71,0x63,0x6f,0x6e,0x73,0x74,0x00,0x00,0x00,0x01,0x00,0x00,0x00,0x24,0x00,0x00,0x00,0x00,0x00,0x16,0x00,0x1c,0x00,0x18,0x00,0x17,0x00,0x10,0x00,0x0c,0x00,0x08,0x00,0x00,0x00,0x00,0x00,0x00,0x00,0x07,0x00,0x16,0x00,0x00,0x00,0x00,0x00,0x00,0x01,0x18,0x00,0x00,0x00,0x18,0x00,0x00,0x00,0x02,0x00,0x00,0x00,0x00,0x00,0x00,0x02,0x20,0x00,0x00,0x00,0x04,0x00,0x04,0x00,0x04,0x00,0x00,0x00,0x0e,0x00,0x00,0x00,0x61,0x72,0x69,0x74,0x68,0x2e,0x63,0x6f,0x6e,0x73,0x74,0x61,0x6e,0x74,0x00,0x00,0x01,0x00,0x00,0x00,0x02,0x00,0x00,0x00,0x00,0x00,0x16,0x00,0x20,0x00,0x1c,0x00,0x1b,0x00,0x14,0x00,0x10,0x00,0x0c,0x00,0x00,0x00,0x00,0x00,0x08,0x00,0x07,0x00,0x16,0x00,0x00,0x00,0x00,0x00,0x00,0x01,0x18,0x00,0x00,0x00,0x34,0x00,0x00,0x00,0x54,0x00,0x00,0x00,0x01,0x00,0x00,0x00,0x00,0x00,0x00,0x09,0x6c,0x00,0x00,0x00,0x04,0x00,0x00,0x00,0xff,0xff,0xff,0xff,0x63,0x00,0x00,0x00,0x0c,0x00,0x00,0x00,0x01,0x00,0x00,0x00,0x0c,0x00,0x0c,0x00,0x00,0x00,0x00,0x00,0x08,0x00,0x04,0x00,0x0c,0x00,0x00,0x00,0x08,0x00,0x00,0x00,0x14,0x00,0x00,0x00,0x01,0x00,0x00,0x00,0x80,0xff,0xff,0xff,0xff,0xff,0xff,0xff,0x00,0x00,0x00,0x00,0x01,0x00,0x00,0x00,0x62,0x80,0x80,0x3b,0x1e,0x00,0x00,0x00,0x73,0x65,0x72,0x76,0x69,0x6e,0x67,0x5f,0x64,0x65,0x66,0x61,0x75,0x6c,0x74,0x5f,0x6b,0x65,0x72,0x61,0x73,0x5f,0x74,0x65,0x6e,0x73,0x6f,0x72,0x3a,0x30,0x00,0x00,0x04,0x00,0x00,0x00,0x01,0x00,0x00,0x00,0x63,0x00,0x00,0x00,0x0c,0x00,0x00,0x00,0x01,0x00,0x00,0x00,0x05,0x00,0x00,0x00,0x60,0x00,0x00,0x00,0x40,0x00,0x00,0x00,0x2c,0x00,0x00,0x00,0x18,0x00,0x00,0x00,0x04,0x00,0x00,0x00,0xc0,0xff,0xff,0xff,0x19,0x00,0x00,0x00,0x02,0x00,0x00,0x00,0x00,0x00,0x00,0x19,0xd0,0xff,0xff,0xff,0x09,0x00,0x00,0x00,0x04,0x00,0x00,0x00,0x00,0x00,0x00,0x09,0xe0,0xff,0xff,0xff,0x28,0x00,0x00,0x00,0x02,0x00,0x00,0x00,0x00,0x00,0x00,0x28,0xf0,0xff,0xff,0xff,0x04,0x00,0x00,0x00,0x03,0x00,0x00,0x00,0x00,0x00,0x00,0x04,0x0c,0x00,0x10,0x00,0x0f,0x00,0x00,0x00,0x08,0x00,0x04,0x00,0x0c,0x00,0x00,0x00,0x03,0x00,0x00,0x00,0x03,0x00,0x00,0x00,0x00,0x00,0x00,0x03
};
const unsigned int model_len = 17448;
