const unsigned char model[] = {
28,0,0,0,84,70,76,51,20,0,32,0,28,0,24,0,20,0,16,0,12,0,0,0,8,0,4,0,20,0,0,0,28,0,0,0,152,0,0,0,240,0,0,0,232,48,0,0,248,48,0,0,128,62,0,0,3,0,0,0,1,0,0,0,16,0,0,0,0,0,10,0,16,0,12,0,8,0,4,0,10,0,0,0,12,0,0,0,28,0,0,0,60,0,0,0,15,0,0,0,115,101,114,118,105,110,103,95,100,101,102,97,117,108,116,0,1,0,0,0,4,0,0,0,144,255,255,255,15,0,0,0,4,0,0,0,8,0,0,0,111,117,116,112,117,116,95,48,0,0,0,0,1,0,0,0,4,0,0,0,6,207,255,255,4,0,0,0,12,0,0,0,107,101,114,97,115,95,116,101,110,115,111,114,0,0,0,0,2,0,0,0,52,0,0,0,4,0,0,0,220,255,255,255,18,0,0,0,4,0,0,0,19,0,0,0,67,79,78,86,69,82,83,73,79,78,95,77,69,84,65,68,65,84,65,0,8,0,12,0,8,0,4,0,8,0,0,0,17,0,0,0,4,0,0,0,19,0,0,0,109,105,110,95,114,117,110,116,105,109,101,95,118,101,114,115,105,111,110,0,19,0,0,0,244,47,0,0,236,47,0,0,220,46,0,0,204,37,0,0,180,37,0,0,20,37,0,0,4,28,0,0,244,26,0,0,228,25,0,0,212,9,0,0,196,0,0,0,188,0,0,0,180,0,0,0,172,0,0,0,164,0,0,0,156,0,0,0,148,0,0,0,116,0,0,0,4,0,0,0,206,207,255,255,4,0,0,0,96,0,0,0,12,0,0,0,8,0,14,0,8,0,4,0,8,0,0,0,16,0,0,0,40,0,0,0,0,0,6,0,8,0,4,0,6,0,0,0,4,0,0,0,1,0,0,0,234,3,0,0,12,0,24,0,20,0,16,0,12,0,4,0,12,0,0,0,192,1,11,47,95,184,78,126,2,0,0,0,2,0,0,0,4,0,0,0,6,0,0,0,50,46,49,56,46,48,0,0,58,208,255,255,4,0,0,0,16,0,0,0,50,46,49,55,46,48,0,0,0,0,0,0,0,0,0,0,124,195,255,255,128,195,255,255,132,195,255,255,136,195,255,255,140,195,255,255,144,195,255,255,110,208,255,255,4,0,0,0,0,9,0,0,4,255,200,129,231,191,19,250,12,185,234,17,23,190,17,199,231,246,245,250,23,246,208,234,234,254,181,2,13,248,189,249,253,4,185,236,8,210,8,245,251,21,25,240,17,200,238,8,236,24,255,247,29,178,2,242,233,13,15,9,237,14,246,7,9,14,210,63,61,221,175,53,254,250,10,230,178,173,242,59,3,241,242,15,1,14,220,240,129,213,76,20,70,221,238,34,204,215,16,28,36,42,42,209,214,26,67,28,39,237,17,184,233,240,234,209,214,0,253,180,23,244,220,20,28,247,255,228,250,249,250,69,235,44,195,24,3,234,187,220,224,42,209,7,196,82,235,209,208,198,237,235,28,189,42,231,27,221,28,65,213,37,129,27,227,11,43,216,23,11,236,243,198,255,51,216,246,34,19,248,17,238,244,249,206,68,17,56,246,236,6,2,249,2,230,66,45,22,37,55,44,42,190,50,186,240,156,36,0,241,5,218,165,199,17,131,205,155,25,255,37,232,244,96,129,17,189,17,219,229,12,233,174,49,24,62,207,31,251,207,239,39,194,246,227,241,251,8,199,0,9,8,1,87,239,14,226,247,212,16,24,22,246,104,129,26,65,33,175,30,32,199,244,7,2,51,26,192,11,219,195,14,226,209,27,229,37,169,193,210,13,196,249,233,234,138,5,12,66,253,237,219,6,47,15,91,173,189,197,183,248,233,189,59,13,238,181,245,51,239,188,1,255,0,145,245,248,89,206,57,255,19,190,17,210,161,239,227,16,225,42,254,50,30,31,218,171,17,0,69,50,90,184,44,165,4,18,237,88,129,236,38,254,3,183,3,243,20,11,192,172,249,21,240,249,51,8,242,9,217,11,174,219,185,196,249,3,235,212,239,224,14,233,8,36,249,21,41,233,245,244,254,231,214,58,75,237,23,208,242,220,214,198,242,50,102,161,211,177,72,1,244,28,187,19,26,129,254,220,15,246,241,55,16,252,163,230,22,248,254,219,22,58,12,16,228,247,244,67,8,41,153,253,89,23,13,221,201,245,157,226,215,23,8,236,226,7,221,183,200,6,230,39,215,31,15,23,1,55,217,7,26,152,129,47,4,239,223,231,190,223,211,21,230,37,34,216,63,111,228,235,46,2,38,138,219,200,26,216,33,53,9,41,2,238,232,39,214,3,23,216,173,252,42,232,21,50,31,249,205,6,22,198,247,26,200,234,12,7,0,28,1,199,253,25,242,5,67,59,209,226,35,245,255,151,149,241,220,48,203,7,183,237,127,14,36,251,240,250,217,224,28,5,238,18,0,23,245,192,251,13,178,83,231,197,0,24,22,255,31,26,25,33,14,226,42,209,37,51,4,0,21,221,253,206,77,151,177,91,248,209,55,240,161,228,24,10,34,230,0,212,26,26,232,21,129,215,177,26,29,4,49,23,201,241,221,203,189,221,244,3,10,245,36,62,208,85,17,208,129,52,32,243,208,30,6,77,192,223,42,238,5,231,1,252,9,3,17,7,25,177,183,54,14,232,45,65,188,247,22,218,255,29,48,219,57,216,210,241,158,206,191,199,2,242,223,18,209,1,230,24,216,176,243,43,243,220,54,21,168,127,229,213,183,17,30,238,149,26,29,69,162,32,73,26,218,219,195,162,204,219,1,193,86,179,207,76,65,88,75,16,163,167,81,150,33,67,247,19,61,223,205,220,159,219,211,139,157,249,0,33,243,5,211,97,170,245,8,6,1,212,29,188,255,33,115,225,35,39,201,24,27,167,162,21,93,11,207,63,60,43,11,7,29,174,236,185,44,243,169,139,22,245,208,242,127,104,198,18,227,220,231,248,35,22,254,23,231,30,234,237,175,251,158,182,10,45,193,181,207,14,168,40,8,13,24,13,251,188,202,227,232,212,22,6,160,74,16,12,32,21,10,180,180,0,36,18,242,216,165,232,253,239,216,4,220,248,164,41,127,232,9,55,199,89,255,17,5,233,43,213,26,244,190,202,11,247,191,193,222,239,43,4,6,47,32,223,254,252,253,219,192,210,205,56,15,200,5,222,3,62,255,3,224,248,36,185,57,50,80,245,26,217,211,197,227,205,205,9,242,239,129,3,68,15,231,33,186,10,215,38,19,228,35,17,53,9,92,16,47,244,1,254,255,13,30,248,213,196,224,10,2,209,184,11,226,20,213,226,81,42,33,67,37,198,214,15,0,20,222,2,244,234,195,216,223,6,4,9,201,30,32,30,247,220,161,214,239,232,106,246,54,195,32,236,37,187,213,20,249,2,129,238,253,249,165,44,206,18,249,28,38,209,78,216,0,221,236,16,35,12,20,236,53,32,246,244,219,237,184,199,250,33,241,15,189,222,172,190,219,48,27,72,174,39,235,13,19,206,148,190,232,224,85,10,25,44,32,7,175,240,17,236,5,34,127,11,235,8,171,71,28,243,7,23,252,229,19,40,10,247,251,43,207,149,172,22,37,155,48,75,217,12,139,19,81,179,163,188,242,2,196,78,232,103,29,228,249,248,239,207,217,241,227,75,23,236,212,245,252,252,25,220,84,208,246,248,129,162,63,230,247,247,240,254,251,13,37,18,15,169,75,29,250,45,154,248,224,197,197,13,252,210,40,67,34,156,236,225,215,235,208,241,52,23,63,8,238,93,53,65,237,23,40,198,220,195,181,23,248,10,51,178,251,148,224,234,220,0,11,12,14,203,155,38,75,13,129,4,229,197,1,231,32,235,14,221,241,242,152,162,244,207,186,58,59,204,192,74,216,170,191,240,203,7,181,42,86,52,37,228,213,83,245,231,22,49,23,200,24,195,137,17,30,42,107,242,186,39,32,218,2,14,18,16,83,241,207,39,239,251,129,13,56,53,201,225,232,252,211,198,9,2,238,202,202,24,251,43,230,31,8,248,205,18,232,17,222,244,227,8,236,8,250,254,169,26,253,255,7,209,216,250,23,234,191,205,22,241,243,239,27,241,205,9,30,26,55,19,176,72,127,4,215,0,74,10,15,240,250,243,237,244,225,203,249,40,20,228,194,37,12,70,248,25,19,52,113,251,238,23,216,233,2,227,255,245,228,10,129,251,0,19,7,178,229,236,1,158,192,250,23,234,215,244,16,154,240,244,30,247,252,35,191,87,168,2,224,1,49,16,253,238,250,26,1,244,230,13,251,26,50,20,197,251,207,221,236,43,222,72,98,184,248,254,246,224,10,20,7,206,249,5,34,19,41,38,6,227,19,170,174,167,238,238,219,24,18,30,56,129,241,229,0,246,242,35,216,3,177,50,174,5,233,43,238,188,20,42,207,206,224,32,11,8,241,250,40,199,10,192,1,232,6,237,35,247,39,196,176,231,22,241,212,10,211,15,114,22,42,79,175,30,244,221,242,174,177,32,208,23,171,244,247,213,36,32,129,247,53,185,11,31,212,79,87,241,201,239,4,188,40,248,254,235,218,231,241,224,245,217,62,192,184,33,238,215,182,211,57,74,191,242,84,17,237,250,241,207,219,40,83,201,192,196,160,197,239,86,222,78,127,55,3,171,8,84,242,251,6,205,26,232,163,53,52,34,189,234,198,4,255,4,184,249,67,71,245,16,63,45,7,251,220,171,18,233,211,3,11,249,249,9,224,18,252,250,3,39,33,16,240,249,18,235,24,230,39,239,29,12,232,211,236,87,24,173,129,181,64,11,246,14,14,253,224,248,241,6,16,201,232,225,255,245,55,251,3,255,239,21,6,11,24,241,5,30,194,23,83,17,170,23,190,233,150,157,172,101,8,216,68,17,251,237,177,216,243,49,41,210,255,13,178,141,205,244,48,32,84,223,8,22,233,158,231,127,226,56,248,35,250,212,57,247,243,253,223,4,9,248,255,171,235,2,2,65,26,129,1,242,222,226,239,247,21,9,36,229,18,149,180,3,251,253,231,18,43,47,254,12,19,249,61,173,243,246,23,24,40,105,19,204,1,205,1,245,187,252,17,63,219,19,229,252,247,232,22,146,201,8,252,3,48,2,247,252,231,243,196,37,19,18,7,37,74,38,16,44,215,217,216,184,171,245,221,233,59,2,27,227,52,211,182,224,85,44,30,129,7,200,179,194,47,193,216,82,103,242,254,1,207,246,237,172,24,0,219,218,254,215,205,243,178,60,69,249,230,26,219,201,254,19,80,14,20,35,6,29,72,28,40,38,54,189,189,192,130,190,244,42,56,250,35,19,63,171,195,253,22,40,156,223,234,178,146,242,179,127,206,109,168,47,202,209,223,220,182,234,18,12,221,227,252,222,250,12,170,63,60,251,18,27,1,4,228,10,99,31,0,237,247,245,0,211,72,16,12,167,233,167,129,18,19,98,203,41,233,247,89,25,43,251,15,28,184,225,225,167,32,19,237,158,17,94,15,43,161,2,168,43,146,207,233,46,247,79,238,225,64,8,214,179,141,251,80,219,4,49,195,250,2,24,242,209,9,221,252,173,225,244,6,40,233,9,229,24,200,2,33,244,220,67,229,249,212,56,33,234,162,32,216,7,0,176,251,23,9,199,132,250,55,249,248,1,250,127,238,29,197,38,37,241,174,122,203,250,206,253,55,219,228,232,242,227,255,83,248,253,3,8,50,115,251,203,213,57,138,207,224,232,193,237,52,12,14,4,169,4,251,226,92,222,3,239,21,202,52,25,1,85,225,127,20,213,76,40,61,27,190,174,58,227,221,238,226,200,199,221,119,210,34,8,5,249,234,36,240,178,22,252,244,235,15,255,43,4,218,184,233,169,254,67,11,82,157,1,226,5,6,220,235,32,103,0,228,5,243,79,6,240,250,243,232,250,246,184,232,245,224,10,201,7,246,220,203,188,5,8,33,22,178,231,215,49,170,249,198,23,65,34,43,20,129,180,189,181,1,13,239,11,1,232,183,19,38,118,242,6,36,221,227,224,218,18,232,39,195,229,237,227,28,191,46,227,195,101,250,226,233,192,162,173,249,252,30,10,17,14,11,58,255,1,61,254,127,54,117,191,231,252,190,18,255,38,232,201,231,228,237,246,252,5,194,210,34,237,184,232,17,217,246,24,206,238,10,234,5,6,164,27,255,225,32,9,88,145,243,189,235,45,2,141,245,111,127,223,206,243,253,26,217,27,79,6,7,243,5,242,5,0,237,24,226,2,246,51,21,75,226,205,15,23,38,122,217,255,255,4,0,0,0,0,16,0,0,255,14,22,222,244,13,202,17,219,252,232,47,238,5,235,2,10,46,11,206,248,196,9,16,6,129,16,26,238,239,222,7,30,0,218,252,18,2,13,144,5,8,191,226,247,219,195,1,21,57,22,139,11,45,35,13,204,205,19,40,1,221,217,20,9,38,172,13,184,40,37,194,46,223,195,171,179,189,153,20,191,237,161,18,34,164,202,228,0,209,228,212,218,51,48,45,0,159,166,250,216,129,192,148,240,3,237,185,180,228,178,23,190,41,37,10,248,3,216,154,19,147,0,34,176,166,11,7,9,204,1,202,41,39,129,254,16,77,186,203,220,17,206,23,219,208,247,215,69,181,235,33,4,201,141,7,11,243,76,8,33,241,236,255,28,252,28,79,230,160,246,203,160,42,227,5,37,238,247,228,6,217,5,0,11,213,58,36,6,202,199,69,19,40,37,238,30,253,233,24,218,26,226,13,225,129,32,253,26,189,28,242,207,237,255,5,154,243,210,204,169,68,18,249,229,22,214,6,52,166,249,19,230,26,212,184,4,62,27,215,39,8,12,255,242,78,62,241,176,24,50,252,15,201,19,25,25,243,162,234,6,220,251,1,243,22,1,248,171,12,255,241,23,240,25,5,20,15,2,230,172,245,36,232,129,237,34,5,17,250,224,0,247,213,0,9,20,6,199,250,20,30,34,241,23,204,239,18,33,248,197,0,17,8,12,252,33,169,6,243,224,235,29,13,11,5,250,15,3,250,252,33,129,225,255,202,235,6,2,249,252,19,239,7,241,254,12,248,19,13,228,1,6,213,5,1,13,2,247,12,235,3,205,250,245,27,5,244,8,233,28,252,6,13,4,254,255,21,26,7,241,204,11,222,18,243,229,74,231,200,237,21,3,4,11,26,218,230,211,7,226,21,238,243,210,30,12,198,231,36,27,14,56,7,15,2,129,230,244,255,244,251,231,5,211,217,230,16,237,21,8,4,230,6,1,12,205,235,22,5,254,2,2,222,229,222,226,224,129,1,20,5,25,150,238,8,239,25,253,5,196,10,199,64,166,22,43,247,18,219,194,174,235,29,42,237,19,31,243,6,17,229,235,3,20,255,176,215,255,239,32,248,13,23,213,5,23,222,21,10,219,0,214,222,5,228,221,226,247,224,39,15,6,0,249,7,244,230,235,21,218,32,23,5,186,211,6,25,253,34,237,19,152,35,33,14,251,255,17,224,129,251,22,254,22,167,226,2,25,224,223,16,254,252,189,16,254,31,19,14,28,23,7,2,11,228,192,0,236,5,255,10,6,200,252,18,37,214,1,241,46,218,180,224,245,24,229,253,189,171,243,18,242,36,54,38,25,56,211,238,129,235,253,21,254,32,238,251,212,11,0,6,41,252,14,198,15,204,227,13,25,228,206,233,42,28,28,233,22,252,155,7,65,39,255,240,248,195,18,245,5,21,24,221,253,229,34,242,235,17,217,36,129,182,39,144,232,223,21,171,32,9,216,252,223,48,53,192,194,11,254,252,226,15,28,2,241,51,231,165,252,12,196,218,227,252,220,14,210,8,59,228,0,207,184,34,23,51,51,3,175,230,4,40,3,222,13,1,4,233,129,17,185,9,241,243,229,237,254,211,27,253,253,24,29,234,248,253,221,245,247,6,19,3,10,0,3,20,255,4,224,24,221,243,142,17,181,11,178,1,247,238,153,6,25,254,7,20,244,251,16,54,9,230,248,6,8,25,22,237,233,38,212,200,254,250,180,22,7,223,1,8,229,254,9,8,181,248,232,47,214,226,3,7,81,14,13,253,250,252,217,27,231,3,201,30,210,20,235,170,29,129,217,236,245,244,81,239,23,9,232,177,0,202,2,35,50,29,185,11,245,200,254,227,201,251,229,248,5,5,15,209,192,217,129,13,249,240,31,199,248,248,21,8,1,9,244,226,31,247,2,225,14,0,21,21,15,254,230,225,245,20,3,240,202,246,229,28,11,8,19,223,240,20,15,16,208,231,242,28,8,3,20,251,0,255,242,9,37,19,158,85,18,63,129,22,22,55,208,188,215,4,213,255,192,189,195,37,236,6,242,21,237,239,26,48,252,251,11,241,250,254,4,201,255,5,217,10,22,8,9,44,6,224,36,234,252,33,186,36,15,11,228,251,242,7,205,208,234,1,9,16,47,34,38,37,199,1,244,250,245,12,147,210,247,4,251,251,230,232,28,234,234,240,246,218,65,31,247,29,212,7,13,5,129,4,16,44,247,29,164,6,185,8,239,254,172,144,16,50,14,153,252,243,243,221,222,13,17,32,221,138,204,21,19,28,20,18,36,177,232,244,37,249,41,48,205,235,88,218,75,184,69,146,194,240,246,51,244,255,179,170,129,27,160,9,23,222,183,248,11,223,27,232,230,220,255,240,0,253,44,230,213,230,215,244,234,61,37,214,247,237,144,245,244,232,12,251,238,11,30,242,250,26,0,226,208,250,232,243,216,250,217,4,0,6,17,252,6,229,21,241,213,18,243,251,25,16,11,3,37,10,160,254,196,235,17,6,17,1,181,17,228,252,20,5,11,241,16,191,210,237,205,215,11,4,11,9,202,129,0,32,243,234,1,253,253,9,5,242,239,220,0,237,3,249,239,1,3,0,250,0,11,240,33,250,10,246,207,244,13,252,255,3,227,13,244,1,219,254,2,1,249,6,4,9,7,251,0,237,2,37,6,129,13,246,21,251,6,2,7,253,5,0,8,153,228,5,16,15,179,5,242,208,237,22,248,58,188,246,225,243,190,9,18,238,15,220,16,224,32,8,27,4,40,14,250,253,17,252,209,0,237,32,29,242,255,225,229,205,184,3,235,16,18,245,33,6,249,231,231,228,48,31,35,129,235,183,208,251,9,8,237,227,235,5,23,240,251,246,8,245,245,1,11,4,28,1,8,233,247,245,14,214,247,9,254,240,255,233,22,255,4,1,242,3,5,214,16,14,9,9,213,225,242,26,15,250,5,9,250,235,2,27,129,2,12,0,229,25,3,211,14,4,21,7,232,34,249,39,213,6,24,43,224,202,165,17,20,4,164,0,57,13,15,254,13,55,4,129,216,247,243,166,157,248,234,242,33,247,2,7,240,24,223,254,10,218,17,215,31,183,170,16,16,62,243,234,22,253,19,253,11,223,35,241,13,33,2,252,15,247,244,250,219,14,220,227,247,15,231,242,172,242,235,8,212,251,239,226,244,3,224,15,0,255,233,26,248,2,247,209,231,0,129,12,32,10,255,35,1,16,36,12,236,20,3,11,12,245,253,224,232,3,11,21,253,244,239,214,21,230,227,8,2,249,240,10,147,237,7,247,241,45,187,232,253,235,184,29,240,226,22,10,7,214,210,252,6,9,129,16,249,252,238,245,248,6,253,16,26,235,10,242,156,27,14,192,8,1,252,8,14,254,25,246,202,240,31,20,238,254,15,182,8,250,40,249,207,24,22,167,1,227,25,255,228,206,0,14,31,230,28,178,14,236,248,129,11,247,7,6,20,156,249,174,236,255,235,239,23,2,8,235,17,24,222,2,247,11,193,11,254,16,4,239,221,16,255,205,25,205,55,149,17,242,5,251,254,8,248,230,28,19,5,34,235,33,227,20,22,50,129,180,19,251,179,254,249,21,31,229,4,12,193,254,0,218,12,32,8,255,246,32,221,253,33,228,21,29,213,17,194,209,7,253,8,7,254,13,6,12,14,7,177,228,7,7,14,230,219,232,46,8,219,7,39,3,251,175,181,33,226,26,164,22,172,201,16,201,189,7,239,23,251,23,4,239,198,20,10,209,33,47,15,255,2,224,240,3,61,17,129,3,200,6,175,1,226,236,200,0,73,1,219,19,12,255,196,246,9,33,253,254,12,172,5,10,254,227,54,3,242,206,183,9,200,218,179,56,252,141,235,241,39,30,23,168,6,75,226,236,221,4,127,6,236,33,39,10,35,42,234,249,235,248,17,223,211,245,39,1,219,163,231,175,17,46,203,50,229,247,32,34,68,2,240,157,55,18,35,253,14,199,249,19,245,38,245,6,53,201,245,212,251,29,246,6,19,30,213,30,236,249,248,240,220,234,22,236,173,166,238,255,253,231,27,0,18,225,2,6,240,10,16,234,4,19,17,1,25,51,220,250,255,27,175,219,64,21,7,129,12,225,163,244,12,201,26,0,17,40,199,254,233,55,217,228,163,255,16,215,191,47,39,29,9,6,20,11,229,207,6,253,23,235,30,252,226,242,28,9,241,18,206,199,129,223,197,39,195,47,16,206,2,10,37,232,10,210,31,222,2,74,176,216,230,150,29,60,237,165,210,30,234,13,17,4,5,4,237,22,2,238,6,234,4,225,228,228,228,189,18,180,12,232,5,236,238,21,224,253,3,161,251,255,4,19,14,2,3,158,8,11,3,20,205,253,244,251,226,17,248,16,2,2,22,239,18,233,244,241,129,248,216,5,6,222,13,188,0,40,12,0,202,11,240,240,238,48,213,24,244,213,129,211,215,247,10,19,1,50,24,17,18,1,1,223,220,254,251,0,217,240,3,216,248,252,225,3,255,237,191,232,170,14,8,8,254,227,39,26,227,252,197,219,13,0,248,235,34,244,213,4,214,248,227,2,247,34,212,17,236,6,0,20,13,248,10,207,205,35,214,236,28,41,28,230,2,2,205,215,1,4,4,20,234,34,225,189,149,29,235,223,236,7,254,52,228,214,129,154,6,242,7,25,28,247,251,216,151,253,21,23,5,255,251,246,241,255,255,13,239,232,222,241,168,1,237,243,20,239,11,227,194,8,233,215,218,16,10,243,214,250,10,17,15,3,246,4,0,0,232,17,172,2,12,217,13,224,58,53,11,129,5,245,225,18,9,17,208,14,3,8,252,12,251,158,232,241,23,227,10,174,233,17,209,14,154,7,19,201,38,64,40,17,255,179,25,230,241,209,74,33,41,201,6,3,247,217,42,250,25,28,246,13,27,239,130,8,198,214,129,46,13,230,248,255,202,42,244,4,41,59,0,170,248,185,7,187,236,20,253,246,249,230,7,254,30,221,246,18,222,7,248,254,14,236,8,254,6,250,218,235,245,248,7,18,20,3,247,254,250,194,252,0,12,29,225,225,14,241,159,24,197,217,241,253,236,5,235,4,129,251,234,240,236,37,235,201,245,215,12,253,251,234,35,226,240,24,129,246,229,29,254,36,1,204,223,22,146,33,13,34,33,235,223,246,219,227,222,38,45,3,21,252,233,22,35,251,252,16,21,4,212,250,246,46,2,203,236,26,187,246,248,177,235,26,236,217,245,4,227,28,239,224,253,10,239,160,3,171,236,245,42,0,222,18,245,27,217,225,3,215,252,26,3,206,247,5,16,219,20,199,205,15,14,25,232,4,14,7,249,253,194,11,222,241,9,245,129,2,1,16,214,5,253,1,2,12,224,248,243,250,0,230,235,43,244,250,237,4,189,8,220,0,237,195,237,32,5,19,244,43,4,2,19,0,21,0,253,254,254,189,223,252,8,10,22,7,20,25,129,251,9,220,230,252,44,250,213,247,245,33,244,17,254,30,133,251,5,235,39,12,210,4,177,251,24,41,26,241,228,202,29,205,10,168,14,44,3,250,225,10,191,235,7,14,238,220,11,210,237,6,25,0,13,19,5,15,244,243,248,243,230,18,253,255,253,11,239,2,255,249,234,13,4,16,165,252,217,251,239,13,254,250,209,1,219,12,129,19,5,245,18,213,252,7,231,5,39,248,201,247,199,223,9,252,12,244,7,227,235,13,6,25,4,254,245,224,19,251,251,245,23,2,252,2,249,186,213,254,242,248,6,249,247,1,7,253,248,21,189,129,231,229,30,209,194,31,1,22,20,241,246,251,252,246,208,22,23,223,245,11,253,238,201,4,231,7,8,33,234,226,6,238,252,6,8,9,254,215,246,17,10,214,173,17,252,218,245,245,12,247,202,3,14,244,198,255,245,2,16,25,249,232,238,225,12,8,250,20,5,129,255,1,0,230,4,4,4,237,8,21,12,234,10,191,29,218,253,242,159,18,250,211,44,245,226,18,223,15,38,186,13,223,12,250,227,21,0,6,22,6,250,229,196,188,3,254,214,240,249,4,235,8,218,1,235,246,129,251,2,252,50,226,238,248,243,253,227,0,55,248,15,234,238,246,21,191,33,250,255,14,9,251,17,2,129,23,5,20,14,251,255,250,238,242,190,7,7,247,248,210,13,245,236,9,8,37,19,0,5,5,17,250,5,1,13,187,254,0,228,250,240,246,192,13,230,230,15,6,5,4,6,14,246,5,23,253,35,254,0,253,245,16,3,183,29,27,248,224,247,41,208,7,3,198,236,4,29,42,197,8,11,37,247,29,238,241,10,0,225,239,0,224,0,251,7,236,4,253,35,246,201,10,236,229,235,16,10,234,2,12,12,19,12,229,129,20,34,234,27,20,238,211,253,248,43,25,253,231,9,5,241,7,9,244,240,19,232,250,175,14,243,238,24,207,241,4,255,11,242,250,246,245,52,247,25,199,209,253,12,253,250,252,17,247,238,29,246,18,129,218,247,8,2,242,23,3,6,41,6,12,254,1,29,4,244,229,24,201,26,246,16,15,218,129,9,5,29,7,20,18,224,216,232,238,255,7,39,244,9,8,28,249,8,245,12,14,220,227,11,11,209,6,9,14,243,4,14,231,2,8,4,254,241,229,251,0,237,36,9,252,13,241,233,18,178,176,3,239,44,9,24,216,254,1,21,17,237,160,3,182,20,43,227,20,27,250,254,23,23,11,27,53,0,13,22,0,247,219,1,25,31,206,212,21,40,7,53,249,230,248,2,221,239,0,11,251,140,159,219,54,236,242,47,241,201,16,215,227,204,197,129,247,13,39,7,136,5,229,32,129,24,226,245,6,226,32,236,20,225,235,240,248,12,254,16,253,4,23,3,223,7,13,19,211,41,15,13,3,234,4,0,25,248,255,22,12,230,3,255,4,243,22,13,246,247,0,236,7,2,244,224,245,249,242,0,14,4,242,246,255,10,20,238,35,253,155,251,251,246,21,226,6,15,12,250,247,236,239,239,254,250,250,244,4,8,232,240,14,0,247,222,3,0,255,15,250,248,255,28,245,241,213,228,241,217,1,228,24,4,237,250,7,20,6,3,3,129,237,251,205,0,30,254,238,221,16,230,202,247,26,24,17,242,31,248,3,1,248,228,200,251,253,18,209,46,215,35,18,7,228,239,190,2,240,20,46,189,1,23,14,2,6,248,255,178,8,244,0,208,235,196,34,205,202,217,8,34,10,35,2,200,10,244,22,186,242,8,129,15,255,27,251,20,222,251,193,232,218,26,232,22,44,229,247,251,6,9,17,11,255,222,20,12,2,11,238,47,179,210,234,0,253,232,253,227,3,231,200,233,3,8,227,139,13,193,247,24,244,241,7,244,22,214,11,40,129,237,206,255,15,254,214,17,253,9,221,12,247,238,225,2,248,222,20,0,21,219,250,24,247,31,249,254,8,2,8,16,7,209,20,22,254,240,26,220,253,8,14,243,4,237,214,254,246,3,33,214,245,16,28,252,236,3,222,223,230,204,255,244,13,223,227,230,129,4,229,5,255,35,245,183,38,220,235,247,0,33,15,221,208,160,243,250,221,61,155,16,252,12,232,254,20,243,197,50,243,238,11,201,252,27,247,14,7,43,129,249,13,27,18,165,218,253,72,252,245,80,238,247,27,252,23,191,194,157,1,36,245,36,200,27,19,163,198,226,201,139,53,192,246,59,193,9,46,38,180,150,165,231,194,3,20,197,169,7,30,198,182,158,246,190,180,252,194,54,208,215,237,204,248,23,216,253,155,198,129,205,241,174,202,254,207,211,32,184,170,9,215,27,237,230,165,1,12,237,45,246,250,239,237,21,20,226,19,198,5,5,39,237,228,238,248,241,204,7,227,2,18,2,217,224,222,249,252,12,21,236,2,3,24,251,0,1,14,8,184,1,16,14,242,129,7,236,248,8,254,247,255,14,5,253,248,23,249,17,8,241,224,15,7,246,20,53,93,22,53,140,37,129,78,223,74,176,12,84,15,150,182,46,244,26,62,5,23,156,147,229,3,191,17,29,244,228,206,3,7,220,30,6,237,165,198,15,175,28,3,136,213,215,21,8,75,22,200,14,139,171,7,16,9,231,236,221,72,1,160,211,243,25,238,13,1,229,234,224,40,5,6,14,34,28,220,34,255,17,127,146,226,243,214,41,246,54,236,240,7,23,204,208,255,245,23,24,45,8,197,14,255,208,181,247,243,19,178,18,26,236,178,32,240,207,25,4,17,196,3,190,9,18,248,239,0,7,2,212,228,1,1,242,246,7,226,248,233,214,11,15,222,7,27,253,244,215,216,129,26,207,242,218,253,255,244,45,1,217,7,26,22,225,8,4,15,13,210,3,5,2,232,9,199,5,9,2,10,27,246,12,15,25,27,22,251,1,2,254,247,239,251,9,252,2,243,12,1,254,5,9,248,240,228,240,247,230,66,5,209,216,18,22,226,229,243,4,2,229,232,252,2,3,247,25,253,254,209,0,16,3,247,7,250,4,250,206,11,9,21,129,12,14,247,0,209,250,10,243,25,42,219,206,21,215,175,45,2,245,160,209,239,164,5,13,1,56,164,213,245,242,39,36,214,245,12,34,215,174,218,215,250,250,230,15,251,3,220,36,30,35,250,147,212,50,30,29,5,241,197,241,25,49,152,170,244,47,33,43,245,39,129,247,180,13,26,37,249,4,40,129,245,242,14,20,189,221,4,8,232,186,242,26,201,28,200,251,231,22,215,192,21,245,248,243,1,246,17,8,6,233,16,16,13,186,17,169,33,222,212,235,196,162,34,14,240,203,3,219,246,16,246,233,254,240,222,6,15,3,129,248,40,254,225,15,226,255,253,242,243,214,6,5,191,40,252,11,207,220,81,13,249,215,8,220,202,198,227,19,6,242,237,18,1,1,18,5,250,34,252,205,14,144,2,18,230,7,8,246,17,247,14,245,14,29,7,31,233,25,199,6,239,14,25,1,29,18,214,249,2,5,6,241,94,129,221,252,14,48,171,40,56,227,217,247,244,3,221,8,247,222,43,216,250,34,20,239,254,2,30,218,22,13,225,218,163,240,254,219,6,49,23,244,5,236,237,147,25,202,32,254,254,224,9,16,12,134,233,255,255,4,0,0,0,0,1,0,0,20,76,37,190,56,137,63,64,209,203,57,190,143,50,64,190,231,188,131,63,247,85,48,63,13,55,134,191,214,194,10,192,229,159,153,189,60,96,15,191,175,238,61,192,176,201,242,191,12,23,0,65,139,121,232,191,146,79,114,190,60,125,246,62,214,37,182,63,147,174,57,192,70,252,238,191,0,27,148,63,196,204,134,191,17,186,185,192,110,177,135,63,151,231,68,63,240,74,193,190,210,232,216,191,240,62,32,192,169,93,152,191,105,89,86,190,99,196,19,191,96,14,67,63,9,81,160,187,236,230,113,191,36,138,2,64,215,77,104,63,12,115,136,187,69,164,41,190,60,253,249,191,214,74,25,62,121,146,10,192,146,115,216,62,148,235,102,188,227,214,12,65,33,149,24,191,51,107,153,62,57,141,43,192,76,118,35,192,218,25,157,190,216,162,54,192,127,208,9,63,24,113,83,191,52,33,57,62,141,227,12,64,234,75,10,64,228,160,180,64,93,188,108,63,118,148,163,192,242,64,198,191,100,186,224,62,86,229,37,192,235,200,17,191,212,113,239,64,239,34,27,192,38,107,140,189,146,234,255,255,4,0,0,0,0,1,0,0,222,2,254,62,62,135,68,189,16,58,205,190,5,114,164,62,185,222,168,191,159,100,8,192,247,98,180,191,210,29,143,190,149,67,12,191,87,41,56,191,224,213,144,191,29,111,182,63,31,38,254,62,178,33,169,62,241,192,33,191,191,8,160,190,171,0,42,190,224,74,149,191,60,170,39,61,244,153,149,191,195,132,33,191,147,8,173,61,233,163,180,190,154,25,231,191,210,166,3,190,118,144,4,190,77,67,81,191,43,107,68,190,27,37,91,190,183,160,28,191,173,108,130,190,20,164,164,191,58,100,232,191,86,40,230,62,62,70,137,191,125,123,27,192,221,79,163,62,75,18,95,191,227,119,119,191,47,245,143,63,167,59,28,191,89,220,22,191,183,33,52,192,184,199,217,189,63,15,46,191,117,94,124,191,14,85,63,191,3,161,132,191,157,245,58,63,242,34,88,191,135,0,224,190,9,90,13,191,94,95,79,191,123,166,16,190,15,84,61,189,112,163,134,62,98,253,204,60,214,108,205,61,255,100,121,190,25,200,216,188,217,109,169,191,34,188,196,62,176,219,239,191,5,19,242,62,158,235,255,255,4,0,0,0,0,9,0,0,202,74,219,191,63,251,182,191,142,7,4,192,118,203,155,191,163,39,238,63,161,193,3,190,114,21,5,63,247,207,48,191,207,117,201,62,195,146,131,189,108,19,41,191,229,238,17,192,229,70,3,64,219,130,154,64,173,66,212,191,123,64,4,192,52,126,216,61,188,209,234,190,100,115,81,62,68,73,226,189,29,249,187,62,41,64,36,61,60,182,7,63,78,45,134,63,91,229,61,63,40,6,100,64,57,87,148,63,62,94,166,62,7,192,30,193,84,163,145,64,107,206,25,191,110,34,100,189,177,141,105,191,127,11,61,188,39,170,11,62,238,51,19,189,252,139,172,190,183,111,9,64,213,152,105,191,7,142,22,189,180,127,193,62,2,242,205,190,179,176,31,191,58,5,26,62,245,191,136,191,178,234,166,191,102,188,143,191,173,124,32,63,96,182,47,191,247,159,213,190,65,238,140,190,79,21,87,62,100,147,144,63,37,131,166,192,219,7,107,63,220,53,17,63,56,185,66,191,200,186,94,191,201,27,15,192,12,197,128,63,157,11,246,63,28,31,127,189,218,112,184,62,25,212,203,191,43,191,253,63,248,67,115,188,82,230,235,190,243,7,239,190,169,33,186,63,125,2,232,63,145,174,79,191,177,148,225,63,111,136,178,63,101,44,30,62,188,160,181,190,145,162,114,64,67,50,8,190,161,131,75,63,75,95,49,63,116,146,195,62,220,186,94,63,212,60,5,64,222,63,74,191,153,224,51,63,203,167,219,63,11,128,135,63,157,237,214,192,60,132,201,63,137,255,89,63,120,244,154,63,234,168,220,63,232,53,159,63,18,228,101,191,211,11,245,63,118,51,118,191,210,130,144,189,198,70,139,61,44,210,140,190,151,132,188,191,193,10,246,58,84,40,20,63,230,10,156,63,232,65,168,63,233,4,64,192,182,216,20,62,8,24,233,190,37,156,28,191,184,157,180,63,251,103,178,190,93,38,54,64,108,169,11,190,164,6,220,190,176,77,235,191,252,227,32,63,208,178,230,63,131,95,87,192,71,86,195,191,93,180,64,190,108,132,210,62,134,69,25,63,183,11,56,190,173,227,170,61,229,15,157,190,19,16,56,63,234,239,201,63,93,51,99,189,77,95,136,63,234,130,143,191,130,48,83,191,60,183,29,63,33,251,169,63,112,254,69,63,206,124,99,63,199,185,32,64,51,247,96,63,29,14,231,62,4,161,224,63,98,238,99,191,64,55,47,62,137,38,33,64,7,244,141,63,29,27,94,63,122,172,185,60,49,250,139,62,2,3,11,64,105,41,172,190,253,149,184,63,255,69,0,64,73,11,216,63,250,11,255,63,225,162,144,191,224,113,162,191,230,184,242,63,56,119,66,189,90,225,173,189,188,93,120,60,103,11,142,61,143,215,155,63,170,73,95,191,36,27,2,189,242,147,21,63,136,73,45,63,31,21,6,188,212,68,67,189,96,134,105,61,38,252,239,190,199,121,14,64,139,64,84,60,99,141,139,191,190,174,237,62,224,25,35,192,40,184,48,64,155,216,22,63,11,122,31,64,29,136,9,189,109,55,205,62,234,35,30,63,171,184,47,192,135,202,144,63,34,67,173,190,139,207,218,191,157,222,140,188,144,182,48,62,224,131,64,62,26,210,249,63,153,128,80,63,43,143,44,63,65,145,30,192,31,90,85,63,1,55,21,63,50,172,146,62,63,195,233,62,241,22,236,62,241,112,81,61,81,92,93,62,193,19,147,62,180,1,189,62,12,252,35,190,213,200,44,63,169,71,197,62,119,49,114,191,28,203,32,62,7,124,88,61,204,230,209,191,73,142,6,192,113,218,153,63,235,111,91,191,59,142,190,190,106,111,85,62,10,133,15,191,125,250,148,62,122,16,6,63,199,95,156,61,187,170,183,61,158,186,34,62,26,80,178,63,203,112,47,190,1,86,2,64,156,29,161,62,240,89,177,190,10,231,250,191,19,77,146,63,24,108,71,190,235,213,25,189,60,155,209,61,231,65,109,190,88,214,227,62,241,179,39,189,12,198,59,190,205,105,113,62,4,174,81,62,252,137,194,62,76,213,143,189,150,199,8,191,181,135,11,191,187,9,151,61,18,237,18,190,23,140,142,62,124,92,147,190,157,45,77,62,98,87,21,189,105,47,161,62,234,183,246,190,185,234,79,62,160,184,125,63,141,38,55,192,221,173,179,62,2,39,40,191,133,178,45,60,187,58,139,188,50,6,20,62,252,161,166,63,235,90,71,62,126,189,102,191,194,133,152,63,96,46,61,62,67,241,62,61,85,118,1,190,129,48,31,60,159,87,244,190,18,217,159,62,9,18,157,190,62,87,72,62,63,114,152,63,77,7,222,61,179,39,200,190,140,140,10,62,235,5,113,63,93,214,104,63,196,113,198,63,42,240,83,63,88,180,42,63,131,126,176,188,27,178,78,63,114,197,199,190,213,216,181,189,198,132,37,190,69,16,86,63,51,33,198,191,210,172,103,62,22,199,12,190,215,123,34,63,12,181,171,62,117,188,58,63,10,18,41,62,175,184,181,60,226,156,238,190,218,143,163,187,222,11,24,61,212,172,166,61,228,80,46,191,206,56,235,189,253,1,151,63,236,0,42,63,44,37,117,188,6,147,218,190,136,59,224,62,99,228,170,62,232,209,246,190,214,254,178,61,211,195,188,189,239,230,141,63,38,120,75,190,104,181,148,188,19,143,225,189,210,14,179,190,182,155,224,60,188,33,16,189,108,83,138,61,178,114,198,62,31,213,225,189,63,248,132,63,167,187,26,189,205,218,24,191,176,243,254,61,253,32,169,190,178,250,97,190,157,43,95,190,56,205,75,61,79,143,172,60,244,225,166,62,14,47,156,63,95,10,37,63,229,173,169,61,45,120,123,189,234,88,3,188,41,69,168,63,121,15,127,190,36,59,128,62,2,21,40,63,138,232,28,62,37,48,225,62,38,228,24,63,24,144,65,63,171,216,85,63,154,168,230,190,155,200,35,62,157,107,236,62,146,254,93,63,149,206,159,63,54,229,195,62,10,250,189,63,65,16,8,191,142,96,154,190,251,25,205,62,33,62,78,63,46,188,194,62,72,118,168,190,213,218,241,189,38,143,71,62,195,238,87,61,153,64,97,59,35,255,171,190,238,214,194,63,238,219,204,58,19,123,188,189,65,86,5,192,179,251,148,63,17,177,173,62,214,107,113,63,77,139,206,62,47,245,153,63,244,243,110,191,188,74,173,63,159,149,166,63,40,191,134,62,49,208,17,62,169,1,129,191,22,175,31,188,10,211,187,191,167,25,2,63,17,125,62,191,223,240,18,62,197,93,59,191,166,52,135,189,116,20,70,190,163,88,182,189,160,5,51,190,186,152,126,63,156,51,29,62,145,203,58,190,239,196,146,191,42,23,30,61,240,75,109,63,186,10,71,189,72,88,92,62,239,199,43,64,59,181,9,64,190,105,130,191,244,180,123,191,87,118,215,191,99,7,100,62,55,108,163,191,235,128,205,62,15,167,195,63,8,129,129,192,49,55,24,192,202,123,44,64,138,231,107,61,106,92,111,63,225,101,221,189,109,181,33,63,50,137,8,62,129,242,146,191,7,140,27,191,197,173,34,62,108,147,174,190,185,36,123,63,47,120,30,191,35,82,157,64,184,226,205,191,64,205,181,188,65,72,53,64,245,142,9,63,171,246,74,63,157,86,78,188,39,91,202,63,68,46,57,190,210,60,129,63,162,146,101,189,157,163,84,62,235,118,244,63,187,5,97,190,176,225,125,190,206,232,67,191,242,126,15,191,45,107,175,61,110,130,88,191,79,69,57,190,188,63,25,63,64,26,199,63,161,180,116,187,90,196,6,63,177,18,55,63,194,130,62,191,120,152,126,62,34,157,159,57,91,85,41,191,219,162,197,191,119,65,114,191,36,162,98,63,188,60,22,64,61,123,23,192,89,255,165,63,249,70,131,191,30,61,56,190,234,54,41,63,114,60,144,63,233,31,0,191,189,117,106,190,1,15,152,63,17,250,89,63,190,42,181,190,16,18,192,190,88,236,168,63,99,1,247,63,55,143,239,190,220,212,22,191,93,195,160,190,226,34,7,63,42,185,177,191,30,139,88,64,37,219,46,63,106,20,51,63,210,168,54,191,17,133,2,64,152,29,13,61,179,221,106,191,248,100,107,191,114,71,91,63,227,26,194,191,11,152,71,191,56,77,142,191,230,203,10,64,16,180,15,64,50,99,50,64,253,145,142,63,227,51,123,62,14,130,80,63,35,52,58,189,217,83,167,190,73,112,30,191,182,39,217,192,210,246,56,189,108,222,159,63,121,217,20,64,182,149,202,62,58,92,251,62,226,229,196,63,95,222,169,190,9,252,117,63,75,253,21,190,64,4,223,61,134,193,8,64,54,129,7,63,112,186,242,62,13,75,75,64,0,83,32,191,24,150,170,189,202,114,45,62,252,39,21,63,83,19,161,63,83,255,137,190,107,85,171,63,230,209,115,190,92,153,3,63,51,232,51,190,81,18,196,62,150,125,217,190,94,4,61,190,139,35,214,190,88,126,3,189,170,229,97,190,14,254,140,63,138,163,171,63,4,124,73,191,103,32,46,191,81,105,74,191,98,210,67,64,207,103,166,62,36,9,105,190,64,59,10,64,83,131,134,189,187,78,228,62,224,111,2,192,49,139,145,63,103,71,183,62,61,133,156,190,230,89,8,192,111,17,65,64,226,68,178,62,121,1,19,63,229,42,68,190,59,123,243,63,44,130,251,62,239,220,79,190,16,153,160,191,156,121,23,63,45,142,79,62,72,101,155,63,105,160,63,190,0,63,154,62,237,130,159,63,88,118,141,189,149,158,7,191,193,30,125,63,37,237,101,190,194,175,177,188,50,44,161,192,131,154,65,189,96,167,212,190,196,10,186,63,194,45,20,64,177,54,189,62,179,12,188,190,90,88,186,62,1,229,140,63,172,17,1,61,167,209,73,62,182,254,58,191,213,42,136,63,253,33,246,191,185,74,109,62,117,52,47,191,93,183,131,63,237,80,96,191,3,177,202,61,231,26,197,61,50,1,232,191,140,102,191,190,227,235,73,63,25,6,41,63,220,63,130,190,178,118,21,192,55,79,107,190,134,116,159,63,170,244,255,255,4,0,0,0,144,0,0,0,137,187,217,191,150,105,43,192,84,87,22,62,3,118,150,60,99,17,119,63,222,184,227,190,36,69,45,63,241,123,29,189,114,200,67,62,9,232,17,62,82,38,189,191,126,219,60,63,16,108,112,63,16,4,128,191,160,121,129,60,190,20,240,189,42,61,14,191,37,215,173,191,33,150,193,62,171,5,11,63,200,31,80,63,21,172,30,63,50,141,164,189,42,249,54,191,199,70,7,191,136,88,106,191,33,95,136,62,50,97,42,189,121,65,0,63,188,247,87,189,98,131,37,63,18,143,53,63,103,27,90,190,83,243,25,191,38,173,211,62,105,231,14,191,70,245,255,255,4,0,0,0,8,0,0,0,1,0,0,0,2,0,0,0,90,245,255,255,4,0,0,0,0,9,0,0,26,235,193,63,66,55,191,191,31,168,17,64,70,238,50,62,171,228,161,189,35,90,176,189,51,128,129,188,181,54,27,191,76,243,42,191,157,233,13,192,236,244,173,189,249,180,19,191,153,34,57,190,113,68,21,191,100,155,187,191,137,74,3,63,13,214,95,191,200,59,127,191,211,98,128,63,54,63,229,63,10,13,64,63,103,234,81,63,28,97,101,59,137,138,150,190,72,151,169,191,105,203,32,192,10,50,155,191,160,148,190,189,185,71,49,191,48,208,174,191,0,30,146,62,119,60,239,61,106,240,31,191,211,116,11,64,110,3,255,63,67,53,54,191,52,240,0,62,103,114,234,63,173,1,248,63,60,171,156,189,117,236,179,190,37,126,211,62,26,150,226,62,219,36,93,190,102,153,133,190,119,44,243,191,179,32,197,63,161,142,70,64,24,43,231,62,154,162,197,187,149,10,193,190,141,216,228,190,249,195,182,61,229,209,115,62,173,116,24,191,116,98,174,191,121,83,186,191,48,98,157,60,242,94,217,190,84,165,63,190,237,166,64,63,176,149,209,63,169,23,1,64,110,35,81,63,72,157,159,191,127,97,17,62,204,155,27,191,133,209,218,62,253,99,8,190,66,176,57,191,19,50,164,63,6,45,44,191,29,32,160,191,234,43,1,192,103,141,13,192,179,231,16,190,105,70,166,62,228,55,23,191,180,84,36,190,124,113,160,63,254,95,135,60,9,90,42,190,227,56,177,62,43,144,32,63,106,221,98,190,138,38,55,191,225,14,32,191,170,145,147,63,180,56,56,61,33,198,196,191,158,176,7,191,44,139,122,190,156,64,127,191,189,226,12,190,228,191,85,191,225,93,151,191,69,42,246,62,64,56,42,192,247,92,242,63,185,194,175,63,249,115,4,191,253,239,104,190,77,105,41,189,127,67,96,190,33,143,37,190,63,64,172,191,143,184,75,63,76,112,7,63,132,46,79,191,79,19,87,62,183,246,248,188,52,0,96,63,140,14,0,191,134,84,28,190,144,169,16,64,190,38,25,63,77,182,140,63,41,148,109,63,21,122,53,191,32,129,136,190,46,250,136,190,214,235,56,191,52,122,11,190,192,53,48,191,112,52,200,63,64,166,161,62,166,151,144,63,65,33,54,63,246,123,74,63,100,190,12,63,142,39,93,63,43,52,129,63,164,53,87,191,202,25,239,190,141,179,181,189,49,164,47,191,209,59,17,190,84,244,42,63,110,27,215,61,148,6,26,190,168,4,166,63,126,235,26,191,99,28,161,191,189,40,53,63,95,190,13,64,86,148,138,191,225,148,107,192,67,56,10,63,15,82,154,62,49,18,15,191,230,28,195,190,221,71,212,191,6,30,89,192,36,126,81,63,248,183,17,63,203,58,185,63,199,254,76,190,111,140,154,190,184,168,41,62,141,152,39,191,207,153,62,191,236,176,238,191,148,201,189,63,2,25,2,191,116,53,220,62,23,210,0,63,90,23,183,190,141,0,61,191,165,123,236,190,153,178,165,61,164,122,91,191,88,23,137,191,206,209,161,191,67,181,168,63,37,23,49,63,204,169,251,62,78,1,129,63,78,220,26,63,161,163,33,63,197,58,142,191,47,83,196,191,20,196,151,191,17,4,123,63,214,229,130,62,122,109,136,60,151,120,83,61,140,98,25,191,241,75,9,191,70,98,4,191,185,41,178,62,22,235,209,62,123,77,213,190,37,13,26,190,6,193,160,189,5,230,74,190,89,236,176,190,212,132,62,191,122,151,163,190,7,217,174,62,212,45,36,64,224,47,68,191,24,168,152,190,105,34,225,190,17,201,66,189,66,101,44,191,202,185,155,60,144,238,240,189,185,11,150,191,80,223,135,63,201,2,7,191,253,29,38,63,14,149,196,62,21,72,111,63,200,10,194,63,77,32,142,190,86,165,16,63,224,163,218,190,201,173,42,192,183,38,19,192,106,188,21,190,183,237,238,190,134,142,57,191,252,176,124,62,59,255,252,63,152,78,40,190,201,255,159,63,93,19,117,63,5,114,20,63,229,231,88,58,242,19,151,62,37,244,181,62,122,246,139,191,165,87,148,191,180,133,132,191,250,146,198,63,219,247,25,191,172,229,215,189,212,249,181,188,108,133,168,62,148,78,162,190,28,103,214,191,26,74,30,63,124,56,227,62,11,79,222,191,26,182,54,63,52,150,44,62,52,184,235,190,193,97,16,190,75,138,60,62,84,141,6,64,51,151,104,191,142,63,153,191,49,134,161,63,179,38,109,63,13,108,53,63,112,55,168,63,27,6,152,63,152,208,84,63,182,248,9,64,34,149,56,63,26,4,217,63,214,2,135,191,3,119,125,188,28,87,58,63,29,72,5,62,8,91,156,59,185,253,171,190,234,125,77,63,38,239,122,62,13,184,41,191,54,227,88,190,146,121,44,192,107,48,204,191,231,84,85,190,211,32,43,63,18,51,131,191,251,209,150,191,194,243,21,192,154,27,28,192,142,238,183,189,54,237,101,61,74,245,254,60,212,2,130,61,57,82,38,61,140,104,71,61,243,86,195,188,218,242,173,61,244,201,168,189,224,240,177,190,120,85,132,62,98,205,158,61,119,144,30,62,223,127,69,63,18,252,162,191,239,71,179,62,180,142,48,64,148,59,203,191,12,69,8,63,166,151,6,190,192,115,117,191,156,18,255,190,1,206,239,190,151,195,133,191,11,126,45,191,91,242,96,62,181,145,84,62,46,190,132,63,46,252,143,190,10,99,90,190,6,18,63,190,119,31,195,190,23,174,200,189,162,1,149,191,196,184,170,62,51,240,71,190,88,49,224,60,212,18,94,189,98,242,216,58,209,76,106,187,53,31,235,189,178,150,182,61,82,252,25,188,143,208,89,188,182,63,162,189,144,207,149,63,129,233,10,191,133,39,4,62,211,139,30,191,64,115,238,189,188,190,198,62,255,153,196,191,244,13,61,63,28,23,79,63,23,95,166,191,227,78,102,191,171,210,228,189,38,124,83,189,12,241,216,189,41,114,66,189,240,179,176,63,13,83,221,62,160,181,92,62,211,103,6,192,191,84,219,63,103,36,166,191,117,93,134,60,199,97,107,190,218,150,164,190,61,65,190,62,227,177,75,62,198,102,142,189,243,30,141,189,158,84,85,63,97,201,107,63,166,180,243,189,188,204,10,191,171,35,241,62,227,166,85,190,228,210,23,191,148,187,202,63,209,114,213,61,210,107,74,63,50,73,147,191,79,51,32,191,7,112,23,62,149,12,199,189,209,180,21,190,226,248,44,63,160,236,63,64,236,208,205,62,246,86,225,190,117,51,211,189,242,34,67,190,178,246,206,191,240,23,138,191,186,76,176,190,226,135,42,191,219,132,148,190,154,74,125,188,220,246,88,190,228,48,252,190,196,197,147,190,227,102,134,190,49,238,0,191,46,169,244,60,99,206,136,190,131,66,130,189,121,205,234,63,112,238,152,63,227,36,13,64,154,228,34,190,179,247,238,190,207,135,1,63,95,62,183,191,155,62,4,191,75,103,107,191,152,163,79,191,18,206,77,191,210,103,173,189,128,229,141,190,192,239,8,191,129,198,172,63,88,107,195,190,224,219,184,190,67,205,167,63,184,88,26,63,55,8,163,191,70,228,211,191,123,241,187,190,185,34,46,61,1,81,212,62,204,245,216,190,192,144,86,63,69,178,184,63,19,136,222,190,191,217,199,191,172,112,68,191,145,216,8,191,128,31,50,62,163,22,24,191,6,125,13,192,73,91,137,192,76,36,137,191,128,49,50,190,44,34,11,192,220,215,44,191,76,204,138,190,31,123,143,191,200,45,185,191,194,249,140,189,111,94,111,191,143,118,136,191,205,141,115,63,116,37,20,191,190,15,80,190,72,185,150,190,176,194,130,62,200,154,190,62,46,85,212,191,141,110,59,63,225,20,7,64,169,170,248,189,74,15,200,191,238,230,149,191,30,31,97,190,99,21,177,63,176,217,50,63,84,192,91,190,171,80,138,63,95,108,217,63,9,70,195,191,165,101,53,191,136,25,138,63,111,136,12,63,10,216,139,190,242,7,149,190,73,10,190,63,13,219,147,190,253,248,162,191,51,207,52,191,165,143,6,63,153,244,64,63,146,185,94,189,151,131,114,190,51,17,87,189,130,186,130,60,123,229,14,191,83,229,78,191,95,252,11,64,87,37,37,191,159,239,68,62,139,45,90,63,123,10,233,190,34,135,166,62,58,95,247,62,204,189,123,63,43,193,170,63,215,221,60,62,199,71,169,191,224,155,188,63,206,200,9,63,102,68,136,191,210,207,128,191,159,43,225,62,152,17,128,63,60,38,12,192,47,101,246,191,251,97,209,191,64,38,46,190,25,111,149,190,229,226,49,63,239,217,254,188,36,21,18,192,8,12,6,192,16,216,40,192,103,167,7,63,204,47,239,62,226,47,118,63,124,99,35,191,216,90,213,190,120,243,80,190,123,85,211,191,99,102,131,191,124,14,70,190,138,207,43,63,235,107,172,63,235,46,58,63,246,168,209,190,108,213,192,63,33,36,138,63,122,28,197,191,109,81,54,64,144,26,236,62,67,208,176,60,27,56,160,190,86,156,71,62,203,196,126,60,128,59,73,190,121,164,151,189,121,55,231,63,53,141,248,191,123,205,78,63,9,119,174,60,60,129,168,63,198,13,22,63,25,140,78,62,15,11,114,63,212,56,112,63,79,172,129,62,227,126,9,63,161,117,194,63,165,182,150,63,150,170,239,190,91,185,121,63,192,78,233,62,83,19,100,63,146,5,23,63,205,101,131,191,229,63,129,63,192,205,196,62,200,100,0,64,8,4,196,191,239,158,139,189,29,65,150,190,45,117,54,190,51,195,3,191,34,205,114,62,64,146,83,190,40,170,98,63,24,18,146,62,168,152,18,63,137,31,248,190,95,182,52,63,224,181,116,62,99,129,79,191,199,161,6,188,253,18,153,62,78,63,244,190,206,0,114,63,105,33,111,63,139,42,164,61,39,125,65,63,175,236,216,189,209,131,240,189,182,223,232,61,232,91,128,190,103,138,48,191,75,22,246,61,153,237,172,63,135,250,190,62,107,92,192,190,180,37,157,61,136,237,139,191,212,121,237,62,135,254,235,190,112,144,197,191,102,254,255,255,4,0,0,0,0,1,0,0,216,126,156,189,189,141,152,63,50,13,32,190,43,204,209,61,84,206,121,63,17,153,13,189,119,62,48,62,65,165,6,192,255,219,166,63,74,227,229,190,112,195,227,191,144,7,190,63,222,101,167,191,62,119,97,63,219,40,97,63,55,107,84,64,245,190,4,64,85,207,149,191,120,173,98,191,116,204,184,63,237,219,190,62,216,134,91,192,135,204,199,63,166,142,101,62,227,196,223,63,163,45,64,63,57,76,179,191,78,193,102,61,204,35,16,65,132,151,140,191,125,72,95,64,63,192,134,187,212,229,104,63,117,103,179,63,28,99,12,191,102,98,63,185,2,171,98,189,50,114,111,190,255,107,5,190,22,20,198,63,39,133,223,62,0,95,104,191,151,164,43,192,130,141,178,189,217,136,160,63,131,193,113,191,71,236,144,192,185,151,175,188,92,213,248,191,128,29,10,64,56,227,228,62,104,77,202,63,219,237,104,191,122,139,195,63,93,216,230,62,86,232,79,63,159,159,84,64,133,9,146,191,75,72,125,62,124,180,140,191,143,159,12,191,60,198,205,191,216,8,131,191,217,159,94,190,152,242,255,255,156,242,255,255,15,0,0,0,77,76,73,82,32,67,111,110,118,101,114,116,101,100,46,0,1,0,0,0,20,0,0,0,0,0,14,0,24,0,20,0,16,0,12,0,8,0,4,0,14,0,0,0,20,0,0,0,28,0,0,0,228,1,0,0,232,1,0,0,236,1,0,0,4,0,0,0,109,97,105,110,0,0,0,0,6,0,0,0,124,1,0,0,16,1,0,0,188,0,0,0,136,0,0,0,64,0,0,0,4,0,0,0,18,255,255,255,28,0,0,0,0,0,0,9,28,0,0,0,32,0,0,0,4,0,0,0,0,0,6,0,8,0,4,0,6,0,0,0,0,0,128,63,1,0,0,0,15,0,0,0,1,0,0,0,14,0,0,0,74,255,255,255,32,0,0,0,0,0,0,8,32,0,0,0,36,0,0,0,3,0,0,0,12,0,8,0,0,0,0,0,0,0,7,0,12,0,0,0,0,0,0,1,1,0,0,0,14,0,0,0,3,0,0,0,13,0,0,0,9,0,0,0,4,0,0,0,142,255,255,255,20,0,0,0,0,0,0,27,16,0,0,0,20,0,0,0,2,0,0,0,160,243,255,255,1,0,0,0,13,0,0,0,2,0,0,0,12,0,0,0,3,0,0,0,86,255,255,255,16,0,0,0,0,0,0,1,28,0,0,0,32,0,0,0,72,255,255,255,0,0,0,1,1,0,0,0,1,0,0,0,0,0,0,1,1,0,0,0,12,0,0,0,3,0,0,0,11,0,0,0,8,0,0,0,6,0,0,0,0,0,14,0,26,0,20,0,16,0,12,0,11,0,4,0,14,0,0,0,36,0,0,0,0,0,0,2,52,0,0,0,56,0,0,0,1,0,0,0,0,0,14,0,24,0,23,0,16,0,12,0,8,0,7,0,14,0,0,0,0,0,0,1,1,0,0,0,1,0,0,0,1,0,0,0,0,0,0,1,1,0,0,0,11,0,0,0,3,0,0,0,10,0,0,0,5,0,0,0,7,0,0,0,0,0,14,0,20,0,0,0,16,0,12,0,11,0,4,0,14,0,0,0,28,0,0,0,0,0,0,1,40,0,0,0,44,0,0,0,12,0,20,0,19,0,12,0,8,0,7,0,12,0,0,0,0,0,0,1,1,0,0,0,1,0,0,0,0,0,0,1,1,0,0,0,10,0,0,0,3,0,0,0,0,0,0,0,2,0,0,0,1,0,0,0,1,0,0,0,15,0,0,0,1,0,0,0,0,0,0,0,16,0,0,0,0,11,0,0,172,10,0,0,76,10,0,0,12,10,0,0,184,9,0,0,112,9,0,0,52,9,0,0,248,8,0,0,140,5,0,0,132,3,0,0,220,2,0,0,24,2,0,0,72,1,0,0,216,0,0,0,96,0,0,0,4,0,0,0,86,245,255,255,0,0,0,1,20,0,0,0,28,0,0,0,28,0,0,0,16,0,0,0,52,0,0,0,2,0,0,0,255,255,255,255,36,0,0,0,56,245,255,255,27,0,0,0,83,116,97,116,101,102,117,108,80,97,114,116,105,116,105,111,110,101,100,67,97,108,108,95,49,58,48,0,2,0,0,0,1,0,0,0,36,0,0,0,174,245,255,255,0,0,0,1,20,0,0,0,28,0,0,0,28,0,0,0,15,0,0,0,80,0,0,0,2,0,0,0,255,255,255,255,36,0,0,0,144,245,255,255,52,0,0,0,115,101,113,117,101,110,116,105,97,108,95,49,47,100,101,110,115,101,95,49,47,77,97,116,77,117,108,59,115,101,113,117,101,110,116,105,97,108,95,49,47,100,101,110,115,101,95,49,47,65,100,100,0,0,0,0,2,0,0,0,1,0,0,0,36,0,0,0,34,246,255,255,0,0,0,1,20,0,0,0,28,0,0,0,28,0,0,0,14,0,0,0,72,0,0,0,2,0,0,0,255,255,255,255,64,0,0,0,4,246,255,255,44,0,0,0,115,101,113,117,101,110,116,105,97,108,95,49,47,103,108,111,98,97,108,95,97,118,101,114,97,103,101,95,112,111,111,108,105,110,103,50,100,95,49,47,77,101,97,110,0,0,0,0,2,0,0,0,1,0,0,0,64,0,0,0,142,246,255,255,0,0,0,1,20,0,0,0,36,0,0,0,36,0,0,0,13,0,0,0,160,0,0,0,4,0,0,0,255,255,255,255,95,0,0,0,8,0,0,0,64,0,0,0,120,246,255,255,124,0,0,0,115,101,113,117,101,110,116,105,97,108,95,49,47,99,111,110,118,50,100,95,49,95,50,47,82,101,108,117,59,115,101,113,117,101,110,116,105,97,108,95,49,47,99,111,110,118,50,100,95,49,95,50,47,97,100,100,59,115,101,113,117,101,110,116,105,97,108,95,49,47,99,111,110,118,50,100,95,49,95,50,47,99,111,110,118,111,108,117,116,105,111,110,59,115,101,113,117,101,110,116,105,97,108,95,49,47,99,111,110,118,50,100,95,49,95,50,47,82,101,115,104,97,112,101,0,0,0,0,4,0,0,0,1,0,0,0,95,0,0,0,8,0,0,0,64,0,0,0,90,247,255,255,0,0,0,1,20,0,0,0,36,0,0,0,36,0,0,0,12,0,0,0,148,0,0,0,4,0,0,0,255,255,255,255,95,0,0,0,8,0,0,0,64,0,0,0,68,247,255,255,115,0,0,0,115,101,113,117,101,110,116,105,97,108,95,49,47,100,101,112,116,104,119,105,115,101,95,99,111,110,118,50,100,95,49,47,82,101,108,117,59,115,101,113,117,101,110,116,105,97,108,95,49,47,100,101,112,116,104,119,105,115,101,95,99,111,110,118,50,100,95,49,47,97,100,100,59,115,101,113,117,101,110,116,105,97,108,95,49,47,100,101,112,116,104,119,105,115,101,95,99,111,110,118,50,100,95,49,47,100,101,112,116,104,119,105,115,101,59,0,4,0,0,0,1,0,0,0,95,0,0,0,8,0,0,0,64,0,0,0,26,248,255,255,0,0,0,1,20,0,0,0,36,0,0,0,36,0,0,0,11,0,0,0,120,0,0,0,4,0,0,0,255,255,255,255,97,0,0,0,10,0,0,0,64,0,0,0,4,248,255,255,87,0,0,0,115,101,113,117,101,110,116,105,97,108,95,49,47,99,111,110,118,50,100,95,49,47,82,101,108,117,59,115,101,113,117,101,110,116,105,97,108,95,49,47,99,111,110,118,50,100,95,49,47,97,100,100,59,115,101,113,117,101,110,116,105,97,108,95,49,47,99,111,110,118,50,100,95,49,47,99,111,110,118,111,108,117,116,105,111,110,59,0,4,0,0,0,1,0,0,0,97,0,0,0,10,0,0,0,64,0,0,0,166,249,255,255,0,0,0,1,20,0,0,0,212,1,0,0,10,0,0,0,0,0,0,9,224,1,0,0,252,253,255,255,8,0,0,0,40,1,0,0,36,0,0,0,0,0,0,0,0,0,0,0,0,0,0,0,0,0,0,0,0,0,0,0,0,0,0,0,0,0,0,0,0,0,0,0,0,0,0,0,0,0,0,0,0,0,0,0,0,0,0,0,0,0,0,0,0,0,0,0,0,0,0,0,0,0,0,0,0,0,0,0,0,0,0,0,0,0,0,0,0,0,0,0,0,0,0,0,0,0,0,0,0,0,0,0,0,0,0,0,0,0,0,0,0,0,0,0,0,0,0,0,0,0,0,0,0,0,0,0,0,0,0,0,0,0,0,0,0,0,0,0,0,0,0,0,0,0,0,0,0,0,0,0,0,0,0,0,0,0,0,0,0,0,0,0,0,0,0,0,0,0,0,0,0,0,0,0,0,0,0,0,0,0,0,0,0,0,0,0,0,0,0,0,0,0,0,0,0,0,0,0,0,0,0,0,0,0,0,0,0,0,0,0,0,0,0,0,0,0,0,0,0,0,0,0,0,0,0,0,0,0,0,0,0,0,0,0,0,0,0,0,0,0,0,0,0,0,0,0,0,0,0,0,0,0,0,0,0,0,0,0,0,0,0,0,0,0,0,0,0,0,0,0,0,0,0,0,0,0,0,0,0,0,0,0,0,0,0,0,0,0,0,0,0,0,0,0,0,0,0,0,36,0,0,0,170,216,169,61,231,20,131,60,84,101,166,60,104,114,115,60,5,45,162,60,30,202,145,60,140,185,166,60,68,201,149,60,248,70,188,60,17,86,130,60,125,249,135,60,168,25,80,60,158,4,143,60,160,237,173,60,204,74,192,60,89,76,161,60,95,214,160,60,55,110,139,60,11,181,154,60,27,120,128,60,175,29,211,60,160,158,193,60,141,118,143,60,244,14,150,60,249,127,112,60,72,12,231,60,180,157,143,60,251,109,175,60,92,152,140,60,124,56,141,60,65,8,138,60,90,72,157,60,209,24,149,60,124,181,142,60,197,128,180,60,182,59,164,60,18,0,0,0,116,102,108,46,112,115,101,117,100,111,95,113,99,111,110,115,116,49,0,0,2,0,0,0,36,0,0,0,64,0,0,0,170,251,255,255,0,0,0,1,32,0,0,0,48,3,0,0,9,0,0,0,0,0,0,9,60,3,0,0,12,0,12,0,0,0,0,0,8,0,4,0,12,0,0,0,8,0,0,0,8,2,0,0,64,0,0,0,0,0,0,0,0,0,0,0,0,0,0,0,0,0,0,0,0,0,0,0,0,0,0,0,0,0,0,0,0,0,0,0,0,0,0,0,0,0,0,0,0,0,0,0,0,0,0,0,0,0,0,0,0,0,0,0,0,0,0,0,0,0,0,0,0,0,0,0,0,0,0,0,0,0,0,0,0,0,0,0,0,0,0,0,0,0,0,0,0,0,0,0,0,0,0,0,0,0,0,0,0,0,0,0,0,0,0,0,0,0,0,0,0,0,0,0,0,0,0,0,0,0,0,0,0,0,0,0,0,0,0,0,0,0,0,0,0,0,0,0,0,0,0,0,0,0,0,0,0,0,0,0,0,0,0,0,0,0,0,0,0,0,0,0,0,0,0,0,0,0,0,0,0,0,0,0,0,0,0,0,0,0,0,0,0,0,0,0,0,0,0,0,0,0,0,0,0,0,0,0,0,0,0,0,0,0,0,0,0,0,0,0,0,0,0,0,0,0,0,0,0,0,0,0,0,0,0,0,0,0,0,0,0,0,0,0,0,0,0,0,0,0,0,0,0,0,0,0,0,0,0,0,0,0,0,0,0,0,0,0,0,0,0,0,0,0,0,0,0,0,0,0,0,0,0,0,0,0,0,0,0,0,0,0,0,0,0,0,0,0,0,0,0,0,0,0,0,0,0,0,0,0,0,0,0,0,0,0,0,0,0,0,0,0,0,0,0,0,0,0,0,0,0,0,0,0,0,0,0,0,0,0,0,0,0,0,0,0,0,0,0,0,0,0,0,0,0,0,0,0,0,0,0,0,0,0,0,0,0,0,0,0,0,0,0,0,0,0,0,0,0,0,0,0,0,0,0,0,0,0,0,0,0,0,0,0,0,0,0,0,0,0,0,0,0,0,0,0,0,0,0,0,0,0,0,0,0,0,0,0,0,0,0,0,0,0,0,0,0,0,0,0,0,0,0,0,0,0,0,0,0,0,0,0,0,0,0,0,0,0,0,0,0,0,0,0,0,0,0,0,0,0,0,0,0,0,0,0,0,0,0,0,0,0,0,0,0,0,0,0,0,0,0,0,0,0,0,0,0,0,0,0,0,0,0,0,0,0,0,0,0,0,0,0,0,0,0,0,0,0,0,0,0,0,0,0,0,0,0,0,0,0,64,0,0,0,184,97,225,60,190,80,45,59,114,66,110,60,155,21,153,60,31,93,244,60,206,11,48,61,163,151,31,61,78,33,244,60,146,243,8,61,233,125,202,60,33,52,198,60,131,239,45,61,119,90,242,60,227,203,41,61,123,254,209,60,109,19,207,60,102,21,115,60,63,250,2,61,178,40,106,61,177,229,251,60,108,35,73,61,201,132,190,60,150,111,248,60,68,177,8,61,148,143,212,60,8,74,241,60,134,111,247,60,186,24,120,60,217,75,223,60,221,99,190,60,126,105,69,61,42,227,36,61,238,57,19,61,151,83,26,61,215,187,239,60,86,67,133,61,78,223,201,60,169,137,81,61,17,176,213,60,8,45,113,61,174,18,1,61,239,175,51,61,247,36,12,61,196,83,33,61,9,39,237,60,212,221,11,61,34,161,222,60,70,33,173,60,250,46,19,61,44,255,112,61,91,74,5,61,113,101,59,61,66,86,23,61,13,197,195,60,155,166,33,59,22,178,76,61,178,200,91,60,187,177,183,60,240,153,27,61,80,119,43,61,250,187,153,60,18,18,8,61,26,76,255,60,125,91,165,60,17,0,0,0,116,102,108,46,112,115,101,117,100,111,95,113,99,111,110,115,116,0,0,0,4,0,0,0,64,0,0,0,1,0,0,0,1,0,0,0,64,0,0,0,122,254,255,255,0,0,0,1,16,0,0,0,16,0,0,0,8,0,0,0,28,0,0,0,252,253,255,255,15,0,0,0,97,114,105,116,104,46,99,111,110,115,116,97,110,116,54,0,1,0,0,0,64,0,0,0,178,254,255,255,0,0,0,1,16,0,0,0,16,0,0,0,7,0,0,0,28,0,0,0,52,254,255,255,15,0,0,0,97,114,105,116,104,46,99,111,110,115,116,97,110,116,53,0,1,0,0,0,64,0,0,0,234,254,255,255,0,0,0,1,16,0,0,0,16,0,0,0,6,0,0,0,28,0,0,0,108,254,255,255,15,0,0,0,97,114,105,116,104,46,99,111,110,115,116,97,110,116,52,0,4,0,0,0,1,0,0,0,3,0,0,0,3,0,0,0,64,0,0,0,46,255,255,255,0,0,0,1,16,0,0,0,16,0,0,0,5,0,0,0,28,0,0,0,176,254,255,255,15,0,0,0,97,114,105,116,104,46,99,111,110,115,116,97,110,116,51,0,1,0,0,0,36,0,0,0,0,0,22,0,28,0,24,0,23,0,16,0,12,0,8,0,0,0,0,0,0,0,7,0,22,0,0,0,0,0,0,1,20,0,0,0,20,0,0,0,4,0,0,0,0,0,0,2,28,0,0,0,4,255,255,255,15,0,0,0,97,114,105,116,104,46,99,111,110,115,116,97,110,116,50,0,1,0,0,0,2,0,0,0,186,255,255,255,0,0,0,1,16,0,0,0,16,0,0,0,3,0,0,0,28,0,0,0,60,255,255,255,15,0,0,0,97,114,105,116,104,46,99,111,110,115,116,97,110,116,49,0,4,0,0,0,64,0,0,0,3,0,0,0,3,0,0,0,1,0,0,0,0,0,22,0,24,0,20,0,0,0,16,0,12,0,8,0,0,0,0,0,0,0,7,0,22,0,0,0,0,0,0,1,16,0,0,0,16,0,0,0,2,0,0,0,28,0,0,0,152,255,255,255,14,0,0,0,97,114,105,116,104,46,99,111,110,115,116,97,110,116,0,0,1,0,0,0,64,0,0,0,0,0,22,0,28,0,24,0,0,0,20,0,16,0,12,0,0,0,0,0,8,0,7,0,22,0,0,0,0,0,0,1,20,0,0,0,40,0,0,0,40,0,0,0,1,0,0,0,68,0,0,0,4,0,0,0,255,255,255,255,99,0,0,0,12,0,0,0,1,0,0,0,4,0,4,0,4,0,0,0,30,0,0,0,115,101,114,118,105,110,103,95,100,101,102,97,117,108,116,95,107,101,114,97,115,95,116,101,110,115,111,114,58,48,0,0,4,0,0,0,1,0,0,0,99,0,0,0,12,0,0,0,1,0,0,0,5,0,0,0,96,0,0,0,68,0,0,0,40,0,0,0,20,0,0,0,4,0,0,0,216,255,255,255,25,0,0,0,0,0,0,25,204,255,255,255,9,0,0,0,12,0,0,0,0,0,0,9,244,255,255,255,40,0,0,0,0,0,0,40,12,0,12,0,11,0,0,0,0,0,4,0,12,0,0,0,4,0,0,0,0,0,0,4,12,0,16,0,15,0,0,0,8,0,4,0,12,0,0,0,3,0,0,0,5,0,0,0,0,0,0,3
};
unsigned int model_len = 16168;